<unk>	0
<s>	0
</s>	0
▁	-3.29413
.	-3.47926
..	-4.31227
이	-4.43566
▁영화	-4.49334
...	-4.54722
가	-4.73013
의	-4.73544
도	-4.79431
는	-4.87757
,	-5.01293
을	-5.03753
에	-5.08832
다	-5.14249
고	-5.14887
은	-5.21488
지	-5.26548
?	-5.32131
한	-5.4155
▁너무	-5.47957
!	-5.49419
를	-5.58886
▁정말	-5.6052
만	-5.62712
▁이	-5.68677
로	-5.70616
▁진짜	-5.79426
~	-5.80012
나	-5.80218
영화	-5.83432
게	-5.83896
어	-6.00099
과	-6.01982
기	-6.03958
라	-6.05979
리	-6.07206
네	-6.11725
점	-6.12614
아	-6.14646
인	-6.18467
서	-6.18873
하고	-6.19442
으로	-6.23601
▁안	-6.24339
▁잘	-6.2727
!!	-6.28385
요	-6.29445
▁1	-6.32723
▁왜	-6.3404
에서	-6.34462
들	-6.34658
와	-6.36017
....	-6.36627
▁그	-6.37223
▁아	-6.39325
▁더	-6.39379
▁이런	-6.40597
▁다	-6.42853
해	-6.43341
네요	-6.44579
스	-6.45739
▁수	-6.46379
자	-6.49804
하는	-6.50741
거	-6.52144
▁그냥	-6.52417
음	-6.55601
▁드라마	-6.59699
▁본	-6.59838
면	-6.6177
수	-6.61863
▁10	-6.63971
하	-6.65454
지만	-6.67937
함	-6.68225
니	-6.69197
▁평점	-6.6933
야	-6.70775
▁보고	-6.70943
대	-6.72529
시	-6.72969
▁연기	-6.73262
▁내	-6.76441
사	-6.77922
이다	-6.79067
▁좀	-6.81144
하게	-6.81257
▁한	-6.81486
하다	-6.82715
일	-6.83416
▁영화를	-6.84232
▁ᄏᄏ	-6.84414
▁최고	-6.84623
▁봤는데	-6.86427
▁이거	-6.86835
▁못	-6.87413
진	-6.87776
▁최고의	-6.87925
우	-6.87987
▁쓰레기	-6.90563
▁참	-6.91319
데	-6.91595
여	-6.91635
▁완전	-6.92586
보다	-6.94063
주	-6.94087
▁없는	-6.94121
미	-6.94315
임	-6.94768
안	-6.966
▁없다	-6.97034
▁이건	-6.97349
ᄏᄏ	-6.98099
▁내가	-6.98195
할	-6.98372
구	-6.98451
냐	-6.98479
▁스토리	-6.9942
는데	-6.99833
드	-6.99857
보	-6.99927
▁영화는	-7.003
▁2	-7.00755
!!!	-7.01051
▁영화가	-7.01821
▁개	-7.02086
성	-7.02419
듯	-7.03385
▁이게	-7.03991
들이	-7.04489
상	-7.05824
정	-7.05913
▁좋은	-7.06319
▁있는	-7.07539
신	-7.07562
장	-7.08187
▁나	-7.09043
치	-7.09526
해서	-7.09954
▁다시	-7.10086
까지	-7.10297
▁이렇게	-7.10905
^^	-7.11127
던	-7.11388
▁난	-7.11429
적	-7.12543
▁보는	-7.13614
~~	-7.14288
마	-7.15544
부	-7.15592
전	-7.15599
▁3	-7.16302
중	-7.16363
오	-7.17497
▁평점이	-7.17964
ᄏ	-7.17995
보고	-7.189
▁것	-7.19498
러	-7.19547
▁말	-7.20037
▁재밌게	-7.20052
려	-7.20154
건	-7.21592
▁역시	-7.22736
트	-7.23168
랑	-7.23316
1	-7.23462
개	-7.23462
질	-7.2366
;;	-7.25803
▁넘	-7.26194
화	-7.26555
히	-7.26877
때	-7.27382
▁작품	-7.27901
▁뭐	-7.27987
분	-7.28084
▁많이	-7.28173
비	-7.29213
▁지	-7.29812
▁보	-7.30198
용	-7.30954
▁볼	-7.30962
▁재미	-7.31197
▁오	-7.32406
년	-7.32458
세	-7.33087
그	-7.33145
내	-7.33342
▁전	-7.33619
인데	-7.34076
??	-7.3452
원	-7.35044
▁별로	-7.36299
2	-7.36651
▁하	-7.36658
적인	-7.36793
▁저	-7.37892
▁꼭	-7.38692
▁마지막	-7.39112
▁감동	-7.39144
▁또	-7.40259
소	-7.40762
했다	-7.41372
▁감독	-7.41535
▁ᄏᄏᄏ	-7.41983
▁무	-7.42758
▁하나	-7.43939
습니다	-7.44071
물	-7.44579
진짜	-7.44622
▁별	-7.45295
선	-7.45319
▁아깝다	-7.46086
것	-7.46254
▁생각	-7.47091
급	-7.47307
ᅲᅲ	-7.47321
▁시간	-7.47727
감	-7.47781
▁액션	-7.47859
식	-7.48681
같은	-7.48927
디	-7.49112
말	-7.49265
▁주	-7.49686
하지	-7.49883
라고	-7.50527
▁명작	-7.5129
어요	-7.51962
▁하는	-7.52254
▁가장	-7.52613
▁기대	-7.528
ᄏᄏᄏ	-7.5286
▁없고	-7.53319
본	-7.53973
▁그리고	-7.54471
▁이야기	-7.54662
입니다	-7.54706
무	-7.54713
더	-7.54889
'	-7.55521
▁무슨	-7.55608
좀	-7.56038
;	-7.56218
걸	-7.56383
영	-7.56641
▁지금	-7.56654
▁사	-7.57891
▁김	-7.57998
호	-7.58416
남	-7.58567
드라마	-7.58643
조	-7.58821
동	-7.58864
▁ᅲᅲ	-7.58885
▁보면	-7.59109
줄	-7.59224
편	-7.59287
란	-7.5959
너무	-7.59737
작	-7.59745
▁중	-7.5986
제	-7.59868
▁사랑	-7.60098
당	-7.6033
▁ᄏ	-7.60357
▁정	-7.60647
긴	-7.60902
없는	-7.61942
군	-7.62355
▁만든	-7.6255
▁한국	-7.62932
▁짱	-7.62988
▁아니	-7.64209
▁비	-7.64232
씨	-7.64311
이나	-7.64867
으면	-7.6517
심	-7.65306
▁미	-7.65374
유	-7.65415
부터	-7.65463
▁할	-7.65641
▁어	-7.65995
▁다른	-7.66045
▁일	-7.66065
▁처음	-7.66892
▁ᅳᅳ	-7.67281
ᅲ	-7.67422
)	-7.68094
있는	-7.69082
▁배우	-7.69233
라는	-7.6958
된	-7.69605
▁조	-7.70121
울	-7.70153
린	-7.70272
정말	-7.70592
모	-7.70771
▁좋아	-7.71046
▁와	-7.71286
연	-7.71498
▁말이	-7.71617
르	-7.71658
▁대	-7.7177
▁두	-7.72108
▁일본	-7.72372
▁유	-7.72508
▁느낌	-7.72528
▁마	-7.72719
▁자	-7.72773
3	-7.72792
바	-7.73172
에게	-7.73266
▁연출	-7.74087
▁좋다	-7.74137
운	-7.7434
▁영화다	-7.74603
▁끝까지	-7.75765
명	-7.75857
두	-7.76172
위	-7.76719
래	-7.78103
▁거	-7.78337
한다	-7.78545
크	-7.78555
레	-7.78606
▁내용	-7.78618
워	-7.78726
▁돈	-7.79684
살	-7.80455
간	-7.80732
▁기	-7.80974
ᅳᅳ	-7.81037
▁재밌다	-7.8143
,,	-7.81481
준	-7.81547
인지	-7.81878
▁신	-7.82135
난	-7.82145
▁ᄒᄒ	-7.8231
타	-7.82413
류	-7.82437
▁같은	-7.82518
노	-7.82769
인가	-7.82963
들의	-7.83131
▁봤다	-7.83158
▁있다	-7.83281
▁알	-7.83586
▁솔직히	-7.84341
잘	-7.84382
죠	-7.84709
▁시	-7.8476
▁봐도	-7.85152
길	-7.85488
▁때	-7.8558
판	-7.85968
▁뭔가	-7.86095
단	-7.86625
프	-7.86656
▁여자	-7.86885
▁대박	-7.8732
▁아주	-7.8761
생	-7.8777
▁코미디	-7.87846
▁구	-7.88046
▁재미있게	-7.8813
▁최악	-7.88314
연기	-7.88373
경	-7.88694
까	-7.89295
되는	-7.89761
▁제	-7.90061
민	-7.90279
▁소	-7.90444
었다	-7.90482
▁이걸	-7.90634
처럼	-7.907
번	-7.90752
저	-7.90826
합니다	-7.91179
▁'	-7.91354
재	-7.91472
하나	-7.91653
때문에	-7.92029
으	-7.92208
▁해	-7.92327
▁전혀	-7.92679
봤는데	-7.93072
▁같다	-7.93131
▁이영화	-7.93459
방	-7.93471
▁재미없다	-7.9367
▁내용이	-7.93696
▁모	-7.93907
발	-7.94099
▁장	-7.9421
했던	-7.94262
날	-7.94644
하지만	-7.94659
▁하지만	-7.94674
▁우	-7.94925
님	-7.94948
든	-7.95274
하네	-7.95472
없다	-7.9571
겨	-7.95727
▁대한	-7.95938
구나	-7.96126
엔	-7.96197
▁남	-7.96248
▁최악의	-7.96255
▁부	-7.96321
▁계속	-7.96426
티	-7.96681
이랑	-7.96915
▁사람	-7.96939
▁모두	-7.97006
희	-7.97211
면서	-7.9733
▁애	-7.97743
(	-7.97769
파	-7.97953
루	-7.97994
▁4	-7.98151
며	-7.98191
-	-7.98759
▁나오는	-7.98876
지는	-7.98947
림	-7.98989
▁아니라	-7.99346
▁반	-7.99469
▁많은	-7.9956
▁후	-8.002
터	-8.00347
▁그래도	-8.00578
~~~	-8.00843
하면	-8.00989
▁어떻게	-8.01003
▁만들어	-8.01277
▁줄	-8.0137
관	-8.01664
시간	-8.01724
▁보기	-8.0196
▁굿	-8.02166
10	-8.02752
▁스	-8.0283
▁아닌	-8.02949
이라	-8.032
박	-8.032
점도	-8.03416
▁내내	-8.03438
▁실망	-8.03781
▁않고	-8.04212
▁공포	-8.04438
▁딱	-8.04876
▁배우들	-8.04969
▁7	-8.05005
▁강	-8.05068
▁장면	-8.05262
버	-8.0532
피	-8.05369
▁끝	-8.05474
없이	-8.05557
들은	-8.05688
즈	-8.06389
▁연기가	-8.06702
▁아름다운	-8.06957
▁만드는	-8.07132
▁한번	-8.07161
▁5	-8.07368
▁아니다	-8.07393
▁우리	-8.07485
ᄒᄒ	-8.07615
▁이제	-8.07822
!!!!	-8.07883
▁되	-8.07987
▁추천	-8.08063
애	-8.08304
▁박	-8.0866
4	-8.09034
▁인생	-8.09242
▁8	-8.09274
차	-8.09302
▁모든	-8.09632
▁9	-8.0967
다니	-8.0976
▁듯	-8.09941
카	-8.10086
▁조금	-8.10169
국	-8.10497
o	-8.10522
점이	-8.10529
▁개봉	-8.11086
▁보다	-8.11139
▁남자	-8.11217
▁그런	-8.11733
▁기억	-8.11798
▁제일	-8.11887
♥	-8.11951
형	-8.11957
겠다	-8.12196
▁0	-8.12482
▁스릴러	-8.12697
▁전개	-8.12791
현	-8.12853
▁연기도	-8.12941
▁내용도	-8.1312
못	-8.13228
반	-8.13304
달	-8.13467
실	-8.13652
지도	-8.13732
▁요즘	-8.13827
▁보다가	-8.13908
짱	-8.14489
▁바	-8.14556
볼	-8.1477
져	-8.15306
▁싶다	-8.15444
▁남는	-8.15635
따	-8.15678
코	-8.1584
5	-8.16437
다가	-8.16644
ᄒ	-8.1666
▁피	-8.16805
▁근데	-8.16918
▁않는	-8.17057
▁건	-8.17211
보는	-8.17382
보면	-8.17414
하네요	-8.1751
적으로	-8.17553
ᅳ	-8.1766
▁음악	-8.17857
년대	-8.17971
공	-8.18156
▁이해	-8.18172
▁않은	-8.18198
망	-8.1826
▁시간이	-8.18519
▁불	-8.18543
▁감독이	-8.18657
▁주인공	-8.18668
▁속	-8.18743
▁노	-8.1879
한테	-8.19075
키	-8.19331
▁애니	-8.19335
되	-8.19615
▁나는	-8.19684
▁수준	-8.19875
▁이상	-8.19892
▁있	-8.19892
▁아까운	-8.20226
t	-8.20299
▁욕	-8.20529
▁반전	-8.20644
▁여운이	-8.20694
니까	-8.20837
▁심	-8.20861
▁재미도	-8.20967
생각	-8.2124
▁엄청	-8.21431
▁절대	-8.21513
▁재밌어요	-8.21767
어서	-8.21815
이라는	-8.21832
▁아직도	-8.2187
▁영화라고	-8.22206
문	-8.2225
왜	-8.22311
▁눈	-8.2237
▁OO	-8.22376
▁나름	-8.22451
이란	-8.22718
후	-8.22812
체	-8.23199
▁재밌	-8.23607
▁스토리가	-8.23796
▁배	-8.23846
▁때문에	-8.24128
▁좋고	-8.24486
인듯	-8.24517
석	-8.24633
▁날	-8.24956
죽	-8.25365
이고	-8.2579
▁걸	-8.2601
토	-8.26083
산	-8.26217
▁막장	-8.26264
;;;	-8.26349
니다	-8.26374
알	-8.26561
배	-8.26958
▁울	-8.27069
정도	-8.27182
▁표현	-8.27287
태	-8.27384
회	-8.27467
???	-8.27601
▁재	-8.27618
했는데	-8.27657
▁공포영화	-8.27716
였다	-8.27735
▁하고	-8.27784
▁오랜만에	-8.28055
▁현실	-8.28094
▁영화입니다	-8.28109
테	-8.28143
▁되는	-8.28147
▁제대로	-8.2822
참	-8.28274
▁ᄏᄏᄏᄏ	-8.28475
▁원	-8.28539
해요	-8.28841
▁아니고	-8.28992
▁예	-8.29491
▁진	-8.29598
▁봤습니다	-8.29619
매	-8.29753
▁진심	-8.29798
▁차라리	-8.29955
▁좋았다	-8.30361
▁뻔한	-8.30448
▁걍	-8.30598
속	-8.30875
▁스토리도	-8.31173
먹	-8.31214
것도	-8.318
없	-8.31818
▁도대체	-8.3188
넘	-8.31885
▁미국	-8.31914
포	-8.31962
7	-8.31974
▁지루한	-8.32114
▁영화의	-8.32394
▁봤던	-8.32401
▁연	-8.32492
점은	-8.32512
▁발	-8.32642
▁주는	-8.32708
▁나도	-8.32786
▁결말	-8.32819
▁나오	-8.33029
등	-8.33081
▁공감	-8.33107
▁최고다	-8.33161
▁영	-8.33257
▁쓰	-8.33287
▁제목	-8.33457
극	-8.33489
격	-8.33676
꺼	-8.33737
▁만들	-8.33771
▁지루하고	-8.33913
▁^^	-8.3397
양	-8.34012
▁멋진	-8.34019
배우	-8.34061
금	-8.34064
스토리	-8.34094
▁파	-8.34127
ᄏᄏᄏᄏ	-8.34209
▁감독의	-8.34276
▁20	-8.34538
▁캐릭터	-8.34556
▁공	-8.34576
감동	-8.34626
▁나온	-8.34677
평점	-8.34687
▁시리즈	-8.34693
예	-8.34721
뿐	-8.34838
▁B	-8.34909
▁정도	-8.34929
ᅮᅮ	-8.35026
▁ᅲ	-8.35144
e	-8.35219
▁우리나라	-8.35326
▁재밌는	-8.35366
▁성	-8.35417
던데	-8.3545
8	-8.35475
▁연기력	-8.35542
▁원작	-8.35595
▁여	-8.35637
▁대사	-8.35838
▁가슴	-8.35892
▁세	-8.35934
▁보면서	-8.36023
~!	-8.3615
▁눈물	-8.36238
역	-8.36302
▁초	-8.36343
하기	-8.36397
▁좋아하는	-8.36538
/	-8.36717
더라	-8.37056
려고	-8.37221
력	-8.37281
6	-8.37678
▁수작	-8.37751
릴	-8.37802
▁없음	-8.37813
▁긴장감	-8.37934
사람	-8.38066
▁몇	-8.38235
쳐	-8.3827
▁싶은	-8.38782
▁지루함	-8.38993
▁시나리오	-8.39065
해도	-8.39072
▁OOO	-8.39222
리는	-8.39223
▁재미가	-8.39658
▁가족	-8.40212
▁매력	-8.4049
봄	-8.40574
움	-8.40701
구만	-8.40727
,,,	-8.40792
a	-8.41039
▁머	-8.41126
법	-8.41129
른	-8.41216
▁기억에	-8.41238
▁졸작	-8.41246
▁괜찮은	-8.41277
▁영상	-8.41348
능	-8.41467
최고	-8.41541
▁인간	-8.41547
잡	-8.4155
▁않	-8.41776
이라고	-8.42109
▁보세요	-8.42122
▁이해가	-8.42158
을까	-8.42241
▁막	-8.42259
▁특히	-8.42499
▁기분	-8.42747
학	-8.42761
▁뭘	-8.42823
는게	-8.42958
▁마지막에	-8.42968
▁사람들	-8.42971
봤다	-8.42981
▁동	-8.43158
▁시작	-8.4327
▁허	-8.43315
▁영화에	-8.43367
녀	-8.43389
s	-8.43497
▁베	-8.43524
집	-8.4358
▁선	-8.43639
▁뭔	-8.43924
는거	-8.43928
▁배우들의	-8.44205
밖에	-8.4441
d	-8.44496
잼	-8.44671
그냥	-8.44775
근	-8.44827
절	-8.44893
▁알바	-8.44894
▁애니메이션	-8.44908
종	-8.45069
▁될	-8.45089
▁6	-8.45105
들을	-8.45144
았	-8.45169
▁지루하다	-8.45273
있다	-8.45538
행	-8.45691
▁후회	-8.46117
강	-8.46151
사랑	-8.4617
▁보는내내	-8.46599
▁함께	-8.4666
악	-8.46935
▁필요	-8.47431
라도	-8.47497
탄	-8.47694
▁그저	-8.47776
""	-8.47806
▁망	-8.47834
▁타	-8.48021
장면	-8.48028
케	-8.48064
▁노래	-8.48472
스트	-8.48487
않	-8.48559
락	-8.4872
▁사실	-8.48723
▁강추	-8.48866
설	-8.48925
대로	-8.48951
너	-8.49151
▁된	-8.49235
감독	-8.4959
만큼	-8.49605
교	-8.4961
불	-8.49704
이런	-8.49974
봐도	-8.50084
승	-8.50248
▁매	-8.50416
중에	-8.50421
▁극장에서	-8.50522
돈	-8.50643
▁오늘	-8.50728
창	-8.50731
된다	-8.50829
천	-8.50842
난다	-8.50924
었는데	-8.50965
▁봤어요	-8.51081
통	-8.51306
▁소재	-8.51327
▁맞	-8.51364
▁없	-8.51713
머	-8.51769
주는	-8.52018
▁봤	-8.52216
있	-8.52564
▁좋아요	-8.52582
▁큰	-8.52658
재밌	-8.527
▁개인적으로	-8.53219
투	-8.53441
▁재밌음	-8.53548
▁못한	-8.53694
▁코믹	-8.53785
슨	-8.5405
▁만화	-8.54192
론	-8.54232
맨	-8.54401
▁결국	-8.54557
▁최	-8.54645
▁재밋	-8.54846
▁영화로	-8.54928
▁캐스팅	-8.55263
점대	-8.55291
이야	-8.55618
▁어떤	-8.55642
▁들	-8.55679
작품	-8.55748
▁억지	-8.55901
계	-8.55919
▁졸	-8.55942
▁상	-8.56068
▁잼	-8.56151
▁없이	-8.56235
▁몰입도	-8.56444
하면서	-8.56449
▁인	-8.56524
건지	-8.56676
▁보게	-8.56696
했	-8.56961
▁한국영화	-8.5729
▁제발	-8.57449
▁살	-8.57646
ᅮ	-8.57659
▁더빙	-8.57686
▁생각이	-8.57832
▁모르겠다	-8.57846
▁웃	-8.57987
김	-8.5811
▁봐야	-8.58415
이네	-8.58629
뻔	-8.58794
▁감동이	-8.5882
▁아이	-8.58837
재미	-8.58839
열	-8.59046
했음	-8.59115
기도	-8.59481
▁극	-8.59637
쓰레기	-8.59755
보단	-8.59775
봤	-8.59783
좋	-8.5983
▁유치	-8.59864
▁아무리	-8.60034
▁안되는	-8.60052
아니	-8.60091
는지	-8.60204
▁연기는	-8.60217
▁ᄒ	-8.60341
초	-8.60435
▁별점	-8.6049
업	-8.60508
평	-8.60541
버린	-8.60568
▁존나	-8.60626
▁지루	-8.6067
이상	-8.60818
▁호	-8.60962
▁매우	-8.61176
봐	-8.61372
베	-8.61438
▁분위기	-8.61582
었	-8.61738
▁차	-8.61751
글	-8.61821
점을	-8.61934
인줄	-8.61988
▁죽	-8.621
▁치	-8.62109
▁행복	-8.62166
이네요	-8.62167
▁총	-8.62177
담	-8.62251
입	-8.62379
뭐	-8.62419
름	-8.62832
싶	-8.62979
액션	-8.63215
돌	-8.63496
치는	-8.63574
▁예술	-8.63575
g	-8.63596
▁ᅮᅮ	-8.63702
▁마음이	-8.63754
기는	-8.6377
▁좋	-8.64215
군요	-8.64337
만들	-8.64454
증	-8.64744
짐	-8.64752
끼	-8.64828
영화는	-8.64997
▁눈물이	-8.65002
▁준	-8.65252
았다	-8.65351
씬	-8.6545
▁똥	-8.65452
▁걸작	-8.65608
▁않는다	-8.65683
었던	-8.65779
▁장난	-8.65919
병	-8.66098
슬	-8.66137
▁보지	-8.66216
▁얼마나	-8.66312
▁잠	-8.66409
▁사람이	-8.66733
갈	-8.66787
▁길	-8.66847
r	-8.66958
▁존	-8.67182
▁같	-8.6723
환	-8.67235
이지만	-8.67269
▁미친	-8.67378
▁영화네요	-8.67448
m	-8.67561
▁당	-8.67623
+	-8.67694
▁마음	-8.67963
▁너무나	-8.67972
▁위한	-8.67975
▁그만	-8.68023
브	-8.68151
하며	-8.68311
▁있고	-8.6845
▁기억이	-8.68461
쓰	-8.68486
▁재밌고	-8.68508
▁하나도	-8.68722
났	-8.68736
▁"	-8.6874
▁한다	-8.68768
▁않다	-8.6878
▁높	-8.68791
▁같이	-8.68845
▁물	-8.69132
나는	-8.69208
i	-8.69237
▁그렇게	-8.69293
▁입	-8.69358
▁출연	-8.69609
▁영화중	-8.6962
께	-8.69644
이었다	-8.69672
▁가슴이	-8.69875
▁위	-8.69946
▁토	-8.70115
약	-8.70172
▁재미없음	-8.7019
수가	-8.70543
▁단	-8.70555
▁따라	-8.70583
▁느낌이	-8.70771
▁것이	-8.71066
▁결말이	-8.71073
▁꽤	-8.71082
▁정신	-8.7113
온	-8.71204
완전	-8.71224
▁애들	-8.71296
▁재미있다	-8.71363
▁적	-8.71395
기에	-8.71428
▁내용은	-8.71517
▁로맨스	-8.71633
>	-8.71778
▁없어	-8.71907
▁웃기	-8.7224
▁쓰레기영화	-8.72301
▁외	-8.72316
직	-8.72453
칠	-8.72477
▁훨씬	-8.72549
▁대체	-8.72571
느낌	-8.72577
▁엔딩	-8.7262
▁잔잔한	-8.72729
에도	-8.72786
내용	-8.72842
▁누가	-8.7287
▁실	-8.7301
▁-	-8.73105
새	-8.7318
▁없었다	-8.73256
▁알고	-8.73526
될	-8.73551
▁평	-8.73625
권	-8.73736
언	-8.73837
색	-8.73921
▁카	-8.74031
▁갈수록	-8.74098
거야	-8.74181
▁어설픈	-8.74282
▁음	-8.74414
▁허접	-8.74517
향	-8.74617
▁백	-8.74721
별	-8.7483
라면	-8.74861
혀	-8.74893
건가	-8.74895
▁그나마	-8.74988
막	-8.74997
▁감	-8.75183
▁있을	-8.75342
▁노잼	-8.75353
빠	-8.75414
▁감동적인	-8.75675
▁웃음	-8.75817
▁간만에	-8.75903
왕	-8.7616
졌	-8.76185
친	-8.76387
▁화	-8.76568
었음	-8.76759
▁있었	-8.7684
범	-8.76892
▁경	-8.76992
▁주연	-8.77145
다고	-8.7725
▁성룡	-8.77662
▁다큐	-8.77857
▁발연기	-8.78055
잇	-8.78087
▁재미있는	-8.78087
짜	-8.78143
잖아	-8.7822
▁명	-8.78252
소리	-8.78341
플	-8.78352
▁밖에	-8.78378
▁중국	-8.78401
기를	-8.78609
▁영화관에서	-8.78628
▁잡	-8.78633
▁생각보다	-8.78639
나요	-8.78646
거지	-8.78745
▁감동도	-8.79079
▁들어	-8.79114
백	-8.79157
훈	-8.79336
▁너	-8.79455
보니	-8.79521
▁몰	-8.7954
순	-8.79635
수준	-8.79915
▁뭐야	-8.80136
짓	-8.80198
▁시즌	-8.80199
▁아쉽다	-8.80246
9	-8.804
▁구성	-8.80462
▁올	-8.80473
▁전쟁	-8.80487
0	-8.80603
올	-8.80711
땜에	-8.80857
▁볼만한	-8.80927
▁의미	-8.81011
▁설정	-8.81065
외	-8.81099
였	-8.81198
찍	-8.81279
길래	-8.81288
나오는	-8.81315
▁보여주는	-8.8134
▁재미없	-8.81366
▁야	-8.8142
이지	-8.81544
편이	-8.81575
이건	-8.81581
하는데	-8.81648
년이	-8.81765
결	-8.8184
▁이딴	-8.81865
▁추	-8.81925
이거	-8.81933
▁그래서	-8.81993
라서	-8.82
표	-8.82312
▁약	-8.82392
침	-8.82405
▁싶	-8.8242
▁안되	-8.82498
됨	-8.82531
▁위해	-8.82575
▁변	-8.82648
▁열	-8.82804
여자	-8.82888
치고	-8.82946
해야	-8.83013
커	-8.83182
▁""	-8.83314
줘	-8.83369
▁따	-8.83475
▁많	-8.83572
메	-8.83719
▁재밌네요	-8.83727
▁스릴	-8.83902
▁편	-8.83943
광	-8.83945
▁오래	-8.84148
했지만	-8.8417
맞	-8.84195
듯한	-8.84506
▁문제	-8.84595
▁당시	-8.8469
▁모습	-8.84738
k	-8.84885
월	-8.84899
▁점수	-8.84922
▁코	-8.84986
었어요	-8.85092
y	-8.85141
같	-8.85202
▁힘들	-8.85215
▁봐	-8.85223
레이	-8.85336
▁맘에	-8.85485
▁아무	-8.85728
▁재미는	-8.85743
▁약간	-8.8587
▁영화였다	-8.861
~!!	-8.86172
욕	-8.86203
있고	-8.86348
▁작가	-8.86388
주의	-8.86395
▁연기를	-8.86522
합	-8.86663
▁관객	-8.86765
▁번	-8.8681
????	-8.86841
▁다음	-8.86974
존	-8.86976
추	-8.87
리고	-8.8702
엇	-8.87124
▁같아요	-8.87153
할수	-8.8716
▁재미있	-8.87236
▁재미없는	-8.87547
▁나왔	-8.87665
▁살아	-8.87753
▁첨	-8.87788
놈	-8.87942
▁좋은데	-8.87979
습	-8.8824
재미있	-8.88251
린다	-8.88368
▁재미있어요	-8.88434
▁자체	-8.88446
받	-8.88475
▁손	-8.88816
▁진정한	-8.88838
좋아	-8.88841
▁어느	-8.88872
출	-8.88898
▁영상미	-8.88927
▁CG	-8.89022
어야	-8.89079
p	-8.89135
각	-8.89316
▁힘	-8.89335
더니	-8.89469
▁잼있	-8.89575
▁바로	-8.89589
D	-8.89628
▁만들었	-8.89633
▁글	-8.89754
또	-8.89763
스러운	-8.89849
▁다들	-8.8987
▁전부	-8.8994
채	-8.90218
▁엄마	-8.90225
▁평가	-8.90265
▁네이버	-8.90306
▁뿐	-8.90415
▁30	-8.90469
적이	-8.90469
련	-8.90557
덕	-8.90802
느	-8.90936
▁아님	-8.91009
▁언제	-8.9115
▁배경	-8.9119
ᄋ	-8.91218
b	-8.91341
영화가	-8.91524
했어요	-8.91552
기만	-8.91611
진다	-8.91693
▁비교	-8.91825
▁스토리는	-8.91827
▁멜로	-8.91901
▁감성	-8.9206
블	-8.92173
▁얘기	-8.92266
▁버	-8.92308
이야기	-8.9243
끝	-8.92643
션	-8.92669
혜	-8.92684
▁중간에	-8.92814
▁갈	-8.92856
료	-8.92903
▁ᅳ	-8.92931
퍼	-8.93005
▁뒤	-8.93133
만한	-8.93176
"	-8.9324
척	-8.93256
기대	-8.93326
그리고	-8.93578
세요	-8.93663
▁제작	-8.93714
▁높은	-8.93721
겠지	-8.93867
▁꿀잼	-8.93984
▁생각하게	-8.94015
▁뭐지	-8.9414
나오	-8.94148
▁소리	-8.94234
▁악	-8.94269
▁얼굴	-8.94271
▁여주인공	-8.9428
편은	-8.94392
▁준다	-8.94455
해라	-8.94476
▁천	-8.94503
없음	-8.94506
없고	-8.94623
▁상당히	-8.94662
슴	-8.94667
~~~~	-8.94862
▁간	-8.94977
▁게	-8.95001
겠	-8.95007
▁뭐냐	-8.95049
빈	-8.95129
▁감동을	-8.95218
▁판타지	-8.95236
▁아이들	-8.95372
▁종	-8.95509
▁생각을	-8.95545
▁초딩	-8.95636
▁뻔	-8.95698
록	-8.95776
▁주고	-8.95833
▁영화임	-8.95967
다는	-8.96036
♡	-8.96118
▁메	-8.96199
영화를	-8.96257
놓고	-8.96352
▁존재	-8.9644
▁나올	-8.96453
▁찾아	-8.965
눈	-8.96575
였음	-8.96689
▁딸	-8.96833
▁몰입	-8.96883
▁봤지만	-8.96889
▁볼만	-8.96918
▁나와서	-8.97104
▁그러	-8.97135
▁산	-8.97258
▁혼자	-8.9728
▁배우들이	-8.97427
▁있을까	-8.97467
▁깨	-8.97481
이라도	-8.97572
▁봐서	-8.97951
▁줄거리	-8.97973
▁낮은	-8.98012
으나	-8.98029
▁영화인데	-8.98311
▁각본	-8.98491
▁여기	-8.98506
_	-8.98515
들어	-8.98563
▁충격	-8.98631
▁이영화를	-8.98759
▁이런영화	-8.98825
먼	-8.98826
▁포스터	-8.98829
청	-8.98999
▁그대로	-8.99028
▁된다	-8.99271
아서	-8.99355
탈	-8.99402
▁추억	-8.99478
할때	-8.99481
▁봤음	-8.99485
▁마음에	-8.99521
▁대해	-8.99555
▁상황	-8.99671
복	-8.99858
라니	-8.99893
▁않았	-8.99926
f	-8.9994
h	-8.99987
▁비디오	-8.9999
▁꿈	-9.00021
햇	-9.00024
웃	-9.00136
▁친구	-9.00165
l	-9.00189
▁거의	-9.00248
찬	-9.00344
-_-	-9.007
▁데	-9.00972
▁좋은영화	-9.00982
▁요	-9.0101
▁감정	-9.01202
낸	-9.01355
▁끝나	-9.01373
▁것을	-9.01384
▁부족	-9.0149
처	-9.01546
▁좋네요	-9.01576
▁비해	-9.01651
▁나이	-9.01665
▁옛날	-9.01726
▁분	-9.01803
▁어디서	-9.0196
해지는	-9.02041
▁저런	-9.02058
숙	-9.02062
▁어디	-9.02081
삼	-9.02153
▁너무너무	-9.02194
▁대단한	-9.02214
▁그리	-9.02491
대박	-9.0252
별로	-9.02557
▁먹	-9.02629
▁절	-9.0274
봐서	-9.02821
▁드	-9.02905
▁떨	-9.0291
▁질	-9.02927
▁아직	-9.0293
▁궁금	-9.03023
▁포	-9.03077
최악	-9.03166
▁자기	-9.03227
▁굉장히	-9.03298
▁목소리	-9.03302
▁복	-9.03316
▁TV	-9.03455
▁사람들이	-9.03517
▁90	-9.03592
구요	-9.03838
▁만	-9.03851
앗	-9.03901
▁b	-9.03924
▁암	-9.03966
▁같은데	-9.03968
▁어릴때	-9.04035
▁감독님	-9.04051
년전	-9.04242
▁헐	-9.04336
OO	-9.04344
▁만점	-9.04369
▁훌륭한	-9.04393
에는	-9.04591
▁몸	-9.04601
▁영화도	-9.04668
▁봐라	-9.04795
▁평점을	-9.04803
▁다시봐도	-9.04952
▁했는데	-9.05144
써	-9.05203
분들	-9.05234
u	-9.05342
▁생	-9.05352
겠지만	-9.05487
▁머리	-9.05513
▁극장판	-9.05533
▁패	-9.05778
▁돌아	-9.05954
을때	-9.05993
▁짜증	-9.06018
▁담	-9.06024
한거	-9.06036
▁아까움	-9.06037
보기	-9.06164
▁집중	-9.06265
것이	-9.06318
▁이름	-9.06337
독	-9.06354
시대	-9.06453
술	-9.06554
봐야	-9.06558
▁뭐가	-9.06579
잔	-9.06584
▁대단	-9.06618
▁팬	-9.06651
▁장르	-9.06701
▁감동적이	-9.06796
같이	-9.06835
▁봄	-9.06937
▁처음부터	-9.06973
:	-9.0703
땐	-9.0705
귀	-9.07313
간다	-9.0735
스럽다	-9.07368
남자	-9.0755
▁ᄍᄍ	-9.07583
▁사회	-9.07647
재밋	-9.0765
목	-9.07717
▁주제	-9.0773
조차	-9.07814
다시	-9.07819
에선	-9.07853
▁따뜻한	-9.08015
는건	-9.08043
▁보니	-9.08365
▁놀	-9.08448
▁것도	-9.08479
들도	-9.0848
▁재밌는데	-9.08505
▁맛	-9.08585
▁더럽게	-9.08665
건데	-9.0868
▁항상	-9.08733
▁낫다	-9.08748
▁장면이	-9.08761
하시	-9.0883
정도로	-9.08842
▁역사	-9.09012
▁아버지	-9.0902
▁흥행	-9.09067
▁원작을	-9.09095
▁있지만	-9.09116
지루	-9.09144
▁영화라	-9.09168
▁첫	-9.0933
였는데	-9.09452
곡	-9.09542
▁삼	-9.09602
이라면	-9.09659
다면	-9.09696
▁없네	-9.09712
▁순	-9.09738
▁빨리	-9.09822
듬	-9.09884
▁누구	-9.09923
▁그런지	-9.09941
▁했다	-9.10029
▁화면	-9.1003
▁새로운	-9.10075
▁제가	-9.1033
셨	-9.10391
▁정도로	-9.10431
▁슬픈	-9.10496
거냐	-9.10513
▁연출력	-9.10522
링	-9.10721
▁터	-9.10748
▁현	-9.10748
▁이것도	-9.1075
▁안된다	-9.10756
^	-9.10802
굿	-9.10806
▁여배우	-9.10846
▁그닥	-9.1085
만든	-9.10879
쯤	-9.11025
▁가는	-9.11094
▁있어	-9.11135
이라니	-9.11188
▁삼류	-9.1123
▁크	-9.11274
▁재밌었다	-9.1128
▁말도	-9.11282
ᄂ	-9.1139
▁숨	-9.11632
▁생각해	-9.11746
▁빠져	-9.11827
런	-9.11891
▁하다	-9.11925
근데	-9.12044
츠	-9.1207
품	-9.12206
같다	-9.12349
허	-9.12367
좋은	-9.12368
지금	-9.12404
튼	-9.12417
겟	-9.12464
▁하지	-9.12543
들에게	-9.12581
▁지루해	-9.12591
했으면	-9.12656
▁돌	-9.12678
▁100	-9.1269
일까	-9.12699
익	-9.12705
▁예상	-9.12708
▁작	-9.12844
마지막	-9.12918
▁점점	-9.12952
▁계	-9.12968
▁충분히	-9.13115
으니	-9.1313
듣	-9.13144
▁없을	-9.1315
▁레	-9.13369
ᄉ	-9.13409
껏	-9.13438
▁있어서	-9.13441
억	-9.13559
▁실화	-9.13575
▁흥미진진	-9.13666
▁새	-9.13668
▁두번	-9.13676
▁좋겠다	-9.13689
▁나의	-9.1376
졌다	-9.13954
거다	-9.14008
▁초반	-9.14009
▁잘못	-9.14018
▁어린	-9.14084
▁양	-9.14102
시리즈	-9.14136
▁왕	-9.14153
▁(	-9.14167
▁세계	-9.14277
명작	-9.14366
그런	-9.14388
▁통	-9.14409
▁윤	-9.14463
기가	-9.1453
필	-9.14547
▁그러나	-9.14703
한영화	-9.14726
▁성우	-9.14736
엉	-9.14819
▁흠	-9.15059
처음	-9.1521
했습니다	-9.15376
부분	-9.15717
▁병맛	-9.15951
▁한마디로	-9.1602
십	-9.16085
c	-9.16206
▁만족	-9.16207
징	-9.16207
한데	-9.16257
▁의도	-9.16317
▁엄청난	-9.16334
▁낮	-9.16371
곳	-9.16434
내가	-9.1644
답	-9.16564
▁교훈	-9.16662
▁좋았어요	-9.16788
럽	-9.16924
영화중	-9.16965
▁재미없어	-9.17093
배우들	-9.17189
▁짜	-9.17194
스럽	-9.17239
염	-9.17298
전개	-9.17312
▁달	-9.17351
렸다	-9.17519
▁휴	-9.17637
주세요	-9.17712
▁예전에	-9.17747
................	-9.1781
본다	-9.17878
▁좋음	-9.17964
괴	-9.18032
하냐	-9.1822
▁없어서	-9.18334
▁못하는	-9.18337
것같다	-9.18341
이에요	-9.18455
효	-9.18469
▁있었다	-9.1847
실망	-9.18502
▁바라	-9.18559
버리	-9.18647
립	-9.1867
▁유치한	-9.18722
윤	-9.18752
하여	-9.18818
팬	-9.1882
▁웃긴	-9.18884
사람들	-9.18911
▁찍	-9.18916
나서	-9.19037
규	-9.19103
철	-9.19137
뜨	-9.19157
▁갑자기	-9.19211
▁돈주고	-9.19221
▁되어	-9.19303
▁저는	-9.19477
나라	-9.19527
▁나와	-9.19535
봐라	-9.19599
을듯	-9.19619
▁대작	-9.19638
에요	-9.19796
센	-9.19834
▁이영화는	-9.19982
▁완벽한	-9.19993
▁바보	-9.20078
▁알게	-9.20131
▁집	-9.2014
묘	-9.20164
▁떠	-9.2023
적이고	-9.20231
보다는	-9.20369
이게	-9.20448
▁으	-9.205
시키	-9.20815
▁영화보다	-9.20913
렌	-9.20941
▁M	-9.2096
▁쳐	-9.21054
년도	-9.21093
여서	-9.21203
예요	-9.21214
씩	-9.21274
▁망작	-9.2129
▁나온다	-9.21428
▁일본영화	-9.21455
▁설	-9.21467
▁사람은	-9.21479
혹	-9.21506
웃음	-9.21566
▁그래픽	-9.21579
▁시절	-9.21603
▁앞	-9.21642
틀	-9.21654
▁아쉬운	-9.21687
만으로도	-9.2169
▁시대	-9.21691
▁자체가	-9.21731
▁예고편	-9.21737
싸	-9.21778
▁극장	-9.21789
▁봤네요	-9.2183
년에	-9.21896
▁역	-9.21912
▁무조건	-9.22061
▁질질	-9.22162
▁어렸을때	-9.22216
▁힘든	-9.22361
▁여주	-9.22362
▁관	-9.22373
흑	-9.22418
이냐	-9.22443
▁지금까지	-9.22509
변	-9.22513
▁써	-9.22544
▁선택	-9.22562
것을	-9.22716
▁tv	-9.22746
많	-9.22769
곤	-9.22779
킹	-9.22814
아깝다	-9.22864
▁보여주	-9.22946
▁이정도	-9.22956
맛	-9.22967
재미없	-9.2299
▁믿	-9.23158
연출	-9.23252
▁유머	-9.23287
▁재밌어	-9.2329
였던	-9.23335
▁무서운	-9.23519
쉬	-9.23555
▁평점에	-9.2358
함이	-9.2378
▁더욱	-9.24029
▁진실	-9.24042
▁저질	-9.24044
▁반전이	-9.24045
야지	-9.24061
▁아쉽	-9.24069
리가	-9.24084
▁재미있고	-9.24134
말이	-9.24148
얼	-9.24148
▁모르고	-9.24152
도록	-9.24184
성이	-9.24213
▁믿고	-9.24234
▁자꾸	-9.24303
추천	-9.2442
▁알았	-9.24639
▁도저히	-9.24723
아이	-9.24878
속에	-9.24891
하니	-9.24942
거리	-9.25015
노잼	-9.25029
▁등	-9.25041
▁감독은	-9.25048
▁우연히	-9.2513
▁볼수	-9.25135
--	-9.25174
x	-9.25496
▁알았다	-9.25499
▁보는데	-9.25554
▁코메디	-9.25659
▁스타일	-9.25666
▁나쁜	-9.25701
한번	-9.25742
▁개연성	-9.25754
겁	-9.25775
▁리	-9.25787
네여	-9.25796
▁80	-9.25861
▁불륜	-9.25897
▁방	-9.259
▁허무	-9.25938
▁찾	-9.25998
▁원래	-9.26007
주인공	-9.26009
음악	-9.26046
▁만들지	-9.26086
▁디	-9.26095
놈들	-9.26113
갑	-9.26121
▁ᄒᄒᄒ	-9.26224
▁티	-9.26236
▁지루하	-9.26245
많이	-9.26267
▁책	-9.26268
▁괜히	-9.26277
보는데	-9.26336
걸까	-9.26357
▁주인공이	-9.26462
▁그때	-9.26596
꼭	-9.26607
▁리메이크	-9.26668
재밌게	-9.26752
▁순간	-9.26954
밀	-9.2699
▁댓글	-9.27005
▁전형적인	-9.27088
▁별루	-9.27187
▁해도	-9.27194
▁투	-9.27273
*	-9.27356
견	-9.27466
▁문	-9.27486
▁없네요	-9.27517
▁이상한	-9.27562
좋다	-9.27643
휴	-9.27783
▁좀비	-9.27803
반전	-9.27831
▁천재	-9.27908
되고	-9.2791
완	-9.27939
▁재미없고	-9.28077
▁프랑스	-9.28133
풍	-9.28186
역시	-9.28192
활	-9.28219
▁느	-9.28229
싱	-9.28252
모르	-9.28405
▁액션영화	-9.28415
▁작품성	-9.28449
n	-9.2858
▁속편	-9.28616
▁SF	-9.28655
꼬	-9.28706
▁태	-9.28711
▁느끼	-9.28732
▁이런거	-9.28838
▁노력	-9.2892
▁사랑을	-9.28984
하던	-9.29091
▁없었	-9.29095
▁가지고	-9.29174
오는	-9.29192
▁싸	-9.29199
점준다	-9.29224
였습니다	-9.29228
▁일단	-9.29264
▁아오	-9.2927
쩌	-9.29347
▁부족한	-9.29367
▁전작	-9.29392
함을	-9.29423
육	-9.29448
▁돈이	-9.29458
▁화이팅	-9.29554
자들	-9.29592
▁여운	-9.29633
보다가	-9.29737
▁아닌가	-9.29826
끔	-9.29829
패	-9.2985
힌	-9.29862
▁상상	-9.29882
벌	-9.29882
놀	-9.29893
▁아까워	-9.30162
▁먹먹	-9.30201
▁킬링타임용	-9.30269
▁청춘	-9.30275
졸	-9.30276
딱	-9.30326
거나	-9.30329
▁재밌었어요	-9.30352
▁참고	-9.30484
▁감상	-9.30499
▁괜찮	-9.30545
▁죽음	-9.30559
놓	-9.3058
▁소설	-9.30644
축	-9.30657
▁골	-9.30749
▁신기	-9.30751
▁액션도	-9.30771
▁우울	-9.30871
점짜리	-9.30894
▁아이들이	-9.309
▁기대하고	-9.31082
~^^	-9.31193
▁대단하다	-9.31241
로운	-9.31297
페	-9.31365
▁느끼게	-9.31384
▁귀신	-9.31399
▁해서	-9.31462
▁금	-9.31499
▁전개가	-9.31535
줬	-9.3159
▁후반부	-9.31663
▁대한민국	-9.31785
▁개그	-9.3179
▁평점은	-9.32018
▁알아	-9.32045
▁완성도	-9.32086
도없고	-9.32312
▁있는데	-9.32339
▁끝내	-9.3238
▁왜이리	-9.32549
▁안보	-9.32632
▁마무리	-9.32645
▁세상	-9.32806
▁만나	-9.32818
떨	-9.32832
됐	-9.32899
▁영화였습니다	-9.33078
▁느낄	-9.33082
▁것은	-9.33139
E	-9.33161
▁모르는	-9.33165
▁아무것도	-9.33202
▁있음	-9.3345
▁억지로	-9.33468
왔	-9.33506
▁언	-9.33513
킬	-9.33578
스타	-9.33592
▁유치하고	-9.33593
려서	-9.33598
▁안나오	-9.3379
ᅲᅲᅲ	-9.33828
▁연출이	-9.33916
▁이런걸	-9.3392
▁사람들은	-9.33999
최	-9.34022
시절	-9.34109
그래도	-9.34225
▁나만	-9.34302
▁명작이다	-9.34416
▁않을	-9.34494
▁미화	-9.34832
@	-9.34853
봣	-9.34923
▁화려한	-9.34951
▁그것	-9.34996
▁온	-9.35156
어도	-9.35242
▁ost	-9.35283
▁티비	-9.35296
▁최악이다	-9.35382
▁됐	-9.35452
인거	-9.35631
▁졸라	-9.35668
준다	-9.35679
▁귀여운	-9.35724
▁매력적인	-9.35796
▁알았는데	-9.35839
하긴	-9.35858
▁독	-9.35913
지고	-9.35967
▁엉성	-9.36003
드는	-9.36044
하자	-9.36089
▁짜증나	-9.36117
애니	-9.36125
잉	-9.36131
벨	-9.3614
;;;;	-9.36185
▁편집	-9.36213
▁둘	-9.36328
▁아들	-9.36345
▁성장	-9.36367
▁잘만든	-9.36389
▁지금도	-9.3639
▁지루하지	-9.36462
들과	-9.36595
고싶다	-9.36643
▁까	-9.36683
▁가치	-9.36817
▁귀	-9.36821
▁이리	-9.36828
▁이유	-9.36831
▁흥미	-9.36844
▁좋았음	-9.36913
▁싶어	-9.36916
▁뭔지	-9.36973
▁상영	-9.36999
▁로맨틱	-9.37
릭	-9.37001
▁그래	-9.37093
▁작품이	-9.37095
랄	-9.37113
하세요	-9.37168
났다	-9.37387
하는거	-9.37435
▁아빠	-9.37457
▁좋았습니다	-9.37508
최고의	-9.37525
▁수준이	-9.37589
▁목	-9.37597
▁그랬	-9.37619
▁처음으로	-9.3766
랬	-9.37677
황	-9.37699
▁삶	-9.37803
▁교	-9.37833
했고	-9.37877
리스	-9.37903
▁리얼	-9.37904
▁회	-9.37923
것이다	-9.37936
▁내인생	-9.37966
을텐데	-9.38003
▁맥	-9.38045
▁설명	-9.3806
▁했	-9.38073
▁진부한	-9.38105
▁자연	-9.38127
▁해준	-9.38137
▁비슷한	-9.38164
됬	-9.38232
감이	-9.38339
낮	-9.38475
마저	-9.38535
▁유쾌한	-9.38544
▁불편	-9.38575
▁이쁘	-9.38609
▁부분	-9.38631
▁슬	-9.38631
▁프로	-9.3877
▁복수	-9.38783
▁느껴	-9.38882
▁인간의	-9.3889
▁상상력	-9.38899
▁그게	-9.38974
▁시간낭비	-9.38979
는걸	-9.38981
되어	-9.39063
▁왠지	-9.39071
T	-9.39125
▁끌	-9.3914
지않는	-9.39143
널	-9.39204
가서	-9.39371
▁허접한	-9.39378
▁괴	-9.39388
▁쓴	-9.39433
▁방송	-9.39476
로서	-9.39499
짝	-9.39579
코미디	-9.39612
결말	-9.39646
강추	-9.39662
▁어이없	-9.39731
영화다	-9.39741
▁합니다	-9.39789
애들	-9.39825
마다	-9.3989
▁이번	-9.39894
▁완벽	-9.39973
틴	-9.40057
앙	-9.40078
w	-9.40086
▁이후	-9.4009
벽	-9.4009
▁-_-	-9.40109
▁ᄏᄏᄏᄏᄏ	-9.40267
▁보고나서	-9.40269
▁수가	-9.40371
▁중에	-9.40415
▁배우가	-9.40428
▁인정	-9.40433
ᅲᅲᅲᅲ	-9.40518
▁게임	-9.40546
가지	-9.40662
▁지금봐도	-9.40685
▁이야기를	-9.40731
,,,,	-9.40732
봉	-9.40738
▁과거	-9.40742
셔	-9.40849
자가	-9.40901
▁깊은	-9.41008
멋	-9.41015
▁형	-9.41052
▁저도	-9.41077
▁이미	-9.41093
▁왜이렇게	-9.41163
시켜	-9.41164
알바	-9.41267
▁이런게	-9.41404
령	-9.41416
▁잘봤습니다	-9.41423
춘	-9.41449
닝	-9.41463
▁겁나	-9.41485
▁밑에	-9.415
▁영화중에	-9.41534
▁만들었다	-9.41548
였어요	-9.41624
지않은	-9.41657
▁감사	-9.41684
닥	-9.41732
는것	-9.41856
다운	-9.4186
롭	-9.41869
&	-9.4192
▁영웅	-9.41944
▁지나	-9.42005
▁살인	-9.42063
▁결혼	-9.42128
▁늘	-9.42175
동안	-9.42199
▁자유	-9.42207
▁훨	-9.4229
▁처	-9.42339
웠	-9.42339
에겐	-9.42399
▁어린이	-9.42405
뒤	-9.42422
전에	-9.42473
▁명작이	-9.42529
▁바람	-9.42529
▁여성	-9.42578
▁니	-9.42599
인이	-9.42677
ᄀ	-9.42698
▁아름답다	-9.42699
있게	-9.42829
풀	-9.42854
▁소재는	-9.42897
해주는	-9.42922
딩	-9.42947
빨	-9.43063
▁신선	-9.4308
▁굳	-9.43103
픈	-9.43116
쾌	-9.43198
▁앞으로	-9.43292
수록	-9.43325
▁나에게	-9.43376
없어	-9.43384
▁것이다	-9.43472
봤음	-9.4349
▁중반	-9.43498
엿	-9.43544
인간	-9.43721
때마다	-9.43925
족	-9.43966
▁C	-9.44048
▁감동적이고	-9.44238
▁유쾌	-9.44253
송	-9.44304
▁잔인하	-9.4432
스런	-9.44439
▁관람	-9.44495
▁이러	-9.44581
▁갑	-9.44789
▁전편	-9.44955
가족	-9.44962
▁클	-9.45006
▁촬영	-9.4502
▁키	-9.45046
▁깊이	-9.45176
▁멋있	-9.45189
▁느껴지는	-9.45265
▁아놔	-9.45279
눈물	-9.45281
▁임	-9.45342
▁같네요	-9.45533
▁해주는	-9.4566
놓은	-9.45686
▁역대	-9.45739
▁각	-9.45751
▁창	-9.45792
▁만드	-9.45894
▁그림	-9.45903
작가	-9.4592
▁보고싶	-9.45944
▁노출	-9.46037
재미없다	-9.46057
갔	-9.46123
▁흐	-9.46136
▁분명	-9.46208
보세요	-9.46349
옥	-9.46362
▁않았다	-9.46493
안되	-9.46525
▁비슷	-9.46555
▁인물	-9.46585
▁메세지	-9.46607
▁슬프다	-9.46776
홍	-9.4692
▁똑같	-9.47024
▁않음	-9.47067
▁맞는	-9.47117
▁짱짱	-9.47119
▁어찌	-9.47137
버렸다	-9.47233
▁감사합니다	-9.47266
책	-9.47316
▁특유의	-9.47355
▁분들	-9.47429
▁평론가	-9.47458
▁s	-9.47498
팅	-9.47503
▁인상	-9.47529
▁아니지만	-9.47554
▁황당	-9.47572
▁듯한	-9.4763
▁낭비	-9.47646
▁동화	-9.47728
▁보고싶다	-9.47856
▁답	-9.47868
아닌	-9.47944
웅	-9.48024
ᄃ	-9.4804
▁보지마세요	-9.48045
나옴	-9.48098
누	-9.4812
▁말고	-9.48139
세계	-9.48143
▁비추	-9.4817
이제	-9.48338
암	-9.48371
▁싫어	-9.48408
▁19	-9.48531
▁웃겨	-9.48536
▁보지마	-9.48573
▁슬프	-9.48575
▁스토리에	-9.48579
▁진행	-9.48591
킨	-9.48603
▁좋았는데	-9.48646
▁보여준	-9.48795
었으면	-9.48805
시간이	-9.48845
▁한계	-9.48867
▁사랑이	-9.48884
▁생각나	-9.48987
려는	-9.49024
▁법	-9.49077
▁확	-9.49174
▁요소	-9.4918
ᄒᄒᄒ	-9.49301
팔	-9.49372
▁긴	-9.49413
이면	-9.49516
깔	-9.49518
▁현재	-9.49584
소재	-9.49591
▁입니다	-9.49602
만으로	-9.49612
▁액션이	-9.49748
▁ᄉᄇ	-9.49837
▁이야기가	-9.49842
▁빠지	-9.49844
유치	-9.49866
▁꼬	-9.4987
▁급	-9.49902
▁좋았	-9.49924
량	-9.49993
ᄅ	-9.49995
▁글쎄	-9.50022
▁예쁜	-9.50027
▁먼저	-9.50053
▁광	-9.50079
▁넘어	-9.50107
▁등장	-9.50135
▁성인	-9.50189
사람이	-9.50193
▁특	-9.50217
던가	-9.50229
▁권	-9.50262
▁있다는	-9.50277
▁독특한	-9.50291
▁아름답고	-9.50304
▁취향	-9.50344
쪽	-9.50396
겠네	-9.50408
▁잼없	-9.50466
떡	-9.50517
▁표정	-9.50523
▁너무나도	-9.50563
▁이영화가	-9.50612
▁떠나	-9.50624
▁모습이	-9.50638
▁그녀	-9.50653
보면서	-9.50733
든다	-9.50762
었습니다	-9.50823
▁장면은	-9.50833
골	-9.50885
응	-9.50928
▁시청률	-9.50953
▁하면	-9.50979
거같다	-9.50983
압	-9.51009
빡	-9.51017
무슨	-9.51046
▁빈	-9.51174
거임	-9.51181
폭	-9.51333
▁어색한	-9.51345
▁소름	-9.51362
충	-9.51403
▁여전히	-9.51552
▁어릴적	-9.51654
▁재밌습니다	-9.51736
▁매력이	-9.51787
언니	-9.51842
▁ᅮ	-9.51859
▁눈을	-9.51884
▁....	-9.51935
▁귀엽고	-9.51971
분이	-9.51973
득	-9.51981
▁황	-9.51994
▁전체적으로	-9.52042
▁본다	-9.52106
or	-9.52114
▁성공	-9.52127
▁신선한	-9.52179
▁젤	-9.52197
▁풀어	-9.5222
재밌어요	-9.52226
▁나라	-9.52311
했을	-9.5232
짜리	-9.52355
▁범죄	-9.52434
쿠	-9.52522
껄	-9.52532
▁스케일	-9.52535
▁지난	-9.52536
모습	-9.52564
성을	-9.52641
▁저예산	-9.52644
▁친	-9.52644
▁알바들	-9.52649
▁마음을	-9.52699
▁남주	-9.52783
욱	-9.52872
친구	-9.52872
▁어이없는	-9.52892
▁커	-9.5301
=	-9.53014
▁OST	-9.53078
▁잼있게	-9.53101
▁좋았고	-9.53121
람	-9.53226
줌	-9.53226
▁이젠	-9.53335
▁단순	-9.53343
들아	-9.53381
텐데	-9.53469
▁받아	-9.53496
끼리	-9.5355
롱	-9.53555
해준	-9.53572
▁답답	-9.53611
한듯	-9.5363
▁얼	-9.53688
▁사이	-9.5373
▁처음이다	-9.53824
▁재미있음	-9.53896
되지	-9.53906
▁ᄃᄃ	-9.53916
▁그렇고	-9.53945
▁무섭	-9.54036
마음	-9.54036
▁되었	-9.54053
손	-9.54069
P	-9.5407
▁섹시	-9.54073
ᄍᄍ	-9.54139
일뿐	-9.54185
▁일상	-9.54222
▁싫다	-9.54247
▁이어	-9.54265
▁정치	-9.54308
내는	-9.54335
재밌다	-9.54359
▁남는다	-9.54361
면서도	-9.5437
%	-9.54386
▁봤었는데	-9.54491
찌	-9.54559
▁추억의	-9.54572
턴	-9.54589
다른	-9.54614
▁눈이	-9.54647
▁애들이	-9.54655
확	-9.54696
▁15	-9.54761
▁재밌었음	-9.54787
▁아깝	-9.54866
▁않아	-9.54869
드리	-9.54925
▁있었던	-9.54953
이렇게	-9.54975
만들어	-9.55026
▁한편	-9.55028
▁취	-9.55046
잼있	-9.55103
으며	-9.55128
취	-9.55141
클	-9.55158
▁경찰	-9.55159
▁물론	-9.55181
▁관심	-9.55185
▁후반	-9.55207
남는	-9.55276
버리고	-9.55282
▁기분이	-9.55424
▁알수	-9.55473
▁어쩌	-9.55507
▁꺼	-9.55543
없네	-9.55579
▁멋지다	-9.55588
왔다	-9.55698
▁받	-9.55715
▁마라	-9.55797
▁세상에	-9.558
▁돌려	-9.55825
스가	-9.55831
내요	-9.55839
▁나를	-9.55842
주고	-9.55958
ᄆ	-9.56159
▁그럭저럭	-9.56159
▁빼	-9.5616
특히	-9.56168
▁확실히	-9.56194
▁별로다	-9.56207
▁여자들	-9.56209
▁재밌었	-9.5623
쇼	-9.56247
무섭	-9.56247
▁재밌었는데	-9.56328
▁밀	-9.56332
▁근	-9.56338
▁전달	-9.5644
▁모르겠	-9.56583
셈	-9.56706
만화	-9.56723
▁감탄	-9.56742
▁당신	-9.56784
▁cg	-9.56857
▁연기력이	-9.56869
촌	-9.56918
▁A	-9.57005
▁드는	-9.57029
영상	-9.57032
나온	-9.57148
몰	-9.5715
▁돋보	-9.57171
렉	-9.57216
땅	-9.5722
오빠	-9.57225
▁다소	-9.57228
▁와닿	-9.57247
엄	-9.57259
둘	-9.57331
지마라	-9.57401
▁같음	-9.57541
하는게	-9.57546
▁서로	-9.57599
버려	-9.57708
▁보는게	-9.57722
급영화	-9.57743
▁실제	-9.57925
▁사극	-9.57947
▁이것	-9.58024
더군요	-9.58062
▁미래	-9.58063
코드	-9.58094
▁보시길	-9.58128
나와	-9.58189
▁주인공들	-9.58201
드라	-9.5823
▁잊혀지지	-9.58293
▁무엇보다	-9.58364
▁있나	-9.58464
점주는	-9.58469
▁호러	-9.58512
▁시원	-9.58531
▁기대를	-9.58549
▁빨	-9.58564
▁몰입감	-9.58716
룡	-9.58781
j	-9.58833
하라	-9.58877
▁조폭	-9.58884
▁그런가	-9.58918
▁놓	-9.58921
▁짜증나는	-9.5893
▁끝나고	-9.58942
깨	-9.58966
짜증	-9.59045
▁루	-9.5906
▁접	-9.59095
것은	-9.59204
일이	-9.59244
20	-9.59251
▁그런데	-9.59277
▁재미없네	-9.59292
▁아닐까	-9.59316
▁오히려	-9.59377
▁관계	-9.5939
▁봐야할	-9.59399
▁홍	-9.5943
▁아니면	-9.595
▁같습니다	-9.59528
▁재밋게	-9.59541
▁트	-9.59556
C	-9.59585
냥	-9.59595
▁재밌네	-9.59606
▁여자가	-9.59612
▁나왔으면	-9.59629
▁아저씨	-9.59655
▁고전	-9.5968
▁어렸을	-9.59696
▁순수한	-9.5977
념	-9.59781
보이	-9.59805
▁꼴	-9.59817
▁킬링타임	-9.59853
▁아닌데	-9.59861
▁I	-9.59884
꼽	-9.59896
O	-9.59897
▁표절	-9.59946
▁추천합니다	-9.60093
방송	-9.60171
▁삶을	-9.60199
▁찍은	-9.602
▁음악이	-9.60209
었지만	-9.60225
할듯	-9.60275
▁용	-9.60287
순간	-9.60331
▁좋을	-9.60362
▁캐	-9.60366
▁이하	-9.60434
▁볼거리	-9.60438
▁이연걸	-9.60474
▁슬픔	-9.60476
▁가능	-9.60482
흘	-9.60525
▁카메라	-9.60594
▁액션은	-9.60609
번째	-9.60632
르는	-9.60673
▁스토리와	-9.60681
A	-9.60695
▁했지만	-9.60705
▁아닌듯	-9.60726
▁민	-9.60755
따위	-9.60804
아주	-9.60855
있음	-9.60949
▁싫	-9.6095
▁나가	-9.60963
▁대충	-9.60966
▁청	-9.60974
좌	-9.61024
▁짠	-9.61043
▁살짝	-9.6105
▁화려	-9.61106
있어	-9.61129
▁독립영화	-9.61147
하다니	-9.61173
나올	-9.61179
▁이정도면	-9.61224
수도	-9.61266
▁티비에서	-9.61267
쓴	-9.61303
영환	-9.61308
▁영화관	-9.61334
▁보이는	-9.61382
an	-9.61385
인의	-9.61451
돼	-9.6158
뿌	-9.61581
누나	-9.61588
▁출	-9.61591
제목	-9.61661
▁잊	-9.61705
새끼	-9.61806
▁용서	-9.61877
▁시선	-9.61956
▁부분이	-9.61984
▁필요없는	-9.6199
▁짧	-9.62019
인것	-9.62067
▁벌	-9.621
퇴	-9.62117
▁볼때마다	-9.62226
▁평생	-9.62235
▁고민	-9.62256
와서	-9.62259
했는지	-9.62289
▁누	-9.6237
던지	-9.62387
▁표	-9.62432
총	-9.62434
슬퍼	-9.62535
한다면	-9.62572
▁역시나	-9.62629
▁받았	-9.62671
▁평범한	-9.62678
000	-9.62728
▁범인	-9.62733
▁몇번을	-9.62779
▁보기엔	-9.62789
니깐	-9.62995
▁무섭다	-9.63034
▁참신	-9.63036
북	-9.63054
▁아련	-9.63065
▁낫	-9.63087
▁긴장	-9.63256
▁힐링	-9.63266
ᄏᄏᄏᄏᄏᄏᄏᄏᄏᄏᄏᄏᄏᄏᄏᄏ	-9.63296
▁해주	-9.63306
▁몸매	-9.63311
▁연애	-9.63388
▁끝난	-9.63517
좋아요	-9.63518
▁죽는	-9.63588
▁몇번	-9.63608
▁난다	-9.63631
▁재미를	-9.63737
▁하게	-9.63768
▁외국	-9.63912
▁이유가	-9.63913
▁가볍게	-9.63979
년전에	-9.64061
탕	-9.64078
는건지	-9.64092
▁설레	-9.64096
▁드라마가	-9.64112
▁있다면	-9.6415
▁딴	-9.64176
▁철	-9.64296
▁프로그램	-9.64303
율	-9.64337
▁필요없다	-9.64349
▁멀	-9.64358
▁중간중간	-9.64389
덤	-9.64406
▁느낀	-9.64412
!!!!!	-9.64465
더만	-9.64496
▁갖	-9.64497
따라	-9.64502
▁슬프고	-9.64528
▁씨	-9.64654
▁볼만함	-9.64675
▁홍콩	-9.64707
인생	-9.64726
▁재미있네요	-9.64783
▁벗	-9.64863
▁소름돋	-9.64919
콩	-9.64925
▁함	-9.64962
▁보이	-9.64976
▁가끔	-9.65016
온다	-9.65052
▁볼수록	-9.65084
▁떨어지는	-9.65207
▁없나	-9.65278
▁모습을	-9.65306
죄	-9.65417
▁뮤지컬	-9.65425
▁디즈니	-9.65559
보게	-9.65574
▁춤	-9.65613
▁생각나는	-9.65649
어진	-9.65716
▁어색	-9.65805
으면서	-9.65855
▁무지	-9.65862
▁빛	-9.65905
▁연기와	-9.66031
▁봤다가	-9.66033
▁볼만하다	-9.66076
▁S	-9.66079
▁재미있었다	-9.66121
ᅡ	-9.6614
▁폭	-9.66142
▁지루해서	-9.6616
시다	-9.66176
▁어이가	-9.6623
▁국	-9.66266
▁팔	-9.66318
▁사건	-9.66382
스의	-9.66393
▁화가	-9.6641
아님	-9.66437
▁통해	-9.66445
져서	-9.6646
▁시걸	-9.66492
험	-9.6659
▁틀	-9.66598
▁그의	-9.66608
점준	-9.66619
았던	-9.66639
▁아깝지	-9.66764
▁행동	-9.66776
▁언제나	-9.66828
▁먼	-9.66838
▁현실성	-9.66849
▁제목이	-9.66893
▁사랑과	-9.6691
▁십	-9.66966
ᄒᄒᄒᄒ	-9.66995
걸로	-9.66996
▁되게	-9.67011
▁+	-9.67018
그러	-9.67092
괜찮	-9.67132
~~~~~~~	-9.67193
뜻	-9.67203
하면서도	-9.67219
하구	-9.67222
▁안하고	-9.67232
생겼	-9.6725
홀	-9.67305
▁초반에	-9.67306
▁압권	-9.67313
▁소재를	-9.67334
▁훌륭	-9.67361
▁과연	-9.67375
▁그다지	-9.67394
▁괴물	-9.67588
에서는	-9.67593
했어	-9.67717
랜	-9.67726
▁병	-9.67749
▁나서	-9.67773
▁보았	-9.67851
▁다르	-9.67854
▁희망	-9.67869
항	-9.67901
폰	-9.67904
되네요	-9.67914
▁마치	-9.68028
▁스토리를	-9.68104
▁예전	-9.68109
타임	-9.68123
▁붙	-9.68142
▁군대	-9.682
봤어요	-9.6821
ᄏᄏᄏᄏᄏ	-9.6821
시고	-9.68245
봐요	-9.68253
하는지	-9.68332
▁엉성한	-9.68412
M	-9.6847
슈	-9.68483
쏘	-9.68496
나고	-9.68509
말고	-9.68512
▁현대	-9.68531
▁무서워	-9.68537
▁좋았던	-9.68616
감독이	-9.68628
했네	-9.68632
.......	-9.68635
▁비극	-9.68696
먹고	-9.68769
생활	-9.68779
까진	-9.68815
▁썩	-9.68821
▁<	-9.6887
▁합	-9.68923
▁능력	-9.68934
웠다	-9.68952
▁그들의	-9.69062
웃기	-9.69065
ᄇ	-9.69087
뉴	-9.69098
잃	-9.69159
흔	-9.6927
▁뒷	-9.69336
▁풍	-9.69377
▁결	-9.69388
▁풀	-9.69435
▁볼만하	-9.69439
흐	-9.69501
▁만들어진	-9.69541
끄	-9.69641
값	-9.69701
갓	-9.69701
삭	-9.69701
ᄃᄃ	-9.6972
▁어쩔	-9.69754
있네	-9.69774
▁연기에	-9.698
▁읽	-9.69801
진심	-9.6988
▁팬이	-9.69928
오글	-9.69983
in	-9.70027
머리	-9.70042
▁재밋다	-9.70057
▁맨	-9.70064
▁c	-9.70112
N	-9.70176
끌	-9.70227
▁에로	-9.7025
▁덜	-9.70258
▁못하고	-9.70356
▁감동과	-9.70374
아깝	-9.70413
▁높다	-9.70419
▁죄	-9.70438
▁묻	-9.70482
▁진심으로	-9.7051
봣는데	-9.70548
▁든다	-9.70561
상을	-9.70614
▁공감이	-9.70621
함과	-9.70717
한게	-9.70909
낼	-9.70917
첨	-9.70928
▁눈빛	-9.70934
S	-9.70953
한건	-9.70956
았는데	-9.70969
▁미드	-9.70984
쳤	-9.71012
▁사람을	-9.71018
▁올리	-9.71038
▁있지	-9.71071
▁옛날에	-9.71113
▁우정	-9.71147
▁나오고	-9.71167
▁이건뭐	-9.71203
한국	-9.71267
▁달리	-9.71279
▁오버	-9.71279
기분	-9.71282
▁심리	-9.71298
기엔	-9.71325
▁찍어	-9.71326
▁그럼	-9.71407
내용이	-9.71438
▁영화냐	-9.71444
▁중간	-9.71448
연기가	-9.71449
밑	-9.7148
▁드라마를	-9.71495
▁개판	-9.71502
▁영화이다	-9.71505
굴	-9.71513
R	-9.7153
▁섹스	-9.71535
▁종교	-9.71577
▁펑펑	-9.71627
높	-9.71643
▁브	-9.71733
프로	-9.71767
▁사는	-9.71789
▁전에	-9.71802
느라	-9.71884
▁하는데	-9.7193
▁헛	-9.71946
▁운	-9.71949
▁실패	-9.71959
▁믿을	-9.71991
▁소녀	-9.72017
▁해피엔딩	-9.7203
▁월	-9.72051
엘	-9.72144
힐	-9.72147
▁리뷰	-9.72157
▁해야	-9.72288
할까	-9.72298
▁좋습니다	-9.72327
ᄏᄏᄏᄏᄏᄏᄏᄏ	-9.72366
▁제작진	-9.72378
▁메시지	-9.7259
받고	-9.72604
▁영화보고	-9.72646
▁뜨	-9.72676
▁good	-9.7277
(?)	-9.7277
▁시사회	-9.72801
영화의	-9.72821
♥♥	-9.72861
스릴러	-9.72934
▁죽을	-9.73083
▁다큐멘터리	-9.73132
▁자신	-9.73168
▁가서	-9.73233
▁허술	-9.73233
것만	-9.73234
시킨	-9.73315
탁	-9.73355
댄	-9.73394
먹는	-9.73505
▁사랑스러운	-9.73511
아까움	-9.73592
▁12	-9.73605
시는	-9.73622
▁내용을	-9.7363
▁페	-9.73638
더라구요	-9.73702
▁지루할	-9.73755
▁질리지	-9.738
지마	-9.73852
▁다행	-9.73854
막장	-9.73867
봤던	-9.73903
▁더이상	-9.73949
▁남기	-9.73961
▁영화지만	-9.73981
재밌음	-9.74
틈	-9.74023
▁싸구려	-9.74023
▁퀄리티	-9.74043
▁뛰어난	-9.74052
▁없지만	-9.74121
빵	-9.74158
믿	-9.74181
▁같아	-9.74213
▁d	-9.74255
하는것	-9.74262
지않고	-9.74327
▁안됨	-9.74339
▁유치하다	-9.74371
re	-9.74377
나와서	-9.74442
▁송	-9.74488
▁봤으면	-9.74505
인가요	-9.74509
학생	-9.74545
▁포기	-9.74617
평점이	-9.74641
▁기대안하고	-9.74657
▁찡	-9.74741
▁분노	-9.74758
▁이쁜	-9.74814
님의	-9.74851
▁남아	-9.74855
▁그린	-9.74881
▁채	-9.7489
▁빠	-9.74918
▁ᅲᅲᅲ	-9.74918
볼만	-9.74923
▁굳이	-9.74941
▁올해	-9.74949
▁봣	-9.75101
▁말로	-9.75117
▁사랑하는	-9.75202
협	-9.75231
▁잔잔하고	-9.75299
▁무서웠	-9.75305
겟다	-9.75305
▁w	-9.75319
▁생애	-9.75364
▁나중에	-9.75389
▁고생	-9.75428
▁이거보고	-9.75457
▁어른	-9.75502
▁개인	-9.7551
기억	-9.75549
많은	-9.75592
........	-9.75612
찾	-9.75634
!!!!!!!!!	-9.7564
공포	-9.75678
▁멋	-9.75703
▁낚	-9.75741
▁어제	-9.75773
편보다	-9.75849
▁반전도	-9.75861
▁흘러	-9.75898
▁탄탄한	-9.75927
▁왜케	-9.75928
▁열심히	-9.75934
▁인기	-9.75953
▁음악도	-9.75986
설정	-9.76015
에서도	-9.76015
▁드럽게	-9.76022
쁘	-9.7603
▁끼	-9.76056
가슴	-9.76079
▁보고싶은	-9.76118
▁"""	-9.76178
캐	-9.76189
뻐	-9.76189
한다는	-9.76201
▁또한	-9.76208
▁그렇다	-9.76233
▁킬링타임용으로	-9.76254
째	-9.76257
▁웃기고	-9.76276
이유	-9.76284
되서	-9.76375
▁스타	-9.76413
▁동물	-9.76431
▁필	-9.76546
▁찍었	-9.76613
▁불쾌	-9.76619
▁포장	-9.7677
▁40	-9.7685
▁처음엔	-9.76866
좋고	-9.76909
er	-9.7694
세기	-9.76972
▁유치함	-9.77035
명이	-9.77064
안에	-9.77076
▁열정	-9.77085
▁배우의	-9.77178
▁비주얼	-9.77228
▁삶의	-9.77251
▁방금	-9.77274
▁여러	-9.77323
혼	-9.77333
"""	-9.77359
▁자막	-9.77365
▁인생의	-9.77373
▁소재가	-9.77375
▁아직까지	-9.77412
▁아나	-9.77454
무비	-9.77464
▁시시	-9.77484
내용도	-9.77521
딸	-9.77537
▁아는	-9.77567
표현	-9.77591
▁할말이	-9.77682
하겠	-9.77695
▁죽어	-9.77831
줄이야	-9.77855
헌	-9.77882
▁밋밋	-9.77882
▁채널	-9.77891
하려고	-9.7794
나게	-9.78015
▁말할	-9.7802
▁다시한번	-9.78025
▁평이	-9.78071
▁히	-9.78114
▁게이	-9.78135
▁귀엽	-9.78223
▁헤	-9.78294
필요	-9.78379
면에서	-9.78383
영화라고	-9.78386
워서	-9.78451
속에서	-9.78481
▁쓰래기	-9.78488
이해	-9.78488
ᄏᄏᄏᄏᄏᄏᄏᄏᄏ	-9.78496
`	-9.78539
▁쵝오	-9.7854
▁엘	-9.78541
▁니콜	-9.78551
▁이제야	-9.78565
▁빌	-9.7867
케이	-9.78763
식이	-9.78771
▁역할	-9.78772
▁자신의	-9.78834
B	-9.78896
중에서	-9.78965
개봉	-9.78999
▁기본	-9.79
것같	-9.79005
▁주인공의	-9.79005
중의	-9.79027
▁푹	-9.79028
▁느끼는	-9.791
자는	-9.79155
▁폭력	-9.79166
했나	-9.79173
솔	-9.792
멘	-9.79201
▁명품	-9.79235
▁행	-9.79248
▁;;	-9.79279
▁맘	-9.79407
가지고	-9.79429
▁괜찮았	-9.79433
대사	-9.7948
▁결과	-9.79496
▁사랑에	-9.79497
접	-9.79508
얘기	-9.79513
▁생각없이	-9.79534
▁했던	-9.79535
스러움	-9.79589
쩔	-9.79608
//	-9.79621
▁만든다	-9.79783
▁올라	-9.79852
빼고	-9.79875
▁베스트	-9.79951
▁중요한	-9.80003
▁식상	-9.80012
▁잭	-9.80036
▁느와르	-9.80067
▁소재로	-9.80143
11	-9.80162
▁칼	-9.80176
▁저렇게	-9.80512
▁쩐다	-9.80528
▁견자단	-9.8054
▁아름다움	-9.8054
▁매력적이	-9.80544
▁에휴	-9.80577
99	-9.8062
▁영화에서	-9.80699
티비	-9.8077
연기도	-9.80833
▁연출도	-9.80877
▁몰입이	-9.80919
V	-9.80961
젤	-9.80985
스터	-9.81007
였지만	-9.81012
▁만큼	-9.81028
하려	-9.81045
▁낮아서	-9.81053
틱	-9.81209
텔	-9.81215
▁로그인	-9.81216
▁전기세	-9.81217
▁나머지	-9.81223
▁높아	-9.81249
▁최근	-9.8125
▁악역	-9.81275
▁생각한다	-9.8128
▁퍼	-9.81304
계속	-9.81309
으론	-9.8135
▁안타깝다	-9.81456
st	-9.81456
젠	-9.81503
잠	-9.8158
▁영화에요	-9.81595
사람은	-9.81609
자의	-9.81616
▁환상	-9.81655
▁쇼	-9.81782
형님	-9.81879
▁있네요	-9.81893
]	-9.81895
▁시트콤	-9.81896
▁헐리우드	-9.81896
컷	-9.81896
▁벌써	-9.81911
▁통쾌	-9.81913
식으로	-9.81919
어지는	-9.82014
▁남을	-9.82067
▁핵	-9.82068
▁울었다	-9.82086
▁꽝	-9.82124
▁웬	-9.82142
▁의심	-9.82174
ᅲᅮ	-9.82197
▁생각합니다	-9.82287
▁과정	-9.82385
안되는	-9.82497
긴한데	-9.82511
콜	-9.82567
릿	-9.82569
▁죄다	-9.82572
▁문화	-9.82577
멸	-9.8258
▁어려운	-9.82581
▁의외로	-9.82581
▁시대를	-9.82616
▁가진	-9.82625
력이	-9.82663
이며	-9.82699
▁죽여	-9.827
▁망한	-9.8273
▁단순한	-9.8282
▁나옴	-9.82831
늘	-9.82838
▁아침	-9.83062
▁쫌	-9.83095
얻	-9.83119
▁이유는	-9.83163
▁젊은	-9.83208
▁f	-9.83234
뛰	-9.83255
▁끝나는	-9.83256
▁되었다	-9.8326
▁청소년	-9.8327
▁그려	-9.83273
장난	-9.83293
▁완	-9.83298
▁폴	-9.83304
▁재미있었어요	-9.83346
현실	-9.83348
▁가득	-9.8338
▁코난	-9.83386
▁의리	-9.83395
▁긴장감도	-9.83398
들만	-9.83403
도아니고	-9.83415
전쟁	-9.83504
웃겼	-9.83558
▁출연진	-9.83596
▁여기서	-9.83756
▁안되고	-9.83811
넣	-9.83817
▁우와	-9.83826
려면	-9.83885
▁발로	-9.83916
혁	-9.83921
흡	-9.83944
▁직	-9.83948
▁짝퉁	-9.83965
▁흐름	-9.83992
꾸	-9.84055
▁70	-9.8406
▁샤	-9.84062
▁T	-9.84082
▁영국	-9.84114
▁남녀	-9.84115
하려는	-9.84129
만드는	-9.84132
▁광고	-9.8415
았습니다	-9.84176
▁힘들다	-9.84202
▁둘다	-9.84256
용으로	-9.84262
▁내려	-9.84332
그렇	-9.84355
하셨	-9.84408
하지도	-9.84411
▁짓	-9.8444
▁늘어	-9.84446
▁차이	-9.84451
▁산으로	-9.8447
▁이쁘고	-9.84484
물이	-9.84498
캐릭터	-9.84555
착	-9.84562
▁상처	-9.84715
않는	-9.84768
▁악당	-9.84795
▁홍보	-9.84826
▁인생을	-9.849
▁모든게	-9.84937
시간에	-9.85014
▁느낄수	-9.85029
있었	-9.85029
계의	-9.85095
▁동생	-9.85135
▁달라	-9.85141
▁이기	-9.85176
▁아쉬움	-9.85263
▁보았다	-9.85288
▁솔직	-9.85299
답답	-9.85307
▁무엇을	-9.85309
▁무엇	-9.85351
▁발전	-9.85457
영화로	-9.85458
극장	-9.85459
▁빌려	-9.85474
▁눈물을	-9.85487
▁있어요	-9.85489
▁많다	-9.85489
▁단연	-9.85521
씨가	-9.85579
님이	-9.85644
하다가	-9.8567
▁북한	-9.85722
▁굿굿	-9.85778
▁표현한	-9.85829
▁무비	-9.8583
▁않게	-9.85909
끈	-9.86001
떠	-9.86013
감을	-9.86041
옹	-9.86064
▁죽이	-9.86076
▁007	-9.86078
▁나타	-9.86089
ing	-9.86098
▁정서	-9.86108
▁따뜻해지는	-9.86109
▁당시에	-9.86116
▁어머니	-9.86126
▁귀여워	-9.86151
▁자극	-9.86168
▁드라마는	-9.86169
▁생생	-9.86174
▁마세요	-9.86198
고싶어	-9.86265
했으나	-9.86284
▁뻔하고	-9.863
▁즐겁게	-9.8631
▁말을	-9.86311
▁옛	-9.86323
▁많아	-9.86332
스타일	-9.86421
▁극치	-9.86443
▁있습니다	-9.86452
▁돌아가	-9.86467
▁사기	-9.86488
▁지금은	-9.865
보자	-9.86567
v	-9.86758
▁크게	-9.86788
떄	-9.86791
▁뭉클	-9.86792
폐	-9.86794
▁봣는데	-9.86855
▁최강	-9.86872
정신	-9.86945
▁놀라	-9.87019
▁현실적인	-9.87132
▁웃김	-9.87142
▁좋아서	-9.8719
▁놈	-9.87244
었어	-9.87254
▁심장	-9.8726
▁아마	-9.87264
▁연속	-9.87292
▁모르	-9.87322
헤	-9.87356
▁살아있	-9.87371
거같	-9.87399
겹	-9.87412
▁넣	-9.87412
▁울고	-9.87469
▁신선하고	-9.87472
대가	-9.87497
털	-9.87511
ᅵ	-9.87511
▁무시	-9.87512
▁주성치	-9.87513
▁아쉬웠	-9.8753
더라면	-9.87561
드러	-9.87606
있는데	-9.87799
▁밥	-9.87886
시키는	-9.87904
▁울었	-9.87908
▁이루	-9.87924
놨	-9.87947
▁하루	-9.87965
빙	-9.88015
▁이런영화가	-9.88046
점수	-9.88137
▁엉망	-9.88207
스러웠	-9.88215
뽕	-9.88236
▁헐리웃	-9.88236
▁레전드	-9.88236
▁제작비	-9.88253
▁시간을	-9.88255
갔다	-9.88464
에대한	-9.88543
노래	-9.88584
▁좋았을	-9.8864
▁어렵	-9.88691
것들	-9.88702
자리	-9.88749
▁몰라도	-9.88795
▁정말로	-9.88811
구성	-9.88849
지가	-9.88864
▁투자	-9.88871
▁앤	-9.88878
으로서	-9.88884
▁줌	-9.88922
같음	-9.8893
▁끄	-9.88947
떼	-9.88966
▁쉽게	-9.88975
I	-9.89018
▁평범	-9.89048
▁웃음이	-9.89092
▁못했다	-9.891
엄마	-9.89102
이런영화	-9.89114
▁학교에서	-9.89141
집니다	-9.89181
슬프	-9.89182
▁야한	-9.89185
▁지나치	-9.89191
▁미소	-9.89207
▁진정	-9.89212
왔는데	-9.89225
OOO	-9.89253
▁와우	-9.89277
▁영화였어요	-9.89317
편의	-9.8949
▁건지	-9.89603
했네요	-9.8968
퀴	-9.89701
▁전문가	-9.89704
▁희생	-9.89741
▁노답	-9.89746
▁나왔다	-9.89778
나온다	-9.89784
봤지만	-9.89795
▁어휴	-9.89804
흥	-9.89831
부족	-9.89912
사이	-9.89953
사가	-9.89998
본영화	-9.90032
영화임	-9.90074
관계	-9.90084
▁멋있다	-9.90095
수없는	-9.90125
스럽고	-9.9018
▁이쁘다	-9.9019
▁재미없어요	-9.90253
버림	-9.90371
▁잊지	-9.90416
붕	-9.90441
▁마이너스	-9.90442
▁즐거운	-9.90442
롤	-9.90442
탐	-9.90442
▁마이클	-9.90447
포인트	-9.90447
야한다	-9.90455
▁반개도	-9.90481
▁잔인한	-9.90504
▁되지	-9.9051
끄러	-9.90534
잔잔	-9.90564
▁반성	-9.90634
▁친구들	-9.90658
▁잔	-9.90671
▁순수	-9.90773
▁결말도	-9.90796
▁한데	-9.9082
해주세요	-9.90857
▁보길	-9.90875
▁있게	-9.90924
하더라	-9.9093
▁안돼	-9.91129
즘	-9.91153
밝	-9.91187
넹	-9.91188
뮤	-9.91188
팀	-9.91188
▁위대한	-9.9119
▁이후로	-9.91195
▁있으면	-9.91281
▁사랑이야기	-9.91327
▁영화인듯	-9.91369
▁재밌을	-9.91437
▁지루했다	-9.91471
▁보니까	-9.91492
▁유쾌하고	-9.91516
▁많았	-9.91526
▁점수를	-9.91543
끝까지	-9.91549
▁우주	-9.91559
▁멍청한	-9.91668
▁싶네요	-9.91679
▁이따위	-9.91715
자체가	-9.91831
로써	-9.91909
▁연예인	-9.9194
▁더러운	-9.91941
▁안타깝	-9.91972
장면이	-9.91977
▁민망	-9.91986
아니다	-9.92005
▁달달	-9.92009
▁나오지	-9.92024
it	-9.92047
▁시각	-9.92061
▁할말	-9.92086
▁꾸	-9.92111
르고	-9.92112
학교	-9.92119
▁지루하게	-9.92147
▁왠	-9.9218
었을	-9.92185
▁부족하다	-9.92215
200	-9.92228
▁신파	-9.92242
▁식	-9.92315
없어서	-9.92324
▁캐릭터들	-9.92356
▁좀더	-9.92386
▁결말은	-9.92387
▁보아	-9.92433
?!	-9.92511
▁좋지만	-9.92595
야할	-9.92615
▁한국인	-9.92657
뚱	-9.92697
▁손발이	-9.92702
▁흥미로운	-9.92714
▁나오면	-9.92742
▁없는데	-9.92828
▁적당	-9.92867
일본	-9.92893
었고	-9.92925
▁오랜만	-9.93007
개도	-9.93015
▁아쉽네요	-9.93019
▁떠나서	-9.93036
▁푸	-9.93054
▁올려	-9.9312
▁만들고	-9.93299
▁맡	-9.93301
▁영화인	-9.93334
텐	-9.9336
▁싸이코	-9.93461
▁무언가	-9.93462
▁the	-9.9347
▁발견	-9.9351
▁레알	-9.93527
▁기다리	-9.93533
원작	-9.93537
이었음	-9.93539
▁연결	-9.9354
▁좋아할	-9.93572
친다	-9.93607
▁의문	-9.93635
한것	-9.93658
▁인상적이	-9.93796
▁못해	-9.93991
▁지구	-9.94003
그래	-9.94005
적은	-9.94039
▁훈훈	-9.94056
▁음악과	-9.9412
매력	-9.94133
▁끝이	-9.94217
▁김기덕	-9.9423
▁빼고는	-9.94247
▁진리	-9.94336
▁뜻	-9.94352
지도않고	-9.94391
▁혼	-9.94423
수있는	-9.94444
빼곤	-9.94458
▁멍청	-9.94521
▁떨어지	-9.94592
▁감동적	-9.94621
▁최고입니다	-9.94633
▁하네요	-9.9464
이라서	-9.94842
▁받을	-9.94843
▁오바	-9.94869
▁무협	-9.94944
▁다만	-9.94978
땡	-9.95005
▁더불어	-9.95011
▁가지	-9.95019
▁묘사	-9.95022
지를	-9.95037
그리	-9.95189
되면	-9.9531
짜증나	-9.95363
▁안봤	-9.95372
보는내내	-9.95378
▁누구나	-9.95394
▁꽃	-9.95397
▁인간들	-9.9543
▁특이	-9.95459
▁쓰레기같은	-9.95477
▁딱히	-9.95477
▁ᄋ	-9.95492
하지마라	-9.95511
▁이해하기	-9.956
▁보러	-9.95619
있나	-9.95691
제발	-9.95706
▁라는	-9.95718
뻔한	-9.95749
몬	-9.95786
혈	-9.95786
▁보고나면	-9.95797
▁봤더니	-9.95847
▁느꼈	-9.95873
▁보여	-9.95898
▁거지	-9.95922
▁조합	-9.95928
▁외모	-9.95946
▁무척	-9.95958
▁무리	-9.95972
꿀잼	-9.96024
대는	-9.96034
거라	-9.96081
▁무섭지도	-9.96082
▁기대했는데	-9.96123
▁속에	-9.96126
만의	-9.96134
▁빼고	-9.96177
▁재미있어	-9.96358
▁집에서	-9.96406
▁중에서	-9.96408
on	-9.96431
▁느낌을	-9.96463
시작	-9.96485
▁재미잇	-9.96534
▁슈퍼	-9.96565
▁현실적이	-9.96566
▁웃기지도	-9.96629
▁시청	-9.96683
▁끊	-9.96699
▁없지	-9.96711
보지말	-9.96748
님들	-9.96821
들고	-9.96903
▁신경	-9.96921
▁공부	-9.96985
▁의미를	-9.96985
하는건	-9.97004
▁쓰레기다	-9.97012
▁학교	-9.97023
▁쓸	-9.97033
▁미모	-9.97062
▁잼있다	-9.97112
고싶은	-9.97127
▁주말	-9.9716
아쉽	-9.97177
▁않지만	-9.97189
▁보시	-9.972
껴	-9.97344
칙	-9.97367
▁시리즈중	-9.97473
."	-9.97548
...........	-9.97566
ᄌ	-9.9775
밥	-9.97751
뭔	-9.97773
▁그렇	-9.97814
ᄏᄏᄏᄏᄏᄏᄏᄏᄏᄏᄏᄏᄏ	-9.97818
편도	-9.97869
▁왜이래	-9.97923
편을	-9.98005
라는게	-9.9807
▁끌어	-9.98091
▁[	-9.98134
▁에피소드	-9.98167
랫	-9.98167
례	-9.98168
▁:	-9.98183
▁흔한	-9.98189
▁필름	-9.98191
▁고통	-9.98258
해진	-9.98287
▁역대급	-9.98295
사는	-9.98308
▁것들	-9.98331
▁예쁘	-9.98351
▁장면에서	-9.98441
했었	-9.98465
잔인	-9.98481
▁허세	-9.98481
▁판	-9.98489
▁이해할	-9.98515
자나	-9.98531
▁우리가	-9.98561
봅니다	-9.9859
했다는	-9.98758
드립니다	-9.98763
놔	-9.98861
▁한참	-9.98868
K	-9.98974
▁불구하고	-9.98975
냄새	-9.9898
▁피해자	-9.9898
▁싶었	-9.99015
▁아줌마	-9.99032
▁콩	-9.99041
▁지켜	-9.99048
새끼들	-9.99068
▁양심	-9.99095
▁억지스럽	-9.9918
제작	-9.99182
점주	-9.99183
▁야동	-9.99191
▁몰입해서	-9.99205
겠음	-9.99214
▁전체	-9.99276
▁짐	-9.99294
아요	-9.99309
▁작가가	-9.99359
▁홍콩영화	-9.9937
~!!!	-9.99403
지말고	-9.99456
시즌	-9.99465
▁가면	-9.99469
끝나	-9.99511
버리는	-9.99515
▁불쌍	-9.99582
▁케이블	-9.99591
었나	-9.99594
▁하나하나	-9.99641
▁논	-9.99681
▁미안	-9.99773
컬	-9.99784
▁초등학생	-9.99787
▁포르노	-9.99787
하신	-9.99796
▁못한다	-9.99807
▁좋았으나	-9.99808
왔습니다	-9.99808
▁개뿔	-9.99814
▁맨날	-9.99841
.........	-9.99891
▁착	-9.99947
▁18	-9.99954
▁들었	-9.9996
▁인도	-9.99963
▁박수를	-10.0002
는것도	-10.0009
▁배우들도	-10.0009
▁국내	-10.0009
엇다	-10.0018
까지는	-10.0019
▁관한	-10.002
쉽	-10.0021
▁주기	-10.0022
짱짱	-10.0022
G	-10.0026
쥐	-10.0027
▁한마디	-10.0027
▁그렇지	-10.0031
렇	-10.0036
▁어릴	-10.0038
▁ᄏᄏᄏᄏᄏᄏ	-10.0038
▁잼나	-10.0041
점정도	-10.0044
▁찌	-10.0049
▁졸리	-10.005
쳤다	-10.0053
▁한심	-10.0054
▁군	-10.0054
머니	-10.0054
▁보인다	-10.0058
소설	-10.006
▁크리스마스	-10.0061
▁ᄋᄋ	-10.0064
하시는	-10.0065
▁국민	-10.0067
▁돋	-10.0067
▁찌질	-10.0068
▁한번쯤	-10.0068
엔딩	-10.0081
하기만	-10.0081
란다	-10.0083
감독님	-10.0088
▁사람의	-10.0089
▁못할	-10.009
세상	-10.009
▁넘치는	-10.0091
▁사랑은	-10.0092
▁중요	-10.0098
자체	-10.0101
아쉬	-10.0108
▁괜찮은데	-10.011
몽	-10.0111
맥	-10.0113
▁50	-10.0119
이자	-10.012
▁냉	-10.0126
▁a	-10.013
▁인간이	-10.0135
평가	-10.0137
▁끝났	-10.014
해진다	-10.014
▁어쩔수	-10.0143
H	-10.0143
▁러닝타임	-10.0143
▁시간가는줄	-10.0143
▁카리스마	-10.0143
▁되고	-10.0148
▁풍경	-10.0149
▁보자	-10.0154
▁한국영화는	-10.0155
웨	-10.0155
▁알겠	-10.0159
울리	-10.0159
▁그걸	-10.0163
씨의	-10.0167
▁낳	-10.0168
기위해	-10.0181
만큼은	-10.0187
▁가져	-10.0202
뭔가	-10.0202
와는	-10.0204
간의	-10.0214
힘	-10.0219
▁제로	-10.0219
컨	-10.0227
▁색다른	-10.0227
▁상업	-10.0236
정이	-10.0239
^^*	-10.0248
▁사랑의	-10.0248
▁뒤로	-10.025
▁13	-10.0254
겼	-10.0255
▁헤어	-10.0259
▁싶지	-10.026
봤네요	-10.0262
▁이때	-10.0268
좋아하는	-10.0268
않다	-10.0271
▁원작의	-10.0273
!!!!!!	-10.0274
특	-10.0275
▁볼수있	-10.0275
▁진지	-10.0288
다는게	-10.0303
▁있으	-10.0308
낀	-10.031
나가는	-10.031
폼	-10.0311
▁외계인	-10.0311
▁아까울	-10.0311
나왔	-10.0312
▁방법	-10.0316
▁이래	-10.0319
▁아역	-10.032
▁뽑	-10.0323
▁안보고	-10.0326
없는영화	-10.0342
사회	-10.0345
씬은	-10.0351
▁뭐라	-10.0352
▁점수가	-10.0353
▁이것이	-10.0353
▁하는지	-10.0363
▁행복한	-10.0365
했을까	-10.0366
빌	-10.0366
하던데	-10.0367
▁즐기	-10.0367
▁탈	-10.0368
였어	-10.0375
▁덕분에	-10.0377
▁왠만하면	-10.0379
▁눈에	-10.038
▁장면들	-10.0381
▁이유를	-10.0388
..........	-10.0391
▁충격적	-10.0392
스러워	-10.0392
▁부르	-10.0393
▁기독교	-10.0395
윈	-10.0395
▁아이가	-10.0397
▁어린시절	-10.0398
년만에	-10.0401
해야지	-10.0406
▁재밌던데	-10.041
▁없었던	-10.0421
▁뇌	-10.0427
▁진부하고	-10.0434
▁빵	-10.0446
▁조연	-10.0454
▁나쁘지	-10.0458
몰입	-10.0461
공감	-10.0464
♥♥♥	-10.0469
쟁이	-10.0472
택	-10.0472
▁작은	-10.0473
▁착한	-10.0474
겠네요	-10.0474
▁간다	-10.0477
렬	-10.0478
▁아름다웠	-10.0481
▁핵노잼	-10.0482
▁색	-10.0484
▁느껴진다	-10.0484
▁훈훈한	-10.0484
겁니다	-10.0487
▁좋아하는데	-10.0487
▁다룬	-10.049
▁멍	-10.0492
년도에	-10.0493
▁재미와	-10.0494
▁11	-10.0496
▁여행	-10.0504
▁웃기다	-10.0511
▁이럴	-10.0515
▁보긴	-10.052
▁생각하는	-10.0521
▁들어가	-10.0522
▁본영화	-10.0527
치곤	-10.0528
▁시도	-10.053
의미	-10.0532
▁대사가	-10.0539
점줌	-10.054
▁봤었	-10.0541
밤	-10.0551
할만한	-10.0554
▁괜찮다	-10.0565
농	-10.0566
꾼	-10.0567
od	-10.0567
▁어처구니	-10.0567
▁로봇	-10.0568
▁시청자	-10.0568
▁바뀌	-10.0568
배경	-10.057
대단	-10.0573
▁말하는	-10.0574
그래서	-10.0575
연기력	-10.0577
▁캬	-10.058
▁일품	-10.058
▁깔끔	-10.0584
▁남자가	-10.0588
▁남겨	-10.0597
좋음	-10.0599
▁니들	-10.0601
▁미스	-10.0602
편에	-10.0605
앞	-10.0605
억지	-10.0609
줘야	-10.061
점이다	-10.0615
▁쩝	-10.0617
▁본다면	-10.063
▁같아서	-10.063
▁보기에	-10.0636
멍	-10.0641
보여	-10.0642
▁긴장감이	-10.0643
▁충	-10.0644
▁뛰어	-10.0645
스럽게	-10.0646
▁그렇다고	-10.0647
낚	-10.0649
이걸	-10.065
기로	-10.0652
뽀	-10.0654
럭	-10.0654
▁떨어진다	-10.0654
▁잊을	-10.066
▁좋겠어요	-10.066
내고	-10.0661
▁아이돌	-10.0663
▁변태	-10.0663
▁빵점	-10.0669
▁크리스	-10.0678
되었	-10.0683
할수있	-10.0684
▁동안	-10.0687
하기엔	-10.0691
▁인물들	-10.0695
▁소름이	-10.0697
▁O	-10.0697
▁빠진	-10.0701
이였다	-10.0704
우리	-10.0707
▁훌륭하다	-10.0713
▁추억이	-10.0714
▁개성	-10.0714
▁레이	-10.0719
▁명작입니다	-10.0723
샤	-10.0729
때까지	-10.0732
돋	-10.0733
▁이런영화를	-10.0734
거면	-10.0738
섹	-10.0741
▁바꿔	-10.0743
▁기다려	-10.0743
▁감동적이다	-10.0744
▁형님	-10.0746
▁짜증난다	-10.0748
▁볼만했	-10.0752
▁여름	-10.0753
▁비디오로	-10.0754
▁개막장	-10.0755
▁악마	-10.0772
▁철학	-10.0783
▁찬	-10.0794
▁이미지	-10.0796
▁즐겁	-10.0802
▁들었다	-10.0805
배우가	-10.0811
똥	-10.0813
잇는	-10.0818
▁망치	-10.0821
▁있어야	-10.0823
있냐	-10.0824
차라리	-10.0825
얼굴	-10.0825
▁필요없	-10.0826
긋	-10.083
쭉	-10.083
▁이제서야	-10.083
▁감흥	-10.0832
▁D	-10.0839
▁재미없게	-10.0845
▁희	-10.0846
!!!!!!!!!!!!!!!!	-10.0858
▁삶에	-10.086
▁아픈	-10.0864
▁199	-10.0871
보구	-10.0876
▁보여준다	-10.0879
▁가슴에	-10.088
▁필요한	-10.0881
감독의	-10.0882
절대	-10.0884
▁영어	-10.0903
있어서	-10.0906
▁지루하기	-10.0909
버릴	-10.0909
허접	-10.0911
즐	-10.0916
큰	-10.0917
주면	-10.0919
▁멋지	-10.0919
깍	-10.092
둔	-10.092
▁좋아해서	-10.092
▁젠장	-10.092
좋앗	-10.0926
▁맹	-10.0931
▁죽는줄	-10.0932
▁설마	-10.094
▁못하다	-10.0941
al	-10.0946
하하하	-10.0949
기에는	-10.0953
재미없음	-10.0956
▁애기	-10.0962
자를	-10.0965
▁자살	-10.0968
▁평점보고	-10.097
뭐야	-10.0976
▁잇	-10.0977
▁엄	-10.0979
쓰고	-10.0983
▁먹고	-10.0983
▁척	-10.0987
▁힘이	-10.0987
씁쓸	-10.099
▁따뜻	-10.099
▁에이	-10.0992
했었는데	-10.0993
▁감동의	-10.0995
닮	-10.1004
엠	-10.1009
렁	-10.101
▁가치가	-10.101
▁볼게	-10.1014
▁됨	-10.1015
갈수록	-10.1018
▁용기	-10.102
▁기술	-10.1023
속의	-10.1024
▁작품을	-10.1028
▁모르겠지만	-10.1033
▁잼나게	-10.1045
..^^	-10.105
▁우리의	-10.105
▁줬	-10.1052
같고	-10.106
▁작품이다	-10.106
.............	-10.1062
저리	-10.1067
더라도	-10.1068
▁때문	-10.1077
▁장르가	-10.1081
만이	-10.1082
▁누군가	-10.1082
▁연기자들	-10.1084
▁틀어	-10.1095
▁블랙	-10.11
빅	-10.1101
칸	-10.1101
델	-10.1101
▁고양이	-10.1101
손가락	-10.1102
▁그럴	-10.1102
▁교육	-10.1103
▁낮아	-10.1106
명의	-10.111
▁없어요	-10.1113
겠어요	-10.1113
적이다	-10.1113
▁아픔	-10.1115
랄까	-10.1117
▁생각하고	-10.1121
▁좋았지만	-10.1125
았음	-10.113
▁살고	-10.113
▁명화	-10.113
▁자식	-10.113
▁체	-10.113
▁색감	-10.1131
▁쥐	-10.1138
▁잊을수	-10.114
었네	-10.114
▁모르게	-10.114
▁재밌다고	-10.1142
모든	-10.1143
으로써	-10.1162
▁검	-10.1167
▁야구	-10.1167
▁못함	-10.1168
▁할까	-10.1168
되나	-10.1174
▁내가본	-10.1175
▁탑	-10.1175
▁아프	-10.1186
▁살려	-10.1187
▁연기력도	-10.1187
공포영화	-10.1188
핑	-10.1192
무서움	-10.1193
덜	-10.12
더빙	-10.1203
어라	-10.1203
빠지	-10.1205
▁한명	-10.1206
▁낚시	-10.1211
0%	-10.1213
됐다	-10.1213
▁낮다	-10.1214
▁있구나	-10.1217
▁오락	-10.122
▁많고	-10.1221
하고싶은	-10.1233
▁비하면	-10.1235
잡고	-10.1239
▁섬	-10.1242
닌	-10.1246
▁전쟁영화	-10.1251
▁낚였다	-10.1256
▁실제로	-10.1262
▁조잡	-10.1266
▁답이	-10.1267
으려	-10.127
▁조화	-10.1274
한다고	-10.1282
렷	-10.1285
삐	-10.1285
탓	-10.1285
▁극장가서	-10.1287
▁개봉한	-10.1292
▁최대	-10.1294
요즘	-10.1298
ᄋᄋ	-10.1301
▁갔	-10.1302
▁보내	-10.1304
▁보여줬	-10.1304
보이는	-10.1306
▁승	-10.1314
▁공포물	-10.1321
▁좋게	-10.1325
▁없다는	-10.1325
겠습니다	-10.1337
▁모를	-10.1357
▁도전	-10.1369
▁전설의	-10.1373
춰	-10.1376
쿨	-10.1378
▁겨우	-10.1382
감동적이	-10.1383
마지막에	-10.1389
앤	-10.139
▁기대이상	-10.1405
▁잼잇	-10.1405
▁ᄏᄏᄏᄏᄏᄏᄏ	-10.1407
▁만든영화	-10.1407
▁감히	-10.141
▁부모	-10.1411
▁감안	-10.1422
▁전설	-10.1424
하기도	-10.1425
♥♥♥♥	-10.1428
▁안나	-10.1432
▁말하고	-10.1432
요소	-10.1445
빨리	-10.1445
▁불쌍하다	-10.1449
쳐서	-10.1449
▁하는거	-10.1453
▁수도	-10.1457
배우들의	-10.1458
▁완전히	-10.1458
▁에로영화	-10.1461
콘	-10.1463
▁유명	-10.1465
륜	-10.147
z	-10.1473
▁초등학교	-10.1473
▁안타까운	-10.1473
▁잠깐	-10.1474
▁답답한	-10.1476
▁영원히	-10.1477
▁바꾸	-10.1477
▁일어나	-10.1479
▁갈등	-10.1481
▁최초	-10.1482
▁전율	-10.1484
▁봤을때	-10.1484
▁꿈을	-10.1489
F	-10.149
꼴	-10.1491
as	-10.1509
▁보통	-10.1509
▁재미있었	-10.152
하지마	-10.1521
▁돼	-10.1523
긴하지만	-10.1528
▁한심한	-10.1529
새롭	-10.1532
▁본거	-10.1533
▁남편	-10.1533
기까지	-10.1534
아까운	-10.1535
문화	-10.1538
▁보지마라	-10.1542
▁안습	-10.1543
▁그녀의	-10.1546
▁어른들	-10.1556
올리	-10.156
구리	-10.1562
▁노래가	-10.1564
균	-10.1566
셀	-10.1568
뜬	-10.1568
ᅥ	-10.1568
▁스트레스	-10.1568
▁특별한	-10.1572
▁모르겠고	-10.1576
▁전투	-10.1578
▁반복	-10.1579
▁남자의	-10.1587
▁커플	-10.1591
점대는	-10.1593
▁재미도없고	-10.1593
▁싶은데	-10.1598
▁따로	-10.1606
것같아요	-10.161
▁만들면	-10.1615
▁밤	-10.1617
켜	-10.1622
▁낮네	-10.163
▁속에서	-10.1635
▁예쁘고	-10.1638
지루함	-10.1644
보니까	-10.1652
▁알려	-10.1652
좋겠	-10.1653
▁내면	-10.1655
▁미쳤	-10.1658
U	-10.1664
★	-10.1664
같은영화	-10.1667
▁생각함	-10.1669
다큐	-10.1677
▁존경	-10.1678
▁감정을	-10.1678
▁방영	-10.1679
빛	-10.1683
▁만들다니	-10.1684
▁개연성이	-10.1685
▁남자들	-10.1695
▁챙겨	-10.1704
▁인디	-10.1704
내내	-10.1704
럴	-10.1705
부작	-10.1706
후회	-10.1707
▁만든거	-10.171
옴	-10.1717
▁집에	-10.1723
안됨	-10.1726
▁재미없었다	-10.1729
▁암튼	-10.1736
▁식상한	-10.1741
쓰레기영화	-10.1744
▁심하게	-10.1747
영화인데	-10.1751
얘	-10.1754
하는영화	-10.1755
찮	-10.176
▁소소한	-10.1761
▁어설프고	-10.1762
▁가족영화	-10.177
▁노래도	-10.1771
▁열연	-10.1779
▁작품은	-10.1781
▁씬	-10.1782
▁게다가	-10.1783
같네	-10.1784
▁이래서	-10.1786
▁웃고	-10.1787
▁모르겠음	-10.1787
▁재미있습니다	-10.1789
▁조카	-10.1799
bb	-10.1801
줘서	-10.1806
▁결론	-10.1808
만듬	-10.1811
▁비판	-10.1812
년작	-10.182
살아	-10.1822
▁관객들	-10.1827
▁캐릭터가	-10.1829
▁이상하게	-10.1844
브라	-10.1849
▁둘이	-10.1853
괜	-10.1858
숭	-10.1859
▁DVD	-10.1859
▁특수효과	-10.1859
층	-10.1859
▁잔뜩	-10.1859
받는	-10.186
▁잔혹	-10.1861
▁sf	-10.1862
▁비현실적	-10.1863
▁할머니	-10.1865
▁영화보는	-10.1869
인건	-10.187
▁알겠는데	-10.1873
▁지나도	-10.1873
▁뿐이다	-10.1874
▁오래된	-10.1877
▁봤을까	-10.1878
▁조작	-10.1878
▁넌	-10.188
▁케이블에서	-10.1883
였고	-10.1884
▁빼면	-10.1885
▁자주	-10.1887
▁없습니다	-10.1891
흠	-10.1891
▁드립니다	-10.1893
<	-10.1895
▁하면서	-10.1895
▁않을까	-10.19
▁잘하고	-10.1903
했지	-10.1903
영화입니다	-10.1903
▁내용인지	-10.1908
▁ᄌ	-10.1909
▁이런건	-10.1913
스크	-10.1917
▁참신한	-10.1929
▁최고였다	-10.1932
▁신비	-10.1938
▁앞으로도	-10.194
보고싶다	-10.194
레스	-10.1941
메이	-10.1943
모두	-10.1944
▁대부분	-10.1946
▁대화	-10.195
▁후속작	-10.1958
▁직접	-10.1959
▁지났	-10.196
바닥	-10.1961
▁경험	-10.1961
▁거짓말	-10.1963
▁무엇인지	-10.1964
▁최근에	-10.1964
주고싶다	-10.1968
ᄏᄏᄏᄏᄏᄏᄏᄏᄏᄏᄏᄏ	-10.1973
▁정말이지	-10.1973
없었	-10.1975
▁쌍	-10.1982
나오고	-10.1982
보지	-10.1982
▁원작이	-10.1991
셔서	-10.1999
▁씹	-10.2006
▁생각나서	-10.2016
오래	-10.2017
리즈	-10.202
▁낚였	-10.2021
▁우리는	-10.2026
주기	-10.203
▁보려고	-10.2037
▁21	-10.2037
▁정도의	-10.2042
딴	-10.2047
▁구성이	-10.2052
▁헬	-10.2053
▁쿠	-10.206
▁충실	-10.2062
후반	-10.2066
▁ᄀ	-10.2066
것인가	-10.2067
▁다섯	-10.2068
▁두번째	-10.2068
줬다	-10.2069
▁뻔하	-10.2076
▁효과	-10.2086
▁분위기가	-10.209
▁선동	-10.2091
읽	-10.2095
쓸	-10.2099
잊	-10.21
▁관객을	-10.2103
▁그당시	-10.2103
▁엉성하고	-10.2106
▁낙	-10.2107
ᄍ	-10.2114
▁있었지만	-10.2117
으니까	-10.2117
때매	-10.2119
▁봤네	-10.2119
▁아니야	-10.212
깝	-10.2121
▁보며	-10.2124
▁선생님	-10.2134
▁최고임	-10.2136
▁할수	-10.2137
▁탄탄	-10.214
▁얼마	-10.2141
▁초딩때	-10.2145
▁견	-10.2146
30	-10.2149
거같아요	-10.2158
▁워	-10.2158
엑	-10.2159
칭	-10.2159
룩	-10.2159
▁패러디	-10.2159
핀	-10.2159
▁새벽에	-10.2159
▁아이디어	-10.2159
▁제임스	-10.2159
▁스스로	-10.216
▁슈	-10.216
지않았	-10.216
▁본듯	-10.2161
▁아까웠다	-10.2161
았어요	-10.2164
▁잘만들었	-10.2166
▁끈	-10.2167
▁좀비영화	-10.2179
▁잼있어요	-10.2182
▁살면서	-10.2183
▁W	-10.2186
까요	-10.2191
▁여러분	-10.2192
▁잘봤어요	-10.2192
어가는	-10.2192
▁만남	-10.2195
▁볼때	-10.2196
▁아름답	-10.22
▁G	-10.2201
▁깎	-10.2201
▁현실이	-10.2208
휘	-10.2213
▁사진	-10.2214
▁코미디영화	-10.2214
▁개연성도	-10.2218
관람	-10.2218
▁여운을	-10.2223
오늘	-10.2225
▁별로임	-10.2226
▁^	-10.2227
▁뭘까	-10.2227
▁재밌지	-10.2227
▁유명한	-10.2234
▁해라	-10.2241
▁연출과	-10.2248
▁기자	-10.226
밍	-10.2261
▁제이슨	-10.2262
▁소중한	-10.2262
납니다	-10.2263
▁여러가지	-10.2264
▁그저그런	-10.2267
는거야	-10.2268
시길	-10.2269
▁남자주인공	-10.2269
▁주기도	-10.227
▁가슴을	-10.2274
못해	-10.2276
▁맞아	-10.2278
키드	-10.2278
문제	-10.2279
▁재미로	-10.2283
려나	-10.2284
하길	-10.2289
▁운명	-10.2291
것같은	-10.2295
▁단지	-10.231
▁톰	-10.2311
논	-10.2312
▁읽어	-10.2313
아저씨	-10.2313
포스터	-10.2316
분은	-10.232
개그	-10.232
졸작	-10.2325
▁풍자	-10.2325
▁다르다	-10.2325
나올때	-10.233
▁낮지	-10.2333
▁죽이고	-10.2334
트리	-10.2337
버전	-10.2345
es	-10.2348
▁편견	-10.2358
▁단편	-10.2359
닷	-10.2364
쥬	-10.2364
▁로버트	-10.2364
▁울컥	-10.2365
거같은데	-10.2366
▁몇몇	-10.2367
▁돋보이는	-10.2367
▁뛰어나	-10.2369
▁반전은	-10.237
검	-10.237
▁안본	-10.2375
랜드	-10.2383
▁보았습니다	-10.2386
▁나에겐	-10.2386
▁이딴걸	-10.2386
▁확실	-10.2392
거리는	-10.2395
▁괜찮음	-10.24
▁막장드라마	-10.2401
기전에	-10.2404
햇다	-10.2406
꽃	-10.2416
▁한국에서	-10.2417
▁죽이는	-10.2421
뇌	-10.2424
▁배우를	-10.2435
▁그거	-10.244
▁전개도	-10.2441
▁보다니	-10.2442
▁수준의	-10.2442
▁출연한	-10.2453
섭	-10.2457
▁보여주고	-10.2458
닿	-10.2463
아까웠	-10.2467
녕	-10.2468
벅	-10.2468
▁교과서	-10.2469
▁이따구	-10.2469
▁나오네	-10.2469
▁테러	-10.247
▁모험	-10.2475
동생	-10.2476
▁하늘	-10.2479
▁시청률이	-10.2479
▁만들었는지	-10.248
그만	-10.2488
▁욕망	-10.2491
▁따뜻하고	-10.2492
▁다시는	-10.2492
▁단어	-10.2494
로는	-10.2495
▁대중	-10.2496
부분이	-10.2499
▁안볼	-10.2501
하기에	-10.2504
▁클레멘타인	-10.2506
제로	-10.2507
이름	-10.2507
어린	-10.2507
지않아	-10.2516
▁영상과	-10.2517
▁부터	-10.2518
▁엿	-10.2519
었네요	-10.2519
▁이런영화는	-10.252
사람들은	-10.2524
L	-10.2525
▁흥	-10.2525
▁영상이	-10.2527
▁다운	-10.2532
▁매력적	-10.2533
▁죽은	-10.2548
▁조용	-10.2551
▁반전을	-10.2558
점이상	-10.2567
액	-10.2572
▁심형래	-10.2574
닉	-10.2574
▁동성애	-10.2574
▁2014	-10.2574
▁내생에	-10.2575
했더니	-10.2579
▁어쩜	-10.2579
ut	-10.2579
▁담배	-10.2583
▁로코	-10.2584
출연	-10.2585
▁액션씬	-10.2586
▁똑같은	-10.2587
라곤	-10.2591
▁결정	-10.2593
▁무술	-10.2594
▁소장	-10.2594
▁만들수	-10.2594
▁나은	-10.2599
▁부실	-10.2606
▁높게	-10.2607
치고는	-10.2607
았지만	-10.2613
▁있다니	-10.2615
▁돌리	-10.2615
▁많은걸	-10.2624
▁여전	-10.2627
하군	-10.2627
몇	-10.263
푸	-10.263
▁그립다	-10.2633
▁남네요	-10.2634
붙	-10.2638
삶	-10.2638
▁먼가	-10.2642
웃김	-10.2645
왓	-10.2648
적이지	-10.2657
▁대해서	-10.2657
▁재미없어서	-10.2657
물을	-10.2658
▁북	-10.2658
ᅮᅮᅮ	-10.2659
▁썼	-10.2667
쟁	-10.2668
▁맞지	-10.2671
하진	-10.2674
렵	-10.2675
▁않네요	-10.2677
보셈	-10.2677
략	-10.2679
▁살다살다	-10.268
▁조니뎁	-10.268
부끄럽	-10.268
▁나쁘	-10.2684
▁예쁘다	-10.2686
▁억지스러운	-10.2688
▁어째	-10.2689
스토리도	-10.2693
보시길	-10.2693
▁깨닫게	-10.2693
▁볼수있는	-10.2694
▁비밀	-10.2694
▁연극	-10.2698
쓰는	-10.2699
▁봐도봐도	-10.2704
공주	-10.2708
▁조절	-10.2709
▁하길래	-10.271
▁뜬금없	-10.2712
▁해석	-10.2712
▁쉬	-10.2715
▁궁금하다	-10.2718
▁답답하고	-10.2724
▁어렵다	-10.2726
▁재밋어요	-10.2732
만드네	-10.2737
었지	-10.2749
걍	-10.2749
럼	-10.2756
낫	-10.2758
주연	-10.2759
초반	-10.2762
▁마지막장면	-10.2766
재밌어	-10.2768
▁매력을	-10.2779
획	-10.2783
▁술	-10.2786
여주	-10.2786
▁싶을	-10.2787
롯	-10.2788
▁가벼운	-10.2788
곰	-10.2788
싹	-10.2788
▁오랫만에	-10.2788
▁주윤발	-10.2788
싼	-10.2788
▁디테일	-10.2788
▁짜임새	-10.2788
▁아류작	-10.2788
▁즐거웠	-10.2788
▁다양한	-10.2788
었는지	-10.2791
▁응	-10.2792
▁정의	-10.2795
▁남아있	-10.2795
▁대표	-10.2804
▁주변	-10.2805
▁진수	-10.2806
였으면	-10.2808
▁대단하	-10.2818
▁재난영화	-10.2823
▁귀엽다	-10.2826
▁남은	-10.2826
▁않나	-10.283
▁못보겠	-10.2833
▁녹	-10.2846
▁불러	-10.285
게임	-10.2856
헐	-10.2862
비디오	-10.2862
▁밀려	-10.2865
있었다	-10.2865
▁조선	-10.2867
▁찰	-10.2868
받은	-10.2872
▁오글거리	-10.2876
사건	-10.288
▁형사	-10.2887
놈이	-10.2891
▁시리즈는	-10.2892
때부터	-10.2893
딘	-10.2896
쪼	-10.2896
▁폭풍	-10.2898
▁만들기	-10.2901
▁한숨	-10.2907
▁몇년	-10.2907
려다가	-10.2913
지말자	-10.2914
▁반담	-10.2915
▁ᄍᄍᄍ	-10.2915
▁안맞는	-10.2917
받아서	-10.292
▁쪽	-10.2923
▁추리	-10.2923
▁받는	-10.2924
▁모두가	-10.2924
▁집중해서	-10.2925
▁영화보면서	-10.2929
▁동심	-10.293
생각이	-10.2932
▁줄수	-10.2933
이후	-10.2934
▁아쉽지만	-10.2934
잖	-10.2944
▁아까운영화	-10.2953
장애	-10.2955
같아서	-10.2968
아까워	-10.2969
▁만한	-10.2971
어떻게	-10.2976
몸	-10.2979
배우들이	-10.298
씬이	-10.2985
▁F	-10.2985
하겠다	-10.2989
웨이	-10.299
아빠	-10.2991
▁본방사수	-10.2994
▁자체는	-10.2994
▁느꼈다	-10.2995
▁p	-10.2997
▁생각하면	-10.2998
우스	-10.3003
묵	-10.3006
^-^	-10.3006
랭	-10.3006
▁인내심	-10.3006
▁유일하게	-10.3006
▁포스터가	-10.3007
▁빵빵	-10.3007
조금	-10.3008
좋았다	-10.3008
▁감각	-10.3014
맘	-10.3014
▁그자체	-10.3017
말이필요없	-10.3019
▁감동은	-10.3022
▁신선하	-10.3024
▁당연	-10.3025
▁해결	-10.3025
▁소재도	-10.3029
건가요	-10.3032
▁괜찮았다	-10.3037
보소	-10.3037
▁기억나는	-10.3039
-_-;	-10.304
▁최고의영화	-10.3045
▁연기력은	-10.3054
▁본인	-10.3057
▁풋풋	-10.3063
되었다	-10.307
▁형편없	-10.3072
▁제외	-10.3077
▁세상을	-10.3077
▁위로	-10.3081
▁살린	-10.3082
관객	-10.3087
했을때	-10.3088
▁애들은	-10.3093
상태	-10.3094
▁마이	-10.3095
▁편안	-10.3098
00	-10.3101
▁한편의	-10.3105
화이팅	-10.3106
번은	-10.3107
▁다운받아	-10.3116
ᄎ	-10.3117
젖	-10.3117
찐	-10.3117
▁박중훈	-10.3117
▁배트맨	-10.3117
▁장국영	-10.3117
▁스크린	-10.3118
▁탄생	-10.3118
▁말도안되는	-10.3119
▁1,2	-10.312
▁흑인	-10.3123
만하다	-10.3124
▁첫사랑	-10.3125
▁태어나서	-10.3127
▁나름대로	-10.3134
▁좋겠네요	-10.3136
▁꼬마	-10.3136
▁하나같이	-10.3139
재미없어	-10.3152
▁인상적	-10.3152
받아	-10.3159
▁길게	-10.3167
▁쩔	-10.3169
▁사랑해요	-10.3174
높은	-10.3188
임에도	-10.3189
마리	-10.3192
▁본지	-10.3196
기도하고	-10.3199
▁재밌어서	-10.3202
긴장감	-10.3204
▁소년	-10.3205
▁엔딩이	-10.321
커플	-10.3213
▁있던	-10.3214
웃겨	-10.3215
▁ᄃᄃᄃ	-10.3216
▁선물	-10.3224
져요	-10.3224
▁독특	-10.3225
감정	-10.3225
지마세요	-10.3225
▁자랑	-10.3226
▁블록버스터	-10.323
▁dvd	-10.323
▁제니퍼	-10.323
▁끔찍	-10.323
▁어울리는	-10.323
▁60	-10.323
▁바랍니다	-10.3231
▁집착	-10.3231
▁이보다	-10.3233
것만으로도	-10.3234
▁결코	-10.3236
▁오빠	-10.3237
▁손색	-10.3237
로드	-10.3238
▁내용전개	-10.3243
보는게	-10.3248
▁봤어	-10.3254
▁갖고	-10.3262
▁있네	-10.3267
있어요	-10.3272
어이없	-10.3276
▁막판에	-10.3276
th	-10.3284
멋있	-10.3286
좋은영화	-10.329
▁업	-10.3292
▁어색하	-10.3293
▁명작을	-10.3293
▁지겹다	-10.3297
▁인생에	-10.3302
▁망친	-10.3309
이었습니다	-10.3309
▁강한	-10.3309
당한	-10.3311
▁가볍	-10.3315
▁진부	-10.3316
▁내용과	-10.3318
▁삼류영화	-10.3318
▁포스	-10.3319
덕에	-10.332
▁낮게	-10.3324
▁잠이	-10.3324
닐	-10.3326
찡	-10.3328
재미있게	-10.333
갑니다	-10.3331
재미도	-10.334
▁짧은	-10.3341
J	-10.3343
▁뱀파이어	-10.3343
▁왤케	-10.3343
▁케릭터	-10.3343
▁해리포터	-10.3343
▁깜짝	-10.3344
▁유일한	-10.3344
▁놀라운	-10.335
▁데리고	-10.3351
▁보던	-10.3353
멜로	-10.3353
▁주연배우	-10.3356
▁성격	-10.3363
해야할	-10.3373
▁잘생겼	-10.3381
▁충분	-10.3381
보여주	-10.3383
le	-10.3385
있으면	-10.3385
▁약간의	-10.3389
▁봐야하는	-10.3391
▁실력	-10.3394
▁L	-10.3396
ᅮᅲ	-10.3405
▁넘게	-10.3405
▁잤다	-10.3409
▁원작에	-10.3411
▁다시보니	-10.3416
▁싶어요	-10.3418
인물	-10.3419
아닌가	-10.342
오브	-10.342
▁이상의	-10.3421
▁떨어지고	-10.3429
차원	-10.3432
때문	-10.3437
▁교훈을	-10.3438
▁죽었	-10.3443
주고싶	-10.3444
▁찾아보	-10.3446
▁손에	-10.3446
▁아이들과	-10.3448
사람들이	-10.3454
땀	-10.3458
▁숨겨진	-10.3458
깃	-10.3458
퓨	-10.3458
▁러시아	-10.3458
큐	-10.3459
일듯	-10.3459
▁감정이입	-10.346
▁작위적	-10.3461
둥이	-10.3467
▁믿고보는	-10.3467
▁오락영화	-10.3468
▁아깝고	-10.3476
바라	-10.3483
▁부모님	-10.3487
▁돈을	-10.3494
▁허술한	-10.3496
▁뭐니	-10.3497
▁제목만	-10.3497
▁많아서	-10.3498
스키	-10.35
▁폐	-10.3505
여행	-10.3508
않음	-10.3512
▁휘	-10.3513
▁최고로	-10.3515
▁시간아깝다	-10.3517
▁있었는데	-10.3519
▁기준	-10.352
블루	-10.352
▁잘만들	-10.3526
씀	-10.3531
▁이상해	-10.3538
▁평론가들	-10.354
본사람	-10.354
특별	-10.3541
할것	-10.3542
거같음	-10.3545
버스	-10.3547
▁어디에	-10.3548
▁국가	-10.3549
▁으리	-10.3552
애들이	-10.3552
▁별로고	-10.3556
없나	-10.3561
춤	-10.3563
▁머리가	-10.3565
낭	-10.3566
추억	-10.3568
싸움	-10.357
어색	-10.3571
▁잤	-10.3571
▁몰랐다	-10.3575
▁익숙	-10.3575
▁영환데	-10.3575
▁달콤	-10.3576
▁즐겨	-10.3578
▁생각으로	-10.3582
▁또다른	-10.3589
▁이뻐서	-10.3594
▁힘내	-10.36
▁위해서	-10.3601
연기는	-10.3607
▁변화	-10.3608
▁눈물나	-10.3609
▁요리	-10.3621
류영화	-10.3624
▁좋겠	-10.3626
▁영혼	-10.3635
▁방식	-10.3637
▁놀랍다	-10.3639
▁잼있음	-10.364
▁소설을	-10.3649
엇는데	-10.3652
▁느낌의	-10.3653
▁옷	-10.3658
여운이	-10.3662
▁볼만했다	-10.3672
▁관점	-10.3673
▁듣고	-10.3675
▁멋졌	-10.3677
봣다	-10.3678
먹은	-10.368
▁이야기는	-10.3686
솔직히	-10.3686
▁맛이	-10.369
윌	-10.3692
▁임팩트	-10.3692
넬	-10.3692
컴	-10.3692
▁잔잔하면서	-10.3695
▁멋있는	-10.3695
▁재개봉	-10.3697
100	-10.3699
▁흔들	-10.37
▁하아	-10.3701
▁망했	-10.3705
상황	-10.3706
굳굳	-10.3707
▁디워	-10.3708
▁짜증남	-10.3712
▁배역	-10.3713
▁개노잼	-10.372
▁사상	-10.3722
▁재밌었던	-10.3726
▁즐	-10.3727
두고	-10.3727
▁결말을	-10.3728
▁옥	-10.373
▁죽인	-10.3743
▁하나로	-10.3743
이었던	-10.3744
이랄까	-10.3745
12	-10.3746
▁난잡	-10.3751
▁인해	-10.3752
있습니다	-10.3753
▁짜증나서	-10.3755
보게되	-10.3769
레인	-10.3773
▁대본	-10.3775
역사	-10.3782
▁유치해	-10.3784
▁부부	-10.3786
▁사랑해	-10.379
무시	-10.3791
▁발상	-10.3796
▁기회	-10.3798
듯하다	-10.38
느껴	-10.3802
▁소재와	-10.3804
▁연인	-10.3806
불쌍	-10.3808
아직도	-10.381
~~^^	-10.3811
갠	-10.3811
▁스티븐	-10.3811
▁재미없을	-10.3812
▁샘	-10.3813
▁두고	-10.3815
▁거장	-10.3819
▁적당히	-10.3822
▁여자주인공	-10.3823
구석	-10.3824
▁아예	-10.3827
아아아	-10.3828
물로	-10.3829
▁과장	-10.3831
▁말하고자	-10.3831
▁생긴	-10.3833
▁영화라니	-10.3833
▁살아가는	-10.3839
극장에서	-10.3844
▁잡아	-10.3845
▁보라	-10.3846
▁독일	-10.3846
옆	-10.3852
▁모든걸	-10.3863
보고있어요	-10.3864
▁강렬한	-10.3866
▁벤	-10.387
▁잠들	-10.3871
▁보고싶어	-10.3877
X	-10.3891
▁줘야	-10.3893
아무	-10.3896
굳	-10.3899
▁갔다	-10.3919
▁궁	-10.3919
▁그지같	-10.3922
쩜	-10.3926
픽	-10.3928
야겠다	-10.393
▁아닙니다	-10.3932
벼	-10.3932
▁뭥미	-10.3932
▁보다는	-10.3936
▁=	-10.3939
싶다	-10.394
줄알았는데	-10.3941
▁언제봐도	-10.3941
▁여자친구	-10.3941
▁열받	-10.3942
▁근래	-10.3943
답니다	-10.3945
이딴	-10.3946
▁블	-10.3947
쩐다	-10.3947
노답	-10.3947
▁주인공은	-10.3949
▁중독	-10.3952
▁다신	-10.3955
▁하품	-10.3956
▁무료	-10.3959
▁순수함	-10.3959
재미있어요	-10.3961
▁울면서	-10.3963
▁가정	-10.3964
존나	-10.3965
낮은	-10.3965
▁무섭지	-10.3969
▁떠오르	-10.3975
당시	-10.3976
▁고마	-10.3981
▁아니지	-10.3982
▁아깝네	-10.3983
▁없었음	-10.3985
부러	-10.399
▁없냐	-10.3994
재밌는	-10.3996
▁의미가	-10.3999
▁매미	-10.4
▁강렬	-10.4003
▁멋지고	-10.4013
▁본게	-10.4014
빠져	-10.4016
▁뭐하나	-10.4016
▁없으면	-10.4017
▁목적	-10.4029
▁불편한	-10.4031
▁재미있는데	-10.4037
▁난해하	-10.4043
▁마음으로	-10.4045
아프	-10.4045
객	-10.4047
▁아래	-10.4051
ad	-10.4051
달아	-10.4051
▁새로	-10.4051
▁쓰는	-10.4052
닭	-10.4054
쿵	-10.4054
▁스포츠	-10.4054
똘	-10.4054
앨	-10.4054
탱	-10.4054
▁늑대	-10.4054
▁모른다	-10.4054
▁뭐하자는	-10.4055
▁웃으면서	-10.4058
▁알겠다	-10.4058
▁배경음악	-10.4058
▁여러번	-10.4061
ᄋᄋᄋ	-10.4061
궁	-10.4062
코믹	-10.4062
목소리	-10.4063
▁그럴듯	-10.4073
▁재능	-10.4073
▁쩔어	-10.4074
▁봤을	-10.4074
▁프리	-10.4077
▁한개도	-10.4077
▁갑니다	-10.4082
겠죠	-10.4082
▁최고봉	-10.4083
학년	-10.4089
▁분들은	-10.409
보인다	-10.4094
▁마지막까지	-10.4101
▁따뜻해	-10.4102
글자	-10.4103
▁깜	-10.4108
톤	-10.4108
▁명장면	-10.4118
▁여주인공이	-10.4118
▁자신이	-10.4131
▁매일	-10.4131
▁집중이	-10.4131
▁안간다	-10.4132
늙	-10.4144
90	-10.4145
▁수작이다	-10.4146
같아	-10.4149
만족	-10.4171
▁부분도	-10.4176
▁you	-10.4177
▁우뢰매	-10.4177
▁할리우드	-10.4177
램	-10.4177
뢰	-10.4177
▁빨갱이	-10.4177
▁우려먹	-10.4177
보느니	-10.4178
▁처절	-10.4183
▁한번도	-10.4186
▁상영관	-10.4187
▁만들었을까	-10.4187
벗	-10.4188
▁안봐도	-10.4189
▁내게	-10.4189
▁보기에는	-10.4191
▁포스터만	-10.4193
▁주제를	-10.4198
▁개념	-10.4198
▁울리는	-10.4204
▁어거지	-10.421
후에	-10.4211
▁보았는데	-10.4211
▁생각난다	-10.4217
▁느껴지	-10.4221
장면은	-10.4221
소름	-10.4227
▁본건데	-10.4231
▁이뻐	-10.4231
점부터	-10.4232
▁얼굴이	-10.4234
▁않아서	-10.4236
▁봅니다	-10.4238
ᄏᄏᄏᄏᄏᄏᄏ	-10.4243
나오네	-10.4245
▁난리	-10.4247
▁모르겟	-10.4256
언제	-10.4257
기억이	-10.4259
▁볼거	-10.4259
거든	-10.4262
▁다루	-10.4266
거죠	-10.4269
▁주제가	-10.427
볼수	-10.4272
였나	-10.4272
맞고	-10.4272
▁수입	-10.4275
▁싸우는	-10.4285
줄알았	-10.4289
▁음식	-10.4292
▁재미있을	-10.4294
측	-10.43
닫	-10.4301
꼈	-10.4301
멈	-10.4302
▁고등학교	-10.4302
▁대통령	-10.4302
▁짐캐리	-10.4302
읍	-10.4302
켄	-10.4302
▁홍상수	-10.4302
▁내생애	-10.4302
▁이소룡	-10.4302
▁드디어	-10.4302
▁희대의	-10.4302
▁잔잔하게	-10.4303
▁귀여움	-10.4304
▁아닐	-10.4307
▁사라지	-10.4311
분위기	-10.4318
썼	-10.4318
▁싸움	-10.4322
▁생각할	-10.4326
라는걸	-10.4326
▁짜증이	-10.433
▁가족의	-10.4337
▁아름답게	-10.4338
▁까지	-10.434
▁몽	-10.4349
▁영원한	-10.4353
▁없나요	-10.4355
▁기대이하	-10.4355
▁놀랍	-10.436
19	-10.4365
▁한국판	-10.4366
못한	-10.4367
▁세번	-10.4369
해주고	-10.437
될듯	-10.4373
▁폐지	-10.4376
므	-10.4395
▁실망스럽	-10.4405
▁적당한	-10.4406
▁나랑	-10.4408
장르	-10.4411
둥	-10.4419
▁엄마가	-10.4422
수밖에	-10.4426
욤	-10.4429
▁웰메이드	-10.4429
맴	-10.4429
웟	-10.4429
▁오글거려	-10.4429
▁짜집기	-10.4429
▁사운드	-10.4429
▁하정우	-10.4429
▁당신은	-10.4431
▁아무런	-10.4434
분만에	-10.4434
방식	-10.4437
▁살리	-10.4437
▁다운받	-10.4441
▁넘치	-10.4443
▁포스터에	-10.4444
아버지	-10.4445
▁어른이	-10.4445
▁첨엔	-10.4446
▁괜찮았는데	-10.4448
▁대놓고	-10.4451
도대체	-10.4451
탑	-10.4452
엄청	-10.4453
▁to	-10.4456
▁스토리전개	-10.4462
▁생에	-10.4465
했다면	-10.4469
혼자	-10.4478
▁받은	-10.4479
▁생각했는데	-10.448
이런류의	-10.448
▁가수	-10.4481
▁보는거	-10.4483
▁절정	-10.4483
▁그건	-10.449
▁내용에	-10.4493
▁라고	-10.4494
▁이해할수	-10.4497
▁이상하고	-10.4501
▁시간만	-10.4502
보기싫	-10.4503
▁슬픈영화	-10.4517
▁책을	-10.4521
광구	-10.4521
할뿐	-10.4522
▁연기자	-10.4525
▁재밋음	-10.4532
볼수있	-10.4536
▁반대	-10.454
▁정도면	-10.4544
▁많은데	-10.4547
에대해	-10.4548
있지	-10.4554
갔는데	-10.4555
뷰	-10.4555
▁설득력	-10.4557
▁터미네이터	-10.4557
▁제시카	-10.4557
▁평균	-10.4559
▁당황	-10.4563
▁은근히	-10.4563
봤지	-10.4563
▁돈내고	-10.4564
▁적어도	-10.4564
▁거리	-10.457
▁불쌍한	-10.457
▁부럽	-10.4571
▁손발	-10.4574
▁졸았	-10.4575
▁짜증만	-10.4578
찰	-10.458
도좋고	-10.4584
ᅮᅮᅮᅮ	-10.4587
▁몰라	-10.4589
▁믿기지	-10.4594
▁스릴도	-10.4603
▁높아서	-10.4604
▁작가님	-10.461
▁괜찮고	-10.461
▁우연	-10.4611
▁키스	-10.4616
▁남긴	-10.462
▁사랑합니다	-10.4622
여운	-10.4624
▁웃을	-10.4626
스톤	-10.4629
▁못보겠다	-10.4631
보내	-10.4634
▁한국영화의	-10.4636
선정	-10.4637
스케	-10.4637
▁마리	-10.4648
▁액션과	-10.4649
▁하는게	-10.4665
▁영화였음	-10.4674
발연기	-10.4676
▁이해를	-10.4677
▁줍니다	-10.4679
▁때려	-10.4682
▁그만큼	-10.4683
젊	-10.4684
둡	-10.4687
얄	-10.4687
▁브루스	-10.4687
▁유덕화	-10.4687
▁플롯	-10.4687
▁호기심	-10.4687
▁아놀드	-10.4687
▁동시에	-10.4687
▁4.44	-10.4689
▁흐르는	-10.4689
▁꿈꾸	-10.4689
▁명대사	-10.469
▁축구	-10.4693
▁저평가	-10.4697
하는건지	-10.4699
▁아내	-10.4699
▁쩌는	-10.4704
▁유럽	-10.4704
▁꼭보세요	-10.4704
▁배우들은	-10.4706
▁아쉬움이	-10.4706
▁인형	-10.4716
▁하지원	-10.4717
귀엽	-10.4719
▁바다	-10.4722
▁영상미가	-10.4722
세여	-10.4729
뻔했다	-10.4733
맞는	-10.4733
혹은	-10.4746
조아	-10.4747
▁인생은	-10.4747
▁안본다	-10.4753
▁지겹	-10.4756
▁봤다면	-10.4757
▁들고	-10.4761
▁별하나	-10.4764
빠진	-10.4767
▁전쟁의	-10.4768
▁현실과	-10.4772
▁무난	-10.4774
▁꿀	-10.478
▁검색	-10.4787
▁보게된	-10.4787
▁유발	-10.4789
▁감정이	-10.479
▁아우	-10.4794
아이들	-10.4796
▁알았네	-10.4798
할수가	-10.4799
▁어색하고	-10.48
▁정신없	-10.4806
빼	-10.4807
▁공감할	-10.4813
▁재난	-10.4814
납	-10.4815
▁작품입니다	-10.4818
▁점수는	-10.4818
셋	-10.4818
▁도무지	-10.4819
▁스타뎀	-10.4819
▁착각	-10.4821
▁돈아까워	-10.4823
▁그림체	-10.4826
▁가고	-10.4826
▁어디로	-10.4829
▁재미있었습니다	-10.483
▁추격	-10.4832
▁세상이	-10.4833
▁반전에	-10.4836
숨	-10.4838
▁역사를	-10.4838
▁박수	-10.4838
▁동양	-10.4839
▁예능	-10.4839
굿굿	-10.484
▁재미있었음	-10.4846
▁도망	-10.4848
캐스팅	-10.4852
꿀	-10.4853
▁봐야지	-10.4858
햇는데	-10.4859
▁먹는	-10.4862
▁내돈	-10.4864
▁꽤나	-10.4865
상영	-10.4865
▁아냐	-10.4867
차별	-10.4868
▁형제	-10.4868
▁괜찮네요	-10.487
▁여주가	-10.4872
▁오브	-10.4879
좋아하	-10.4894
▁배신	-10.4901
80	-10.4907
▁다시보고	-10.4909
멜	-10.4916
▁그립	-10.4922
▁어우	-10.4931
능력	-10.4937
알아	-10.4938
간만에	-10.4939
앞에서	-10.494
ᄁ	-10.4952
ᅢ	-10.4952
▁네티즌	-10.4952
뭣	-10.4952
▁깡패	-10.4952
▁나레이션	-10.4952
덩어리	-10.4952
▁쉽지	-10.4952
▁정우성	-10.4952
▁즐길	-10.4956
▁망쳐	-10.4957
▁할아버지	-10.4957
▁장난하냐	-10.4958
▁당연히	-10.496
▁폭발	-10.496
▁거북	-10.4963
▁그야말로	-10.4963
▁실화를	-10.4964
▁일본인	-10.4964
▁개콘	-10.4965
신분	-10.4968
보고싶어요	-10.4968
▁겨울	-10.4969
▁상어	-10.497
▁삶이	-10.4971
분동안	-10.4972
주기도	-10.4975
▁아무도	-10.498
▁무엇인가	-10.4983
없네요	-10.4984
▁시작부터	-10.499
▁X	-10.499
▁예술영화	-10.4993
▁정신병자	-10.4993
▁아깝네요	-10.5015
▁감동적이네요	-10.5022
▁마니	-10.5029
너무너무	-10.5041
최고다	-10.5042
▁보이지	-10.5049
▁이름이	-10.5049
▁설정이	-10.5055
▁아진짜	-10.5055
▁등장인물	-10.5062
▁잘만들었다	-10.5074
순위	-10.5078
한건지	-10.5081
왔어요	-10.5082
엽	-10.5084
▁찾는	-10.5084
뿐이다	-10.5086
갱	-10.5087
빗	-10.5087
쟈	-10.5087
▁명불허전	-10.5087
▁역겨운	-10.5087
▁임창정	-10.5087
▁이토록	-10.5087
▁양아치	-10.5087
▁갠적으로	-10.5087
▁심지어	-10.5088
▁친구가	-10.5091
▁만화책	-10.5093
▁엉망이	-10.5093
▁부탁	-10.5095
▁자신을	-10.5097
▁기가	-10.51
▁황당한	-10.5101
▁시대에	-10.5101
->	-10.5102
▁볼만합니다	-10.5106
▁찾아볼	-10.5113
▁아니잖아	-10.5115
▁좋네	-10.5117
하시길	-10.5118
▁어디가	-10.5123
나왓	-10.5128
잼씀	-10.5129
▁실감	-10.5135
느끼	-10.5138
▁후에	-10.5138
▁원조	-10.5139
▁히어로	-10.5146
▁문제가	-10.515
▁기대없이	-10.5151
▁풋풋한	-10.5153
▁호구	-10.5156
시원	-10.5157
▁책으로	-10.5158
겐	-10.5161
외엔	-10.5163
▁매력에	-10.5167
▁유치해서	-10.5168
자신	-10.5172
▁정작	-10.5183
뭐지	-10.5189
였지	-10.519
하나하나가	-10.5193
▁찍는	-10.5194
뭐냐	-10.5197
▁실수	-10.5198
▁배경이	-10.5203
▁가득한	-10.5211
▁:)	-10.5213
▁그것도	-10.5218
▁나네요	-10.5218
봐야지	-10.5221
▁끝날때	-10.5221
팍	-10.5224
▁이병헌	-10.5224
▁of	-10.5224
▁향연	-10.5225
▁영화예요	-10.5226
없구	-10.5228
▁빠른	-10.5229
▁흘리	-10.5231
부분은	-10.5231
▁서울	-10.5237
▁말아야	-10.5238
▁거품	-10.5243
▁암울	-10.5245
▁혹시나	-10.5251
▁처음에는	-10.5253
▁친구랑	-10.5258
싫어	-10.5259
므로	-10.526
▁괜찮아	-10.5261
▁순수하고	-10.5263
맞아	-10.5263
▁액션신	-10.5264
있네요	-10.5265
▁위트	-10.5273
▁공간	-10.5274
▁찾을	-10.5274
▁ᄡ	-10.5279
놨네	-10.5279
그럼	-10.5282
▁확인	-10.5285
▁허무한	-10.5288
▁싶었다	-10.5291
ve	-10.5293
편까지	-10.5294
▁촌스러	-10.5302
▁밤에	-10.5317
▁고어	-10.5318
주제	-10.5322
있지만	-10.5322
▁않은데	-10.533
나름	-10.5334
모르고	-10.5343
▁추천하고	-10.535
그러나	-10.5351
▁조아	-10.5354
랍	-10.5359
ᅩ	-10.5362
▁컴퓨터	-10.5363
및	-10.5363
▁떨어짐	-10.5363
▁적절한	-10.5363
▁박진감	-10.5363
▁낭만	-10.5365
▁탈출	-10.5365
지루하고	-10.5366
▁실험	-10.5367
▁배꼽	-10.537
▁이름을	-10.5371
en	-10.5371
▁담담	-10.5371
▁기대하지	-10.5372
▁억지감동	-10.538
▁속았다	-10.5382
▁무섭고	-10.5384
▁김치	-10.5385
▁훈훈하	-10.5389
▁다행이다	-10.539
▁어울리지	-10.5392
▁정상	-10.5392
▁제작비가	-10.5394
답게	-10.5395
▁최악의영화	-10.5398
하실	-10.5403
▁대학	-10.5404
▁메이	-10.5408
▁생기	-10.5413
▁프랑스영화	-10.5415
▁매니아	-10.5416
▁짜증나고	-10.5418
쩝	-10.5423
뭘	-10.5423
▁좋아하지만	-10.5424
▁없게	-10.5445
안돼	-10.5447
행복	-10.5451
▁남았	-10.5466
내용은	-10.5466
▁뭐라고	-10.5467
주는데	-10.5475
▁아프다	-10.5479
▁현실감	-10.548
ᄏᄏᄏᄏᄏᄏ	-10.5484
지루하다	-10.5485
▁명성	-10.5489
긴했지만	-10.549
▁웃었	-10.5498
븐	-10.5504
짤	-10.5504
▁아무생각없이	-10.5504
인상깊었	-10.5504
▁쓸데없이	-10.5504
▁베드신	-10.5504
▁반드시	-10.5504
맙시다	-10.5504
소녀	-10.5508
▁로빈	-10.551
▁엄청나게	-10.551
▁판단	-10.5513
▁따름	-10.5514
▁빛을	-10.5524
보지마	-10.5532
▁궁금해서	-10.5542
올라	-10.5546
것보다	-10.5549
스릴	-10.5551
▁사람들에게	-10.5558
잤	-10.5569
섬	-10.557
비슷	-10.557
▁아니었다	-10.5573
▁묻어	-10.5576
봤어	-10.5576
지루해	-10.5577
▁이만한	-10.5584
▁빠르	-10.5586
▁무섭게	-10.5586
▁곧	-10.5587
▁안될	-10.5593
만드냐	-10.5594
▁내일	-10.5594
500	-10.5596
또한	-10.5615
것처럼	-10.5618
▁전편보다	-10.5621
재밋다	-10.5629
▁명배우	-10.5631
▁잼있는	-10.5644
콤	-10.5645
뻥	-10.5646
퀄	-10.5646
▁소중함을	-10.5646
▁전반적으로	-10.5646
▁공짜로	-10.5647
▁이해불가	-10.5647
▁사투리	-10.5647
▁케빈	-10.5647
▁스파이	-10.5648
펙트	-10.5648
▁어설프다	-10.5649
▁앞뒤	-10.565
▁마지막엔	-10.565
▁이것보단	-10.5652
▁일부러	-10.5653
▁멋있어	-10.5653
▁감동적이에요	-10.5654
▁에효	-10.5655
▁파괴	-10.5656
▁요새	-10.5659
것같은데	-10.5662
▁말자	-10.5662
▁만들어낸	-10.5662
ᄀᄀ	-10.5663
▁장난아니	-10.5668
찾아	-10.5674
▁철학적	-10.5676
▁답답하다	-10.5683
▁수많은	-10.5683
▁치유	-10.5685
▁녹아	-10.5685
▁욕심	-10.5698
▁자극적	-10.5702
갖	-10.5702
시간동안	-10.5705
▁저급	-10.5707
▁좋을듯	-10.5711
▁시대의	-10.5713
▁넘넘	-10.5714
▁시작해서	-10.5717
좋네요	-10.5718
▁다르게	-10.5718
평론가	-10.5719
벤	-10.572
TV	-10.5721
▁왜곡	-10.5725
리스트	-10.5728
갈때	-10.5738
해줄	-10.5738
▁괜찮게	-10.5749
귀신	-10.5753
봤습니다	-10.5759
▁자아	-10.5766
못하는	-10.5768
미친	-10.5769
▁2000	-10.5791
츄	-10.5791
▁스타워즈	-10.5791
▁인터넷	-10.5791
껀	-10.5791
눌	-10.5791
핫	-10.5791
▁화장실	-10.5791
쯧쯧	-10.5791
▁무거운	-10.5792
▁감명깊게	-10.5792
▁목숨	-10.5792
▁답답해	-10.5793
▁맞춰	-10.5795
표정	-10.5795
▁오래전에	-10.5796
▁응원	-10.5797
▁관련	-10.5797
조연	-10.5798
▁이딴영화	-10.5802
▁전체적인	-10.5803
▁절망	-10.5805
▁생각해보게	-10.5806
▁여친	-10.5808
▁아만다	-10.581
▁미안하다	-10.5811
외에는	-10.5812
▁갖다	-10.5813
▁부담	-10.5818
▁기존	-10.5818
▁괜찮았음	-10.5824
▁귀여워요	-10.583
▁간지	-10.5835
▁인상적인	-10.5839
ma	-10.5839
▁찍고	-10.5863
▁생명	-10.5865
꿈	-10.5868
칼	-10.5871
▁최고최고	-10.5886
▁읽고	-10.5892
나쁜	-10.5897
보시	-10.5899
줄알았다	-10.5899
터짐	-10.5905
▁캐리	-10.5906
am	-10.5908
제대로	-10.5912
좋은데	-10.5915
세포	-10.5923
만큼이나	-10.5924
▁돼지	-10.5931
쯔	-10.5938
렐	-10.5938
뻑	-10.5938
숀	-10.5938
▁둘째치고	-10.5938
쩍	-10.5938
템	-10.5938
헉	-10.5938
▁불가능	-10.5939
▁흑백	-10.5939
▁혐오	-10.5939
▁기획	-10.5945
▁극복	-10.5948
▁어느정도	-10.5953
▁개똥	-10.5954
▁만들어라	-10.5956
자마자	-10.5958
아까운영화	-10.5962
▁사랑스럽다	-10.5962
▁100%	-10.5963
하고싶다	-10.5964
▁사람이라면	-10.5966
▁사랑한다	-10.5967
▁등장인물들	-10.5967
보긴	-10.597
▁기적	-10.5971
▁가족들	-10.5971
▁애매	-10.5974
▁당신이	-10.5974
▁미소가	-10.5974
▁보았던	-10.5977
▁재밋엇	-10.5978
하니까	-10.5978
미국	-10.5984
▁평화	-10.5985
겠는데	-10.5986
▁그동안	-10.5995
싫다	-10.6002
▁망할	-10.6003
스티	-10.6013
▁잘한다	-10.6014
▁충격적인	-10.602
코메디	-10.6025
오랜만에	-10.6025
▁그렇지만	-10.6029
▁아파	-10.6031
하하하하	-10.6033
예술	-10.6035
ᅲᅲᅲᅲᅲ	-10.6038
멋잇	-10.6046
▁말고는	-10.6046
▁거기에	-10.6049
▁캐릭터들이	-10.6052
▁담은	-10.6055
▁끝나서	-10.6055
▁깔끔한	-10.6058
▁이것보다	-10.6061
하지말고	-10.6065
ic	-10.6068
▁감동입니다	-10.6072
▁보려	-10.6077
줘야지	-10.6082
▁열라	-10.6084
▁이거보다	-10.6085
그렇게	-10.6087
▁킬링	-10.6087
쿡	-10.6088
덩	-10.6088
덴	-10.6088
뚝	-10.6088
뭉	-10.6088
밧	-10.6088
캡	-10.6088
툭	-10.6088
▁도데체	-10.6088
▁오글오글	-10.6088
▁누군지	-10.6088
▁하이틴	-10.6088
▁엽기	-10.6089
▁상관없	-10.6089
▁블랙코미디	-10.6089
▁ᄌᄂ	-10.6089
▁짜릿	-10.609
▁왠만한	-10.6091
▁필요한가	-10.6092
▁잃은	-10.6093
▁빛나는	-10.6093
▁웃었다	-10.6094
▁등등	-10.6098
해지고	-10.6099
습니까	-10.6103
되요	-10.611
▁조낸	-10.6111
▁담긴	-10.6112
▁울었어요	-10.6114
거에요	-10.6119
힘들	-10.6128
▁산만하고	-10.613
▁멋져	-10.613
ll	-10.6148
▁싸우	-10.6149
▁알았음	-10.6149
꺼야	-10.6149
▁모르겠네요	-10.6151
▁보시면	-10.6152
▁않았지만	-10.6154
게만드는	-10.6155
낫다	-10.6161
모자	-10.6164
재미있다	-10.6165
▁파리	-10.6175
못하고	-10.6175
▁보겠다	-10.6175
▁빠졌	-10.6183
나왔으면	-10.619
▁중심	-10.6192
당시엔	-10.6194
▁뜬금없는	-10.6195
▁뭐임	-10.6208
▁좋지	-10.6209
▁혹시	-10.6211
엇음	-10.6227
작이라	-10.6228
전혀	-10.6232
▁시도는	-10.6236
펜	-10.6239
랴	-10.6239
쉴	-10.6239
쫓	-10.6239
▁오프닝	-10.6239
▁리얼리티	-10.6239
▁말그대로	-10.6239
스파이더맨	-10.6239
▁명복을	-10.6239
▁비호감	-10.6239
▁닥치고	-10.6239
▁격투	-10.624
▁살리지	-10.624
▁두시간	-10.6242
▁예측	-10.6242
▁서양	-10.6247
▁웃기는	-10.6248
▁마시길	-10.625
▁진지한	-10.6255
▁재밌게봤어요	-10.6259
▁멋져요	-10.6259
▁한심하다	-10.626
▁만화영화	-10.6261
▁절로	-10.6262
할수있는	-10.6273
▁거지같은	-10.6276
▁나을듯	-10.6282
점만점에	-10.6282
맘에	-10.6286
▁답답함	-10.6287
▁보는것	-10.6292
▁만난	-10.6295
제일	-10.6299
▁벗어	-10.6308
▁재미없었	-10.631
▁한번더	-10.6313
▁이거보단	-10.632
드립	-10.6326
보임	-10.6328
▁나와야	-10.633
un	-10.6332
▁ᄒᄃᄃ	-10.6334
▁멋있었	-10.6336
시나리오	-10.6338
▁옆에	-10.6341
곳에서	-10.6342
▁짜증나게	-10.6348
▁소장하고	-10.6348
같아요	-10.6349
▁어이없다	-10.635
▁신선함	-10.635
▁불쌍해	-10.6353
▁뭐여	-10.6371
▁부정	-10.6374
픔	-10.6375
셔야	-10.6376
▁가족애	-10.6389
씁	-10.6393
낯	-10.6393
▁의지	-10.6393
▁놀랐다	-10.6393
▁류승범	-10.6393
▁못봐주겠	-10.6393
▁송강호	-10.6393
▁어정쩡	-10.6393
▁흡입력	-10.6393
▁자동차	-10.6393
▁어두운	-10.6393
▁기발한	-10.6393
▁흥미로웠	-10.6394
▁민폐	-10.6395
▁위험	-10.6398
▁최소	-10.6398
▁낫겠다	-10.6401
▁은근	-10.6404
▁실망이다	-10.6404
▁이도저도	-10.6404
ᄃᄃᄃ	-10.6405
▁맞나	-10.6407
▁부활	-10.6408
▁희망을	-10.6409
유발	-10.6409
▁진지하게	-10.6414
▁모욕	-10.6415
▁첨부터	-10.6421
▁탄탄하고	-10.6425
▁마약	-10.6426
것같네요	-10.6431
▁멋있고	-10.6433
▁있었으면	-10.6433
여배우	-10.6438
▁대사들	-10.6448
밖	-10.6451
브리	-10.6453
▁형편없는	-10.6457
▁여자애	-10.6462
▁말밖에	-10.6463
▁첨이다	-10.6464
▁상대	-10.6468
쁜	-10.6469
▁낚인	-10.6471
하거나	-10.6475
훌륭	-10.6479
▁삶과	-10.6481
▁보라고	-10.6481
였다면	-10.6485
▁낮네요	-10.6494
▁벗어나	-10.6497
▁명연기	-10.6503
천원	-10.6503
돌려	-10.6504
▁소름끼치는	-10.6506
핵	-10.6507
▁소화	-10.6508
곳이	-10.651
▁찾아서	-10.6511
선택	-10.6512
▁무대	-10.6515
▁자극적인	-10.652
▁초반부	-10.6521
▁달려	-10.6526
▁잊고	-10.6534
▁다시보기	-10.6538
▁인생영화	-10.6549
셉	-10.6549
톡	-10.6549
▁Good	-10.6549
됫	-10.6549
쉐	-10.6549
캠	-10.6549
▁가까운	-10.6549
▁신하균	-10.6549
▁쓸데없는	-10.6549
▁언젠가	-10.6549
▁유치찬란	-10.6549
▁강동원	-10.6549
▁라이언	-10.6549
▁첩보	-10.655
▁킬러	-10.655
▁고뇌	-10.6552
였구나	-10.6555
▁개그맨	-10.6557
▁도시	-10.6558
▁만들었나	-10.6558
▁중학생	-10.6563
▁로망	-10.6564
▁말하려는	-10.6568
녀석	-10.6568
유쾌하게	-10.6569
▁잘못된	-10.657
립니다	-10.6574
▁무겁	-10.6574
▁장난하나	-10.6577
놈들은	-10.658
있던	-10.6582
▁강추합니다	-10.6582
▁씁쓸하	-10.6585
▁안보는게	-10.6587
▁유행	-10.6591
▁안나온다	-10.6594
▁연기잘하	-10.6597
▁끌고	-10.66
▁여인	-10.6609
▁마지막회	-10.6617
▁멋진영화	-10.6619
특집	-10.6622
맞음	-10.6627
▁기타	-10.6634
였네요	-10.6643
▁가히	-10.6644
▁잼있네요	-10.6645
▁만났	-10.6645
▁충분한	-10.6653
지않게	-10.6655
다시보고싶	-10.6657
▁화나	-10.6661
▁별로였다	-10.6671
▁미국식	-10.6678
바람	-10.6679
us	-10.6682
▁코믹영화	-10.6698
앞으로	-10.6701
으려고	-10.6705
랩	-10.6708
렛	-10.6708
맑	-10.6708
뱀	-10.6708
셜	-10.6708
쭈	-10.6708
퉤	-10.6708
▁점수준것들	-10.6708
버렸네	-10.6708
▁괜찬	-10.6708
▁박보영	-10.6708
▁배급사	-10.6708
▁혁명	-10.6709
▁환경	-10.6709
▁그려낸	-10.6711
▁2012	-10.6711
▁좋았을텐데	-10.6712
▁장애인	-10.6713
▁동영상	-10.6715
▁좋으나	-10.6718
▁태국	-10.6721
▁충분하다	-10.6723
▁일반	-10.6724
▁천국	-10.6726
▁대신	-10.6727
▁여태	-10.673
▁드림	-10.6731
▁재미있었는데	-10.6742
▁보고싶은데	-10.6743
▁한방	-10.6746
비추	-10.675
▁주온	-10.675
▁읽는	-10.6753
▁미녀	-10.6756
▁공유	-10.6759
▁끝날	-10.6761
▁최고에요	-10.6761
보신분들	-10.6761
▁귀여	-10.6767
효과	-10.6773
▁환상적인	-10.6774
좋아하는데	-10.6778
까봐	-10.6786
▁처음이네	-10.6786
망작	-10.6788
▁독특하고	-10.6789
▁모르겠네	-10.6794
▁화끈	-10.6804
▁세월이	-10.6817
돈주고	-10.6824
로맨스	-10.6834
ch	-10.684
▁놓치	-10.6849
되네	-10.685
랙	-10.6869
풋	-10.6869
곽	-10.6869
▁오그라드는	-10.6869
렴	-10.6869
▁아름다워	-10.6869
▁EBS	-10.6869
▁피아노	-10.6869
▁일주일	-10.687
▁완젼	-10.687
▁쓸쓸	-10.687
▁고딩	-10.6877
▁공룡	-10.6877
▁미치겠	-10.6877
▁이끌어	-10.6877
▁과학	-10.6878
▁묘한	-10.6879
학년때	-10.6893
▁살인마	-10.6897
였네	-10.6897
▁모르지만	-10.6901
he	-10.6914
▁뻔하다	-10.6918
▁느껴졌다	-10.6921
▁나무	-10.6923
▁잃었	-10.6927
▁중국영화	-10.6939
ha	-10.6939
▁마시	-10.6939
끝나고	-10.6953
할줄	-10.6958
겠어	-10.6959
▁잠시	-10.6959
▁결론은	-10.696
ri	-10.7003
▁막판	-10.7004
초딩	-10.7006
▁심하다	-10.7008
병맛	-10.7009
허무	-10.7012
40	-10.7015
▁본격	-10.7016
ᄐ	-10.7033
엮	-10.7033
혔	-10.7033
▁뒤죽박죽	-10.7033
▁디카프리오	-10.7033
▁시종일관	-10.7033
▁알파치노	-10.7033
둠	-10.7033
옳	-10.7033
▁믿어	-10.7033
▁섬세한	-10.7033
▁걱정	-10.7034
▁몽환적	-10.7034
▁is	-10.7034
▁극혐	-10.7035
마누라	-10.7035
▁영원	-10.7036
▁죄송	-10.7036
▁전성기	-10.7036
▁말이필요없다	-10.7036
▁각색	-10.7039
▁훌륭하	-10.7043
▁고독	-10.7044
하는구나	-10.7058
▁이번에	-10.7067
이후로	-10.7067
▁귀여웠	-10.7075
너무좋아	-10.7078
▁언제까지	-10.7084
▁않았던	-10.7084
형제	-10.7088
▁넣어	-10.7091
▁말인가	-10.7105
▁명성에	-10.7109
▁비중	-10.7112
▁반영	-10.7114
▁승리	-10.7124
봣어요	-10.7124
▁보여줘	-10.7131
ed	-10.7143
사실	-10.7147
▁좋더라	-10.7153
삼류	-10.7155
속으로	-10.7155
볼까	-10.7162
▁재밋어	-10.7165
▁흉내	-10.7168
15	-10.7169
낭비	-10.717
▁이상하다	-10.7173
▁싫어하는	-10.7174
^^;	-10.718
에비해	-10.7195
앵	-10.7198
퉁	-10.72
걷	-10.72
▁movie	-10.72
▁빕니다	-10.72
겻	-10.72
켓	-10.72
▁미스캐스팅	-10.7201
드려요	-10.7201
▁멋짐	-10.7205
웠던	-10.7205
▁살렸다	-10.721
▁흘러가는	-10.721
더군	-10.7215
▁되돌아	-10.7217
▁짝이	-10.7217
▁만약	-10.7219
▁중년	-10.7221
▁단순히	-10.7223
었구나	-10.7224
▁때리	-10.7227
▁마블	-10.7228
▁싶었던	-10.7229
▁다운받아서	-10.7234
▁느껴지지	-10.7235
▁역사상	-10.7244
▁모든것이	-10.7247
흥미롭	-10.7249
▁욕먹	-10.725
▁만들려	-10.7257
느냐	-10.7257
하자면	-10.7258
극히	-10.726
▁한시간	-10.7276
▁조잡한	-10.7281
▁개봉당시	-10.7285
아니면	-10.7287
김정	-10.729
살때	-10.7303
▁기대했	-10.7321
구먼	-10.733
봤네	-10.7335
맹	-10.7348
룬	-10.7351
▁전설이	-10.7361
▁의상	-10.7365
뚫	-10.7369
썸	-10.7369
ᄊ	-10.7369
릇	-10.7369
몫	-10.7369
퀸	-10.7369
튜	-10.7369
▁나루토	-10.7369
▁칭찬	-10.737
▁한효주	-10.737
▁드니로	-10.737
▁비행기	-10.737
▁에라이	-10.7372
▁후하게	-10.7375
▁재미없네요	-10.7375
페이스	-10.7377
▁라스트	-10.7378
▁먹칠	-10.7379
▁재앙	-10.738
▁사랑스럽고	-10.7382
▁좋겠습니다	-10.7382
▁개꿀잼	-10.739
▁흥분	-10.7391
분짜리	-10.7392
충격	-10.7392
여주인공	-10.7393
▁역작	-10.7394
▁-_-;;	-10.7398
▁오글거리는	-10.7402
▁대결	-10.7403
▁완벽하다	-10.7412
▁어쩌면	-10.7413
▁역겹다	-10.7415
겨울	-10.7421
▁어이없음	-10.7425
▁놀란	-10.7426
▁준비	-10.743
되길	-10.7437
중국	-10.7456
ay	-10.7458
그저	-10.7459
▁남성	-10.7468
▁빠져서	-10.7478
누님	-10.748
▁불안	-10.7495
▁옛날영화	-10.7506
▁신화	-10.7509
▁심한	-10.751
▁대부	-10.753
경찰	-10.7532
뜸	-10.7542
옮	-10.7542
덮	-10.7542
▁아기자기	-10.7542
▁짬뽕	-10.7542
▁섬뜩	-10.7542
▁수면제	-10.7543
할수없는	-10.7544
역할	-10.7545
▁역량	-10.7546
▁슈퍼맨	-10.7546
▁앉아	-10.7548
재밋어요	-10.7557
주려고	-10.7558
ce	-10.7561
아무리	-10.7563
▁봤는지	-10.7566
▁뻔한스토리	-10.757
▁기억난다	-10.757
▁감명	-10.7578
편집	-10.7579
▁미스터리	-10.758
▁최소한	-10.7592
▁볼것	-10.7597
▁멋지게	-10.7599
재밋음	-10.7603
▁해피	-10.7605
▁않아요	-10.7609
▁뛰어넘는	-10.7628
▁아까워서	-10.7632
▁구분	-10.7639
▁보고나니	-10.765
.,.,	-10.7656
▁천사	-10.7662
50	-10.7674
점주기도	-10.7683
터졌	-10.7686
▁세상에서	-10.7687
el	-10.7703
▁정체	-10.7705
▁가야	-10.7707
폴	-10.7709
애니메이션	-10.771
어설프	-10.7712
듦	-10.7717
▁오랫동안	-10.7717
쏴	-10.7717
왈	-10.7717
킴	-10.7717
▁즐거움	-10.7717
홈	-10.7717
▁왕조현	-10.7717
▁여러모로	-10.7717
▁원숭이	-10.7717
▁바탕으로	-10.7718
▁무간도	-10.7718
▁쏘우	-10.7718
보니깐	-10.7719
▁상큼	-10.7719
▁도둑	-10.772
▁호흡	-10.7722
▁웃겼다	-10.7723
▁모자라	-10.7728
맞추기	-10.7744
각본	-10.7744
▁지옥	-10.775
▁독특하	-10.7756
▁실사	-10.7757
몰라	-10.7759
물론	-10.7764
▁공연	-10.777
▁제대로된	-10.7773
▁어쩌다	-10.7783
것같아	-10.7788
▁사람에게	-10.7796
▁불쌍하	-10.78
▁여배우들	-10.781
▁행복하게	-10.7813
▁아이유	-10.7814
▁가시	-10.7819
▁머냐	-10.782
▁군인	-10.7823
▁진부하다	-10.7823
▁여신	-10.7827
순수	-10.7827
해줘서	-10.784
▁되야	-10.7851
▁OOOO	-10.7852
할정도로	-10.7853
se	-10.7861
▁정보	-10.7865
▁벌어	-10.7877
거같아	-10.7885
앉	-10.789
왠	-10.7891
무서워	-10.7891
샘	-10.7894
판타지	-10.7896
뚜	-10.7896
썬	-10.7896
▁2.22	-10.7896
▁컨셉	-10.7896
▁한석규	-10.7896
▁데이빗	-10.7896
▁데뷔작	-10.7896
▁김수현	-10.7896
▁최민수	-10.7896
CG	-10.7896
▁완죤	-10.7896
▁봐줄만	-10.7896
▁별반개	-10.7896
점준것중	-10.7896
▁단점	-10.7897
▁늙은	-10.7899
><	-10.7899
범죄	-10.7899
▁로맨틱코미디	-10.7899
애초에	-10.7901
▁알려주는	-10.7902
▁돌아보게	-10.7903
ost	-10.7903
생기고	-10.7903
▁상징	-10.7907
▁말씀	-10.7908
▁보여줄	-10.7908
▁같았다	-10.7911
▁심심하	-10.7913
▁또라이	-10.7915
결국	-10.7915
▁만들어주	-10.7916
ᄃᄃᄃᄃ	-10.7916
▁최후	-10.7921
▁우왕	-10.7925
아닌데	-10.7932
졌으면	-10.7935
멋진	-10.7936
▁아이들에게	-10.7937
▁파워	-10.7947
보고나서	-10.7948
▁인류	-10.795
▁없던	-10.796
▁광기	-10.796
▁말투	-10.797
▁전라도	-10.7972
▁웃겨서	-10.7974
▁강간	-10.7974
구역	-10.7981
▁그리워	-10.8001
▁토니	-10.8004
▁건질	-10.8005
주었다	-10.8026
신분들	-10.8035
▁정신병	-10.8036
▁방해	-10.8036
▁넘어서	-10.8064
▁이딴거	-10.807
밋	-10.8071
감명깊	-10.8077
흉	-10.8077
셧	-10.8078
▁스필버그	-10.8078
▁오그라들	-10.8078
앜	-10.8078
▁다이하드	-10.8078
▁아마추어	-10.8078
룰	-10.8078
▁그냥저냥	-10.8078
▁박평식	-10.8078
▁농담	-10.8078
▁왕가위	-10.8078
▁빠져들게	-10.8078
▁후속편	-10.8078
▁다니엘	-10.8078
▁컬트	-10.8078
▁두고두고	-10.8078
▁깜놀	-10.8079
ᅲᅲᅲᅲᅲᅲᅲᅲᅲᅲ	-10.8079
▁레옹	-10.8081
▁더러워	-10.8081
▁케미	-10.8081
▁픽사	-10.8082
밖엔	-10.8082
▁풀어낸	-10.8082
시청률	-10.8083
▁잔잔함	-10.8083
▁잔인함	-10.8083
아름다운	-10.8084
개인적으로	-10.8084
▁난해한	-10.8084
옛날	-10.8084
▁등록	-10.8085
우리나라	-10.8085
▁재탕	-10.8086
▁권력	-10.8087
예쁘	-10.8089
▁감동적입니다	-10.8091
▁스릴러물	-10.8099
▁아무튼	-10.8099
▁애정	-10.81
▁스토	-10.81
▁가짜	-10.8102
▁괜찮았던	-10.8103
합시다	-10.8107
▁무협영화	-10.811
▁의미있는	-10.8112
▁찍으	-10.8117
것같음	-10.8117
▁책임	-10.8125
▁부산	-10.8126
있었는데	-10.8137
ho	-10.8141
▁모방	-10.8144
보지마라	-10.8144
▁들어간	-10.8152
뿐만	-10.8159
는뎅	-10.8178
▁기대했던	-10.8183
▁먹어	-10.8192
ne	-10.8194
▁지키	-10.8198
▁부족함	-10.8204
딜	-10.8257
▁환상적	-10.826
뤄	-10.8263
팩	-10.8263
▁송승헌	-10.8263
▁포켓몬	-10.8263
뺏	-10.8263
▁뒤늦게	-10.8263
▁애니매이션	-10.8263
▁엄정화	-10.8263
▁엉망진창	-10.8263
젝	-10.8263
▁마찬가지	-10.8263
▁잊지못할	-10.8263
▁클래식	-10.8263
▁김희선	-10.8263
▁김혜수	-10.8263
▁묵직	-10.8263
▁밝혀	-10.8263
▁아쉬울	-10.8263
▁택시	-10.8264
▁자연스럽게	-10.8265
▁의사	-10.8275
▁아쉬워요	-10.8276
줍니다	-10.8276
▁못하겠다	-10.8281
▁재미나게	-10.8285
▁않으	-10.8287
▁감동적임	-10.8287
▁감동적이었다	-10.8289
▁no	-10.8291
▁재밌었습니다	-10.8294
▁비록	-10.8296
▁채우	-10.8297
▁또보고싶	-10.8302
▁소통	-10.8303
▁울림	-10.831
▁향수	-10.8314
▁짜증났	-10.8316
▁오직	-10.832
보려고	-10.8323
회부터	-10.8324
▁세월	-10.8343
▁약하다	-10.8357
▁없군	-10.8376
했어야	-10.8388
복수	-10.8389
해놓고	-10.8393
▁있었음	-10.8396
지못한	-10.8407
ter	-10.8408
▁팬들	-10.8409
실력	-10.8418
처리	-10.8424
▁공감되	-10.8432
▁스릴감	-10.8444
곱	-10.8452
밉	-10.8452
Y	-10.8452
^_^	-10.8452
뜯	-10.8452
▁차승원	-10.8452
욬	-10.8452
▁멈추	-10.8452
▁드래곤볼	-10.8452
▁거부감	-10.8452
▁심오한	-10.8452
▁어설프게	-10.8453
▁크리스찬	-10.8454
▁강아지	-10.8455
▁가슴아프	-10.8455
▁새삼	-10.8459
멀	-10.8467
점도아깝다	-10.8469
첫	-10.847
해야하나	-10.8475
▁흥미롭지	-10.848
보지마세요	-10.8488
▁굿굿굿	-10.8493
▁작화	-10.8498
▁재방	-10.85
웃긴	-10.85
▁한동안	-10.8505
▁미학	-10.8509
▁잼나요	-10.8512
av	-10.8512
▁나올까	-10.8516
셨으면	-10.8519
▁야하지도	-10.8523
▁화끈한	-10.8534
▁볼만한데	-10.8538
▁커버	-10.8554
하겠습니다	-10.8569
▁매주	-10.8587
▁나왔던	-10.8587
▁동감	-10.8605
섯	-10.8625
뗄	-10.8636
첩	-10.8642
뎀	-10.8643
▁캐릭	-10.8644
솜	-10.8644
팝	-10.8644
▁고등학생	-10.8644
▁군더더기	-10.8644
▁비쥬얼	-10.8644
▁영웅본색	-10.8644
▁테이큰	-10.8644
▁호불호가	-10.8644
랏	-10.8644
줫	-10.8644
턱	-10.8644
팽	-10.8644
▁러브스토리	-10.8644
▁세련된	-10.8644
▁원주율	-10.8644
▁차태현	-10.8644
▁팝콘	-10.8644
렘	-10.8644
▁움직이	-10.8644
▁감성팔이	-10.8644
▁머릿속	-10.8644
▁평점조절	-10.8644
▁원피스	-10.8644
▁지겨워	-10.8645
▁흥미롭게	-10.8645
땜시	-10.8647
▁질질끌	-10.8647
▁민족	-10.8647
▁찬양	-10.865
밴드	-10.865
▁시간아까워	-10.8654
▁재밌기만	-10.8665
무서운	-10.8672
댓글	-10.8673
사냥	-10.8676
▁웃다가	-10.8677
▁보고있는데	-10.8678
▁보는동안	-10.8679
▁흉내내	-10.8682
▁알바생	-10.8687
안좋	-10.8689
▁불쌍해서	-10.869
폭력	-10.8691
▁레오	-10.8694
▁만든건지	-10.8695
▁에로물	-10.8697
▁평소	-10.8698
▁마녀	-10.8698
:)	-10.8698
▁대역	-10.8704
▁인연	-10.8708
▁지금보면	-10.8722
깐	-10.8734
▁go	-10.8757
▁졸잼	-10.8769
자꾸	-10.8775
▁맞추	-10.878
▁완성	-10.8783
▁어색함	-10.88
ie	-10.8815
▁조연들	-10.8816
▁오랜	-10.8821
원주고	-10.8829
▁허허	-10.8838
▁일깨워	-10.8838
옵	-10.884
▁카메론	-10.884
▁박찬욱	-10.884
▁새록새록	-10.884
☆	-10.884
꽁	-10.884
헨	-10.884
▁권상우	-10.884
▁흑역사	-10.884
▁워낙	-10.884
▁거기서	-10.8841
▁그럴싸	-10.8842
▁환장	-10.8843
▁직업	-10.8846
vs	-10.8846
▁억지스런	-10.8848
▁국산	-10.885
하더니	-10.8851
▁닮았	-10.8851
높아	-10.8855
▁피곤	-10.8856
영활	-10.8856
▁반갑	-10.8858
▁늙어	-10.8862
▁훌륭했	-10.8867
▁힘들었다	-10.8868
▁고문	-10.887
프로그램	-10.8875
돋는다	-10.8877
▁범죄자	-10.888
더럽게	-10.888
▁성형	-10.8883
tv	-10.8883
다시봐도	-10.889
모르겠다	-10.8891
크리	-10.8893
▁기대된다	-10.8899
▁낚이지	-10.8903
입니까	-10.8904
▁슬프네요	-10.8906
▁망쳐놓	-10.891
▁화질	-10.8912
▁논리	-10.8967
저런	-10.8984
il	-10.9003
▁안타까움	-10.904
▁홧팅	-10.904
삘	-10.904
좆	-10.904
훼	-10.904
▁재발견	-10.904
▁키아누	-10.904
밨	-10.904
▁빈약한	-10.904
▁아바타	-10.904
▁엠마	-10.9041
▁온갖	-10.9041
▁2015	-10.9043
누구	-10.9043
▁첫번째	-10.9044
▁복잡하	-10.9044
▁극단적	-10.9045
▁람보	-10.9047
▁프레	-10.9051
▁알게되	-10.9052
▁꺼져	-10.9053
말이필요	-10.9053
겠는가	-10.9058
▁고증	-10.906
▁백배	-10.9063
▁모독	-10.9063
▁동화같은	-10.9064
▁아깝습니다	-10.9064
될까	-10.9064
▁처음본다	-10.9068
중간에	-10.9069
▁재미없었음	-10.9073
묻	-10.9079
▁감동도없고	-10.9082
덕분에	-10.9084
얼마나	-10.9084
그나마	-10.9085
▁필요없음	-10.9088
▁이은주	-10.9088
▁싶습니다	-10.9089
잘봤습니다	-10.909
▁학생들	-10.9092
갈수	-10.9096
▁다시보게	-10.9097
▁일반인	-10.91
▁역사적	-10.9109
▁없으니	-10.9109
▁분장	-10.911
▁좋아하네요	-10.9112
별루	-10.9113
▁있어보이	-10.913
very	-10.914
▁브레	-10.9145
▁뛰어넘	-10.9149
제국	-10.9218
▁살았	-10.9227
혐	-10.9242
릉	-10.9244
▁드림웍스	-10.9244
▁엑스맨	-10.9244
▁오글거림	-10.9244
띠	-10.9244
얀	-10.9244
▁손예진	-10.9244
▁김민종	-10.9244
▁설경구	-10.9244
▁윌리스	-10.9244
▁찬사를	-10.9244
▁페이크	-10.9244
▁레이첼	-10.9244
▁총체적	-10.9245
▁치밀하	-10.9247
어지럽	-10.9248
▁방황	-10.9249
▁파격적	-10.9249
▁안성기	-10.925
▁낮추	-10.9252
▁복수극	-10.9255
▁열광	-10.9256
▁놀라울	-10.9257
▁공허	-10.9259
▁시험	-10.9259
▁시골	-10.9262
▁심각하게	-10.9263
▁영광	-10.9265
▁마틴	-10.9266
▁미안해	-10.9272
▁미술	-10.9277
♡♡♡	-10.928
귀여워	-10.9288
▁얻어	-10.9289
▁향기	-10.9292
짧	-10.9293
마무리	-10.9295
▁만날	-10.9295
영화자체는	-10.9296
선생님	-10.9296
쫌	-10.9296
▁네이버평점	-10.9301
▁시체	-10.9309
▁향한	-10.9309
▁없을까	-10.9346
com	-10.9351
지않을	-10.9352
▁진부함	-10.9362
▁진부하	-10.9392
▁형식	-10.9399
▁느껴졌	-10.9399
▁다시보고싶은	-10.9419
보기엔	-10.9428
내놔	-10.9436
완벽하게	-10.9439
야말로	-10.944
달라고	-10.9444
둑	-10.9449
릅	-10.9452
뎁	-10.9452
▁겨울왕국	-10.9452
▁다세포소녀	-10.9452
▁시끄럽	-10.9452
▁윌리엄	-10.9452
▁이탈리아	-10.9452
덧	-10.9452
훗	-10.9452
▁말았어야	-10.9452
▁어설퍼	-10.9452
믄	-10.9452
쇄	-10.9452
▁가슴아픈	-10.9452
▁깨달음	-10.9452
▁웬만하면	-10.9452
▁스페인	-10.9452
습니당	-10.9452
▁외로움	-10.9452
▁펼쳐	-10.9452
▁지저분	-10.9452
▁흠잡을	-10.9453
▁클라스	-10.9453
▁틀림없	-10.9453
▁찢어	-10.9456
▁분량	-10.9459
▁자연스러운	-10.9459
2005	-10.9461
▁감동받	-10.9461
▁내취향	-10.9464
-.-	-10.9465
▁지브리	-10.9465
▁미쳐	-10.9465
▁혼란	-10.9467
▁뭐랄까	-10.9469
현실적	-10.947
▁음향	-10.9473
▁세계관	-10.9473
▁독립	-10.9474
▁소품	-10.9477
▁산만하	-10.9479
▁더욱더	-10.9482
많은것을	-10.9483
▁히트	-10.9487
▁던져	-10.9488
▁없애	-10.9488
됬는데	-10.9496
보여서	-10.9513
옷	-10.9513
그래픽	-10.9515
궁금	-10.9516
▁알게된	-10.9516
암튼	-10.9518
id	-10.9522
실패	-10.9523
▁채워	-10.9526
어떤	-10.9526
▁비교하면	-10.9529
큼	-10.9531
▁않으면	-10.9545
노출	-10.9546
되어있	-10.9561
▁안가는	-10.9579
▁유치하기	-10.961
눈물흘	-10.9632
영화관에서	-10.9635
▁미스터	-10.9643
▁중학교	-10.9656
싫	-10.9657
킥	-10.9665
▁흘렀	-10.9665
뱅	-10.9665
▁미야자키	-10.9665
▁슬펐다	-10.9665
▁엔딩크레딧	-10.9665
▁인상깊게	-10.9665
▁팀버튼	-10.9665
늬	-10.9665
숲	-10.9665
훔	-10.9665
▁구혜선	-10.9665
졋	-10.9665
▁사무라이	-10.9665
▁예뻐서	-10.9665
▁김태희	-10.9665
▁잔잔하지만	-10.9665
▁록키	-10.9666
랍니다	-10.9666
▁증명	-10.9667
시리즈중	-10.9667
▁죽기전에	-10.9669
▁재방송	-10.9677
▁반응	-10.968
▁초반엔	-10.9687
▁존잼	-10.9687
▁돈아깝다	-10.9689
▁적당하다	-10.9696
▁식상하다	-10.9701
▁인간적으로	-10.9702
la	-10.9703
▁없구나	-10.9709
▁나오다니	-10.971
▁매번	-10.9711
몇번	-10.9736
왜이래	-10.9737
촬영	-10.9738
네이버	-10.9741
힘든	-10.9746
바탕	-10.9778
ᄍᄍᄍ	-10.9787
그자체	-10.9792
투성이	-10.9801
▁보러갔	-10.9804
싶은데	-10.9851
▁배우분들	-10.9859
점만점	-10.9861
챙	-10.9879
쎄	-10.9881
훌	-10.9882
썰	-10.9882
▁기대됩니다	-10.9882
▁트랜스포머	-10.9882
▁학창시절	-10.9882
긔	-10.9882
▁소피마르소	-10.9883
▁심리묘사	-10.9883
잣	-10.9883
▁떡밥	-10.9883
▁나머진	-10.9883
▁돋보인다	-10.9884
▁7.5	-10.9884
▁귀찮	-10.9885
▁괴롭	-10.9887
▁상당한	-10.9887
▁역쉬	-10.9889
▁오로지	-10.989
▁패션	-10.9892
▁쉬운	-10.9893
▁8.5	-10.9901
▁지루했음	-10.9904
▁승부	-10.9905
▁돈벌	-10.9905
▁빠질	-10.991
▁유익	-10.9913
▁거짓	-10.9913
봤을땐	-10.9918
검사	-10.9927
▁살아야	-10.9932
▁검색해	-10.9939
///	-10.9949
오르는	-10.9963
ᄉᄇ	-10.9968
▁데려다	-10.9975
철학	-10.9975
▁정체성	-10.998
sh	-10.9985
▁so	-10.9992
죽는줄	-10.9997
▁만들었으면	-11.0019
♡♡	-11.004
123	-11.004
▁진정성	-11.0042
▁시간아깝	-11.0048
사람마다	-11.0065
같애	-11.0067
▁따뜻함	-11.0078
실화라	-11.009
닼ᄏᄏ	-11.0099
삽	-11.0105
겄	-11.0105
▁고맙습니다	-11.0105
▁곱씹	-11.0105
▁러브라인	-11.0105
▁에드워드	-11.0105
▁파워레인저	-11.0105
멕	-11.0105
뼈	-11.0105
윽	-11.0105
짖	-11.0105
▁이것저것	-11.0105
▁황정민	-11.0105
▁객관적	-11.0105
▁납득	-11.0105
찜찜	-11.0105
▁조승우	-11.0105
▁장동건	-11.0105
▁엽문	-11.0105
▁솔까	-11.0105
▁사라져	-11.0106
▁간첩	-11.0106
귀요미	-11.0107
영환줄	-11.0111
창있네	-11.0112
▁존경합니다	-11.0113
▁욕나온다	-11.0113
▁이나영	-11.0114
▁태권	-11.0115
▁좋아하시는	-11.0118
▁사이코	-11.0119
▁허탈	-11.0121
▁지나친	-11.0122
▁볼만해요	-11.0126
▁유령	-11.0128
▁원표	-11.013
▁적극	-11.0134
▁늙었	-11.0137
▁나은듯	-11.0143
▁소소하	-11.0159
▁소름끼치	-11.0167
취향	-11.0185
떨어지는	-11.0202
▁재미있었던	-11.0218
봤었는데	-11.0228
분들께	-11.0236
▁흔하	-11.0245
▁300	-11.0251
▁실화라는	-11.0255
재미잇	-11.0271
-_	-11.0272
만들엇	-11.0288
심각	-11.029
▁재수없	-11.0313
냄	-11.033
쉣	-11.0332
↓	-11.0332
▁과대평가	-11.0332
▁런닝타임	-11.0332
썻	-11.0332
▁도라에몽	-11.0332
▁크레딧	-11.0332
즉	-11.0332
▁팍팍	-11.0332
▁어차피	-11.0332
▁정주행	-11.0332
▁ᄇᄉ	-11.0332
▁한쿡영화	-11.0332
▁엉엉	-11.0332
▁입장에서	-11.0332
꼬맹이	-11.0332
▁2004	-11.0332
▁도움이	-11.0332
▁2003	-11.0332
▁전지현	-11.0333
▁아까웠던	-11.0333
▁거슬리	-11.0333
▁가까이	-11.0333
▁아동용	-11.0333
▁모자란	-11.0334
▁증말	-11.0334
▁보여줌	-11.0334
▁압도적	-11.0335
▁기분좋은	-11.0335
▁색채	-11.0336
▁돌려줘	-11.0339
왜이럼	-11.0341
▁과장된	-11.0341
▁말이필요없는	-11.0342
마인드	-11.0343
▁진행되	-11.0346
▁커피	-11.0347
▁씨발	-11.0351
▁실패작	-11.0351
▁경악	-11.0354
▁알려준	-11.0358
▁울었습니다	-11.0362
왔던	-11.0366
▁도중에	-11.0371
▁가능성	-11.0372
지않나	-11.0377
▁먹먹해	-11.039
배틀	-11.0414
탁월한	-11.0433
특유의	-11.0434
▁깨닫	-11.0538
봇	-11.0563
드래곤	-11.0565
넼	-11.0565
▁best	-11.0565
▁ocn	-11.0565
▁싸이코패스	-11.0565
▁엉터리	-11.0565
▁흐지부지	-11.0565
빤	-11.0565
쇠	-11.0565
쏙	-11.0565
▁국어책	-11.0565
▁양동근	-11.0565
▁어우러진	-11.0565
▁말아먹은	-11.0565
그나저나	-11.0565
▁오우삼	-11.0565
▁최민식	-11.0565
▁어떠한	-11.0565
#	-11.0565
▁어딘가	-11.0565
▁침묵	-11.0565
▁임청하	-11.0565
▁젊음	-11.0565
▁잃어버린	-11.0566
▁별한개도	-11.0567
깁니다	-11.0567
▁사라진	-11.057
▁돈낭비	-11.0571
▁ᄅᄋ	-11.0576
▁여태까지	-11.0577
▁발랄	-11.0578
▁간직	-11.058
▁조용히	-11.058
▁바랬	-11.0581
▁중간부터	-11.0583
라이브	-11.0584
▁드러나	-11.0585
▁노튼	-11.0585
▁히어로물	-11.0587
▁드문	-11.0591
▁경계	-11.06
싶을때	-11.0621
해지네요	-11.0621
뎅	-11.0672
썩	-11.0674
히어로	-11.0681
▁머리속	-11.0684
무튼	-11.0735
▁역겹	-11.0743
▁태어나	-11.0783
믹	-11.0798
흥미를	-11.0799
깁	-11.08
쯧	-11.0802
▁겉멋만	-11.0803
▁굉장한	-11.0803
▁신데렐라	-11.0803
▁어쨌든	-11.0803
▁일베충	-11.0803
▁조기종영	-11.0803
궈	-11.0803
끓	-11.0803
넓	-11.0803
녁	-11.0803
웰	-11.0803
켈	-11.0803
텅	-11.0803
▁KBS	-11.0803
▁초중반	-11.0803
▁소지섭	-11.0803
떄문에	-11.0803
▁스피드	-11.0803
▁징그러	-11.0803
▁뉴욕	-11.0803
▁의외의	-11.0803
▁저절로	-11.0803
▁성유리	-11.0803
▁스킵	-11.0803
▁어지간	-11.0803
▁색다르	-11.0803
ᅩᅩ	-11.0804
▁미친듯이	-11.0804
▁웅장	-11.0804
▁전도연	-11.0804
닼	-11.0809
▁웃으며	-11.0811
▁대표작	-11.0814
할게요	-11.0814
▁황금	-11.0815
였으나	-11.0815
▁197	-11.0815
▁장혁	-11.0816
▁괜찮던데	-11.0817
▁교회	-11.0818
▁신나게	-11.0821
▁한번씩	-11.0823
▁기념	-11.0825
더라고요	-11.0835
▁도통	-11.0842
낮아서	-11.0842
본영화중에	-11.0861
클럽	-11.0864
▁감동받았	-11.091
낙	-11.0927
톰	-11.0927
좋았음	-11.0934
ol	-11.0979
고싶지	-11.0987
▁198	-11.1003
재밌게봤습니다	-11.101
페이지	-11.102
댓	-11.1045
펼	-11.1046
▁뮤직비디오	-11.1047
▁클리셰	-11.1047
▁펭귄	-11.1047
곁	-11.1047
꺄	-11.1047
펠	-11.1047
껍	-11.1047
엌	-11.1047
핸	-11.1047
****	-11.1047
▁여기저기	-11.1047
▁스티브	-11.1047
▁큐브	-11.1047
▁멘탈	-11.1047
▁일어날	-11.1047
▁비정상	-11.1047
▁납치	-11.1047
^.^	-11.1048
▁끊임없	-11.1048
▁사기꾼	-11.1048
▁관람객	-11.1048
▁갖춘	-11.105
깜	-11.1183
쵝	-11.1296
뷔	-11.1296
넷	-11.1297
칫	-11.1297
륵	-11.1297
탠	-11.1297
룸	-11.1297
펀	-11.1297
깎	-11.1447
즌	-11.1537
깡	-11.1553
엣	-11.1553
ᅦ	-11.1553
벙	-11.1553
힛	-11.1553
웩	-11.1553
잎	-11.1553
봅	-11.1813
끗	-11.1816
긍	-11.1816
짬	-11.1816
띵	-11.1816
췄	-11.1816
。	-11.1816
人	-11.1816
갇	-11.1816
닦	-11.1816
뎌	-11.1816
빚	-11.1816
쉰	-11.1816
꾹	-11.1816
샀	-11.1816
핳	-11.1816
웬	-11.1988
꽝	-11.1995
젼	-11.2064
낌	-11.2084
펑	-11.2086
·	-11.2086
듀	-11.2086
q	-11.2086
쑤	-11.2086
헝	-11.2086
됌	-11.2086
됴	-11.2086
둬	-11.2086
럿	-11.2086
맷	-11.2086
흰	-11.2086
낳	-11.2281
뿔	-11.2355
넋	-11.2364
댐	-11.2364
밸	-11.2364
뻘	-11.2364
Z	-11.2364
’	-11.2364
꿨	-11.2364
뉘	-11.2364
샌	-11.2364
쏠	-11.2364
쿄	-11.2364
횽	-11.2364
욜	-11.2364
W	-11.2575
잭	-11.2578
밌	-11.2644
꿔	-11.2647
뜩	-11.2649
‘	-11.265
펄	-11.265
펴	-11.265
겸	-11.265
딕	-11.265
쌩	-11.265
흙	-11.265
쌍	-11.2869
넌	-11.288
낄	-11.2943
륙	-11.2944
샷	-11.2944
숫	-11.2944
텀	-11.2944
톨	-11.2944
툰	-11.2944
핏	-11.2944
뇨	-11.3247
닙	-11.3247
쨩	-11.3247
댕	-11.3247
룹	-11.3247
쌤	-11.3247
젬	-11.3247
췌	-11.3247
칩	-11.3247
끊	-11.3508
뽑	-11.3513
캬	-11.3513
꽤	-11.3514
뀌	-11.3556
줍	-11.3557
ᆞ	-11.356
퍽	-11.356
귓	-11.356
슐	-11.356
얌	-11.356
쫙	-11.356
ᄑ	-11.356
묶	-11.356
뺀	-11.356
쌀	-11.356
쬐	-11.356
콕	-11.356
햄	-11.356
떳	-11.356
률	-11.3882
ᅭ	-11.3882
돕	-11.3882
탭	-11.3882
맙	-11.4215
\	-11.4215
뱉	-11.4215
욧	-11.4215
쌈	-11.4215
엎	-11.4215
캅	-11.4215
퀀	-11.4215
눠	-11.4215
닳	-11.4215
댈	-11.4215
딧	-11.4215
짠	-11.4549
밴	-11.4549
홉	-11.456
뒀	-11.456
샹	-11.456
썅	-11.456
젓	-11.456
죤	-11.4917
붐	-11.4917
쌔	-11.4917
甲	-11.4917
쩡	-11.5287
ᅣ	-11.5288
꺅	-11.5288
엥	-11.5288
갤	-11.5288
꽂	-11.5288
햐	-11.5288
깬	-11.5288
[	-11.5303
헬	-11.5308
○	-11.5672
꼼	-11.5672
꾀	-11.5672
뤽	-11.5672
솟	-11.5672
쪄	-11.5672
뺐	-11.5672
씽	-11.5672
웁	-11.5672
촉	-11.5672
됀	-11.5672
냅	-11.5672
찢	-11.6065
캔	-11.6072
깽	-11.6072
쵸	-11.6072
乃	-11.6072
롬	-11.6072
섰	-11.6072
썽	-11.6072
앳	-11.6072
팡	-11.6072
괘	-11.6072
뺴	-11.6072
얕	-11.6072
좁	-11.6072
짚	-11.6072
탔	-11.6072
힝	-11.6072
뭇	-11.6488
뭥	-11.6489
찜	-11.6489
륭	-11.6489
훅	-11.6489
갸	-11.6489
겜	-11.6489
놉	-11.6489
늠	-11.6489
뛴	-11.6489
뮬	-11.6489
씌	-11.6489
쟝	-11.6489
킷	-11.6489
굵	-11.6489
몹	-11.6489
밭	-11.6489
훨	-11.6554
|	-11.6924
싯	-11.6924
굼	-11.6924
無	-11.6924
꿋	-11.6924
낱	-11.6924
떴	-11.6924
쑈	-11.6924
쥑	-11.6924
핡	-11.6924
♬	-11.6924
뎈	-11.6924
돠	-11.6924
윙	-11.6924
옜	-11.6924
녹	-11.7009
떤	-11.7349
퀼	-11.7378
Q	-11.7378
덥	-11.7378
셸	-11.7378
짭	-11.7378
맡	-11.7476
냉	-11.7479
곸	-11.7855
뜰	-11.7855
뷁	-11.7855
빔	-11.7855
빽	-11.7855
샴	-11.7855
윗	-11.7855
쪙	-11.7855
쳇	-11.7855
팜	-11.7855
ᅧ	-11.7855
낰	-11.7855
댜	-11.7855
딥	-11.7855
뚤	-11.7855
얔	-11.7855
푹	-11.7983
늑	-11.8353
횡	-11.8355
벡	-11.8355
욘	-11.8355
욯	-11.8355
쳣	-11.8355
휼	-11.8355
쨔	-11.8355
펙	-11.8874
걱	-11.888
힙	-11.8881
꺾	-11.8881
걔	-11.8881
꿉	-11.8881
댔	-11.8881
룻	-11.8881
뵈	-11.8881
읎	-11.8881
큘	-11.8881
풉	-11.8881
땟	-11.8881
뭍	-11.8881
뱃	-11.8881
헛	-11.9059
볍	-11.9433
첼	-11.9436
쾅	-11.9436
겅	-11.9436
겔	-11.9436
괸	-11.9436
웡	-11.9436
쫑	-11.9436
텨	-11.9436
핥	-11.9436
킁	-11.9436
쩐	-11.9958
촬	-12.0019
헷	-12.0025
뿅	-12.0025
→	-12.0025
넝	-12.0025
넴	-12.0025
맬	-12.0025
멧	-12.0025
셰	-12.0025
좃	-12.0025
쿤	-12.0025
퀘	-12.0025
퉷	-12.0025
$	-12.0025
얍	-12.0025
융	-12.0025
텍	-12.0025
훤	-12.0025
“	-12.0025
슥	-12.0025
졷	-12.0025
캣	-12.0025
곧	-12.028
눅	-12.065
쒸	-12.065
찼	-12.065
”	-12.065
꼐	-12.065
믓	-12.065
뿍	-12.065
뿡	-12.065
잰	-12.065
칵	-12.065
쏜	-12.065
쒯	-12.065
웹	-12.065
챔	-12.065
폄	-12.065
첸	-12.065
꿰	-12.1316
ᄈ	-12.1316
냠	-12.1316
굽	-12.1316
넥	-12.1316
뇬	-12.1316
욥	-12.1316
큭	-12.1316
뵙	-12.1316
앰	-12.1316
잌	-12.1316
뻗	-12.1316
땜	-12.1936
끽	-12.2031
닛	-12.2031
됏	-12.2031
곀	-12.2031
귄	-12.2031
꿍	-12.2031
넉	-12.2031
샵	-12.2031
숴	-12.2031
쿼	-12.2031
퐁	-12.2031
잴	-12.2031
툴	-12.2031
헿	-12.2031
씹	-12.2425
쮸	-12.28
뎃	-12.28
ᆪ	-12.28
냔	-12.28
넨	-12.28
랖	-12.28
썹	-12.28
팟	-12.28
흣	-12.28
뤠	-12.28
콱	-12.28
♪	-12.28
떵	-12.28
컹	-12.28
낍	-12.3633
}	-12.3633
빰	-12.3633
作	-12.3633
괄	-12.3633
꺠	-12.3633
꽈	-12.3633
렜	-12.3633
웽	-12.3633
죵	-12.3633
캄	-12.3633
펭	-12.3633
넛	-12.3633
돔	-12.3633
멱	-12.3633
벳	-12.3633
읭	-12.3633
팰	-12.3633
촤	-12.3633
옛	-12.417
ᄡ	-12.4172
뒷	-12.4174
컥	-12.4539
{	-12.4542
뀨	-12.4542
갚	-12.4542
뒈	-12.4542
롸	-12.4542
뽐	-12.4542
쎈	-12.4542
줏	-12.4542
쨰	-12.4542
햅	-12.4542
깟	-12.4542
륨	-12.4542
뮈	-12.4542
볶	-12.4542
뺑	-12.4542
옌	-12.4542
왁	-12.4542
찟	-12.4542
촐	-12.4542
컵	-12.4542
死	-12.4542
댁	-12.4542
쫘	-12.4542
女	-12.4542
밓	-12.4542
갘	-12.5542
먀	-12.5542
짘	-12.5542
딛	-12.5542
쥰	-12.5542
궤	-12.5542
뒹	-12.5542
뭄	-12.5542
찹	-12.5542
캉	-12.5542
휙	-12.5542
쥴	-12.6653
챦	-12.6653
콰	-12.6653
녜	-12.6653
떙	-12.6653
뤼	-12.6653
섀	-12.6653
읏	-12.6653
졉	-12.6653
홬	-12.6653
ᄄ	-12.6653
↑	-12.6653
⌒	-12.6653
盧	-12.6653
갯	-12.6653
끙	-12.6653
랔	-12.6653
롹	-12.6653
뺄	-12.6653
숑	-12.6653
숱	-12.6653
잦	-12.6653
챈	-12.6653
챠	-12.6653
랗	-12.6653
멌	-12.6653
킵	-12.7899
뇽	-12.7903
랠	-12.7903
앟	-12.7903
팥	-12.7903
핰	-12.7903
띨	-12.7903
벵	-12.7903
츰	-12.7903
캘	-12.7903
팁	-12.7903
깸	-12.7903
떔	-12.7903
믈	-12.7903
쌌	-12.7903
졍	-12.7903
쿰	-12.7903
─	-12.7903
☞	-12.7903
、	-12.7903
깅	-12.7903
셍	-12.7903
옄	-12.7903
웜	-12.7903
챘	-12.7903
퀵	-12.7903
ン	-12.7903
밈	-13.0999
챤	-13.8699
왘	-13.87
옅	-13.8701
엊	-13.8702
훠	-13.8703
헥	-13.8704
촛	-13.8705
짴	-13.8706
짰	-13.8707
죨	-13.8708
욀	-13.8709
뉜	-13.871
굶	-13.8711
썪	-13.8712
숟	-13.8713
샛	-13.8714
놧	-13.8715
궂	-13.8716
괭	-13.8717
故	-13.8718
햌	-13.8719
텼	-13.872
읊	-13.8721
윅	-13.8722
앍	-13.8723
쌉	-13.8724
빴	-13.8725
츤	-13.8726
쉼	-13.8727
덱	-13.8728
뀜	-13.8729
훑	-13.873
홥	-13.8731
냨	-13.8732
휠	-13.8733
헠	-13.8734
닠	-13.8735
깼	-13.8736
̄	-13.8737
큽	-13.8738
촘	-13.8739
횟	-13.874
춥	-13.8741
좔	-13.8742
쁩	-13.8743
땔	-13.8744
딪	-13.8745
긁	-13.8746
헴	-13.8747
휩	-13.8748
뀔	-13.8749
껑	-13.875
괞	-13.8751
콥	-13.8752
쟤	-13.8753
샐	-13.8754
멎	-13.8755
릎	-13.8756
쥔	-13.8757
쁠	-13.8758
쉘	-13.8759
뤘	-13.876
낡	-13.8761
꺽	-13.8762
핍	-13.8763
붓	-13.8764
얹	-13.8765
씻	-13.8766
슌	-13.8767
펏	-13.8768
켠	-13.8769
녔	-13.877
꽥	-13.8771
픕	-13.8772
왼	-13.8773
딨	-13.8774
쫒	-13.8775
뺨	-13.8776
얽	-13.8777
샬	-13.8778
탤	-13.8779
뀐	-13.878
꼇	-13.8781
쨋	-13.8782
밟	-13.8783
뭡	-13.8784
앓	-13.8785
쌓	-13.8786
붉	-13.8787
짙	-13.8788
뻣	-13.8789
멤	-13.879
꽉	-13.8791
푼	-13.8792
웍	-13.8793
땠	-13.8794
뿜	-13.8795
빕	-13.8796
홧	-13.8797
맺	-13.8798
틋	-13.8799
켰	-13.88
쨌	-13.8801
컸	-13.8802
겪	-13.8803
찔	-13.8804
팠	-13.8805
쫄	-13.8806
띄	-13.8807
텝	-13.8808
틸	-13.8809
렀	-13.881
콧	-13.8811
껐	-13.8812
쏟	-13.8813
뻤	-13.8814
왤	-13.8815
듭	-13.8816
섞	-13.8817
톱	-13.8818
튀	-13.8819
펐	-13.882
슷	-13.882
겉	-13.8821
쁨	-13.8822
됩	-13.8823
늦	-13.8824
냈	-13.8825
찝	-13.8826
굉	-13.8827
똑	-13.8828
랐	-13.8829
떻	-13.883
깊	-13.8831
렸	-13.8832
