<pad>	0
<s>	0
</s>	0
<unk>	0
▁the	-2.86865
.	-3.13559
,	-3.17624
▁to	-3.74845
▁of	-3.79297
▁a	-3.80212
▁in	-3.89081
▁and	-3.95207
▁s	-4.50892
▁said	-4.74632
▁for	-4.83115
▁that	-4.84821
▁on	-4.85071
s	-4.99845
▁is	-5.047
▁was	-5.12725
▁	-5.20946
ing	-5.2221
▁with	-5.2497
▁it	-5.29831
▁at	-5.37025
▁he	-5.38334
▁as	-5.39532
▁from	-5.47432
▁by	-5.49445
▁has	-5.53727
ed	-5.55488
▁be	-5.60127
▁have	-5.62172
▁his	-5.62326
▁an	-5.62737
▁are	-5.74521
▁but	-5.80471
▁were	-5.82862
▁will	-5.84794
▁not	-5.9358
▁,	-5.95891
▁who	-5.96293
▁they	-5.97205
▁after	-6.0203
▁had	-6.04867
▁been	-6.09418
▁this	-6.12391
▁u	-6.13658
▁its	-6.1609
▁their	-6.16969
▁people	-6.17894
▁.	-6.19286
▁about	-6.20295
▁more	-6.20969
▁year	-6.20986
▁i	-6.2462
▁two	-6.24917
d	-6.26433
▁we	-6.30292
▁korea	-6.3051
▁new	-6.31371
▁which	-6.32232
▁president	-6.34158
▁one	-6.34275
▁would	-6.37695
▁her	-6.39498
▁government	-6.39729
▁up	-6.39809
▁or	-6.43737
▁north	-6.44809
▁also	-6.46501
▁she	-6.47896
▁than	-6.48137
▁t	-6.52494
▁out	-6.52787
▁last	-6.55136
▁cnn	-6.56491
▁over	-6.58552
▁police	-6.59351
▁when	-6.5937
ly	-6.59464
▁first	-6.59654
n	-6.61301
▁south	-6.63362
▁there	-6.68042
▁into	-6.70826
▁other	-6.73684
▁all	-6.73807
▁told	-6.78531
▁time	-6.7856
▁no	-6.79021
▁some	-6.81116
▁years	-6.82105
▁korean	-6.84633
▁percent	-6.8622
▁world	-6.87448
▁you	-6.89536
▁state	-6.89816
▁united	-6.90303
▁officials	-6.91969
▁could	-6.92416
▁according	-6.93861
▁if	-6.93957
▁can	-6.94765
▁party	-6.97811
▁country	-6.98053
▁three	-6.98342
▁monday	-6.99175
▁says	-6.99806
▁iraq	-6.99871
▁tuesday	-7.01481
▁military	-7.01542
▁states	-7.05246
y	-7.05311
▁them	-7.0565
▁national	-7.06877
▁day	-7.0721
▁obama	-7.07464
▁minister	-7.07975
▁wednesday	-7.10081
▁what	-7.10441
▁before	-7.10969
▁against	-7.12908
▁since	-7.1291
▁sunday	-7.13057
▁million	-7.13167
▁week	-7.15997
e	-7.16087
▁china	-7.16235
▁bush	-7.16238
▁nuclear	-7.16407
▁old	-7.1753
▁us	-7.17991
▁where	-7.1808
▁now	-7.18652
▁so	-7.1905
▁killed	-7.19533
▁most	-7.20893
▁because	-7.22391
▁city	-7.22605
▁thursday	-7.2306
▁former	-7.23163
during	-7.23689
▁say	-7.23837
▁may	-7.2476
▁off	-7.25207
▁security	-7.25309
▁reported	-7.2543
▁while	-7.25451
▁him	-7.25796
▁down	-7.2584
▁just	-7.26371
▁only	-7.26436
▁between	-7.27109
▁made	-7.28198
▁under	-7.29995
▁being	-7.30327
▁news	-7.31637
▁official	-7.31842
▁back	-7.3237
▁many	-7.33476
▁group	-7.35551
▁house	-7.35931
▁month	-7.36029
▁re	-7.36442
▁near	-7.37748
▁called	-7.40193
▁like	-7.40276
▁including	-7.41015
▁al	-7.43429
▁did	-7.43953
▁four	-7.44097
▁do	-7.45307
▁war	-7.4554
▁our	-7.45542
▁international	-7.4573
▁through	-7.45765
▁home	-7.47868
▁reports	-7.48661
▁spokesman	-7.49469
▁any	-7.50173
▁statement	-7.5025
▁won	-7.50981
▁days	-7.51666
▁next	-7.52129
▁six	-7.53039
▁talks	-7.53191
▁take	-7.53479
▁five	-7.53857
▁foreign	-7.54078
▁japan	-7.54129
▁found	-7.54245
▁man	-7.54636
▁those	-7.54871
▁still	-7.55465
▁get	-7.55581
▁second	-7.56862
▁part	-7.57469
▁prime	-7.58064
▁troops	-7.58513
▁high	-7.58676
▁court	-7.59117
▁make	-7.5931
▁seoul	-7.59794
▁least	-7.61165
▁american	-7.62093
▁around	-7.62341
▁report	-7.62432
▁another	-7.6348
▁long	-7.65224
▁end	-7.65236
▁such	-7.65604
▁ministry	-7.65695
▁how	-7.68018
▁help	-7.68082
▁clinton	-7.68732
▁leader	-7.68855
▁top	-7.69272
▁washington	-7.7012
▁way	-7.7032
▁office	-7.7036
▁company	-7.71421
▁un	-7.71752
m	-7.72148
a	-7.72596
▁public	-7.73075
▁agency	-7.73198
▁set	-7.73245
▁expected	-7.73361
▁saying	-7.7374
▁presidential	-7.73763
▁work	-7.7417
▁times	-7.74752
▁forces	-7.75028
▁th	-7.75241
▁very	-7.7604
▁children	-7.76801
▁even	-7.77352
▁both	-7.7749
▁york	-7.77968
▁well	-7.78321
▁should	-7.7882
▁died	-7.79706
▁authorities	-7.80202
▁press	-7.80416
▁early	-7.80505
▁members	-7.8101
▁british	-7.81032
▁several	-7.81155
▁attack	-7.81218
▁saturday	-7.81444
▁chief	-7.8173
▁earlier	-7.81756
▁billion	-7.81857
▁election	-7.82578
o	-7.8284
▁number	-7.82938
▁friday	-7.8299
▁white	-7.84064
▁political	-7.8412
▁countries	-7.84206
▁months	-7.84252
t	-7.84438
▁meeting	-7.84755
▁women	-7.84954
▁chinese	-7.84955
▁go	-7.8515
▁iraqi	-7.852
▁democratic	-7.85954
▁going	-7.8689
▁nation	-7.86913
▁among	-7.86985
▁came	-7.86989
▁my	-7.87078
▁bank	-7.87813
▁look	-7.87978
▁took	-7.88064
▁kim	-7.88251
▁family	-7.88383
▁death	-7.88776
▁economic	-7.88886
▁m	-7.89502
▁think	-7.8979
al	-7.90942
▁show	-7.91006
▁later	-7.91062
▁lee	-7.91091
▁much	-7.91134
▁used	-7.91721
▁left	-7.92455
▁capital	-7.92916
▁life	-7.93157
▁fire	-7.93623
▁ago	-7.9408
▁yesterday	-7.9424
▁night	-7.94402
▁good	-7.9485
▁general	-7.94967
▁secretary	-7.95803
▁power	-7.96158
▁campaign	-7.96215
▁announced	-7.97234
▁pakistan	-7.97915
?	-7.97938
▁site	-7.98253
▁held	-7.99426
▁men	-7.99569
▁john	-8.00203
▁iran	-8.00483
▁area	-8.00529
▁health	-8.00536
▁program	-8.00647
▁same	-8.00762
▁recent	-8.00816
▁see	-8.01131
▁support	-8.01707
▁oil	-8.0197
▁team	-8.02044
▁plan	-8.02103
▁major	-8.02276
▁head	-8.02795
▁leaders	-8.0285
▁then	-8.03321
▁want	-8.03733
▁university	-8.03875
▁today	-8.03881
▁place	-8.03891
▁based	-8.04428
▁right	-8.04565
▁deal	-8.05123
▁opposition	-8.05243
▁media	-8.05386
▁department	-8.05389
▁economy	-8.05394
▁car	-8.05483
▁third	-8.05568
▁don	-8.06006
▁released	-8.06039
▁force	-8.06068
▁air	-8.06097
▁roh	-8.06339
▁morning	-8.07061
▁past	-8.07218
▁half	-8.07247
▁center	-8.07435
▁use	-8.0794
▁until	-8.08191
▁these	-8.08511
▁hit	-8.08605
▁financial	-8.08896
▁local	-8.09058
▁know	-8.09452
▁law	-8.09494
▁hours	-8.09671
▁london	-8.0978
▁taliban	-8.09784
▁whether	-8.10262
▁without	-8.10382
▁case	-8.10529
▁defense	-8.1096
▁put	-8.10966
▁school	-8.1125
▁late	-8.11412
▁run	-8.11555
▁p	-8.11762
▁come	-8.11999
▁market	-8.12151
▁attacks	-8.12782
▁human	-8.13053
▁taken	-8.13082
▁your	-8.13404
▁beijing	-8.13699
▁nations	-8.14084
▁workers	-8.14139
▁money	-8.14486
▁afghanistan	-8.14542
▁japanese	-8.14876
▁me	-8.15404
▁visit	-8.15517
▁mccain	-8.15548
▁does	-8.16033
▁administration	-8.16301
▁plans	-8.1633
▁hospital	-8.16939
▁best	-8.17533
▁close	-8.17826
▁space	-8.1786
▁others	-8.17898
▁already	-8.18306
▁baghdad	-8.18476
▁central	-8.18601
▁free	-8.18685
▁move	-8.18743
▁water	-8.18949
▁led	-8.19102
▁service	-8.19229
▁give	-8.19417
▁along	-8.19587
▁win	-8.20051
▁system	-8.20057
▁began	-8.20068
▁rights	-8.21179
▁army	-8.21509
▁known	-8.21719
▁miles	-8.22519
▁big	-8.22593
▁province	-8.22683
▁few	-8.22724
▁away	-8.22955
▁return	-8.23097
▁de	-8.23139
▁decision	-8.23213
▁vote	-8.23645
▁each	-8.23921
er	-8.23993
▁march	-8.24271
▁dead	-8.24776
▁however	-8.2479
▁become	-8.24938
▁israel	-8.25239
▁conference	-8.25516
▁across	-8.25576
▁weeks	-8.256
▁release	-8.25916
▁main	-8.25959
▁eight	-8.26084
▁soldiers	-8.26451
▁southern	-8.26471
▁ap	-8.26821
▁barack	-8.26853
▁french	-8.2703
▁issue	-8.27132
▁open	-8.27193
▁food	-8.27363
▁woman	-8.27471
▁face	-8.27545
▁region	-8.27684
▁trade	-8.27847
▁information	-8.28046
▁business	-8.28698
▁web	-8.28703
▁own	-8.28897
▁asked	-8.28971
▁violence	-8.29156
▁need	-8.29542
▁agreement	-8.29884
▁weapons	-8.30058
▁arrested	-8.30289
▁far	-8.30721
▁star	-8.30725
▁russia	-8.31115
▁d	-8.31506
▁militants	-8.31506
▁making	-8.31779
▁control	-8.31814
▁here	-8.32049
▁change	-8.32068
▁lead	-8.3216
▁european	-8.32329
▁sen	-8.3238
▁prices	-8.32521
▁seven	-8.32599
▁east	-8.32937
▁students	-8.32946
▁thousands	-8.33196
▁israeli	-8.33293
▁global	-8.33312
▁largest	-8.33345
▁following	-8.33419
▁video	-8.33628
▁killing	-8.33647
▁park	-8.33915
▁northern	-8.34771
▁bill	-8.34991
▁peace	-8.35576
▁internet	-8.357
▁federal	-8.35719
▁seen	-8.3609
▁town	-8.36168
▁co	-8.36687
▁agreed	-8.36885
▁large	-8.37191
▁young	-8.37449
▁california	-8.37675
▁added	-8.37784
▁britain	-8.38308
▁committee	-8.38517
▁might	-8.38526
▁points	-8.39114
▁ve	-8.39132
▁pyongyang	-8.39384
▁trying	-8.3961
▁article	-8.40041
▁small	-8.40069
▁film	-8.40465
▁director	-8.40479
▁ahead	-8.41026
▁outside	-8.41087
▁final	-8.41328
▁working	-8.41701
▁every	-8.41838
▁accused	-8.4185
▁elections	-8.41858
▁went	-8.42151
▁start	-8.42274
▁emergency	-8.42448
▁likely	-8.42456
▁border	-8.42465
▁palestinian	-8.42679
▁research	-8.43306
▁charges	-8.43641
▁never	-8.43803
▁little	-8.44006
▁key	-8.44254
▁senior	-8.44326
▁great	-8.44335
es	-8.44376
▁record	-8.4442
▁must	-8.44428
▁body	-8.44677
▁crisis	-8.44683
▁investigation	-8.4473
▁possible	-8.44917
▁energy	-8.45372
▁clear	-8.45566
▁france	-8.4562
▁keep	-8.46137
▁anti	-8.46138
▁congress	-8.46516
▁companies	-8.46518
▁believe	-8.46635
te	-8.46666
▁aid	-8.46786
▁again	-8.46798
▁union	-8.46813
▁january	-8.47445
▁point	-8.48209
▁side	-8.48248
▁groups	-8.48266
▁game	-8.4836
▁latest	-8.48652
▁got	-8.48661
▁w	-8.4867
▁total	-8.48908
▁continue	-8.49173
▁reporters	-8.49272
▁qaeda	-8.49329
taking	-8.49381
▁west	-8.49545
▁live	-8.49787
▁council	-8.4993
▁june	-8.50063
▁july	-8.50297
▁cut	-8.5034
▁due	-8.5066
▁america	-8.50932
▁line	-8.51064
▁further	-8.51251
▁showed	-8.51286
▁meet	-8.51335
▁building	-8.51514
▁member	-8.51574
▁candidate	-8.51579
▁within	-8.51961
▁gas	-8.51967
▁policy	-8.5223
▁red	-8.52534
▁once	-8.52857
i	-8.52937
▁george	-8.52972
▁coast	-8.53031
▁england	-8.53457
▁minutes	-8.53605
▁less	-8.53933
▁ban	-8.53953
▁toward	-8.54195
▁name	-8.54303
▁efforts	-8.54401
▁sea	-8.54404
▁parliament	-8.5444
▁find	-8.54583
▁e	-8.54656
▁race	-8.54664
▁gaza	-8.54705
▁strong	-8.54714
▁september	-8.54957
▁per	-8.55164
▁airport	-8.55322
▁order	-8.55367
▁television	-8.55646
▁weekend	-8.55859
▁suicide	-8.56085
▁ruling	-8.56114
▁stop	-8.56144
▁medical	-8.56228
▁hundreds	-8.56342
▁lost	-8.56344
▁term	-8.57225
▁russian	-8.57896
▁study	-8.58672
▁afghan	-8.58817
▁child	-8.58864
▁future	-8.58942
▁station	-8.59054
▁victory	-8.59068
▁series	-8.59632
▁level	-8.5977
▁better	-8.59868
▁communist	-8.60129
▁using	-8.60195
▁americans	-8.60262
▁street	-8.60624
▁too	-8.61031
▁island	-8.61098
▁confirmed	-8.61355
▁industry	-8.61451
▁full	-8.61627
▁travel	-8.61901
▁december	-8.61989
▁action	-8.62054
▁sent	-8.62161
▁shot	-8.62258
▁musharraf	-8.6226
▁april	-8.62532
▁person	-8.62724
▁call	-8.62969
on	-8.63073
▁almost	-8.63086
▁lot	-8.63086
▁bomb	-8.63251
▁round	-8.63375
▁injured	-8.63936
▁wounded	-8.64238
▁hour	-8.64382
an	-8.64675
▁yet	-8.64806
▁really	-8.64843
▁europe	-8.65226
▁father	-8.65242
▁process	-8.65565
▁enough	-8.65574
▁having	-8.65651
▁although	-8.65846
▁chairman	-8.65846
▁history	-8.65858
▁able	-8.65864
▁list	-8.65867
▁started	-8.65939
▁interview	-8.65973
▁real	-8.66043
▁inside	-8.66082
▁play	-8.66139
▁homes	-8.66253
▁involved	-8.66266
▁november	-8.66404
▁david	-8.66405
▁republican	-8.66625
▁result	-8.66639
▁behind	-8.66686
▁asia	-8.66864
▁sex	-8.6691
▁sources	-8.67112
▁soon	-8.67243
▁b	-8.67371
▁f	-8.67397
▁black	-8.67579
▁coming	-8.67587
▁ever	-8.67746
▁believed	-8.67819
▁wife	-8.67833
▁fighting	-8.67866
▁tv	-8.68031
▁given	-8.68139
▁rice	-8.68201
▁nine	-8.68874
r	-8.68875
▁job	-8.6902
▁leading	-8.6904
▁amid	-8.69063
▁front	-8.69094
▁flight	-8.69203
l	-8.6939
▁koreans	-8.69631
▁western	-8.699
▁whose	-8.70044
▁important	-8.70054
▁search	-8.70109
▁plane	-8.70113
▁pro	-8.70248
▁current	-8.7026
▁india	-8.70269
▁organization	-8.70372
▁test	-8.70472
▁areas	-8.70652
▁mother	-8.70703
▁n	-8.70902
▁comes	-8.71006
▁special	-8.71281
c	-8.7187
▁problems	-8.71921
▁hyun	-8.7219
▁heart	-8.72218
▁newspaper	-8.72461
▁victims	-8.72466
▁hard	-8.7264
▁allow	-8.72673
▁role	-8.72779
▁storm	-8.72862
▁though	-8.72987
▁august	-8.73015
▁season	-8.73023
▁bring	-8.7305
▁evidence	-8.73111
▁fuel	-8.73192
▁pay	-8.73238
▁rate	-8.73561
▁hand	-8.74135
▁voters	-8.74398
▁hold	-8.74462
▁prison	-8.74522
▁planned	-8.74654
▁commission	-8.74932
▁grand	-8.75338
▁san	-8.75527
▁increase	-8.75601
▁despi	-8.75616
▁scientists	-8.75696
▁different	-8.75795
▁wanted	-8.75866
▁gave	-8.75873
▁mission	-8.75927
▁wants	-8.75948
▁australia	-8.7597
▁turned	-8.76117
▁lower	-8.76716
▁february	-8.76798
▁met	-8.77066
▁middle	-8.77461
▁islamic	-8.77746
▁results	-8.77826
▁summit	-8.78059
▁senate	-8.78071
▁couple	-8.78087
▁send	-8.78329
▁spokeswoman	-8.78378
▁private	-8.78612
▁calls	-8.78847
▁price	-8.79087
▁received	-8.79115
▁incident	-8.79366
▁tried	-8.79383
▁appeared	-8.79519
▁step	-8.79629
▁problem	-8.79645
▁heavy	-8.79655
▁fell	-8.79664
▁post	-8.79691
▁let	-8.79765
▁deaths	-8.79965
▁supporters	-8.80078
▁movie	-8.80115
▁recently	-8.80168
▁prosecutors	-8.80568
▁markets	-8.80626
▁situation	-8.80631
▁negotiations	-8.80685
▁age	-8.80697
▁attempt	-8.81003
▁judge	-8.81136
▁son	-8.81246
▁protest	-8.81257
▁board	-8.81285
▁relations	-8.81313
▁vice	-8.81462
▁october	-8.81606
▁together	-8.81609
▁district	-8.81616
▁protesters	-8.81645
▁intelligence	-8.81943
▁scheduled	-8.82006
▁mark	-8.82036
▁thought	-8.8214
▁disease	-8.82279
▁cause	-8.82535
▁poll	-8.82568
▁development	-8.82573
▁pressure	-8.82915
▁florida	-8.82931
▁something	-8.8295
▁hotel	-8.82955
▁germany	-8.83015
▁needed	-8.83067
▁tokyo	-8.83268
▁train	-8.83654
▁moo	-8.83804
com	-8.84
▁hamas	-8.84279
▁immediately	-8.84316
▁stay	-8.84391
▁include	-8.84431
▁ground	-8.84547
▁caused	-8.84566
▁operation	-8.84605
▁technology	-8.8461
▁games	-8.84649
▁online	-8.8472
▁decided	-8.84728
▁tell	-8.84748
▁low	-8.8478
▁short	-8.84829
▁hong	-8.85032
▁services	-8.8518
▁issues	-8.85449
▁biggest	-8.85634
▁stock	-8.85649
▁getting	-8.85714
▁growth	-8.85727
▁eastern	-8.85735
▁los	-8.85742
▁growing	-8.85758
▁reached	-8.85937
▁coalition	-8.86314
▁wall	-8.86387
▁labor	-8.86623
▁h	-8.86645
▁turn	-8.86787
▁claimed	-8.87009
▁tour	-8.87015
▁phone	-8.87174
▁lawmakers	-8.87237
▁alleged	-8.87301
▁strike	-8.87321
▁brown	-8.87421
▁league	-8.87498
▁missing	-8.87506
▁exchange	-8.87522
▁pakistani	-8.87534
▁paris	-8.87576
▁try	-8.87922
▁officers	-8.88007
▁associate	-8.88052
▁polls	-8.88257
▁provide	-8.88289
▁saw	-8.88558
▁church	-8.88716
▁assembly	-8.88756
▁hillary	-8.88761
▁summer	-8.89162
▁executive	-8.89164
▁girl	-8.89178
▁closed	-8.89257
▁remain	-8.8955
▁fight	-8.89632
▁land	-8.89788
▁angeles	-8.89826
▁cup	-8.89928
▁r	-8.89943
▁hill	-8.89953
▁officer	-8.90107
▁...	-8.90275
▁road	-8.90327
▁hope	-8.90404
▁ll	-8.90465
▁warned	-8.90584
▁speech	-8.90831
able	-8.9113
▁sarkozy	-8.91253
▁charged	-8.91438
▁trip	-8.91501
▁music	-8.91569
▁protests	-8.91613
▁failed	-8.91648
▁issued	-8.91712
▁arrest	-8.91751
▁asian	-8.91853
▁battle	-8.92046
▁tax	-8.92229
▁effort	-8.92274
▁german	-8.92289
est	-8.92343
▁feel	-8.92416
▁cross	-8.92618
▁serious	-8.92623
▁jobs	-8.92681
▁goal	-8.92789
▁kind	-8.93063
▁olympic	-8.93164
▁hostages	-8.93377
▁texas	-8.93452
▁running	-8.9348
▁condition	-8.9367
▁democracy	-8.93817
▁justice	-8.93938
▁match	-8.9395
▁lives	-8.94074
▁experts	-8.94378
▁speaking	-8.94397
▁staff	-8.94508
▁majority	-8.94947
▁c	-8.95101
▁opened	-8.95116
▁threat	-8.95309
▁community	-8.95312
▁drug	-8.95531
in	-8.95689
▁rise	-8.95787
▁turkey	-8.95818
▁launched	-8.9592
▁things	-8.96103
▁higher	-8.96232
▁interest	-8.96244
en	-8.96434
▁story	-8.96564
▁event	-8.96685
▁doing	-8.96816
▁stage	-8.96821
▁why	-8.96893
▁named	-8.97175
▁continued	-8.97223
to	-8.97432
ic	-8.97535
▁gen	-8.97596
▁safety	-8.97601
▁senator	-8.9772
▁talk	-8.97721
▁sales	-8.98
▁civilians	-8.9801
▁county	-8.98036
▁crew	-8.98109
▁credit	-8.98133
▁base	-8.98246
▁programs	-8.98548
▁room	-8.98565
▁leave	-8.98907
▁governor	-8.9894
▁rule	-8.98992
▁primary	-8.99152
▁host	-8.99206
▁damage	-8.99442
▁light	-8.99554
▁parties	-8.99583
▁arrived	-8.99606
▁described	-8.99643
▁residents	-8.99689
▁association	-8.99691
▁demand	-8.99785
▁protect	-8.99922
▁address	-9.00006
▁concerns	-9.00161
▁himself	-9.00335
▁average	-9.00478
▁delegates	-9.00484
▁offer	-9.00503
▁joint	-9.00508
▁measures	-9.00673
▁daily	-9.00733
▁earth	-9.0074
▁bad	-9.00816
▁daughter	-9.00875
▁bhutto	-9.01127
▁denied	-9.01136
▁often	-9.01306
p	-9.01411
▁o	-9.01564
▁camp	-9.01592
▁cost	-9.01665
▁message	-9.01683
▁st	-9.01684
▁carrying	-9.01779
▁shows	-9.01923
▁estimated	-9.02022
▁identified	-9.0223
▁radio	-9.02365
▁sign	-9.02395
▁deputy	-9.02736
▁watch	-9.0278
▁resolution	-9.029
▁africa	-9.02936
▁break	-9.03024
▁previous	-9.03057
▁husband	-9.03134
▁cars	-9.03153
▁australian	-9.03165
▁ordered	-9.03183
▁robert	-9.0332
▁survey	-9.03441
▁boy	-9.03444
▁fired	-9.03447
▁minute	-9.0374
▁calling	-9.03788
▁risk	-9.03808
▁always	-9.03967
▁parents	-9.0409
▁production	-9.04127
▁attorney	-9.04135
▁missile	-9.0415
▁concern	-9.04289
▁project	-9.04503
▁population	-9.04553
▁bid	-9.04673
▁kong	-9.04675
▁families	-9.04786
▁michael	-9.04794
▁done	-9.05029
▁similar	-9.05113
▁meanwhile	-9.0521
▁scene	-9.0538
▁king	-9.05475
▁myanmar	-9.05617
▁computer	-9.05691
▁care	-9.05794
▁illegal	-9.05949
▁popular	-9.06038
came	-9.06123
▁funds	-9.06176
▁iranian	-9.06237
▁cases	-9.06455
▁details	-9.06594
▁suspected	-9.06658
▁included	-9.06774
▁brought	-9.06879
▁spent	-9.06907
▁sanctions	-9.07787
▁river	-9.07948
▁armed	-9.07983
▁embassy	-9.08154
▁expressed	-9.08273
▁followed	-9.08727
▁related	-9.0874
▁terrorist	-9.08806
▁candidates	-9.08872
▁living	-9.09033
▁played	-9.0909
ary	-9.09128
u	-9.09458
▁afternoon	-9.09764
▁english	-9.09882
▁nato	-9.09983
▁ready	-9.10108
▁trial	-9.1018
▁prince	-9.10209
urged	-9.10313
▁worst	-9.10329
▁rally	-9.10386
▁claim	-9.10451
▁dow	-9.1055
▁activities	-9.10761
▁fourth	-9.10852
▁royal	-9.10983
▁nomination	-9.10992
▁fund	-9.11148
▁gold	-9.11249
▁huge	-9.1126
▁comments	-9.1131
▁cabinet	-9.11475
▁means	-9.11577
▁prevent	-9.11582
▁legal	-9.11685
▁refused	-9.11713
▁reach	-9.11836
▁cell	-9.11865
▁begin	-9.11875
▁source	-9.11889
▁crash	-9.11913
▁opening	-9.11969
▁democrats	-9.1201
▁position	-9.12025
▁ended	-9.12097
▁researchers	-9.12203
▁doctors	-9.12447
▁raised	-9.1249
▁leaving	-9.12539
▁african	-9.12546
▁allowed	-9.1255
▁bodies	-9.12572
▁streets	-9.12616
▁am	-9.12628
▁sexual	-9.12765
▁ambassador	-9.12779
▁form	-9.12881
▁claims	-9.13189
▁quarter	-9.13212
▁returned	-9.13219
▁broke	-9.13269
▁push	-9.13417
▁struck	-9.1346
▁share	-9.13555
▁putin	-9.14092
▁period	-9.14121
▁paul	-9.14211
▁rose	-9.14361
▁terrorism	-9.14373
▁rescue	-9.14509
▁elect	-9.14835
▁book	-9.14923
▁expect	-9.15028
▁discuss	-9.15051
▁conditions	-9.15144
▁access	-9.1522
▁peninsula	-9.15253
▁parts	-9.15366
▁matter	-9.15687
▁instead	-9.15735
▁debate	-9.15854
▁passengers	-9.15989
▁love	-9.16064
▁create	-9.16363
carried	-9.16498
▁hopes	-9.16571
▁cities	-9.16667
▁needs	-9.16787
▁fact	-9.1688
▁millions	-9.16903
▁course	-9.16944
▁rival	-9.16956
▁question	-9.17038
▁operations	-9.17073
▁mexico	-9.17109
▁k	-9.17165
▁sure	-9.17302
▁focus	-9.17404
▁inter	-9.17441
▁dr	-9.17471
▁blast	-9.17472
▁illinois	-9.17579
▁interior	-9.17621
▁published	-9.17635
▁forward	-9.17741
▁passed	-9.17756
▁sites	-9.17857
▁holding	-9.18043
▁trading	-9.18074
▁fans	-9.18216
▁announcement	-9.18349
▁foot	-9.18673
▁fall	-9.18843
▁network	-9.18904
▁accept	-9.19189
▁rest	-9.19222
▁spending	-9.19359
▁feet	-9.1951
▁saudi	-9.19791
▁available	-9.19964
▁nothing	-9.19993
▁ship	-9.20204
▁warning	-9.20362
k	-9.20692
▁murder	-9.20911
▁civil	-9.21009
▁citizens	-9.2113
▁blame	-9.21301
▁chicago	-9.21415
▁gnp	-9.21431
▁suffered	-9.21478
▁banks	-9.21571
▁g	-9.21643
▁data	-9.21923
▁charge	-9.22
▁currently	-9.22051
▁chance	-9.22239
▁treatment	-9.2224
▁investment	-9.22249
▁institute	-9.22298
▁annual	-9.22314
▁education	-9.22362
!	-9.22488
▁rising	-9.2252
▁moved	-9.22571
▁associat	-9.22802
▁ceremony	-9.22893
▁longer	-9.23091
▁poor	-9.23282
▁virginia	-9.23408
▁winning	-9.23408
▁weather	-9.23448
▁declared	-9.23458
▁jail	-9.23642
▁response	-9.23735
▁muslim	-9.23739
▁lawyer	-9.23739
▁square	-9.23739
▁movement	-9.23748
▁themselves	-9.23899
▁either	-9.23902
▁cannot	-9.23927
▁signed	-9.24023
▁progress	-9.24121
▁worked	-9.24227
▁rebels	-9.24298
▁sold	-9.24309
▁decades	-9.24316
▁italian	-9.24404
▁harry	-9.24407
▁affairs	-9.24518
▁professor	-9.24752
▁analysts	-9.24781
▁difficult	-9.24794
▁schools	-9.2489
▁diplomatic	-9.24902
▁launch	-9.24972
▁friends	-9.25005
▁increased	-9.25268
▁non	-9.25346
▁above	-9.25409
▁steps	-9.2543
▁players	-9.25433
▁discovered	-9.25447
▁commander	-9.25807
▁century	-9.25916
▁probably	-9.25925
▁injuries	-9.25927
▁date	-9.25931
▁employees	-9.26095
▁adding	-9.26205
▁helped	-9.26225
▁moon	-9.26298
▁club	-9.26335
▁smith	-9.26481
ng	-9.26481
▁kilometers	-9.26539
▁single	-9.26692
▁index	-9.2691
▁construction	-9.26954
▁italy	-9.26959
▁comment	-9.27142
▁female	-9.27325
▁snow	-9.27332
sh	-9.27347
▁remains	-9.27384
▁investigators	-9.27628
▁quickly	-9.28023
▁highest	-9.28048
▁eu	-9.28078
▁destroyed	-9.28097
▁questions	-9.282
▁nasa	-9.28213
re	-9.28435
▁mass	-9.28532
▁field	-9.28687
▁range	-9.28775
▁industrial	-9.28888
▁view	-9.28898
▁manager	-9.28957
▁dozens	-9.28979
▁spain	-9.29072
▁consider	-9.29105
▁playing	-9.29286
▁social	-9.29366
▁dollar	-9.29442
▁rare	-9.29559
▁supreme	-9.29566
▁jones	-9.29579
▁shooting	-9.29582
▁giving	-9.29639
▁threatened	-9.29664
▁dollars	-9.29694
▁accident	-9.29923
▁mid	-9.30085
▁chavez	-9.30094
▁anything	-9.30101
▁personal	-9.30184
▁code	-9.30242
▁crowd	-9.30281
▁shut	-9.30451
▁vehicle	-9.30511
▁letter	-9.30514
▁everything	-9.30631
▁especially	-9.30632
▁detained	-9.30684
▁approved	-9.30709
▁indian	-9.30747
▁blood	-9.30786
▁act	-9.30929
▁seeking	-9.30986
▁blue	-9.3108
▁idea	-9.31113
▁friend	-9.31158
▁paid	-9.31297
▁allegedly	-9.31303
▁request	-9.31309
▁hearing	-9.31361
▁considered	-9.31443
▁guard	-9.31689
▁nearby	-9.31747
▁join	-9.31899
▁thing	-9.31905
▁worth	-9.31919
▁mayor	-9.32008
▁hands	-9.32161
▁moscow	-9.3225
▁prosecution	-9.32253
▁allegations	-9.32341
▁natural	-9.32505
h	-9.32506
▁additional	-9.32741
▁common	-9.3285
▁changes	-9.3295
ve	-9.331
ers	-9.33117
▁posted	-9.33259
▁session	-9.3326
▁envoy	-9.33345
▁kept	-9.33352
▁carolina	-9.33357
▁evening	-9.33442
▁numbers	-9.33495
▁title	-9.33581
▁levels	-9.33584
▁bus	-9.33674
▁relationship	-9.33799
▁massive	-9.33825
side	-9.33887
▁attention	-9.33904
▁ice	-9.33905
▁dropped	-9.33915
▁apparently	-9.33958
▁lack	-9.34323
▁safe	-9.34409
▁convicted	-9.34481
▁born	-9.34496
▁aircraft	-9.34598
▁happened	-9.34639
▁sun	-9.34642
▁shiite	-9.34918
▁potential	-9.34927
▁loss	-9.34988
▁taiwan	-9.3501
▁responsible	-9.3502
▁driving	-9.35022
▁sides	-9.35049
▁gain	-9.35069
▁criticized	-9.35094
▁investors	-9.35124
▁remarks	-9.35152
▁critical	-9.35506
▁toll	-9.35625
▁makes	-9.35657
▁avoid	-9.3593
▁firm	-9.36104
▁uk	-9.36151
▁responsibility	-9.36151
▁training	-9.36294
or	-9.36331
▁success	-9.36433
▁college	-9.36628
▁visitors	-9.36771
▁ki	-9.36911
▁read	-9.3693
▁target	-9.37077
▁pennsylvania	-9.37089
▁quit	-9.37127
▁alliance	-9.37193
▁crime	-9.37221
▁xinhua	-9.37278
▁society	-9.37286
▁admitted	-9.37304
▁conservative	-9.37777
▁authority	-9.37862
▁build	-9.37978
▁whom	-9.37988
▁seat	-9.3807
▁terror	-9.38128
▁costs	-9.38131
▁heard	-9.38172
▁indonesia	-9.38222
▁products	-9.38309
▁cancer	-9.38324
▁consumer	-9.38364
▁animals	-9.38428
▁ohio	-9.38431
▁management	-9.38436
▁planning	-9.38452
▁beat	-9.38499
▁independence	-9.38547
▁award	-9.38603
▁prisoners	-9.38631
▁uri	-9.38643
▁stand	-9.38703
▁chung	-9.38731
▁complete	-9.38758
▁appear	-9.38815
▁student	-9.38937
▁arms	-9.3895
▁thailand	-9.39015
▁environmental	-9.39211
▁buildings	-9.39413
▁tibet	-9.39542
▁rain	-9.39575
▁sell	-9.39795
▁serve	-9.39877
▁fear	-9.39986
▁size	-9.40017
▁offered	-9.40036
▁pacific	-9.40187
▁baby	-9.40191
▁worldwide	-9.40191
▁committed	-9.40246
▁written	-9.40256
▁suspects	-9.40259
▁someone	-9.40284
▁suspect	-9.40441
um	-9.4074
st	-9.40796
▁voice	-9.40796
▁rejected	-9.40859
▁previously	-9.40905
▁buy	-9.41071
man	-9.41088
▁kill	-9.41258
▁green	-9.41266
▁nominee	-9.41316
▁leadership	-9.41382
▁independent	-9.41858
▁abbas	-9.41896
▁drop	-9.41897
▁custody	-9.41972
▁shortly	-9.42123
▁attacked	-9.42181
▁contact	-9.42239
▁conduct	-9.42366
▁criticism	-9.42515
▁reactor	-9.42529
▁rather	-9.42578
▁herald	-9.42583
▁constitution	-9.42585
▁seats	-9.42636
▁vehicles	-9.42707
▁insurgents	-9.42726
▁tests	-9.42732
▁account	-9.42764
▁ruled	-9.42943
▁rules	-9.42988
▁remained	-9.43051
▁earthquake	-9.43133
▁explosion	-9.43134
▁includes	-9.4315
▁actually	-9.43225
▁proposed	-9.43233
▁class	-9.43261
▁raise	-9.43268
▁seek	-9.4332
▁allies	-9.43364
▁satellite	-9.43747
▁giant	-9.43754
▁ties	-9.43755
▁corruption	-9.43791
▁occurred	-9.43793
▁combat	-9.43853
▁georgia	-9.44093
▁il	-9.44253
▁paper	-9.44259
▁civilian	-9.4437
▁reduce	-9.4438
▁everyone	-9.44424
▁prize	-9.44468
▁zone	-9.44564
▁neighbor	-9.4457
▁ii	-9.4459
▁figure	-9.44746
▁signs	-9.44823
▁olympics	-9.44876
▁beginning	-9.44983
▁microsoft	-9.45034
▁regional	-9.45149
▁linked	-9.45177
▁moving	-9.45191
▁deep	-9.45204
▁pledge	-9.45305
▁store	-9.45501
▁rock	-9.45665
▁wrote	-9.45666
▁mail	-9.45811
▁conducted	-9.45912
▁plant	-9.45938
▁shares	-9.45945
▁documents	-9.45991
▁elected	-9.46073
▁quot	-9.46092
▁reform	-9.46141
▁boost	-9.46158
▁starting	-9.46215
▁impact	-9.46232
▁effect	-9.46232
▁science	-9.46243
▁museum	-9.46259
▁fifth	-9.46268
▁climate	-9.46272
▁dae	-9.46278
▁figures	-9.46305
less	-9.46486
us	-9.46519
▁ran	-9.46642
▁votes	-9.46645
▁events	-9.46758
▁immediate	-9.4681
▁traffic	-9.46884
▁built	-9.46902
▁myung	-9.4691
▁environment	-9.47038
▁actor	-9.47107
▁ex	-9.47149
▁contract	-9.47407
▁brother	-9.47515
▁anyone	-9.4758
▁bin	-9.47863
aimed	-9.47916
▁seem	-9.4793
▁spanish	-9.48166
▁brain	-9.48169
▁james	-9.48176
▁domestic	-9.4818
▁surgery	-9.48203
▁carry	-9.48443
▁bombing	-9.48449
▁pre	-9.48518
▁bak	-9.48598
▁career	-9.48848
▁player	-9.48902
▁girls	-9.4935
▁guilty	-9.49462
▁itself	-9.49486
▁spread	-9.49706
▁finance	-9.49758
▁spoke	-9.49905
▁turki	-9.49936
▁reason	-9.50009
▁showing	-9.50082
▁marriage	-9.50095
▁l	-9.50201
▁rates	-9.50239
▁regime	-9.50249
▁faces	-9.50368
▁prompt	-9.50371
▁bombs	-9.50385
▁commercial	-9.50425
▁tourists	-9.50481
▁created	-9.50529
▁marine	-9.50613
▁mosque	-9.50746
▁criminal	-9.50757
▁animal	-9.50775
▁sale	-9.50975
▁cash	-9.5106
▁word	-9.51072
▁cho	-9.5123
▁corp	-9.51421
▁mobile	-9.51453
▁flights	-9.51574
▁suggested	-9.51665
▁colombia	-9.51865
▁republic	-9.51876
▁peaceful	-9.51998
▁policies	-9.52076
▁shuttle	-9.52088
▁operating	-9.52103
▁hurt	-9.52211
▁self	-9.52238
▁gates	-9.52326
▁terms	-9.52377
▁concerned	-9.52521
▁dispute	-9.5253
▁fears	-9.52537
za	-9.52626
▁provided	-9.52656
▁addition	-9.52693
▁queen	-9.52794
▁filed	-9.52887
▁owner	-9.52903
▁telephone	-9.53051
▁bit	-9.53067
▁necessary	-9.53427
▁supply	-9.53432
▁panel	-9.53432
▁compared	-9.5346
▁mostly	-9.53604
▁patients	-9.53739
▁bridge	-9.53967
▁works	-9.53972
▁lebanon	-9.54088
▁lebanese	-9.54088
▁correspondent	-9.54104
▁moment	-9.54111
▁powerful	-9.54201
▁wa	-9.54487
▁shown	-9.54495
▁damaged	-9.54518
▁sentence	-9.54564
▁words	-9.54723
▁dangerous	-9.54788
coming	-9.54825
▁jong	-9.54883
ial	-9.5489
▁promised	-9.54917
▁stopped	-9.54975
citing	-9.54988
▁football	-9.55097
▁terrorists	-9.55113
▁track	-9.55159
▁confirm	-9.55168
▁names	-9.55212
▁speed	-9.5542
▁bbc	-9.55452
▁ilbo	-9.55454
▁voting	-9.55487
▁militant	-9.55488
▁jump	-9.55576
▁suspended	-9.5558
▁involv	-9.55626
▁kids	-9.55659
▁affected	-9.55761
▁stocks	-9.56074
▁complex	-9.56082
▁hollywood	-9.56143
▁conflict	-9.56209
▁remaining	-9.56229
▁takes	-9.56422
▁welcome	-9.56497
▁wearing	-9.56502
ar	-9.56533
▁understand	-9.5656
▁sought	-9.56578
▁drugs	-9.5664
▁palestinians	-9.56785
▁village	-9.56799
▁fbi	-9.5684
▁regard	-9.56842
▁cover	-9.56865
▁failure	-9.56875
▁performance	-9.56879
▁appeal	-9.56901
▁amount	-9.57136
▁certain	-9.57451
▁suggest	-9.57529
▁opportunity	-9.57537
▁territory	-9.57545
▁navy	-9.57547
▁confidence	-9.57549
▁designed	-9.5771
▁ongoing	-9.57779
▁joined	-9.57934
▁lines	-9.5807
▁overseas	-9.58244
▁laws	-9.58276
▁gathered	-9.58318
▁activists	-9.58412
▁rocket	-9.58432
▁voted	-9.58508
▁separate	-9.58666
▁journalists	-9.58733
▁cooperation	-9.58953
▁caught	-9.5896
▁felt	-9.58966
▁beach	-9.58981
▁opinion	-9.59004
▁seized	-9.59004
▁apple	-9.59008
▁ways	-9.59019
▁winter	-9.59023
▁affect	-9.59209
▁command	-9.59255
▁experience	-9.59525
▁brazil	-9.59657
▁possibility	-9.59665
▁crude	-9.59667
▁wrong	-9.59693
▁ministers	-9.59704
▁holiday	-9.59725
▁truck	-9.59777
ous	-9.59779
▁fresh	-9.59914
▁abe	-9.59918
as	-9.59986
▁placed	-9.60082
▁vow	-9.60158
▁considering	-9.6019
▁maintain	-9.60199
▁images	-9.60201
▁olmert	-9.60382
▁anniversary	-9.60385
▁headquarters	-9.60401
▁mountain	-9.60409
▁investigating	-9.60448
▁quake	-9.60466
▁km	-9.60516
▁peter	-9.60697
▁pull	-9.6073
▁receive	-9.60862
▁constitutional	-9.60924
▁coach	-9.61141
▁defeat	-9.61161
▁protection	-9.61165
joins	-9.61181
▁dozen	-9.61181
▁below	-9.61194
▁critics	-9.61254
▁customers	-9.61273
▁pulled	-9.61349
▁cold	-9.61461
▁drive	-9.6158
▁resume	-9.6164
▁violent	-9.61757
forced	-9.61779
▁christmas	-9.61838
▁throughout	-9.61899
▁review	-9.6194
▁meetings	-9.61981
▁referr	-9.62034
▁sentenced	-9.62081
▁check	-9.62397
▁fine	-9.62435
▁yahoo	-9.62571
▁reuters	-9.62573
▁laden	-9.62576
▁language	-9.62654
▁package	-9.62667
ies	-9.62715
cat	-9.62738
▁ask	-9.63128
▁wide	-9.6314
▁controversial	-9.63233
▁madrid	-9.63313
▁blair	-9.63314
▁flu	-9.63378
▁disaster	-9.63399
▁directly	-9.63407
▁winner	-9.63429
▁premier	-9.63432
▁pick	-9.63448
▁famous	-9.6346
▁goes	-9.63683
▁severe	-9.63795
▁choice	-9.63853
▁port	-9.63909
▁present	-9.64024
▁parliamentar	-9.6406
▁facilities	-9.64061
▁christopher	-9.64062
▁soldier	-9.6415
▁appears	-9.64176
▁declined	-9.64208
▁gone	-9.64265
▁produced	-9.64276
▁developing	-9.64471
▁material	-9.64614
▁double	-9.64745
▁initial	-9.64771
▁straight	-9.64812
▁kidnapped	-9.64814
▁assistant	-9.64887
▁arab	-9.64888
▁hurricane	-9.64891
▁surrounding	-9.64916
▁richard	-9.64938
▁alone	-9.65017
▁fighters	-9.65064
▁speak	-9.65215
▁waters	-9.65296
▁sunni	-9.65332
▁secret	-9.65456
▁true	-9.65533
spite	-9.65538
▁twice	-9.65572
▁deadline	-9.65673
▁scandal	-9.65675
▁behavior	-9.65677
▁meters	-9.65913
▁winds	-9.66005
▁champions	-9.66043
▁direct	-9.66107
▁bear	-9.66156
▁tech	-9.66168
▁selling	-9.66198
▁positive	-9.66244
▁magazine	-9.66438
▁victim	-9.66442
▁overall	-9.66483
▁ma	-9.66757
▁burma	-9.66781
▁northeast	-9.66825
asp	-9.66834
▁ben	-9.66858
▁challenge	-9.66906
▁barrel	-9.6691
▁significant	-9.67021
▁unit	-9.67038
▁mugabe	-9.67101
▁resignation	-9.6711
▁activity	-9.67115
▁witnesses	-9.67157
▁species	-9.67171
▁decade	-9.67222
▁happy	-9.67242
▁id	-9.67378
▁broadcast	-9.67508
▁demands	-9.67619
▁sudan	-9.6762
▁super	-9.67728
▁headed	-9.67797
▁software	-9.67877
▁recession	-9.6788
▁canada	-9.67883
▁influence	-9.67953
▁missiles	-9.68332
▁quote	-9.68492
▁assault	-9.68492
▁shin	-9.68587
▁bombings	-9.6869
▁politics	-9.68706
▁j	-9.68707
▁talking	-9.68723
▁married	-9.68743
▁helicopter	-9.68789
▁attend	-9.68806
▁usually	-9.68908
▁williams	-9.68935
at	-9.69046
▁systems	-9.69225
▁traditional	-9.69253
▁measure	-9.69324
▁require	-9.69326
▁singapore	-9.69386
▁ocean	-9.69417
▁hussein	-9.69445
▁pentagon	-9.69445
▁demanding	-9.69456
▁extreme	-9.69476
▁auto	-9.69513
▁imposed	-9.69604
▁lone	-9.69771
▁targeted	-9.69834
▁collapse	-9.70092
▁zimbabwe	-9.70133
▁records	-9.70138
▁ending	-9.70233
▁airline	-9.70303
▁consumers	-9.70338
▁birth	-9.7035
▁deliver	-9.70364
▁proposal	-9.70385
▁mean	-9.70398
▁art	-9.70409
▁song	-9.70502
▁draw	-9.70523
▁prepared	-9.70541
▁pass	-9.70552
▁jet	-9.70672
▁actions	-9.70734
▁multi	-9.70741
▁determine	-9.70846
▁develop	-9.70918
▁rebel	-9.71023
▁gordon	-9.71038
▁francisco	-9.7104
▁knew	-9.71045
▁losses	-9.71113
▁rich	-9.71121
▁foreigners	-9.71185
▁prosecutor	-9.7119
▁gay	-9.71219
ally	-9.7125
▁transfer	-9.71287
▁style	-9.71287
▁male	-9.71328
▁honor	-9.71394
▁pope	-9.71423
▁van	-9.71443
▁row	-9.71508
▁steve	-9.71587
▁secure	-9.71761
▁agencies	-9.7185
▁particularly	-9.71897
▁controlled	-9.71944
▁pound	-9.71998
▁hostage	-9.72004
▁required	-9.72124
▁doctor	-9.72372
▁syria	-9.72389
▁waiting	-9.72416
▁li	-9.72426
▁lived	-9.7264
▁beyond	-9.72657
▁presence	-9.72659
▁festival	-9.72805
▁abuse	-9.72886
▁screen	-9.72921
▁democrat	-9.72982
▁door	-9.72986
▁owned	-9.73038
▁computers	-9.73112
▁forecast	-9.73152
▁william	-9.73222
▁thai	-9.73228
▁model	-9.73269
▁et	-9.7332
▁type	-9.73339
▁airlines	-9.73339
▁abu	-9.73391
▁increasing	-9.73452
▁condoleez	-9.73478
▁relief	-9.73479
▁maliki	-9.73481
▁losing	-9.73671
▁contain	-9.73679
▁resort	-9.73685
▁display	-9.73711
▁spot	-9.73845
▁scale	-9.73852
▁setting	-9.73957
▁finish	-9.74019
▁sports	-9.74038
▁dog	-9.74112
▁author	-9.74124
▁draft	-9.74156
▁resolve	-9.74161
▁exile	-9.74309
▁treasury	-9.7431
▁pictures	-9.74381
▁crimes	-9.74407
▁serving	-9.74431
▁palace	-9.74455
▁competition	-9.74462
▁transport	-9.74509
▁traveling	-9.74578
▁ali	-9.74581
g	-9.74619
▁card	-9.7463
▁developed	-9.74638
▁deadly	-9.74685
▁cells	-9.74688
▁hot	-9.74689
▁served	-9.74734
▁euro	-9.74811
▁bar	-9.74896
▁fully	-9.74911
▁sense	-9.74972
▁egypt	-9.75131
▁soviet	-9.75137
▁dialogue	-9.75138
▁various	-9.75138
▁supplies	-9.75145
▁actress	-9.75148
▁withdrawal	-9.75189
▁stars	-9.75243
▁tough	-9.75248
▁suffering	-9.75288
▁adviser	-9.75329
▁republicans	-9.75391
▁places	-9.75417
▁singer	-9.75418
▁politicians	-9.75424
w	-9.75758
▁forest	-9.75839
▁improve	-9.75846
▁wild	-9.75893
▁wound	-9.75965
▁kosovo	-9.7598
▁approval	-9.75981
▁sharif	-9.75982
▁demonstrators	-9.75996
▁tony	-9.76086
▁stem	-9.76126
▁establish	-9.76155
▁neighborhood	-9.76166
▁product	-9.76206
is	-9.76355
▁happen	-9.76359
▁houses	-9.7638
▁bay	-9.76396
▁visited	-9.76517
▁finding	-9.76619
▁blow	-9.76658
▁ho	-9.76756
▁quality	-9.76831
▁charles	-9.76833
▁kyi	-9.76839
▁religious	-9.76842
▁sometimes	-9.76967
eastern	-9.77025
▁analyst	-9.7703
▁floor	-9.77032
▁removed	-9.77043
▁apartment	-9.77067
▁camera	-9.77067
▁tibetan	-9.77094
▁determined	-9.77105
▁bomber	-9.7716
▁block	-9.774
▁fair	-9.77597
▁christian	-9.77675
▁howard	-9.77696
▁widely	-9.77772
▁declaration	-9.77855
▁crackdown	-9.77857
▁cast	-9.77892
▁questioned	-9.78202
▁withdraw	-9.78237
▁whole	-9.7828
▁demanded	-9.78291
▁smoke	-9.78306
▁walk	-9.78529
▁kabul	-9.78541
▁academy	-9.78542
▁beckham	-9.78542
▁property	-9.78544
▁count	-9.78584
▁historic	-9.78633
▁facing	-9.78643
▁mine	-9.78649
▁taxes	-9.78668
▁freedom	-9.78753
f	-9.7876
▁image	-9.78767
▁changed	-9.78788
▁users	-9.78932
ting	-9.79144
▁continues	-9.7923
▁save	-9.79237
le	-9.79245
▁produce	-9.7928
▁picture	-9.7933
▁tens	-9.79342
▁route	-9.79414
▁original	-9.79459
▁delay	-9.79538
▁partner	-9.79652
▁lawyers	-9.79678
▁ha	-9.79682
▁normal	-9.798
▁becoming	-9.79913
it	-9.80047
▁extra	-9.80105
▁hall	-9.80212
▁fraud	-9.80288
▁diana	-9.80324
▁located	-9.80348
ted	-9.80359
▁la	-9.80418
▁el	-9.80521
▁businesses	-9.80523
▁gun	-9.8053
▁zoo	-9.80547
▁spark	-9.80586
▁picked	-9.80704
▁cuts	-9.80766
▁accepted	-9.80803
▁roads	-9.80953
▁southeast	-9.81118
▁journal	-9.81139
▁tehran	-9.81173
▁saddam	-9.81173
▁kurdish	-9.81173
▁michigan	-9.81173
▁hair	-9.8118
▁struggling	-9.81244
▁increasingly	-9.81268
▁trust	-9.813
▁items	-9.81315
▁las	-9.81371
▁organizations	-9.81381
▁division	-9.81404
▁collapsed	-9.81424
▁teams	-9.81457
▁follow	-9.81468
▁finally	-9.81526
▁demonstrations	-9.81566
▁estimates	-9.81627
▁provid	-9.81654
▁pounds	-9.81767
▁arabia	-9.81823
▁highly	-9.81974
th	-9.81994
▁hear	-9.82058
▁thaksin	-9.82066
▁kennedy	-9.82066
▁transportation	-9.82072
▁replace	-9.82115
▁housing	-9.8213
▁approach	-9.82224
▁caus	-9.82297
▁highway	-9.82375
▁culture	-9.82376
▁tensions	-9.82392
▁ball	-9.82398
▁alive	-9.82412
▁explosives	-9.82425
▁discussions	-9.82448
▁boat	-9.82542
▁virtual	-9.82546
ive	-9.82788
▁alert	-9.82858
▁probe	-9.82904
▁eye	-9.82925
▁uranium	-9.82967
▁heavily	-9.8297
▁value	-9.82994
▁standing	-9.83042
▁initially	-9.83071
▁captured	-9.83149
▁channel	-9.83215
▁device	-9.83225
▁stone	-9.83245
▁indicated	-9.83274
▁weight	-9.83368
▁hu	-9.83603
▁rape	-9.83603
▁attempted	-9.83754
▁believes	-9.83764
▁telling	-9.83851
▁alcohol	-9.83855
▁penalty	-9.83876
▁assistance	-9.83878
▁virus	-9.83881
▁attempts	-9.83881
▁tourism	-9.83916
▁banned	-9.83919
▁stood	-9.83945
▁raid	-9.83971
▁kidnapping	-9.84133
▁appearance	-9.84172
▁page	-9.8419
▁jose	-9.84206
▁solution	-9.84249
▁flow	-9.84282
▁fled	-9.8431
▁wave	-9.84347
▁broken	-9.84368
▁refugees	-9.84371
▁keeping	-9.84563
▁joong	-9.84573
▁cuba	-9.84673
▁fellow	-9.84762
▁encourage	-9.84779
▁enter	-9.84799
▁possibly	-9.84802
▁junta	-9.84803
▁islam	-9.84809
▁speculation	-9.84837
▁reserve	-9.84847
▁stake	-9.84852
▁exploded	-9.84861
▁scored	-9.84916
▁asking	-9.84921
▁fed	-9.85004
▁foundation	-9.85091
▁decide	-9.85104
▁flying	-9.85133
▁planet	-9.85341
▁kenya	-9.85511
▁photos	-9.85554
▁seems	-9.85607
▁spring	-9.85709
▁mile	-9.85719
▁arizona	-9.85719
▁currency	-9.85719
▁islamabad	-9.8572
▁promote	-9.85722
▁vegas	-9.85726
▁clashes	-9.85748
▁injury	-9.85794
▁governing	-9.85822
▁heads	-9.85874
▁threatening	-9.85971
▁faced	-9.8598
▁cruise	-9.86
▁warming	-9.86068
▁isn	-9.86237
▁arm	-9.86272
▁spend	-9.86367
▁sleep	-9.86422
▁god	-9.86553
▁ensure	-9.86611
▁remote	-9.86656
▁sadr	-9.86715
▁personnel	-9.8673
▁holds	-9.86801
▁greater	-9.86833
▁troop	-9.86876
▁seed	-9.8692
▁journalist	-9.87004
▁ships	-9.87047
▁completed	-9.87057
▁struggle	-9.87088
▁convention	-9.87105
▁wing	-9.87112
▁le	-9.87159
▁nicola	-9.8725
▁phones	-9.87487
▁apparent	-9.87511
▁handed	-9.87518
▁mind	-9.8758
▁jerusalem	-9.87597
▁massachusetts	-9.87598
▁net	-9.87693
▁dna	-9.87754
▁respect	-9.87831
▁defend	-9.87852
▁opposed	-9.87853
▁budget	-9.8789
▁finished	-9.87963
▁ceo	-9.87996
▁urg	-9.88419
▁trillion	-9.8855
▁equipment	-9.8855
▁nationwide	-9.88553
▁crucial	-9.88554
▁spears	-9.88598
▁commissioner	-9.88732
▁delayed	-9.88848
▁connection	-9.8885
▁visiting	-9.88858
▁negotiator	-9.88869
▁representatives	-9.88992
▁counter	-9.89014
▁tape	-9.89077
▁projects	-9.89131
cient	-9.89145
▁income	-9.89225
▁goals	-9.89293
▁sky	-9.89322
▁hoped	-9.89357
▁angry	-9.89518
▁iowa	-9.89544
▁jung	-9.89604
▁fast	-9.8986
▁driver	-9.89975
▁da	-9.90097
▁supporting	-9.90169
▁executives	-9.90325
▁touch	-9.90383
▁films	-9.90452
▁fatah	-9.90481
▁involvement	-9.90485
▁ethnic	-9.90485
▁footage	-9.90487
▁downtown	-9.90497
▁eventually	-9.90505
▁answer	-9.90516
▁prove	-9.90545
▁evacuated	-9.90563
▁gov	-9.90596
▁stadium	-9.90778
▁minor	-9.90805
▁version	-9.90838
▁inc	-9.90859
▁tonight	-9.90905
▁lose	-9.90913
▁torch	-9.9092
atomic	-9.91047
▁wind	-9.91076
▁crashed	-9.91095
▁buying	-9.91113
▁dogs	-9.91249
▁ra	-9.91401
▁rank	-9.9145
▁samsung	-9.91462
▁google	-9.91488
▁carbon	-9.91497
▁jury	-9.91499
▁discovery	-9.91506
▁estate	-9.91511
▁dismissed	-9.9152
▁hop	-9.91544
ish	-9.91615
▁smaller	-9.91652
▁treated	-9.91674
▁intended	-9.91692
▁pain	-9.91761
▁delegation	-9.91781
▁reaction	-9.91782
▁lawmaker	-9.91795
▁closer	-9.91932
he	-9.91975
▁goods	-9.92076
▁sa	-9.92112
▁martin	-9.92253
▁announce	-9.92355
▁relative	-9.92372
▁surge	-9.92374
▁looks	-9.92422
▁leg	-9.92435
▁governments	-9.92451
▁karzai	-9.92451
▁facility	-9.92455
▁studies	-9.92456
▁nevada	-9.92464
▁cbs	-9.9247
▁surprise	-9.92538
▁du	-9.92674
▁seriously	-9.92688
▁mike	-9.92701
▁offices	-9.9276
ian	-9.9277
▁windows	-9.92851
▁piece	-9.92854
▁threats	-9.93222
▁tons	-9.93266
▁entire	-9.93357
▁orbit	-9.9337
▁reasons	-9.93451
▁perhaps	-9.93452
▁nobel	-9.93465
▁active	-9.9351
▁canceled	-9.93538
▁maybe	-9.93575
▁condemned	-9.93586
▁wake	-9.93607
▁magnitude	-9.93733
▁transition	-9.93744
▁cents	-9.93789
▁simpson	-9.93792
▁audience	-9.93797
▁tournament	-9.93798
▁favor	-9.93819
▁oscar	-9.93841
▁books	-9.93891
▁mo	-9.93916
▁concert	-9.9393
▁table	-9.94131
▁modern	-9.94186
▁fish	-9.94297
ribal	-9.94412
▁dutch	-9.94458
▁mahmoud	-9.94461
▁humanitarian	-9.94463
▁memorial	-9.94464
▁assassination	-9.94465
▁abroad	-9.94502
▁brief	-9.94568
▁completely	-9.94613
▁meant	-9.9468
▁santa	-9.94697
▁bailout	-9.94795
▁band	-9.9481
▁content	-9.94818
▁speaker	-9.94871
▁walking	-9.94931
▁watched	-9.95176
▁ally	-9.95375
▁insurance	-9.95483
▁sheriff	-9.95485
▁movies	-9.95485
▁identify	-9.95498
▁status	-9.9551
▁milan	-9.95516
▁express	-9.95541
▁treaty	-9.95545
▁travelers	-9.95613
▁killings	-9.95669
▁cia	-9.95676
▁fashion	-9.95814
▁koreas	-9.95919
▁diplomats	-9.95925
▁relatives	-9.96014
▁yes	-9.96034
▁stations	-9.96043
▁alaska	-9.96129
▁heading	-9.96178
▁seeing	-9.96225
▁indicate	-9.96459
▁gets	-9.96472
▁dubai	-9.96514
▁strategy	-9.96514
▁presidency	-9.96515
▁advantage	-9.96517
▁babies	-9.96534
▁putting	-9.9662
ne	-9.96661
▁farmers	-9.96684
▁extended	-9.9674
▁walked	-9.96835
▁forum	-9.96934
▁exports	-9.97091
▁relay	-9.97128
▁reporter	-9.9738
▁boycott	-9.97548
▁casualties	-9.97556
▁manchester	-9.97557
▁berlin	-9.97558
▁gunmen	-9.97562
▁organizers	-9.97658
▁nbc	-9.97677
▁limited	-9.97793
▁danger	-9.97897
▁offensive	-9.97905
▁invasion	-9.97922
▁aboard	-9.97922
▁champion	-9.97951
▁weekly	-9.97984
▁heat	-9.98049
▁miss	-9.98188
▁ranking	-9.98312
▁iraqis	-9.98449
▁watching	-9.98598
▁kingdom	-9.98607
▁jackson	-9.98608
▁cheney	-9.98609
▁lady	-9.98638
▁appointed	-9.98704
▁officially	-9.9881
▁cited	-9.98871
led	-9.98876
▁freed	-9.98907
▁strongly	-9.98961
▁clearly	-9.98994
▁specific	-9.98998
co	-9.99018
▁worse	-9.99032
▁pilot	-9.99058
▁upon	-9.99088
▁represent	-9.991
▁covered	-9.9914
▁pa	-9.99142
▁box	-9.99235
▁venezuela	-9.99327
▁shift	-9.9936
▁plot	-9.99495
▁founder	-9.99522
▁lake	-9.99608
▁su	-9.99621
▁lift	-9.99627
▁sydney	-9.9967
▁anonymity	-9.99671
▁diego	-9.99673
▁unemployment	-9.99673
▁dark	-9.99678
▁smoking	-9.99703
▁recovery	-9.99715
▁princess	-9.99798
▁survivors	-9.99875
▁fly	-9.99901
▁doubt	-10.0002
▁detention	-10.0006
▁weapon	-10.0007
▁commitment	-10.0011
▁sister	-10.0026
▁standards	-10.0032
▁nor	-10.0035
▁se	-10.004
▁catch	-10.0043
▁coup	-10.0046
▁ba	-10.0067
▁nadal	-10.0075
▁entertainment	-10.0075
▁mohammed	-10.0075
early	-10.0077
▁hilton	-10.0078
▁bought	-10.0078
▁johnson	-10.0079
▁gang	-10.008
▁revealed	-10.009
▁regular	-10.0105
▁muslims	-10.0107
▁sub	-10.0114
▁example	-10.0116
▁simple	-10.0116
▁electronic	-10.0117
▁toys	-10.0117
▁standard	-10.0117
▁visa	-10.0121
▁patrol	-10.0125
▁aide	-10.0126
▁benefits	-10.0127
▁maker	-10.013
▁agent	-10.013
▁trouble	-10.0151
▁sound	-10.017
▁tomorrow	-10.0183
▁widespread	-10.0183
▁destruction	-10.0184
▁buried	-10.0184
▁sharp	-10.0189
▁easy	-10.0189
▁else	-10.019
▁newspapers	-10.0204
▁guards	-10.0221
▁daniel	-10.0225
▁prepar	-10.0245
▁formal	-10.0263
▁internal	-10.0289
▁delta	-10.0293
▁tested	-10.0293
▁negative	-10.0296
▁potter	-10.0298
▁monks	-10.0298
▁cutting	-10.03
▁insisted	-10.0306
▁halt	-10.0308
▁contest	-10.0311
▁catholic	-10.0338
▁passenger	-10.0338
▁favorite	-10.0339
▁landing	-10.0339
▁awards	-10.0354
▁witness	-10.0371
▁eyes	-10.0372
▁attract	-10.0383
ity	-10.0391
▁physical	-10.0397
▁vietnam	-10.0404
▁canadian	-10.0405
▁electricity	-10.0405
▁simply	-10.0406
▁soccer	-10.0406
▁continuing	-10.0413
▁task	-10.0415
▁resources	-10.0415
▁quick	-10.0417
▁debut	-10.0419
▁acknowledged	-10.0423
▁renew	-10.0424
▁mention	-10.0425
▁die	-10.0449
▁medicine	-10.0455
▁rooms	-10.0483
▁landed	-10.0486
▁malaysia	-10.0494
entered	-10.0499
the	-10.0506
▁extend	-10.0508
▁judges	-10.0513
▁jersey	-10.0517
▁ukraine	-10.0517
▁apology	-10.0517
▁begun	-10.0518
▁unclear	-10.0518
▁agree	-10.0521
▁rome	-10.0524
▁organized	-10.0526
▁percentage	-10.0527
▁triggered	-10.0536
▁drinking	-10.0537
▁export	-10.0537
▁returning	-10.0539
corporate	-10.0541
▁trapped	-10.0551
▁loans	-10.0555
▁agenda	-10.0556
▁color	-10.0557
▁choose	-10.0569
▁generation	-10.057
▁communications	-10.0589
▁link	-10.0592
▁resign	-10.0592
ce	-10.0593
▁colombian	-10.0597
lew	-10.0604
tan	-10.0606
▁none	-10.0611
▁investigate	-10.0614
▁celebrate	-10.0623
▁humans	-10.0623
▁chelsea	-10.063
▁liverpool	-10.063
▁valley	-10.0631
▁overnight	-10.0633
▁restrictions	-10.0639
▁cultural	-10.0639
▁plus	-10.0641
▁certainly	-10.0644
▁decline	-10.0654
▁learned	-10.0657
raising	-10.0659
▁attended	-10.0675
▁ring	-10.0677
▁dream	-10.0693
▁birds	-10.0697
▁discussed	-10.07
▁auction	-10.0702
ional	-10.0704
▁tank	-10.0715
▁era	-10.0733
▁creat	-10.0734
▁enemy	-10.0745
▁conspiracy	-10.0745
▁atlanta	-10.0746
▁pair	-10.0746
▁yongbyon	-10.0747
▁basis	-10.0751
▁nature	-10.0753
▁lowest	-10.0758
▁burned	-10.0761
▁marked	-10.0762
▁targets	-10.0764
▁assets	-10.0768
ion	-10.0778
▁indiana	-10.0782
▁differences	-10.0798
itting	-10.0798
▁tourist	-10.0798
▁debt	-10.0802
▁offering	-10.0807
▁provinces	-10.0813
▁grow	-10.0827
▁forc	-10.0828
▁pushing	-10.0831
▁successful	-10.0854
▁perfect	-10.0857
▁thomas	-10.0861
▁legislation	-10.0862
▁standoff	-10.0862
▁document	-10.0863
▁rescuers	-10.0864
▁deployed	-10.0876
▁regulations	-10.0878
▁knows	-10.0885
▁powers	-10.0885
▁trail	-10.0886
▁fewer	-10.0888
▁dong	-10.0892
▁ten	-10.0904
▁exist	-10.0906
▁lawsuit	-10.0912
▁gains	-10.0917
▁mount	-10.0929
▁leads	-10.0934
▁tear	-10.0944
▁interests	-10.0946
▁planes	-10.0956
ty	-10.0966
▁breaking	-10.0979
▁bangkok	-10.0979
▁maryland	-10.0979
▁acting	-10.0979
▁concluded	-10.0986
▁unveiled	-10.0989
▁engage	-10.0991
▁bureau	-10.0993
▁via	-10.1003
▁filled	-10.1006
▁lifted	-10.1009
▁driven	-10.1013
▁vessel	-10.1032
▁learn	-10.1033
▁ticket	-10.1033
▁reduced	-10.1035
▁noted	-10.1061
▁haven	-10.1062
▁seconds	-10.1069
▁stress	-10.1078
▁questioning	-10.1082
▁aides	-10.1089
▁permanent	-10.1089
▁clean	-10.1093
ized	-10.1095
▁suit	-10.1095
b	-10.1097
▁preliminar	-10.1098
▁federer	-10.1099
▁runs	-10.1099
▁bilateral	-10.1099
▁abdullah	-10.1099
▁herself	-10.11
▁repeated	-10.1101
▁homeland	-10.1101
▁slightly	-10.1102
▁producing	-10.1103
▁proud	-10.1104
▁frozen	-10.1107
▁allows	-10.1109
▁mr	-10.1115
▁unusual	-10.1125
▁chances	-10.1137
▁rivals	-10.1145
▁basic	-10.1148
ation	-10.115
▁advance	-10.115
▁entering	-10.1151
▁album	-10.1152
▁hole	-10.1153
▁teachers	-10.1156
▁location	-10.1157
▁closing	-10.1157
▁han	-10.1158
▁exercise	-10.1162
▁suburb	-10.1175
▁healthy	-10.1179
ness	-10.1183
▁boats	-10.1184
▁follows	-10.1194
▁respond	-10.1202
▁strikes	-10.1207
▁remove	-10.1209
▁tsunami	-10.1219
▁controversy	-10.1219
▁reaching	-10.1219
▁hwang	-10.122
▁fayed	-10.122
▁plants	-10.1222
▁wait	-10.1224
▁mph	-10.1224
▁invited	-10.1224
▁effects	-10.1224
▁khan	-10.1226
▁inflation	-10.123
▁centers	-10.1235
▁inspectors	-10.1241
▁edwards	-10.1242
▁opponents	-10.1249
▁digital	-10.1253
▁practice	-10.1254
▁edge	-10.1263
▁ability	-10.127
▁islands	-10.1275
▁subject	-10.1276
▁ease	-10.1277
▁focused	-10.1291
▁yellow	-10.1294
▁falling	-10.1319
▁purchase	-10.1322
▁nepal	-10.1328
▁suggests	-10.1329
▁spy	-10.1337
▁miami	-10.134
▁darfur	-10.134
▁hezbollah	-10.1341
▁unification	-10.1342
▁stores	-10.1343
▁palin	-10.1343
▁solar	-10.1344
▁chrysler	-10.1358
▁tom	-10.1361
▁reporting	-10.1363
▁limit	-10.1371
▁presented	-10.1385
▁kang	-10.1414
ful	-10.1418
▁calm	-10.1425
▁tight	-10.1427
▁hospitals	-10.1436
▁materials	-10.1447
ought	-10.1453
▁supported	-10.1454
▁split	-10.1463
▁southwest	-10.1466
▁hospitalized	-10.1467
▁campus	-10.1471
▁firefighters	-10.1471
▁bottom	-10.1472
ending	-10.1479
▁strip	-10.148
▁bird	-10.1485
▁ones	-10.1497
▁venezuelan	-10.1504
▁exit	-10.1508
▁pop	-10.1512
▁rail	-10.1517
▁recall	-10.1519
▁arrival	-10.1523
▁lay	-10.1524
▁liberal	-10.1531
▁profile	-10.1535
▁refugee	-10.1536
▁guy	-10.1539
▁boys	-10.1539
azir	-10.1561
▁rockets	-10.1565
▁wins	-10.1571
▁yonhap	-10.1589
▁colorado	-10.1589
▁pretty	-10.1589
▁gulf	-10.1591
▁tiny	-10.1591
▁retired	-10.1593
▁drew	-10.1596
▁emissions	-10.1597
▁fallen	-10.1599
▁failing	-10.1604
▁reading	-10.161
▁flooding	-10.162
▁promise	-10.163
▁options	-10.1644
▁fate	-10.1644
▁shrine	-10.1649
▁cleric	-10.1649
▁outbreak	-10.1651
▁guns	-10.1674
▁northwest	-10.1688
▁formed	-10.1689
▁findings	-10.1689
▁neighbors	-10.1715
▁captain	-10.1716
▁macau	-10.1716
▁gunman	-10.1717
▁youtube	-10.1718
▁shopping	-10.1718
▁staying	-10.1725
▁repeatedly	-10.1725
▁banking	-10.1725
▁predicted	-10.1728
▁delivery	-10.1731
▁inches	-10.1738
▁pace	-10.1744
▁zealand	-10.1744
▁aids	-10.1744
▁resigned	-10.175
▁lama	-10.1753
▁surface	-10.1754
▁larger	-10.1757
▁warnings	-10.176
▁testing	-10.1763
▁sony	-10.1767
▁sean	-10.1767
▁trains	-10.1768
▁journey	-10.1771
▁yang	-10.1772
▁restaurant	-10.1778
▁expert	-10.1778
▁requested	-10.1782
▁sector	-10.1782
▁globe	-10.1782
▁lying	-10.1795
▁older	-10.1811
▁fires	-10.1822
vez	-10.1828
▁willing	-10.1832
▁tree	-10.1832
▁narrow	-10.1833
▁hyundai	-10.1844
▁gasoline	-10.1844
▁immigration	-10.1844
▁neither	-10.1844
▁innocent	-10.1844
▁truth	-10.1844
▁couples	-10.1849
dalai	-10.185
▁temperatures	-10.1874
▁drawn	-10.1878
▁tim	-10.1891
▁pe	-10.19
▁edition	-10.1903
▁professional	-10.1907
▁writing	-10.1917
▁benefit	-10.1918
▁label	-10.1929
▁corner	-10.193
▁min	-10.1941
▁offers	-10.1962
▁iaea	-10.1973
▁boston	-10.1974
▁vatican	-10.1974
▁drove	-10.1975
▁reality	-10.1976
▁erupted	-10.1976
▁stability	-10.1976
▁atmosphere	-10.1979
▁escaped	-10.1995
▁ideas	-10.2001
▁abc	-10.2002
▁changing	-10.2004
▁climb	-10.2008
▁accus	-10.2012
▁scott	-10.2019
▁strength	-10.2024
▁individuals	-10.2031
▁pursue	-10.2036
▁degree	-10.204
▁compound	-10.2042
▁jailed	-10.2047
▁col	-10.2048
▁destroy	-10.2053
▁ill	-10.2061
time	-10.2064
▁provinc	-10.2078
▁funding	-10.2082
▁electric	-10.2089
▁mars	-10.2092
▁sarah	-10.2105
▁enforcement	-10.2105
▁argentina	-10.2106
▁islamist	-10.2107
ment	-10.211
▁grew	-10.2115
▁remember	-10.2118
▁earned	-10.2124
▁recovered	-10.2124
▁younger	-10.2132
▁survived	-10.2133
▁friendly	-10.2134
▁statements	-10.2136
▁farm	-10.2137
▁di	-10.2146
▁thanks	-10.2158
▁girlfriend	-10.2165
▁astronaut	-10.2173
▁communication	-10.2174
▁radical	-10.2177
▁producer	-10.2184
▁drivers	-10.2196
▁targeting	-10.2199
▁grave	-10.2202
▁path	-10.2202
▁reflect	-10.2219
▁import	-10.2222
▁vladimir	-10.2225
▁brand	-10.2236
▁scotland	-10.2239
▁bigger	-10.2239
▁jesus	-10.224
▁madeleine	-10.2241
▁vast	-10.2247
▁observers	-10.2248
▁atlantic	-10.2252
ehud	-10.2256
▁responded	-10.2269
▁flames	-10.2275
▁motor	-10.228
▁estimate	-10.2285
▁adults	-10.2293
▁tied	-10.2297
ro	-10.2301
▁patient	-10.2304
▁astronauts	-10.2305
▁closely	-10.2305
▁restaurants	-10.2308
▁wedding	-10.2309
▁messages	-10.2322
▁signal	-10.2338
▁publicly	-10.2342
▁anger	-10.2344
▁wen	-10.2377
▁expectations	-10.2387
▁ang	-10.2388
▁pirates	-10.239
▁managed	-10.2401
▁sixth	-10.2402
▁treat	-10.2437
▁convoy	-10.2442
▁broadcasting	-10.2445
▁reduction	-10.2445
▁escape	-10.2445
▁teacher	-10.2446
▁counterpart	-10.2448
▁runner	-10.2455
▁orders	-10.2461
▁add	-10.2481
▁lights	-10.2483
▁helicopters	-10.2488
▁indonesian	-10.249
▁particular	-10.2502
▁delhi	-10.2511
▁disarmament	-10.2511
▁pregnant	-10.2511
▁reforms	-10.2513
▁papers	-10.252
▁firms	-10.2525
▁introduced	-10.2526
ural	-10.2527
▁matches	-10.2532
▁fox	-10.2541
▁philippines	-10.2549
▁established	-10.2557
▁gap	-10.2558
▁license	-10.256
▁beef	-10.2561
ier	-10.2561
▁regions	-10.2569
▁deployment	-10.2582
upper	-10.2618
▁serbia	-10.2626
▁suspend	-10.2632
me	-10.2634
▁artist	-10.2641
▁petraeus	-10.2649
▁memory	-10.265
▁barcelona	-10.265
▁alexander	-10.265
▁length	-10.265
▁jordan	-10.265
▁boeing	-10.265
▁duty	-10.265
▁birthday	-10.2651
▁surrounded	-10.2653
▁whatever	-10.2656
▁accounts	-10.2659
▁wealth	-10.2665
▁feature	-10.2665
▁divided	-10.2666
▁views	-10.2676
▁knee	-10.2677
▁paying	-10.2689
▁unity	-10.2695
▁blocked	-10.2698
▁positions	-10.271
ll	-10.2711
▁fill	-10.2712
▁praise	-10.272
▁suspicion	-10.2724
▁feeling	-10.2728
▁contests	-10.2732
▁ride	-10.2737
▁shared	-10.2744
▁gathering	-10.2745
▁firing	-10.2755
▁flag	-10.2759
▁kevin	-10.279
▁shanghai	-10.279
▁elizabeth	-10.279
▁buddhist	-10.2791
▁federation	-10.2791
▁stories	-10.2798
▁beaten	-10.2798
▁frank	-10.2799
▁dis	-10.2804
▁adopted	-10.2811
▁stronger	-10.2815
▁counts	-10.2819
▁troubled	-10.282
▁illegally	-10.282
▁describe	-10.2825
▁recorded	-10.2826
▁holy	-10.2829
▁gop	-10.2837
▁accord	-10.2843
▁direction	-10.2845
▁hundred	-10.2854
▁farc	-10.2854
▁commit	-10.2855
▁representative	-10.2867
by	-10.2877
▁marks	-10.2912
▁participate	-10.2912
▁challenges	-10.2914
▁aim	-10.292
▁villages	-10.2925
▁abdul	-10.2933
▁ghazni	-10.2933
▁hawaii	-10.2933
▁hampshire	-10.2933
▁ahmadinejad	-10.2933
▁wildlife	-10.2933
▁rallies	-10.2934
▁blam	-10.2935
▁maxim	-10.2937
▁infected	-10.2941
▁cleared	-10.2955
▁sets	-10.2958
▁registered	-10.2967
▁gore	-10.2972
▁warm	-10.298
▁beating	-10.2984
▁trees	-10.2994
▁character	-10.2996
▁punishment	-10.3001
▁neck	-10.3005
▁championship	-10.3012
▁difference	-10.3012
▁sponsor	-10.3012
ra	-10.3036
z	-10.3037
wept	-10.3039
▁corps	-10.3042
▁abandon	-10.305
▁cat	-10.3058
▁jakarta	-10.3078
▁primaries	-10.3078
▁reagan	-10.3078
▁basra	-10.3078
▁watchdog	-10.3078
▁enrichment	-10.3078
▁morgan	-10.3079
▁kerry	-10.3079
▁sensitive	-10.3082
▁palm	-10.3087
ling	-10.3089
▁sharply	-10.3089
▁successor	-10.3091
▁bloody	-10.3103
▁burning	-10.3104
▁colleagues	-10.3107
▁crowds	-10.3109
▁monitoring	-10.3111
▁skin	-10.3118
▁engineers	-10.3122
▁weak	-10.3126
▁metropoli	-10.3134
▁arsenal	-10.3148
▁scientist	-10.3158
▁economist	-10.316
▁routine	-10.316
▁violation	-10.3161
▁strain	-10.3162
▁highlight	-10.3165
▁veto	-10.3171
▁somali	-10.3177
▁strict	-10.3193
▁enjoy	-10.3195
▁threaten	-10.3201
▁x	-10.3212
▁effective	-10.3218
▁manhattan	-10.3225
▁scientific	-10.3225
▁capacity	-10.3225
▁midnight	-10.3225
▁disappointed	-10.3226
▁lohan	-10.3226
▁televised	-10.3226
▁abducted	-10.3226
▁comedy	-10.3227
▁unlikely	-10.3231
▁stalled	-10.3231
▁patrick	-10.3237
▁fortune	-10.3238
▁owners	-10.324
▁expensive	-10.324
▁cease	-10.3243
▁deeply	-10.3245
▁stance	-10.3252
▁throw	-10.3253
▁stressed	-10.3257
▁floods	-10.3286
▁eating	-10.3293
▁begins	-10.3296
▁individual	-10.3298
▁option	-10.3307
▁demonstration	-10.3309
▁jan	-10.331
▁understanding	-10.3311
▁acts	-10.3323
▁bombers	-10.3345
▁bound	-10.3351
▁metal	-10.3354
formally	-10.3355
▁equal	-10.3358
▁briefing	-10.3362
▁worker	-10.3366
▁shock	-10.3369
▁osam	-10.3369
▁wear	-10.3373
▁portugal	-10.3374
▁numerous	-10.3374
▁columbia	-10.3375
▁manufacturing	-10.3375
▁causes	-10.3376
▁boss	-10.3376
▁everybody	-10.3376
▁caucuses	-10.3377
▁knowledge	-10.3378
▁affiliate	-10.3379
▁emerged	-10.3384
▁chosen	-10.3388
▁capable	-10.339
▁nominated	-10.3393
▁newly	-10.3394
▁apologized	-10.3398
▁packed	-10.3401
ory	-10.3402
▁ch	-10.3403
▁letters	-10.3408
▁en	-10.3412
el	-10.3419
▁arrive	-10.3427
▁grown	-10.3437
▁woo	-10.3437
▁chile	-10.3441
▁loved	-10.3451
▁meaning	-10.3452
▁features	-10.3454
▁brazilian	-10.3456
▁plastic	-10.3457
▁initiative	-10.3458
▁mortgage	-10.3459
▁airports	-10.3461
▁profit	-10.3465
tp	-10.3479
▁moves	-10.3498
▁unions	-10.3504
delivered	-10.3513
▁ends	-10.3519
▁sit	-10.3525
▁pkk	-10.3526
▁jewish	-10.3526
▁surveillance	-10.3526
▁worried	-10.3526
▁coffee	-10.3526
▁glass	-10.3527
▁intense	-10.3529
▁detonated	-10.353
▁bitter	-10.353
▁circumstances	-10.3531
ious	-10.3531
▁restore	-10.3531
▁faster	-10.3533
▁ronaldo	-10.3533
▁dealing	-10.3534
▁factory	-10.3536
▁gmt	-10.3537
▁fta	-10.3541
▁obtained	-10.3542
▁native	-10.3545
▁stands	-10.3548
▁harsh	-10.3551
▁engineering	-10.3554
▁videos	-10.3554
▁deny	-10.3565
ia	-10.3574
▁scores	-10.3577
roughly	-10.3582
▁directed	-10.3594
▁imports	-10.3595
▁clinic	-10.3597
▁bob	-10.36
▁militia	-10.3613
▁machine	-10.3614
▁lt	-10.3634
suu	-10.3637
▁drama	-10.3641
▁margin	-10.3648
▁implement	-10.3651
▁photo	-10.3654
▁congo	-10.3657
▁thank	-10.366
▁bu	-10.367
▁thinking	-10.3677
▁jim	-10.3679
▁kibaki	-10.368
▁henry	-10.368
▁mississippi	-10.368
▁commerce	-10.368
▁supposed	-10.3681
▁whaling	-10.3681
▁multiple	-10.3681
▁entry	-10.3681
▁southwestern	-10.3683
▁pose	-10.3684
▁design	-10.3685
▁dominated	-10.3689
▁uh	-10.3693
▁camps	-10.3711
▁bond	-10.3715
▁guests	-10.3716
▁invest	-10.3718
▁rescued	-10.3759
▁cyclone	-10.3762
▁diplomat	-10.3767
▁mccann	-10.3769
▁featur	-10.377
▁prepare	-10.3771
▁discussion	-10.3772
▁chemical	-10.3774
▁switch	-10.3774
▁leaves	-10.3784
rew	-10.3785
▁ages	-10.379
▁string	-10.3793
▁shar	-10.3795
▁talked	-10.3806
▁electora	-10.3808
aking	-10.382
▁hotels	-10.3827
▁waste	-10.3829
▁sport	-10.3833
▁debris	-10.3836
▁identity	-10.3836
▁blagojevich	-10.3836
▁charity	-10.3837
▁false	-10.3838
▁castro	-10.3839
▁rapidly	-10.3842
▁dan	-10.3842
▁superdelegates	-10.3844
▁sort	-10.3848
▁originally	-10.3852
▁depend	-10.3856
▁teen	-10.387
▁oh	-10.3881
▁rush	-10.3884
▁replaced	-10.3887
▁hiv	-10.3898
▁hunt	-10.3907
▁aware	-10.3913
▁ne	-10.3914
▁degrees	-10.3914
▁alternative	-10.3918
▁egyptian	-10.3924
▁citizen	-10.3928
▁accuse	-10.3936
▁section	-10.3943
▁promot	-10.3945
▁devices	-10.395
▁partners	-10.3954
▁striker	-10.3954
▁joe	-10.3961
▁text	-10.3966
id	-10.3967
▁mar	-10.3976
▁pump	-10.3977
▁adult	-10.3984
▁mate	-10.3984
▁technical	-10.3986
▁hills	-10.3989
▁disney	-10.3994
▁nasdaq	-10.3995
▁mohamed	-10.3995
▁benedict	-10.3995
▁greece	-10.3995
▁recognize	-10.3997
▁concrete	-10.3998
▁exactly	-10.4001
▁battling	-10.4003
▁participants	-10.4003
▁agriculture	-10.401
▁gross	-10.4011
▁expand	-10.4016
son	-10.4016
▁explain	-10.4018
▁kick	-10.4026
▁fan	-10.4042
▁pc	-10.4043
▁steven	-10.4049
▁moderate	-10.4061
▁feared	-10.4063
▁shops	-10.4066
▁survive	-10.4069
▁mexican	-10.4082
▁dinner	-10.4084
▁squad	-10.4089
▁collection	-10.4095
▁factor	-10.41
▁comfort	-10.4112
red	-10.4112
▁towns	-10.4115
▁trigger	-10.4128
▁conservation	-10.4141
htt	-10.4146
▁roman	-10.4147
▁capture	-10.4148
▁resident	-10.4153
▁fierce	-10.4156
▁tobacco	-10.4156
▁verdict	-10.4156
▁depression	-10.4156
▁benchmark	-10.4156
▁underground	-10.4157
▁crown	-10.4157
▁unknown	-10.4157
▁confident	-10.4158
▁bail	-10.4158
▁mainland	-10.4158
▁poverty	-10.4159
▁brothers	-10.416
▁apply	-10.4165
ring	-10.4166
▁complained	-10.4169
▁balance	-10.4173
▁normally	-10.4182
▁flood	-10.4183
▁chun	-10.4184
nd	-10.4185
▁ca	-10.4186
▁bo	-10.4192
▁fields	-10.4196
▁theater	-10.4196
▁bills	-10.4199
▁ford	-10.4206
▁chad	-10.4209
▁schedule	-10.4217
▁tradition	-10.4242
▁decisions	-10.4242
▁shop	-10.4242
▁fun	-10.4247
▁funeral	-10.4249
▁distance	-10.4252
▁explosive	-10.4254
▁window	-10.4254
▁cameras	-10.4281
bringing	-10.4289
▁error	-10.429
▁fit	-10.4295
▁investigations	-10.4297
▁makers	-10.431
▁eat	-10.4311
pped	-10.4318
▁phoenix	-10.432
▁stimulus	-10.432
▁joseph	-10.432
▁communities	-10.432
▁airbus	-10.432
▁testimony	-10.432
▁category	-10.432
▁founded	-10.4327
▁authorized	-10.4328
bbed	-10.4333
▁gul	-10.4341
▁note	-10.4343
▁argued	-10.4346
▁bell	-10.4355
▁somalia	-10.4374
▁dick	-10.4375
▁na	-10.4378
▁warrant	-10.4378
▁fa	-10.4387
se	-10.4402
▁links	-10.441
▁file	-10.4411
▁jon	-10.4414
▁slow	-10.4418
▁diamond	-10.442
▁nam	-10.4422
▁corporation	-10.4422
▁runway	-10.4422
▁write	-10.4425
▁pursu	-10.4428
▁pitt	-10.4435
▁austria	-10.446
▁yi	-10.448
▁aged	-10.4483
▁urban	-10.4485
▁swiss	-10.4486
▁czech	-10.4486
▁plutonium	-10.4486
▁reconciliation	-10.4487
▁sheikh	-10.4488
▁easily	-10.4489
▁striking	-10.449
▁cargo	-10.449
▁performed	-10.4507
▁violated	-10.4511
▁toxic	-10.4518
▁handle	-10.4526
▁mon	-10.4529
▁shots	-10.4539
▁contained	-10.4542
▁stern	-10.4545
na	-10.4551
▁bags	-10.4554
▁faith	-10.4569
▁tackle	-10.4569
▁attending	-10.4575
▁cave	-10.4581
▁breakthrough	-10.4586
▁temple	-10.459
▁gallon	-10.459
▁negotiators	-10.4602
ung	-10.4603
▁musical	-10.4604
▁chris	-10.4609
way	-10.4611
▁campaigning	-10.4618
▁backing	-10.4637
▁uses	-10.4641
▁legislative	-10.4656
▁otherwise	-10.4656
▁worries	-10.4657
▁dramatic	-10.4658
▁transferred	-10.4661
▁marines	-10.4664
▁chain	-10.4665
▁sons	-10.4665
▁payments	-10.4688
▁busy	-10.469
▁yong	-10.4708
▁outrage	-10.4719
ton	-10.4721
▁fishing	-10.4722
▁divorce	-10.4731
la	-10.4735
▁locations	-10.475
▁urge	-10.4754
rs	-10.4756
▁occupation	-10.4761
▁cloud	-10.4766
▁petition	-10.4769
ist	-10.4782
▁doors	-10.4793
▁mary	-10.4797
▁borders	-10.4811
▁sung	-10.4825
▁uefa	-10.4828
▁romney	-10.4828
▁privacy	-10.4828
▁celebrity	-10.4828
▁referendum	-10.4828
▁compensation	-10.4828
▁administrative	-10.4829
▁priority	-10.4829
▁tennessee	-10.4829
▁solve	-10.483
▁ht	-10.483
▁absolutely	-10.4831
▁ordinary	-10.4831
▁compete	-10.4838
▁ru	-10.4839
▁briefly	-10.4843
▁ranging	-10.4844
▁vital	-10.4848
▁defendants	-10.4849
▁revolution	-10.4854
▁chong	-10.4854
▁increases	-10.4856
▁institutions	-10.4862
▁chiefs	-10.4873
▁sri	-10.4881
▁responding	-10.4885
▁ryan	-10.4886
▁pitch	-10.4894
v	-10.4899
▁motion	-10.4915
▁plays	-10.4921
▁boom	-10.4929
▁boyfriend	-10.4932
▁dispatch	-10.4933
▁electronics	-10.4934
▁appointment	-10.4937
▁generally	-10.4938
▁tiger	-10.4938
▁turns	-10.4939
▁inspire	-10.4959
▁loan	-10.4962
▁bases	-10.4977
▁beer	-10.4982
▁engag	-10.4985
▁achieve	-10.4995
▁except	-10.5
▁mumbai	-10.5004
▁odinga	-10.5004
▁erdogan	-10.5004
▁wolfowitz	-10.5004
▁gambari	-10.5004
▁antonio	-10.5004
▁baseball	-10.5004
▁larry	-10.5004
▁nancy	-10.5005
▁zero	-10.5007
▁turnout	-10.5007
▁mistake	-10.5008
▁receiving	-10.5008
▁afford	-10.5009
▁carter	-10.5011
▁combined	-10.5015
▁familiar	-10.5017
▁kate	-10.5019
▁storms	-10.5021
▁appropriate	-10.5026
▁temporary	-10.5027
▁clock	-10.5029
x	-10.5036
▁oldest	-10.5037
claiming	-10.5038
▁advanced	-10.5043
▁monitor	-10.5045
▁improved	-10.5052
▁paulo	-10.5053
▁writers	-10.5055
▁stable	-10.5056
▁aung	-10.5063
▁shoot	-10.5063
▁networks	-10.5069
ri	-10.5072
▁shelter	-10.5072
ipped	-10.5073
▁teens	-10.5076
▁jae	-10.5077
▁yen	-10.5084
▁engine	-10.5092
▁operate	-10.51
cal	-10.5102
sa	-10.5106
▁typhoon	-10.5108
▁editor	-10.5113
▁jack	-10.5113
▁veteran	-10.5116
▁household	-10.5117
▁raids	-10.5125
▁pet	-10.5126
▁retail	-10.5132
▁barrels	-10.5154
▁structure	-10.5155
▁libya	-10.5161
▁riot	-10.5179
▁switzerland	-10.5182
▁advice	-10.5182
▁athens	-10.5183
▁endangered	-10.5187
▁poland	-10.5187
▁advertising	-10.5188
▁isolated	-10.5189
▁announcing	-10.519
▁athletes	-10.5195
▁maj	-10.5198
▁aren	-10.5202
▁negotiate	-10.5202
▁alex	-10.521
▁roll	-10.5227
▁genetic	-10.5234
▁civi	-10.5234
▁deals	-10.5237
▁fi	-10.5238
▁saved	-10.524
▁?	-10.524
▁dust	-10.5242
▁pointed	-10.5248
▁profits	-10.526
▁containing	-10.5263
▁ko	-10.5274
▁wounds	-10.5282
▁apart	-10.5282
▁moore	-10.5287
▁relocation	-10.5289
▁legend	-10.5293
▁stephen	-10.5297
▁purpose	-10.5298
▁delegate	-10.5299
▁carrier	-10.5307
▁fix	-10.5317
▁settlement	-10.5318
▁crossed	-10.5318
ie	-10.5322
▁cable	-10.5326
▁legs	-10.534
▁steel	-10.5348
▁listen	-10.5357
▁pelosi	-10.5364
▁amnesty	-10.5364
▁mccormack	-10.5364
▁gonzales	-10.5364
▁sovereignty	-10.5364
▁oppose	-10.5364
▁unrest	-10.5365
▁donald	-10.5366
▁copy	-10.5367
▁ousted	-10.5372
▁villagers	-10.5372
▁disappeared	-10.5372
▁nowak	-10.5373
▁bowl	-10.5377
▁sh	-10.5379
▁mixed	-10.5382
▁clothes	-10.5383
▁fleet	-10.5394
▁rio	-10.5394
▁bangladesh	-10.5399
▁mouth	-10.54
▁shootings	-10.5407
▁shortages	-10.5408
▁succeed	-10.5409
▁controls	-10.5414
▁ja	-10.5418
▁lobby	-10.5427
▁appealed	-10.5437
quo	-10.5439
▁producers	-10.5455
▁adopt	-10.546
▁stretch	-10.5471
▁agents	-10.5471
▁intention	-10.5475
▁bag	-10.5479
▁tall	-10.548
▁thousand	-10.5481
▁complaint	-10.5495
▁classic	-10.5505
▁walls	-10.5507
▁meter	-10.552
▁trained	-10.553
▁torture	-10.5532
▁jo	-10.5532
▁settle	-10.5533
▁amounts	-10.5536
▁freeze	-10.5543
▁wish	-10.5544
▁darwin	-10.5549
▁welfare	-10.5549
▁capitol	-10.5549
▁detroit	-10.5549
▁ireland	-10.5549
▁beauty	-10.5549
▁easier	-10.5549
▁pollution	-10.5549
▁mohammad	-10.555
▁bright	-10.5551
▁hamid	-10.5551
▁improving	-10.5552
▁strategic	-10.5552
▁incidents	-10.5552
▁airways	-10.5554
▁submitted	-10.5554
▁davis	-10.5559
▁miners	-10.5559
▁impose	-10.556
▁successfully	-10.5564
▁seventh	-10.5566
▁apologize	-10.5567
▁peak	-10.5568
▁units	-10.5572
▁extremists	-10.5572
▁golf	-10.5579
▁volunteers	-10.5586
▁surprised	-10.5594
▁missed	-10.5609
▁motors	-10.5615
▁leak	-10.5616
▁desert	-10.5616
▁sole	-10.5635
▁orange	-10.5658
▁returns	-10.566
▁whale	-10.5661
▁dress	-10.5665
▁lab	-10.5672
▁employee	-10.5673
▁strengthen	-10.5675
▁weigh	-10.5675
handling	-10.5685
▁values	-10.5689
▁submit	-10.569
▁lanka	-10.5704
▁arrests	-10.5713
▁winners	-10.5715
and	-10.5717
▁syrian	-10.5725
▁peru	-10.5726
▁provides	-10.5727
▁fatal	-10.5732
▁illness	-10.5734
▁promotion	-10.5736
▁twenty	-10.5738
▁variety	-10.5738
▁portuguese	-10.5738
▁tsvangirai	-10.5738
▁netherlands	-10.5738
▁philadelphia	-10.5738
▁securities	-10.5738
▁seattle	-10.5738
▁impossible	-10.5739
▁documentary	-10.574
▁runoff	-10.574
▁richardson	-10.574
▁phase	-10.5741
▁hugo	-10.5742
▁dawn	-10.5742
▁copies	-10.5744
▁pleaded	-10.5748
▁wartime	-10.5748
▁wireless	-10.5754
▁detected	-10.5756
▁samples	-10.5758
▁actors	-10.5758
▁accusations	-10.5758
▁keb	-10.5761
▁eighth	-10.5768
▁dressed	-10.577
▁recalled	-10.5781
ry	-10.5783
▁sick	-10.5786
▁soil	-10.5792
▁photographs	-10.5792
▁approached	-10.5798
▁whales	-10.5803
▁complaints	-10.5806
▁experienced	-10.5808
▁economists	-10.5823
▁brutal	-10.5823
▁declare	-10.5826
im	-10.5832
▁chair	-10.584
▁guarantee	-10.584
▁attorneys	-10.585
▁cool	-10.5859
▁dictator	-10.586
ny	-10.5862
▁ge	-10.5863
▁revenue	-10.5864
▁politician	-10.5864
▁virgin	-10.5867
▁senators	-10.587
▁retain	-10.5902
▁tend	-10.5928
▁missouri	-10.593
▁historical	-10.593
▁winehouse	-10.593
▁elsewhere	-10.593
▁swimming	-10.593
▁bankruptcy	-10.5931
▁orleans	-10.5931
▁popularity	-10.5933
▁chaos	-10.5934
▁knock	-10.5936
▁executed	-10.5938
▁yangon	-10.594
▁warner	-10.5942
▁classified	-10.5951
▁sailors	-10.5953
▁eve	-10.5955
▁abandoned	-10.5968
▁informed	-10.5968
▁viewers	-10.5986
▁rep	-10.5997
▁learning	-10.5997
▁spill	-10.6007
▁centre	-10.6015
▁detail	-10.6038
▁greenhouse	-10.6047
▁kuwait	-10.6052
▁spirit	-10.6054
j	-10.6055
ine	-10.6057
▁assessment	-10.6059
▁contrast	-10.6061
▁tension	-10.6063
▁wonder	-10.607
▁breach	-10.6072
▁po	-10.6074
▁interested	-10.6078
▁feed	-10.6078
▁youth	-10.609
▁clash	-10.6097
▁broad	-10.6109
▁soo	-10.6111
▁cap	-10.6114
▁contracts	-10.6124
▁merkel	-10.6126
▁giuliani	-10.6126
▁wimbledon	-10.6126
▁panama	-10.6126
▁inauguration	-10.6127
▁spacecraft	-10.6127
▁arriving	-10.6128
▁sectarian	-10.613
▁suddenly	-10.6134
▁testify	-10.6136
men	-10.6139
▁euros	-10.6139
▁symbol	-10.6142
▁feb	-10.6148
▁acres	-10.6153
▁homeless	-10.6156
▁potentially	-10.6157
▁annan	-10.6161
▁polling	-10.6166
▁legally	-10.6171
▁prospect	-10.6187
▁defending	-10.6191
▁purposes	-10.6198
▁reveal	-10.6231
▁stuff	-10.6235
▁passing	-10.6241
▁trend	-10.6244
▁bullet	-10.6251
▁exposure	-10.6251
▁chest	-10.6252
▁departure	-10.6257
▁attitude	-10.626
▁crews	-10.6261
▁conversation	-10.6264
▁blaze	-10.6266
▁negotiat	-10.6267
▁addressed	-10.6268
▁indicat	-10.6268
▁bars	-10.6268
▁broadcaster	-10.627
▁tie	-10.6271
▁spoken	-10.6272
▁rod	-10.6279
▁dean	-10.6282
▁fame	-10.6284
▁map	-10.6286
▁cards	-10.6292
▁violat	-10.6294
▁surrender	-10.6298
▁undermine	-10.6324
▁murray	-10.6326
▁louisiana	-10.6326
▁consecutive	-10.6326
▁cloning	-10.6326
▁disappearance	-10.6326
▁jerry	-10.6327
▁extraordinary	-10.6327
▁sichuan	-10.6327
▁momentum	-10.6329
▁posts	-10.6333
▁stolen	-10.6335
▁ioc	-10.6336
▁greet	-10.6342
▁laid	-10.6342
▁yuan	-10.6344
▁missions	-10.6349
▁granted	-10.6351
▁yoon	-10.6351
▁starts	-10.6351
▁flat	-10.6358
▁core	-10.637
▁shoes	-10.6372
▁proof	-10.6378
▁blasts	-10.6385
▁disputed	-10.6401
▁representing	-10.6406
identified	-10.6407
▁resumed	-10.6411
▁violations	-10.6417
▁vacation	-10.6419
▁flags	-10.6419
▁nominations	-10.6426
▁opens	-10.6428
▁studying	-10.6429
▁curb	-10.6432
▁vessels	-10.6438
▁waves	-10.6443
▁spreading	-10.645
▁residence	-10.646
▁sam	-10.6462
▁client	-10.6465
▁outcome	-10.6465
▁torn	-10.6468
▁teenager	-10.647
▁worry	-10.647
ca	-10.6471
▁sweet	-10.6471
▁mi	-10.6483
▁wars	-10.649
▁punish	-10.6502
▁dry	-10.6507
▁mountains	-10.6511
▁visits	-10.6512
▁usual	-10.6524
▁v	-10.6527
turning	-10.6527
▁mehdi	-10.653
▁huckabee	-10.653
▁rumsfeld	-10.653
▁sharapova	-10.653
▁technologies	-10.653
▁deadliest	-10.6531
▁latin	-10.6531
▁rocks	-10.6532
▁prior	-10.6532
▁arabic	-10.6534
▁indicted	-10.6534
▁jews	-10.6535
▁ultimately	-10.6535
▁opec	-10.6535
▁spiritual	-10.6535
▁behalf	-10.6536
▁followers	-10.6537
▁detainees	-10.6542
▁rumors	-10.6542
▁mental	-10.6548
▁significantly	-10.6554
▁selected	-10.6556
▁clinch	-10.6558
▁parent	-10.6558
▁portion	-10.6566
▁woods	-10.6567
▁investigated	-10.6579
▁weaken	-10.6585
▁collect	-10.6587
▁interviews	-10.6597
▁chen	-10.6598
▁constant	-10.6606
▁sees	-10.6607
▁matters	-10.6615
▁nice	-10.6618
▁aside	-10.6629
▁happening	-10.663
▁meat	-10.6633
▁object	-10.6638
▁sang	-10.6641
▁pending	-10.6641
▁tickets	-10.6644
▁shape	-10.6658
▁score	-10.6658
▁confrontation	-10.6663
ical	-10.6665
▁del	-10.6666
▁minimum	-10.6666
▁roger	-10.6669
▁inspection	-10.6673
▁investigator	-10.6674
▁grant	-10.6686
▁turk	-10.6692
ina	-10.6698
body	-10.6704
▁inch	-10.6704
▁cooperate	-10.671
▁maria	-10.6712
▁trucks	-10.6715
ch	-10.6717
▁continent	-10.6717
▁ambush	-10.673
▁criminals	-10.6738
▁utah	-10.6739
▁houston	-10.6739
▁inquiry	-10.6739
▁testified	-10.6739
▁barbara	-10.674
▁kansas	-10.6741
▁withdrew	-10.6741
▁powell	-10.6743
▁exposed	-10.6746
▁employment	-10.6749
▁wales	-10.6749
ley	-10.6749
▁gm	-10.6751
▁slaves	-10.6754
▁classes	-10.6757
▁persuade	-10.6758
▁upset	-10.6759
▁ta	-10.6761
▁rains	-10.6761
▁earnings	-10.6763
▁detailed	-10.6769
▁malaysian	-10.6781
▁andrew	-10.6788
▁drawing	-10.679
▁attacking	-10.6796
▁experiment	-10.6799
▁coal	-10.6808
▁acted	-10.6814
▁pack	-10.6822
▁injur	-10.6822
▁signals	-10.6835
ad	-10.6847
▁condemn	-10.6851
▁risks	-10.6856
▁rivers	-10.686
▁pilots	-10.6869
▁dump	-10.6871
▁landmark	-10.6871
▁sentiment	-10.6877
▁hopeful	-10.6877
▁greek	-10.6879
▁timetable	-10.6883
▁conclusion	-10.6884
▁wor	-10.6885
▁sir	-10.6896
▁models	-10.6906
▁shore	-10.691
▁tracks	-10.6925
▁chose	-10.6938
▁substantial	-10.6943
▁quiet	-10.6943
▁hi	-10.6945
▁jintao	-10.6951
▁turmoil	-10.6951
▁lahore	-10.6951
▁karachi	-10.6951
▁oklahoma	-10.6951
▁devastating	-10.6951
▁expansion	-10.6951
▁secular	-10.6952
▁robbery	-10.6952
▁ppp	-10.6953
▁trafficking	-10.6953
▁wright	-10.6954
▁specifically	-10.6955
▁arctic	-10.6955
▁indeed	-10.6955
▁tak	-10.6956
▁denies	-10.6956
▁omar	-10.6958
▁prominent	-10.6958
▁stationed	-10.6959
▁releasing	-10.6959
ese	-10.696
▁clothing	-10.6964
▁plunged	-10.6964
▁presumpti	-10.6965
uri	-10.6968
▁universal	-10.697
▁burn	-10.6978
▁stepping	-10.698
▁crops	-10.698
▁buses	-10.6983
▁safely	-10.6985
▁ray	-10.6993
▁iron	-10.6994
▁pledg	-10.6995
▁graduate	-10.6997
▁accidents	-10.7001
▁masters	-10.7002
▁bones	-10.7005
named	-10.7005
▁albert	-10.7012
▁raided	-10.7016
▁diet	-10.7017
▁billions	-10.7018
▁agreements	-10.7019
▁objects	-10.702
▁resolved	-10.7027
ey	-10.7031
▁marketing	-10.7033
▁maintained	-10.7035
▁factors	-10.7041
▁characters	-10.705
▁approve	-10.7071
▁ahmadi	-10.7078
▁reject	-10.7082
▁projected	-10.7099
▁tunnel	-10.71
▁pieces	-10.7101
▁dvd	-10.7102
▁delays	-10.711
▁inquest	-10.7112
▁dec	-10.7114
▁burst	-10.712
▁prohibit	-10.7125
▁prisoner	-10.7131
▁socialist	-10.7133
▁advisor	-10.714
nless	-10.7141
▁kenyan	-10.7151
▁loyal	-10.7153
▁correct	-10.7157
▁efficient	-10.716
▁rudd	-10.7161
▁revive	-10.7162
▁sentences	-10.7165
▁luxur	-10.7166
▁sao	-10.7167
▁ecuador	-10.7169
▁vienna	-10.7169
▁lewis	-10.7169
▁centuries	-10.7169
▁cleveland	-10.7169
▁celebrities	-10.7169
▁unprecedented	-10.7169
▁mosul	-10.7169
▁laboratory	-10.7169
▁industries	-10.7169
▁tragedy	-10.7169
▁empty	-10.7169
▁mbc	-10.7169
▁taylor	-10.7169
▁dropping	-10.717
▁ibrahim	-10.7171
▁warren	-10.7172
▁steady	-10.7173
▁hudson	-10.7173
▁respondents	-10.7173
▁prevention	-10.7174
▁fever	-10.7175
▁sustained	-10.7177
▁proceedings	-10.7179
▁timor	-10.718
▁effectively	-10.7182
▁recommended	-10.7184
▁moral	-10.7187
▁carlos	-10.7189
▁fo	-10.7192
▁pleased	-10.7193
▁shaped	-10.7197
▁conservatives	-10.7199
▁personally	-10.7212
▁dealers	-10.7214
▁chan	-10.7216
▁cheap	-10.7221
ter	-10.7222
▁hunting	-10.7224
▁suffer	-10.7231
▁courts	-10.7258
ma	-10.7262
un	-10.729
▁urgent	-10.7296
▁campaigns	-10.7299
▁adds	-10.73
ever	-10.7307
▁engineer	-10.7308
▁frontier	-10.732
▁ballistic	-10.732
▁passport	-10.7325
▁protected	-10.7326
▁studio	-10.7326
▁indication	-10.7328
▁execution	-10.733
▁crossing	-10.7333
▁scheme	-10.7334
▁telecom	-10.7334
▁launching	-10.7349
▁decid	-10.7351
ts	-10.7351
▁yemen	-10.7354
▁abuses	-10.7356
▁expecting	-10.7365
▁harm	-10.7372
▁reduc	-10.7382
▁suspicious	-10.7382
▁exact	-10.7383
▁moments	-10.7384
▁frequent	-10.7388
▁chirac	-10.7391
▁beneath	-10.7391
▁yeltsin	-10.7391
▁cocaine	-10.7391
▁wisconsin	-10.7391
▁rodriguez	-10.7391
▁impeachment	-10.7391
▁extensive	-10.7391
▁amazon	-10.7392
▁sweden	-10.7394
▁seung	-10.7395
▁naked	-10.7399
▁soaring	-10.7402
▁tougher	-10.7402
▁parking	-10.7404
▁gray	-10.7405
▁notice	-10.7407
▁endorsed	-10.7409
▁anticipated	-10.7413
▁eric	-10.7432
▁titles	-10.7432
▁gate	-10.7432
▁teenagers	-10.7464
▁grass	-10.7477
▁carries	-10.7483
▁tropica	-10.7494
▁drink	-10.7502
▁cats	-10.7511
▁steppe	-10.7517
▁ac	-10.7517
▁dragg	-10.7524
▁colonial	-10.753
▁hasn	-10.7536
ance	-10.754
▁chapter	-10.7545
▁stroke	-10.7562
▁fat	-10.7563
▁songs	-10.7564
▁writer	-10.7567
rushed	-10.7574
▁gear	-10.7592
ham	-10.7601
▁cuban	-10.7604
▁marking	-10.7605
▁aggressive	-10.7609
▁sudden	-10.7609
▁diseases	-10.761
▁acknowledge	-10.7612
▁shi	-10.7613
▁beirut	-10.7618
▁koizumi	-10.7618
▁kentucky	-10.7618
▁aviation	-10.7618
▁entrance	-10.7618
▁universities	-10.7618
▁wreckage	-10.7618
▁importance	-10.7619
▁economies	-10.7619
▁permission	-10.7619
▁stranded	-10.7619
▁consensus	-10.7619
▁extension	-10.7619
da	-10.7619
▁rowling	-10.762
▁displaced	-10.762
▁hunger	-10.762
▁membership	-10.762
▁outlook	-10.7622
▁broader	-10.7623
▁sgt	-10.7623
▁ambitions	-10.7625
▁concessions	-10.7625
▁shoulder	-10.7626
▁hits	-10.7628
▁legitimate	-10.7632
▁explosions	-10.7636
▁oversee	-10.7639
▁consistent	-10.7648
▁clashed	-10.7653
▁chang	-10.766
▁milk	-10.7661
▁contribute	-10.7665
ped	-10.7665
▁convert	-10.7669
▁recover	-10.7671
et	-10.7678
▁touched	-10.7684
▁medal	-10.7688
▁suggestion	-10.7689
▁wood	-10.769
▁mounting	-10.7695
▁israelis	-10.771
▁volcano	-10.7731
▁hide	-10.7744
▁principle	-10.7752
▁jin	-10.7754
▁covering	-10.7762
▁repair	-10.7769
▁rapid	-10.7771
▁idol	-10.7773
▁evil	-10.7776
▁earn	-10.7778
▁hybrid	-10.7782
▁designate	-10.7784
▁philippine	-10.7786
▁chi	-10.7788
il	-10.7789
▁yard	-10.7794
▁trips	-10.7798
▁reference	-10.7801
▁cha	-10.7802
▁proceed	-10.7813
▁register	-10.7825
▁imagine	-10.7827
▁nigeria	-10.7829
▁icon	-10.7835
▁realize	-10.7838
▁kyu	-10.7839
▁teenage	-10.7844
▁unlike	-10.7844
▁proper	-10.7846
▁galaxy	-10.7851
▁heritage	-10.7851
▁rafael	-10.7851
▁penalties	-10.7851
▁suspension	-10.7851
▁impoverished	-10.7851
▁mandatory	-10.7851
▁resistance	-10.7851
▁jolie	-10.7851
▁slowdown	-10.7851
▁geological	-10.7851
▁michelle	-10.7851
▁insurgency	-10.7852
▁possession	-10.7854
▁attached	-10.7855
▁elderly	-10.7855
▁float	-10.7856
▁frequently	-10.7859
▁advised	-10.7862
▁overcome	-10.7862
▁consequences	-10.7866
▁longest	-10.7879
▁shareholders	-10.788
▁alarm	-10.7888
▁wine	-10.7888
▁manufacturers	-10.7891
▁flooded	-10.7892
▁rounds	-10.7895
age	-10.7896
▁recognized	-10.7896
▁badly	-10.7897
▁sight	-10.7898
▁wi	-10.7917
▁principles	-10.7918
▁commanders	-10.792
▁goalkeep	-10.7939
▁vision	-10.7939
▁theory	-10.7942
▁ok	-10.7951
▁totally	-10.7955
▁recording	-10.7964
▁photograph	-10.7976
▁y	-10.7978
▁hye	-10.798
▁hang	-10.7984
▁rd	-10.7991
▁root	-10.8011
promising	-10.8013
▁politically	-10.8017
▁signing	-10.8017
▁robot	-10.8019
▁deficit	-10.8019
▁railway	-10.8022
▁method	-10.8024
▁happens	-10.8026
▁flame	-10.8031
▁centered	-10.8039
▁lies	-10.8045
▁transform	-10.8051
▁discussing	-10.8059
▁ads	-10.8067
▁jobless	-10.8068
▁searched	-10.807
▁ski	-10.8079
▁fake	-10.8079
▁enemies	-10.8089
▁harvard	-10.8089
▁roddick	-10.8089
▁pilgrims	-10.8089
▁medvedev	-10.8089
▁vermont	-10.8089
▁aftermath	-10.8089
▁diplomacy	-10.8089
▁temporarily	-10.8089
▁rubble	-10.8089
▁videotape	-10.8089
▁peacekeeping	-10.8089
▁maritime	-10.8089
▁mideast	-10.8089
▁myself	-10.809
▁genocide	-10.809
▁everywhere	-10.809
▁yoo	-10.809
▁christians	-10.809
▁truce	-10.8091
▁personality	-10.8091
▁outstanding	-10.8092
▁confirmation	-10.8092
▁wrapped	-10.8094
▁desperate	-10.8096
▁chancell	-10.8098
▁hub	-10.81
▁kyung	-10.8106
▁statistical	-10.8109
▁customs	-10.8115
▁charts	-10.8115
▁charter	-10.8117
▁flash	-10.8126
▁jets	-10.8136
▁habitat	-10.8139
▁shocked	-10.8142
▁insists	-10.8147
judicial	-10.815
▁perform	-10.8152
▁procedures	-10.8153
▁cow	-10.8163
▁button	-10.8165
▁ro	-10.8228
▁dam	-10.8233
▁tower	-10.8235
▁presidents	-10.8237
▁ron	-10.8244
▁vitamin	-10.8262
▁abduction	-10.8264
▁abortion	-10.8265
▁automaker	-10.8267
▁shirt	-10.827
▁shark	-10.8278
▁riding	-10.8284
▁nicole	-10.8292
▁fighter	-10.8302
▁checks	-10.8303
▁massacre	-10.8318
▁bears	-10.8323
▁saving	-10.8327
▁hail	-10.8328
▁emotional	-10.8329
▁asylum	-10.8333
▁dioxide	-10.8333
▁kandahar	-10.8333
▁katrina	-10.8333
▁judiciary	-10.8333
▁therefore	-10.8333
▁analysis	-10.8334
▁shook	-10.8334
▁minority	-10.8334
▁vulnerable	-10.8337
▁excited	-10.8337
▁obviously	-10.8339
▁typically	-10.834
▁lung	-10.8341
▁remarkable	-10.8343
▁simon	-10.8348
▁pm	-10.8349
▁offenders	-10.8351
▁anderson	-10.8354
denuclearization	-10.8355
▁parks	-10.8356
▁retailers	-10.8357
▁wider	-10.8358
▁roma	-10.8358
▁dating	-10.8361
▁slam	-10.8362
▁hearts	-10.8376
▁aired	-10.8389
▁pool	-10.8391
▁bottle	-10.8397
▁assist	-10.8414
▁riots	-10.8418
▁mad	-10.8421
▁raped	-10.843
▁militias	-10.8438
▁regain	-10.8442
ko	-10.8453
zo	-10.8456
▁limits	-10.8467
▁canal	-10.8471
▁singing	-10.8476
▁pressed	-10.8477
▁stops	-10.848
ang	-10.8486
▁daughters	-10.8491
▁tool	-10.8495
▁victoria	-10.8498
▁infrastructure	-10.8501
▁shutdown	-10.8502
▁chip	-10.8508
▁religion	-10.851
▁platform	-10.8516
▁conviction	-10.8516
▁landslide	-10.8516
▁procedure	-10.852
▁phil	-10.8521
▁crack	-10.8522
▁stages	-10.8527
▁spray	-10.8532
▁flee	-10.8534
▁chase	-10.8538
▁obtain	-10.8556
▁pour	-10.8574
▁disputes	-10.858
▁toyota	-10.8583
▁curfew	-10.8583
▁alabama	-10.8583
▁equity	-10.8583
▁kidnappers	-10.8583
▁consumption	-10.8583
▁kyoto	-10.8583
▁combination	-10.8583
▁wilson	-10.8584
▁liberation	-10.8584
▁myspace	-10.8585
▁uncovered	-10.8586
▁applied	-10.8586
ha	-10.8586
▁unfortunately	-10.8587
▁emirates	-10.8587
▁unique	-10.8587
▁brad	-10.8589
▁output	-10.8589
▁statistics	-10.859
▁laundering	-10.8592
▁graham	-10.8592
▁properly	-10.8592
▁spa	-10.8597
▁fda	-10.8599
▁regularly	-10.8603
▁henin	-10.8604
▁guan	-10.8615
▁steep	-10.8616
▁operated	-10.8623
▁ad	-10.8624
▁kid	-10.8645
▁bottles	-10.8646
▁detain	-10.8661
▁thick	-10.867
▁lists	-10.8674
▁mistakes	-10.8682
ily	-10.869
▁garden	-10.8695
▁championships	-10.8698
▁bone	-10.8709
▁trick	-10.8711
▁sectors	-10.8713
▁crowded	-10.8716
ur	-10.8721
▁ga	-10.873
▁wire	-10.8738
▁minds	-10.8742
posed	-10.8746
▁compromise	-10.8747
clusive	-10.8748
▁battles	-10.8753
▁legislature	-10.8757
▁paint	-10.8767
▁regret	-10.8768
▁gather	-10.877
▁principal	-10.877
▁concept	-10.8771
▁vaccine	-10.8773
▁banner	-10.8775
▁terminal	-10.8776
▁fault	-10.8777
▁leftist	-10.8778
▁venue	-10.878
ide	-10.8781
▁tribute	-10.8784
▁mac	-10.879
▁embrace	-10.8798
▁killer	-10.8801
▁louis	-10.8804
▁tomb	-10.8811
ak	-10.8816
▁convince	-10.8817
▁ronald	-10.8827
▁branch	-10.8834
▁afraid	-10.8839
▁kyodo	-10.8839
▁geneva	-10.8839
▁pittsburgh	-10.8839
▁enormous	-10.8839
▁interpol	-10.8839
▁opportunities	-10.8839
▁battery	-10.8839
▁ramos	-10.8839
▁composite	-10.8839
▁interviewed	-10.8839
▁wonderful	-10.8839
▁burial	-10.8839
▁kelly	-10.884
▁guild	-10.884
▁geun	-10.884
▁coverage	-10.884
▁enrich	-10.8841
▁unacceptable	-10.8841
▁distribution	-10.8841
▁declaring	-10.8841
▁anywhere	-10.8842
▁refusal	-10.8842
▁respectively	-10.8843
▁sorry	-10.8846
▁crush	-10.8848
▁everest	-10.885
▁shipping	-10.8851
▁doping	-10.8852
▁singh	-10.8853
▁silence	-10.8855
▁mall	-10.8856
▁generate	-10.8856
▁fred	-10.8856
▁plea	-10.8856
▁giants	-10.8856
▁skills	-10.8856
▁brian	-10.8856
▁introduce	-10.8858
▁hiding	-10.8863
▁convinced	-10.8864
▁elements	-10.8866
▁transactions	-10.8873
▁orchestra	-10.8881
▁connect	-10.8882
▁serves	-10.8884
▁traders	-10.8884
▁sweep	-10.8896
▁bacteria	-10.8898
▁managers	-10.8902
▁restrict	-10.8909
▁methods	-10.891
▁mom	-10.8914
▁studios	-10.8914
▁seal	-10.8917
ta	-10.8931
▁rev	-10.8944
ns	-10.8952
▁futures	-10.8965
▁prestig	-10.8966
▁ph	-10.8966
▁refuse	-10.8973
▁scenes	-10.8987
▁fined	-10.8991
long	-10.8996
▁surveyed	-10.9018
▁absence	-10.9026
▁marathon	-10.9026
▁thin	-10.9032
▁admission	-10.9034
▁background	-10.9034
▁creation	-10.9035
▁opponent	-10.9036
▁airstrike	-10.9036
▁operator	-10.9037
▁infection	-10.904
▁shield	-10.9041
▁uniform	-10.9042
▁pardon	-10.9053
▁abus	-10.9056
▁uganda	-10.9061
▁oct	-10.9061
▁insurgent	-10.9062
der	-10.9065
▁alan	-10.907
▁remark	-10.9072
▁stick	-10.9081
▁steal	-10.9083
▁mart	-10.9084
▁forget	-10.9084
▁sp	-10.9092
▁reverse	-10.9096
▁craig	-10.9102
▁teeth	-10.9102
locked	-10.9102
▁oxygen	-10.9102
▁belgium	-10.9102
▁kaesong	-10.9102
▁nairobi	-10.9102
▁zardari	-10.9102
▁dallas	-10.9102
▁thirty	-10.9102
▁campbell	-10.9102
▁optimistic	-10.9102
▁oregon	-10.9103
▁ahmed	-10.9104
▁emerging	-10.9104
▁swine	-10.9104
▁elite	-10.9104
▁escort	-10.9104
▁examination	-10.9104
▁regardless	-10.9105
▁visible	-10.9107
▁gender	-10.9108
▁broker	-10.9108
▁hint	-10.9108
ble	-10.9109
▁populated	-10.9109
▁complicated	-10.911
▁engagement	-10.9111
▁miller	-10.9113
▁comply	-10.9115
▁mutual	-10.9117
▁audio	-10.912
▁eggs	-10.9121
▁encouraging	-10.9121
▁noticed	-10.913
▁guerrillas	-10.913
▁publicist	-10.9132
▁lending	-10.9133
▁distributed	-10.9136
▁paintings	-10.9137
▁harder	-10.9139
▁hanging	-10.9143
▁villa	-10.9143
▁sept	-10.9146
▁serbian	-10.9147
▁christ	-10.9153
▁hero	-10.9156
▁je	-10.9157
▁intends	-10.916
▁thus	-10.9167
▁reid	-10.9172
▁clubs	-10.9173
▁mood	-10.9175
▁residential	-10.918
▁executions	-10.9181
▁romantic	-10.9184
▁movements	-10.9185
▁separated	-10.9188
▁veterans	-10.9201
▁falls	-10.9208
▁artists	-10.9218
▁grounds	-10.9219
▁twin	-10.9225
▁suk	-10.9227
▁exhibit	-10.9244
▁supports	-10.9247
▁welcom	-10.9253
▁casey	-10.926
▁burden	-10.9263
▁knowing	-10.9266
▁ballot	-10.9266
▁fle	-10.9268
▁repeat	-10.9274
▁wheel	-10.9276
▁desire	-10.9277
▁predict	-10.9291
▁philip	-10.9293
▁admit	-10.9294
▁wal	-10.9301
ong	-10.9303
▁telescope	-10.9303
▁laptop	-10.9306
▁affair	-10.9306
▁separatist	-10.9306
os	-10.9306
▁master	-10.9307
▁bed	-10.9307
▁activist	-10.9308
▁jungle	-10.9308
▁specialist	-10.9309
▁libyan	-10.933
▁angel	-10.933
▁counsel	-10.933
▁craft	-10.9331
▁hindu	-10.9333
▁instance	-10.934
▁refuge	-10.9341
▁agricultur	-10.9347
▁kun	-10.9349
▁mix	-10.9353
mer	-10.9367
▁denver	-10.9372
▁radar	-10.9372
▁ibm	-10.9372
▁cdc	-10.9372
▁hitler	-10.9372
▁burmese	-10.9372
▁kremlin	-10.9372
▁benjamin	-10.9372
▁bernanke	-10.9372
▁zawahiri	-10.9372
▁incumbent	-10.9372
▁minnesota	-10.9372
▁beautiful	-10.9372
▁citigroup	-10.9372
▁probation	-10.9373
▁awareness	-10.9373
▁reconstruction	-10.9374
▁excessive	-10.9374
▁bahamas	-10.9374
▁harbor	-10.9375
▁definitely	-10.9376
▁postponed	-10.9378
▁expell	-10.9378
▁competing	-10.9379
▁castle	-10.9379
▁universe	-10.9379
▁actual	-10.938
▁elaborate	-10.9381
▁proliferation	-10.9382
▁luis	-10.9382
▁nba	-10.9384
ni	-10.9391
▁dying	-10.9395
▁talent	-10.9399
▁selection	-10.9403
▁separately	-10.9405
de	-10.9408
▁contenders	-10.9408
▁venture	-10.941
▁lunch	-10.9416
▁racial	-10.9418
▁achieved	-10.9423
▁enjoyed	-10.9425
no	-10.9427
prime	-10.9429
▁buyers	-10.9429
▁mud	-10.943
▁waited	-10.9435
▁policeman	-10.944
▁reserved	-10.9443
▁landslides	-10.9445
going	-10.9449
▁represented	-10.9451
▁rays	-10.9453
▁te	-10.9454
▁scrap	-10.9458
▁swor	-10.9479
▁reflects	-10.9499
▁armor	-10.9501
▁peer	-10.9503
▁cheong	-10.9503
▁guys	-10.9515
▁contacted	-10.9519
▁promises	-10.9523
▁nationals	-10.9529
▁deadlock	-10.9532
▁usa	-10.9534
▁aims	-10.9537
▁theft	-10.9556
▁ka	-10.9564
▁denounc	-10.957
▁passage	-10.9577
▁mirror	-10.9577
▁midfielder	-10.9578
▁volume	-10.958
▁chamber	-10.9581
▁replacement	-10.9583
▁amendment	-10.9583
▁checkpoint	-10.9583
▁shortage	-10.9586
▁argument	-10.9589
▁blocks	-10.9592
▁tanker	-10.9592
▁novel	-10.9593
▁publication	-10.9593
▁cambodia	-10.9615
▁par	-10.9622
▁amy	-10.9624
▁fl	-10.963
▁appeals	-10.9633
ated	-10.9639
▁resolv	-10.9646
▁dakota	-10.9649
▁academic	-10.9649
▁episode	-10.9649
▁fossett	-10.9649
▁rooney	-10.9649
▁bolster	-10.9649
▁crocodile	-10.965
▁primarily	-10.965
▁reputation	-10.965
▁comprehensive	-10.965
▁prostitution	-10.965
▁danish	-10.9651
▁yourself	-10.9651
▁rallied	-10.9651
▁ankara	-10.9651
▁mountainous	-10.9653
▁pronounced	-10.9653
▁scoring	-10.9655
▁opposite	-10.9655
▁rhetoric	-10.9655
▁argentine	-10.9661
▁revised	-10.9663
▁guidelines	-10.9666
▁terry	-10.9667
▁wealthy	-10.9668
▁ranch	-10.9669
▁loud	-10.9669
▁che	-10.9672
▁thrown	-10.9672
▁rulers	-10.9672
▁generated	-10.9684
▁operational	-10.9684
▁realized	-10.9685
▁mice	-10.9686
▁peacefully	-10.9689
▁immigrants	-10.9689
▁rocky	-10.969
▁critically	-10.9695
▁undergoing	-10.9699
▁yu	-10.97
▁recovering	-10.9701
▁preparations	-10.9701
▁ratings	-10.9701
▁barriers	-10.9701
▁requests	-10.9712
▁photographers	-10.9714
▁tale	-10.972
imed	-10.9724
▁swing	-10.9726
▁investments	-10.9743
▁honored	-10.9746
ei	-10.9747
▁assume	-10.9751
▁vi	-10.9753
▁tigers	-10.9755
▁warrants	-10.9761
▁forms	-10.9761
▁fees	-10.9762
▁rat	-10.9763
▁machines	-10.9772
▁lo	-10.9776
▁bi	-10.9778
ir	-10.9784
▁undergo	-10.979
▁tears	-10.9803
▁juan	-10.9804
▁surveys	-10.9819
▁prevented	-10.982
▁accounting	-10.9836
▁shell	-10.9842
▁guide	-10.9846
▁forecaster	-10.9847
▁lie	-10.9849
▁eligib	-10.9849
▁damages	-10.985
▁appearances	-10.9853
▁occur	-10.9854
▁manipulation	-10.9854
▁prophet	-10.9859
ral	-10.9863
▁registration	-10.9866
▁temperature	-10.9869
▁toilet	-10.9871
▁muscle	-10.9871
▁rifle	-10.9873
▁gesture	-10.9874
▁cafe	-10.9875
▁roof	-10.9887
▁partial	-10.9887
▁cla	-10.9887
▁influ	-10.9892
▁scandals	-10.9894
▁rebuild	-10.9895
▁noon	-10.9895
▁fulfill	-10.991
▁parade	-10.9924
teen	-10.9924
ant	-10.9925
▁manage	-10.9927
▁unfair	-10.9927
▁rough	-10.9928
▁tornado	-10.993
▁argue	-10.9934
▁gazprom	-10.9935
▁mogadishu	-10.9935
▁thompson	-10.9935
▁diyala	-10.9935
▁heathrow	-10.9935
▁ransom	-10.9935
▁strategist	-10.9935
▁toronto	-10.9935
▁crocker	-10.9935
▁madoff	-10.9935
▁mercury	-10.9935
▁connecticut	-10.9936
▁schwarzenegger	-10.9936
▁greenpeace	-10.9936
▁eager	-10.9936
▁bruni	-10.9936
▁instant	-10.9936
▁dismantling	-10.9936
▁factories	-10.9936
▁exciting	-10.9937
▁extinction	-10.9937
▁rampage	-10.9937
▁animated	-10.9938
▁anchor	-10.9939
▁comfortable	-10.9939
▁nawaz	-10.9941
▁piracy	-10.9942
▁somewhere	-10.9942
▁revision	-10.9942
▁observation	-10.9943
▁confessed	-10.9944
▁astronomers	-10.9945
▁tip	-10.9947
▁disable	-10.9948
▁smashed	-10.9948
▁angela	-10.9951
▁finals	-10.9952
▁severely	-10.9967
▁ignored	-10.9968
▁connected	-10.9968
▁nikk	-10.9969
▁installed	-10.9972
▁argu	-10.9978
▁sealed	-10.9978
▁fleeing	-10.9981
▁pole	-10.9981
▁performing	-10.9992
▁solid	-10.9999
llowing	-11.0001
▁con	-11.0002
▁nin	-11.0003
▁expanding	-11.0006
▁approximate	-11.0008
▁cape	-11.0009
front	-11.0014
ju	-11.0018
▁ky	-11.0028
▁doubled	-11.0029
▁challenged	-11.0029
do	-11.0041
▁lots	-11.0042
▁checked	-11.005
io	-11.0056
▁dates	-11.0065
▁fee	-11.0067
▁nov	-11.0078
▁tours	-11.0078
▁nazi	-11.0086
▁duck	-11.0089
▁bang	-11.0091
▁reward	-11.0093
▁tanks	-11.0104
ned	-11.0112
▁notes	-11.0125
▁automatic	-11.0133
▁denounce	-11.0136
▁pages	-11.0146
▁stones	-11.0147
▁appearing	-11.015
▁subway	-11.0157
▁billionaire	-11.016
▁tabloid	-11.0161
▁pepper	-11.0161
▁disorder	-11.0161
▁evacuation	-11.0162
line	-11.0163
▁customer	-11.0164
▁photographer	-11.0168
▁landscape	-11.0173
freezing	-11.0194
▁remov	-11.0198
▁clark	-11.0202
▁sand	-11.0204
▁disclose	-11.0214
▁antarctic	-11.0215
▁directors	-11.0216
▁cooper	-11.0218
▁prefer	-11.0223
▁overwhelming	-11.0224
▁magic	-11.0226
▁cyber	-11.0229
▁please	-11.0229
▁lin	-11.0229
▁ceremonies	-11.0229
▁ferguson	-11.0229
▁johndroe	-11.0229
▁murphy	-11.0229
▁revenge	-11.0229
▁spectacular	-11.0229
▁denmark	-11.0229
▁sevilla	-11.0229
▁epicenter	-11.0229
▁bedroom	-11.0229
▁hidden	-11.0229
▁carpet	-11.0229
▁tripoli	-11.023
▁competitive	-11.023
▁atlantis	-11.023
▁taiwanese	-11.023
▁adoption	-11.0231
▁paulson	-11.0232
▁fastest	-11.0233
▁bolton	-11.0233
▁participating	-11.0233
▁willingness	-11.0236
▁seok	-11.0236
▁carefully	-11.0237
▁cult	-11.0237
▁trace	-11.0237
▁anybody	-11.0237
▁shouted	-11.0238
ailing	-11.024
▁sad	-11.0243
▁boxes	-11.0244
▁assured	-11.0247
▁springs	-11.0247
▁ethiopian	-11.0247
▁islets	-11.025
▁employed	-11.0252
▁satellites	-11.0255
▁pride	-11.0255
▁entirely	-11.0255
▁qualifying	-11.0257
▁barred	-11.0268
▁crunch	-11.0268
▁odds	-11.0275
▁wolf	-11.0276
▁expanded	-11.0281
▁prayers	-11.0283
▁marry	-11.0289
▁gases	-11.0293
▁applications	-11.0294
▁ultra	-11.0299
▁traded	-11.0301
▁ballots	-11.0302
▁allen	-11.0303
▁withdrawn	-11.0304
▁grace	-11.031
▁automakers	-11.031
▁rely	-11.0311
▁professors	-11.0316
▁rings	-11.0333
▁secured	-11.0337
▁lg	-11.0339
▁tries	-11.0344
een	-11.0356
▁manag	-11.0357
▁polar	-11.0362
▁mrs	-11.0365
▁gu	-11.0369
▁criticiz	-11.0375
▁hosts	-11.0378
▁mu	-11.038
▁bonds	-11.0384
▁theaters	-11.0394
▁pr	-11.0395
▁holes	-11.0401
▁pan	-11.0428
▁parker	-11.0442
▁hostil	-11.0449
▁knight	-11.0463
▁closure	-11.0464
▁infant	-11.0465
▁technique	-11.0465
▁application	-11.0466
▁mortar	-11.0466
▁guest	-11.047
▁tissue	-11.0471
▁iphone	-11.0473
ov	-11.0474
▁gift	-11.0475
out	-11.0482
▁coincide	-11.0483
▁user	-11.0489
am	-11.0497
be	-11.051
▁guess	-11.0515
▁revolutionar	-11.0517
▁powered	-11.0526
▁typical	-11.0526
▁bow	-11.0531
jennifer	-11.0532
▁ambitious	-11.0532
▁brussels	-11.0532
▁caracas	-11.0532
▁istanbul	-11.0532
▁pavarotti	-11.0532
▁pregnancy	-11.0532
▁pyramid	-11.0532
▁rawalpindi	-11.0532
▁shinawatra	-11.0532
▁volatile	-11.0532
▁winfrey	-11.0532
▁incursion	-11.0532
▁breakfast	-11.0532
▁madonna	-11.0532
▁participation	-11.0532
▁candidacy	-11.0532
▁ivory	-11.0533
▁elementary	-11.0533
▁broadway	-11.0533
▁duties	-11.0533
▁raul	-11.0534
▁subsequent	-11.0535
▁eruption	-11.0536
▁uribe	-11.0538
▁afp	-11.0538
▁branches	-11.0538
▁oprah	-11.0538
▁silver	-11.0539
▁captors	-11.054
▁horta	-11.054
▁mourning	-11.054
▁accompany	-11.0542
▁dodi	-11.0545
▁sciences	-11.0545
▁businessman	-11.0546
▁lisa	-11.0546
▁financing	-11.0547
▁supporter	-11.0547
▁lucky	-11.0552
▁occupied	-11.0557
▁educational	-11.0557
▁formula	-11.0559
▁anthem	-11.0562
▁obligations	-11.0564
▁hired	-11.0565
▁tired	-11.0566
▁donations	-11.0567
▁collected	-11.0568
▁nominees	-11.0568
▁celebrating	-11.0569
▁shoe	-11.057
▁restricted	-11.0574
▁contributed	-11.0575
▁refus	-11.058
▁adapt	-11.0581
▁roles	-11.0584
▁fixed	-11.0587
▁kicked	-11.0588
▁dad	-11.0588
▁shed	-11.059
▁inmates	-11.0602
▁explained	-11.0615
▁leap	-11.062
▁yards	-11.0621
▁foods	-11.0634
▁households	-11.0647
▁engines	-11.0652
▁micro	-11.0659
▁intent	-11.067
▁rid	-11.0672
▁install	-11.0677
▁describ	-11.0696
▁discount	-11.0706
▁finds	-11.0723
▁counted	-11.0723
▁sens	-11.074
▁mining	-11.0748
▁pointing	-11.0757
▁slump	-11.0757
▁recruit	-11.076
▁equivalent	-11.0762
▁occasion	-11.0771
▁intervention	-11.0773
▁elevator	-11.0773
▁interrogation	-11.0776
▁predecessor	-11.0777
▁kilometer	-11.0778
▁belief	-11.078
▁offense	-11.0784
▁proposals	-11.0788
▁teaching	-11.0792
ah	-11.0798
▁height	-11.0808
▁plate	-11.0814
ga	-11.0817
of	-11.0819
▁cancel	-11.082
▁haiti	-11.0833
▁swift	-11.0837
▁covers	-11.084
▁posting	-11.084
▁drunk	-11.0841
▁caribbean	-11.0845
▁chaudhry	-11.0845
▁outskirts	-11.0845
▁pichushkin	-11.0845
▁travolta	-11.0845
▁tribunal	-11.0845
▁unicef	-11.0845
▁betancourt	-11.0845
▁bloomberg	-11.0845
▁tragic	-11.0845
▁thanksgiving	-11.0845
▁nixon	-11.0845
▁montana	-11.0845
▁helmand	-11.0845
▁mdc	-11.0845
▁empire	-11.0845
▁manila	-11.0845
▁facebook	-11.0845
▁johnston	-11.0846
▁norway	-11.0846
▁crater	-11.0846
▁pusan	-11.0846
▁echo	-11.0847
▁merger	-11.0848
▁symptoms	-11.0848
▁smuggling	-11.0848
▁wooden	-11.0849
▁involve	-11.0849
▁tampa	-11.085
▁hydro	-11.0856
▁shouting	-11.0857
que	-11.0858
▁clues	-11.0858
▁cautioned	-11.086
▁stalin	-11.0863
▁somebody	-11.0863
▁clay	-11.0863
▁mis	-11.0866
▁breathing	-11.0867
▁smart	-11.0868
▁pat	-11.087
▁demonstrated	-11.0872
▁hike	-11.0872
▁musicians	-11.0876
▁wayne	-11.0883
▁guided	-11.0887
▁glaciers	-11.0895
▁attacker	-11.0896
▁restored	-11.0903
▁sta	-11.0903
ism	-11.0903
▁electrical	-11.0917
▁depict	-11.0918
▁arguments	-11.092
▁medics	-11.0921
▁demonstrate	-11.0924
▁airstrikes	-11.0924
▁react	-11.0928
▁indians	-11.093
▁petrole	-11.093
▁sued	-11.0932
▁opera	-11.0933
▁rove	-11.0937
▁matt	-11.0943
▁attackers	-11.0943
▁slim	-11.0948
▁guarantees	-11.0955
▁murders	-11.0955
▁insist	-11.0965
▁monitors	-11.0966
▁titled	-11.0982
▁slip	-11.0987
▁twel	-11.0988
▁brave	-11.099
▁blog	-11.0992
▁fines	-11.0994
▁tea	-11.0998
▁owns	-11.1001
▁ranks	-11.1015
▁shia	-11.1021
▁gangs	-11.1021
▁tropic	-11.1024
▁generals	-11.1039
▁provision	-11.1059
▁ke	-11.1072
▁hip	-11.1078
cy	-11.1082
▁shooter	-11.1086
▁hometown	-11.1089
▁essential	-11.1091
▁stepp	-11.1097
▁filming	-11.1098
▁gunshot	-11.1098
▁endorsement	-11.1099
▁forests	-11.11
▁embryo	-11.11
▁substance	-11.1101
▁brigade	-11.1102
▁spots	-11.1102
▁publisher	-11.1104
▁lord	-11.1108
▁afterward	-11.1116
▁yield	-11.1119
▁liquid	-11.1124
▁mines	-11.1126
▁foster	-11.1131
ew	-11.1135
▁violate	-11.1136
▁confront	-11.1138
▁unveil	-11.1139
▁deploy	-11.1147
▁taxi	-11.1147
▁remind	-11.1149
▁evacuate	-11.115
▁helps	-11.1152
▁imminent	-11.1156
▁chat	-11.1157
▁cent	-11.1158
▁researcher	-11.1159
▁locals	-11.1161
▁amin	-11.1162
▁extinct	-11.1165
▁triumph	-11.1165
▁endeavour	-11.1167
▁automotive	-11.1167
▁belgian	-11.1167
▁orlando	-11.1167
▁optimism	-11.1167
▁margaret	-11.1167
▁unpopular	-11.1167
▁bathroom	-11.1167
▁framework	-11.1167
▁diabetes	-11.1167
▁stewart	-11.1167
▁warehouse	-11.1167
▁biological	-11.1167
▁retaliation	-11.1167
▁existence	-11.1167
▁bruce	-11.1167
▁usfk	-11.1168
▁citizenship	-11.1168
▁reluctant	-11.1169
▁fifa	-11.117
▁ebay	-11.117
▁survival	-11.117
▁kimchi	-11.117
▁counties	-11.1171
▁tennis	-11.1171
▁fortified	-11.1172
▁difficulties	-11.1172
▁cristian	-11.1172
▁legislators	-11.1173
▁bryan	-11.1174
▁tentative	-11.1174
▁useful	-11.1175
▁summoned	-11.1175
▁silent	-11.1175
▁favorable	-11.1176
▁cannes	-11.1177
▁jeong	-11.1179
▁disrupt	-11.1179
▁stopping	-11.1181
▁overturned	-11.1181
▁emphasized	-11.1187
▁painful	-11.1188
▁kofi	-11.1188
▁belonged	-11.119
▁pursuit	-11.1191
▁strange	-11.1191
▁contractors	-11.1196
▁quell	-11.1197
▁pact	-11.1203
▁factions	-11.1203
▁aig	-11.1205
▁traditionally	-11.1205
▁captives	-11.121
▁passes	-11.1213
▁nose	-11.1219
▁tips	-11.1234
▁policemen	-11.1235
▁hearings	-11.1237
▁halted	-11.1238
over	-11.1238
etary	-11.1248
▁burns	-11.1262
▁drinks	-11.1266
▁inspections	-11.1271
▁involves	-11.1276
▁tools	-11.1278
▁joon	-11.1281
▁farms	-11.1286
heimer	-11.1287
▁defeated	-11.1294
▁ab	-11.1298
▁ahmad	-11.1303
▁files	-11.131
▁yo	-11.1311
▁trails	-11.1323
▁bans	-11.1333
▁practical	-11.1333
▁wrap	-11.1344
rvez	-11.1349
▁quarters	-11.1352
▁sounds	-11.136
▁starr	-11.1365
▁bargain	-11.1387
anamo	-11.1393
▁solutions	-11.1403
▁volunteer	-11.1403
▁planets	-11.1413
▁fundamental	-11.1417
▁routes	-11.1418
▁cathedral	-11.1427
▁advisers	-11.1427
▁superior	-11.1428
ding	-11.1428
▁lifetime	-11.1429
▁skull	-11.1433
▁airplane	-11.1433
▁pipeline	-11.1433
▁precaution	-11.1434
▁colleague	-11.1434
stone	-11.1436
nt	-11.1437
▁manner	-11.1438
▁investor	-11.1441
▁serb	-11.1444
▁divide	-11.1452
▁challenger	-11.1459
▁protested	-11.1467
▁overhaul	-11.1468
proved	-11.1474
▁acid	-11.1475
▁asset	-11.1479
▁der	-11.1479
▁decrease	-11.1493
▁preserve	-11.1493
▁artificial	-11.1501
▁cholesterol	-11.1501
▁epidemic	-11.1501
▁jiabao	-11.1501
▁kurdistan	-11.1501
▁okinawa	-11.1501
▁recognition	-11.1501
▁mercedes	-11.1501
▁irbil	-11.1501
▁psychology	-11.1501
▁samarra	-11.1501
▁prescription	-11.1501
▁retirement	-11.1501
▁utility	-11.1501
▁mitchell	-11.1501
▁fishermen	-11.1501
▁restructuring	-11.1501
▁devastated	-11.1502
▁verify	-11.1502
▁tayyi	-11.1504
▁pornography	-11.1504
▁sprawling	-11.1504
▁imf	-11.1504
▁gibbons	-11.1504
▁polish	-11.1504
▁dedicated	-11.1505
▁damaging	-11.1505
▁amazing	-11.1507
▁purported	-11.1507
▁judgment	-11.1507
▁prolonged	-11.1508
▁assassinated	-11.1508
▁beatles	-11.151
▁shattered	-11.151
▁soared	-11.1512
▁humanity	-11.1516
▁slowly	-11.1518
▁technically	-11.1519
▁youngest	-11.152
▁defectors	-11.1522
▁takeover	-11.1523
▁select	-11.1523
▁wheat	-11.153
▁fairly	-11.1531
▁actively	-11.1539
▁ju	-11.1539
▁regulators	-11.1541
▁keen	-11.1541
▁rating	-11.1542
▁supervisor	-11.1546
▁rider	-11.1563
▁wage	-11.1573
▁examine	-11.1581
▁hui	-11.1582
erial	-11.1583
▁rolling	-11.1584
most	-11.1585
▁reiterate	-11.1587
▁surged	-11.1592
▁privately	-11.1593
▁rob	-11.1597
▁sha	-11.16
loaded	-11.16
▁bold	-11.1605
▁clients	-11.161
▁elector	-11.1611
▁coordinat	-11.1619
▁lane	-11.162
li	-11.1621
▁audit	-11.1626
▁bever	-11.1636
▁sleeping	-11.1647
▁territori	-11.1675
▁communicate	-11.1676
▁sized	-11.1684
▁pen	-11.1684
gen	-11.1719
▁enable	-11.1723
▁musa	-11.1726
▁breaks	-11.1729
▁print	-11.1729
▁stag	-11.1734
▁arena	-11.174
▁arts	-11.1747
▁transit	-11.1752
▁maine	-11.1753
▁aquarium	-11.1763
▁institution	-11.1767
▁invitation	-11.1769
▁chicken	-11.1778
▁partnership	-11.1778
▁enterprise	-11.1778
▁monkey	-11.1779
▁edward	-11.178
▁z	-11.1781
▁survivor	-11.1782
▁hunter	-11.179
▁designer	-11.1791
▁lion	-11.1797
▁northwester	-11.1805
▁aging	-11.1811
▁slippe	-11.1813
▁detect	-11.1814
▁holidays	-11.1816
▁panda	-11.1818
▁scatter	-11.1824
▁visual	-11.1824
▁jihad	-11.1828
▁plead	-11.1829
▁authors	-11.183
▁mandate	-11.183
▁cautious	-11.1836
▁unexpected	-11.1838
▁ag	-11.1843
▁kidnap	-11.1845
▁caucus	-11.1845
▁ammunition	-11.1845
▁consortium	-11.1845
▁saakashvili	-11.1845
▁intensified	-11.1845
▁britney	-11.1845
▁kcna	-11.1845
▁swedish	-11.1845
▁clooney	-11.1845
▁legacy	-11.1845
▁chairwoman	-11.1846
▁capability	-11.1846
▁determination	-11.1846
▁grandmother	-11.1846
▁gunfire	-11.1846
▁peacekeepers	-11.1846
▁stunning	-11.1846
▁grandfather	-11.1846
ot	-11.1846
▁hubble	-11.1846
▁autopsy	-11.1846
▁implementation	-11.1846
▁sierra	-11.1847
▁equipped	-11.1847
▁declining	-11.1847
▁perino	-11.1848
▁territories	-11.1849
▁consent	-11.1849
▁removal	-11.185
▁nelson	-11.185
▁puert	-11.185
▁humor	-11.1851
▁uprising	-11.1851
▁shipman	-11.1852
▁dignity	-11.1852
▁convey	-11.1853
▁stuck	-11.1854
▁hate	-11.1854
▁lighting	-11.1855
▁ferry	-11.1855
▁creative	-11.1856
ke	-11.1856
▁waving	-11.1857
▁counterfeiting	-11.1858
▁linda	-11.1859
▁midst	-11.186
▁donor	-11.1861
▁antibiotics	-11.1861
▁epic	-11.1866
▁ji	-11.1869
▁mini	-11.1872
▁disrupted	-11.1872
▁ethical	-11.1873
▁interesting	-11.1885
▁folks	-11.1887
▁dissidents	-11.1888
▁inner	-11.189
▁nfl	-11.1891
▁bulls	-11.1891
▁dealt	-11.1894
▁joy	-11.1894
▁voter	-11.1901
▁patterns	-11.1902
▁austrian	-11.1903
▁lure	-11.1903
▁slamm	-11.1907
▁sessions	-11.1913
▁marie	-11.1913
▁deserve	-11.1918
▁organs	-11.192
▁mothers	-11.192
▁treasure	-11.1925
▁witnessed	-11.1937
▁roots	-11.1939
up	-11.194
▁screening	-11.1943
▁slowed	-11.1945
▁sporting	-11.1946
▁jay	-11.1948
▁warn	-11.1951
▁youths	-11.1954
▁symbolic	-11.1964
nic	-11.1968
▁patroll	-11.1971
▁shelters	-11.1976
▁ken	-11.1979
▁dense	-11.1984
▁sank	-11.1991
ai	-11.2002
▁sponsors	-11.2004
▁gaining	-11.2028
▁persons	-11.2034
▁practices	-11.2039
▁doubts	-11.2057
▁commitments	-11.2063
ac	-11.2066
▁wang	-11.2069
▁dur	-11.2072
di	-11.2073
▁oscars	-11.2076
▁dated	-11.2081
land	-11.2082
▁shame	-11.2086
▁permit	-11.2088
▁transplant	-11.2103
ent	-11.2105
mo	-11.2121
▁neighborhoods	-11.2122
▁norwegian	-11.2126
▁copyright	-11.2126
▁nav	-11.2129
▁releases	-11.213
▁stream	-11.2133
▁lieutenant	-11.2134
▁destination	-11.2135
back	-11.2136
▁slight	-11.2136
▁contribution	-11.2137
▁barrier	-11.2137
▁statue	-11.2138
▁blanket	-11.2141
▁stabilize	-11.2142
▁inspector	-11.2143
▁payment	-11.2146
▁susan	-11.2148
▁loose	-11.2149
▁defender	-11.2151
▁exceed	-11.2153
▁laser	-11.2158
▁exchanges	-11.2162
tic	-11.2163
▁lit	-11.2167
▁java	-11.2171
▁performances	-11.2182
▁enforce	-11.2188
han	-11.2189
▁obvious	-11.2194
▁exclusive	-11.2196
▁gwan	-11.22
▁artillery	-11.2203
▁baquba	-11.2203
▁collision	-11.2203
▁fahrenheit	-11.2203
▁gusmao	-11.2203
▁mcdonald	-11.2203
▁nebraska	-11.2203
▁protocol	-11.2203
▁spokesperson	-11.2203
▁waziristan	-11.2203
▁lopez	-11.2203
▁mystery	-11.2203
▁captivity	-11.2203
▁happiness	-11.2203
▁propaganda	-11.2203
▁salmonella	-11.2203
▁reaffirm	-11.2203
▁douglas	-11.2203
▁lynch	-11.2203
▁melbourne	-11.2203
▁gyeonggi	-11.2203
▁chosun	-11.2203
▁fatalities	-11.2203
▁rehabilitation	-11.2203
▁railroad	-11.2203
▁niger	-11.2203
▁laureate	-11.2203
▁ownership	-11.2203
▁phenomenon	-11.2203
▁friendship	-11.2204
▁greenland	-11.2204
▁irish	-11.2204
▁throne	-11.2204
▁sophisticated	-11.2204
▁transparent	-11.2204
▁pu	-11.2207
▁hwan	-11.2209
▁cheaper	-11.221
▁anonymous	-11.2211
▁implications	-11.2211
▁spell	-11.2211
▁aziz	-11.2213
▁reasonable	-11.2214
▁hardest	-11.2217
▁stamp	-11.2217
▁bali	-11.2223
▁pants	-11.2224
▁pink	-11.2225
▁eliminate	-11.2227
▁meals	-11.223
▁aggression	-11.2231
▁hawking	-11.2232
▁archaeologists	-11.2233
▁predominant	-11.224
manuel	-11.2243
▁filing	-11.2246
▁cambodian	-11.2249
▁trash	-11.2253
▁hassan	-11.2256
▁celebrations	-11.2257
▁wildfires	-11.226
▁spott	-11.226
▁rita	-11.2262
▁racing	-11.2263
▁easter	-11.2266
▁annually	-11.2268
▁relationships	-11.227
▁handled	-11.2271
▁donors	-11.2274
▁angered	-11.2277
▁grade	-11.228
▁jointly	-11.2283
gotten	-11.2283
▁tae	-11.2289
▁operators	-11.2293
▁venues	-11.2298
▁shirts	-11.23
▁fisher	-11.23
▁choices	-11.2306
▁pure	-11.2307
uring	-11.2313
▁apec	-11.2323
▁brush	-11.2326
▁ms	-11.233
▁chairs	-11.2331
▁lance	-11.2341
▁complain	-11.2345
▁reviewed	-11.2345
▁si	-11.2351
▁jr	-11.236
▁mitt	-11.2372
▁ni	-11.2375
▁runners	-11.2386
▁suits	-11.239
▁outlaw	-11.2408
ut	-11.242
▁heated	-11.2423
▁brick	-11.2424
▁glori	-11.2429
▁taste	-11.2436
▁replac	-11.2447
ti	-11.2453
▁voluntar	-11.246
ki	-11.2465
▁download	-11.2468
▁reserves	-11.2469
▁gonn	-11.247
▁slamme	-11.2478
ba	-11.2483
▁circle	-11.2484
▁bok	-11.2492
▁distress	-11.2493
▁shepherd	-11.2499
▁lock	-11.2501
▁expedition	-11.2503
▁wrongdoing	-11.2503
▁asteroid	-11.2503
▁kidney	-11.2504
▁dolphin	-11.2505
▁medication	-11.2506
▁creature	-11.2506
▁preparation	-11.2508
▁consideration	-11.2508
▁outline	-11.251
▁motive	-11.251
▁depth	-11.251
▁rebound	-11.251
▁plent	-11.2519
▁ri	-11.2528
▁languages	-11.2531
▁portray	-11.2533
▁odd	-11.2537
▁jacque	-11.254
▁fueled	-11.2541
▁horse	-11.2543
▁kiss	-11.2557
▁careful	-11.2567
▁thoughts	-11.2569
▁impression	-11.2572
▁elbaradei	-11.2573
▁fernandez	-11.2573
▁glasgow	-11.2573
▁kerviel	-11.2573
▁talabani	-11.2573
▁janeiro	-11.2573
▁jirga	-11.2573
▁patience	-11.2573
▁dokdo	-11.2573
▁arnold	-11.2573
▁hariri	-11.2573
▁russell	-11.2573
▁stearns	-11.2573
▁fujimori	-11.2573
▁embezzlement	-11.2573
▁fernando	-11.2573
▁indictment	-11.2573
▁stanley	-11.2573
▁harvey	-11.2573
▁junior	-11.2573
▁liberty	-11.2573
▁holland	-11.2573
▁victories	-11.2574
▁blind	-11.2574
▁refrain	-11.2574
▁thwart	-11.2574
▁studied	-11.2574
▁slush	-11.2574
▁milestone	-11.2574
▁editorial	-11.2575
▁applicants	-11.2575
▁bosnia	-11.2575
▁secretive	-11.2575
▁historian	-11.2576
▁unanimously	-11.2576
▁challenging	-11.2577
▁comeback	-11.2577
▁oath	-11.2577
▁logistic	-11.2577
▁ftse	-11.2579
▁chanted	-11.258
▁sentencing	-11.258
▁goldman	-11.258
▁evolution	-11.258
▁layoffs	-11.2581
▁consumed	-11.2583
▁wu	-11.2583
▁mastermind	-11.2583
▁ethics	-11.2583
▁respirator	-11.2583
▁overwhelmingly	-11.2584
▁shelves	-11.2585
▁antarctica	-11.259
▁ignore	-11.2591
▁tactics	-11.2592
▁arson	-11.2599
▁beaches	-11.2602
enos	-11.2602
▁dance	-11.2603
ville	-11.2605
▁faithful	-11.2607
▁minus	-11.2607
▁swap	-11.2607
▁complaining	-11.2617
▁pastor	-11.2618
▁intensive	-11.262
▁shipments	-11.2623
station	-11.2627
▁tribes	-11.2629
▁quarterfinals	-11.2638
▁settled	-11.2646
mus	-11.2647
rmal	-11.2657
▁strengthening	-11.2659
▁impos	-11.2668
▁climbing	-11.2671
▁steam	-11.2672
▁sharks	-11.2673
▁manipulat	-11.2673
▁bae	-11.2674
▁answered	-11.2683
▁formation	-11.2683
▁experiments	-11.2685
▁roy	-11.269
▁stemm	-11.2691
▁discover	-11.2697
res	-11.2712
ors	-11.2713
▁measured	-11.2713
▁q	-11.2716
▁decree	-11.2724
dy	-11.2725
allowing	-11.273
aught	-11.2744
lated	-11.2745
aid	-11.2751
▁jam	-11.276
▁nur	-11.2762
▁sum	-11.2768
▁accompanie	-11.2773
▁russians	-11.2775
▁rent	-11.278
▁worsen	-11.2788
▁murdered	-11.2793
▁concerts	-11.2805
▁danc	-11.281
▁races	-11.2811
day	-11.2812
went	-11.2823
▁examin	-11.2826
▁caps	-11.2837
▁mer	-11.2842
▁nick	-11.2843
▁capt	-11.2844
▁kil	-11.2845
▁widow	-11.2854
▁qa	-11.2855
▁critic	-11.2857
▁justices	-11.2862
▁passion	-11.2863
▁conclude	-11.2863
king	-11.2867
▁ankle	-11.2873
ver	-11.2884
▁economics	-11.2885
▁surviv	-11.2887
▁scenario	-11.2888
▁exhibition	-11.2888
med	-11.2888
▁motorcycle	-11.2889
▁outpost	-11.289
▁biologist	-11.289
▁elephant	-11.2891
▁quarterfinal	-11.2891
▁networking	-11.2893
▁manufacturer	-11.2895
▁bride	-11.2895
nable	-11.2897
▁vers	-11.2899
▁negotiation	-11.2901
▁nigerian	-11.2909
▁issu	-11.2913
▁reopen	-11.292
▁attribute	-11.2921
▁dismantle	-11.2935
▁intervene	-11.2935
▁assess	-11.2943
▁monarch	-11.2948
▁plunge	-11.2948
▁luna	-11.2951
go	-11.2954
▁sooner	-11.2955
▁ultimate	-11.2956
▁brilliant	-11.2957
▁flexible	-11.2957
▁holocaust	-11.2957
▁jankovic	-11.2957
▁sunshine	-11.2957
▁transcript	-11.2957
▁transparency	-11.2957
▁vacuum	-11.2957
▁vershbow	-11.2957
▁arafat	-11.2957
▁batteries	-11.2957
▁arkansas	-11.2958
▁kazakhstan	-11.2958
▁rhode	-11.2958
▁undisclosed	-11.2958
▁impressive	-11.2958
▁kospi	-11.2958
▁terrible	-11.2958
▁petersburg	-11.2958
▁psychologist	-11.2958
▁cairo	-11.2958
▁monica	-11.2958
▁spitzer	-11.2958
▁xvi	-11.2958
▁memories	-11.2958
▁garage	-11.2958
▁libby	-11.2958
▁sensitivity	-11.2958
▁harmful	-11.2958
▁isolation	-11.2958
▁cattle	-11.2958
▁gravity	-11.2958
▁curious	-11.2958
▁entitled	-11.2959
▁parole	-11.2959
▁leonard	-11.2959
▁starbucks	-11.2959
▁secrets	-11.2959
▁downturn	-11.296
▁smooth	-11.296
▁romance	-11.296
▁meantime	-11.296
▁basically	-11.296
▁robotic	-11.2961
▁condolences	-11.2962
▁fifty	-11.2962
▁feeding	-11.2963
▁extent	-11.2963
▁imprisoned	-11.2963
▁ourselves	-11.2963
▁spice	-11.2963
▁drowned	-11.2964
▁ethanol	-11.2964
▁motivated	-11.2965
▁knife	-11.2966
▁emba	-11.2967
▁knut	-11.2968
▁smell	-11.2969
▁bribes	-11.297
▁shoppers	-11.2971
▁decisive	-11.2972
▁gyeong	-11.2973
▁oppos	-11.2976
▁incentives	-11.2977
▁incheon	-11.2978
▁kwon	-11.2983
▁diverse	-11.2984
▁prostitutes	-11.2985
▁deeper	-11.2985
▁developers	-11.2985
▁coat	-11.299
▁choos	-11.299
ttled	-11.2995
▁lima	-11.2995
▁substitute	-11.2995
▁pave	-11.2999
▁fence	-11.2999
sumption	-11.3
▁grenades	-11.3001
▁recommendations	-11.3004
▁weakened	-11.3005
hner	-11.3006
▁mess	-11.3006
▁sheets	-11.3008
▁busan	-11.3011
▁cartoons	-11.3012
▁spike	-11.3013
▁assisted	-11.3013
▁speeches	-11.3014
▁binding	-11.3016
▁cigarettes	-11.3017
▁weighed	-11.3018
▁raw	-11.3018
▁restart	-11.3019
▁aftershocks	-11.3019
▁choi	-11.3024
▁creatures	-11.3027
▁implemented	-11.303
▁difficulty	-11.3033
ana	-11.3036
▁geit	-11.3037
ek	-11.3047
▁gil	-11.3051
▁secur	-11.3053
▁ear	-11.3057
▁jiang	-11.3063
signed	-11.308
▁intend	-11.3097
▁abused	-11.3102
▁nu	-11.311
arranged	-11.3111
▁diamonds	-11.3114
▁aires	-11.3129
▁wipe	-11.3132
▁suspicions	-11.3142
▁feelings	-11.3149
one	-11.315
▁bounce	-11.3155
▁globes	-11.3158
▁function	-11.3167
▁populations	-11.319
▁medicines	-11.3191
▁credits	-11.3212
our	-11.3214
▁contents	-11.3214
▁poses	-11.3225
▁organ	-11.3228
▁inaugura	-11.3239
▁emi	-11.3249
▁retreat	-11.3253
▁format	-11.3253
▁encounter	-11.326
▁sacrifice	-11.3264
▁sk	-11.3272
▁swim	-11.3275
▁sars	-11.3278
viewed	-11.3278
▁circuit	-11.3282
ka	-11.3284
▁website	-11.3289
▁casino	-11.329
▁spaniard	-11.329
▁ambulance	-11.329
▁disruption	-11.3291
▁outdoor	-11.3291
▁pattern	-11.3292
▁prayer	-11.3295
▁hammer	-11.3296
▁acknowledg	-11.33
▁slide	-11.3313
▁anna	-11.3319
▁ar	-11.3326
lateral	-11.3327
▁span	-11.333
▁abolish	-11.3331
▁honest	-11.3339
▁pressures	-11.334
▁finger	-11.3343
▁bernard	-11.3344
▁adam	-11.3344
▁steer	-11.3346
▁surplus	-11.3352
▁excess	-11.3357
▁nervous	-11.3357
▁cincinnati	-11.3357
▁espionage	-11.3357
▁ghraib	-11.3357
▁gonzalez	-11.3357
▁johannesburg	-11.3357
▁lincoln	-11.3357
▁mccartney	-11.3357
▁tremendous	-11.3357
▁acquitted	-11.3357
▁anthony	-11.3357
▁frankfurt	-11.3357
▁basketball	-11.3358
▁confusion	-11.3358
▁irregularities	-11.3358
▁irresponsible	-11.3358
▁intensity	-11.3358
▁yousuf	-11.3358
▁imprisonment	-11.3358
▁radiation	-11.3358
▁atrocities	-11.3358
▁psychological	-11.3358
▁extradition	-11.3358
▁prosperity	-11.3358
▁stunned	-11.3358
▁acre	-11.3358
▁paparazzi	-11.3358
▁tenure	-11.3358
▁notorious	-11.3358
▁portland	-11.3358
▁courtroom	-11.3359
▁dramatically	-11.336
▁gerry	-11.336
▁pearl	-11.336
▁qualified	-11.336
▁battered	-11.3361
▁panic	-11.3361
▁grim	-11.3361
▁bloc	-11.3362
▁austin	-11.3363
▁spotte	-11.3363
▁disgrace	-11.3363
▁inappropriate	-11.3364
▁boris	-11.3365
▁orthodox	-11.3365
▁kitty	-11.3365
▁yeah	-11.3365
▁holder	-11.3366
▁soft	-11.3366
▁plotting	-11.3366
▁indefinitely	-11.3367
▁excuse	-11.3368
house	-11.3368
▁streak	-11.3371
▁overthrow	-11.3372
ked	-11.3373
▁sufficient	-11.3373
▁diagnosed	-11.3374
▁shaking	-11.3378
▁underway	-11.3379
▁ashore	-11.3379
▁anbar	-11.338
▁viruses	-11.3381
ya	-11.3385
▁mechanical	-11.3385
▁les	-11.3385
▁employers	-11.3386
▁scared	-11.3387
▁dominica	-11.3389
▁earthquakes	-11.339
▁slain	-11.3392
▁worsening	-11.3393
▁disclosed	-11.3395
▁anne	-11.3397
▁devil	-11.34
apped	-11.3403
▁outlets	-11.3404
▁divers	-11.3408
▁zimbabwean	-11.3412
▁safer	-11.3416
▁rebuilding	-11.3418
▁semifinals	-11.342
▁asks	-11.3422
▁flowers	-11.3426
▁easing	-11.3432
▁ku	-11.3434
▁wages	-11.3437
▁midwest	-11.3438
▁grabb	-11.3439
per	-11.3442
▁listening	-11.3449
▁negotiated	-11.345
▁rift	-11.3455
▁lungs	-11.3457
▁lenders	-11.3459
▁savings	-11.3466
▁pipe	-11.3469
▁ward	-11.3545
▁pets	-11.3553
▁facts	-11.3553
▁reductions	-11.3557
▁consist	-11.3566
▁counterterroris	-11.3572
▁retrieve	-11.3576
▁rak	-11.3577
▁deliberate	-11.358
▁processing	-11.3586
▁dreams	-11.3588
▁genes	-11.3591
▁hee	-11.3597
▁har	-11.3597
▁cit	-11.3602
▁directing	-11.3602
▁shah	-11.3616
▁cry	-11.3635
▁afghans	-11.364
▁shutt	-11.3649
▁emerge	-11.3652
ged	-11.3654
▁cole	-11.3655
warded	-11.3655
▁channels	-11.3658
▁apartments	-11.3675
▁pf	-11.3692
▁enhance	-11.3693
▁progressive	-11.3695
▁browne	-11.3698
▁pension	-11.3702
▁prefecture	-11.3705
▁explanation	-11.3705
▁mammoth	-11.3705
▁tumor	-11.3705
▁toy	-11.3706
▁allegation	-11.3707
▁presentation	-11.3707
▁produces	-11.3707
▁expense	-11.3708
▁glacier	-11.3708
▁wildfire	-11.3708
▁improvement	-11.3709
▁aftershock	-11.3709
▁setback	-11.3709
▁throat	-11.371
▁migrant	-11.3711
▁priest	-11.3711
chi	-11.3713
▁strait	-11.3713
▁drill	-11.3714
▁objective	-11.3716
▁fruit	-11.3718
▁belong	-11.3719
ay	-11.3722
▁farmer	-11.3726
em	-11.373
ential	-11.3732
ded	-11.3733
▁flare	-11.3736
▁mails	-11.3739
aro	-11.3743
▁conflicts	-11.3744
▁slaughter	-11.3745
▁noting	-11.3747
▁relax	-11.3747
tt	-11.3749
▁modest	-11.3754
▁ideal	-11.3755
▁stated	-11.3755
▁districts	-11.3762
▁michel	-11.3764
▁unsuccessful	-11.3765
▁falluja	-11.3771
▁armistice	-11.3774
▁bizarre	-11.3774
▁damascus	-11.3774
▁embassies	-11.3774
▁genuine	-11.3774
▁kashmir	-11.3774
▁maradona	-11.3774
▁misdemeanor	-11.3774
▁schneider	-11.3774
▁subsidiary	-11.3774
▁superintendent	-11.3774
▁rogge	-11.3774
▁jeffrey	-11.3774
▁trophy	-11.3774
▁farewell	-11.3774
▁woolmer	-11.3774
▁intellectual	-11.3774
▁interfax	-11.3774
▁whistle	-11.3774
▁bmw	-11.3774
▁qassam	-11.3774
▁osaka	-11.3774
▁hawass	-11.3774
▁pageant	-11.3774
▁smiling	-11.3774
▁phillies	-11.3774
▁earliest	-11.3775
▁hatred	-11.3775
▁vault	-11.3775
▁havana	-11.3775
▁introduction	-11.3775
▁laurean	-11.3775
▁rouge	-11.3775
▁iceland	-11.3775
▁bonuses	-11.3775
▁addiction	-11.3775
▁jamie	-11.3776
▁silva	-11.3776
▁coroner	-11.3776
▁mattel	-11.3776
▁relevant	-11.3776
▁beloved	-11.3777
▁incredibly	-11.3778
▁venus	-11.3778
▁basement	-11.3778
▁satisfie	-11.3779
▁surf	-11.378
▁portable	-11.378
▁fallout	-11.378
▁tamil	-11.378
▁dili	-11.3781
▁uncertain	-11.3783
▁honda	-11.3784
▁brothels	-11.3784
▁laura	-11.3785
▁arthur	-11.3785
▁essentially	-11.3786
▁ismail	-11.3786
▁somehow	-11.3787
▁christie	-11.3788
▁sheep	-11.3788
▁spin	-11.3789
▁bulgarian	-11.379
▁phillips	-11.3792
▁watchers	-11.3792
▁prizes	-11.3792
▁projections	-11.3792
▁controlling	-11.3793
▁committees	-11.3794
▁troubles	-11.3794
▁haul	-11.3795
▁walker	-11.3795
▁equally	-11.3799
▁cheering	-11.38
▁relaxed	-11.3802
▁zones	-11.3803
lifting	-11.3804
▁bombed	-11.3808
▁rugged	-11.3808
▁gary	-11.3808
ping	-11.3808
▁headlines	-11.3816
▁crying	-11.3816
▁disabled	-11.3826
▁infantry	-11.3828
▁grabs	-11.3834
▁leaked	-11.3835
▁bodyguards	-11.3836
▁independently	-11.3836
▁belongs	-11.3844
▁participated	-11.3845
▁elephants	-11.3847
▁zhang	-11.3853
▁monkeys	-11.3856
▁prisons	-11.3857
▁hunters	-11.3857
▁countryside	-11.3858
▁gifts	-11.3863
▁deposit	-11.3865
▁compar	-11.3865
▁chips	-11.3867
▁blues	-11.387
▁holders	-11.387
▁snake	-11.388
▁justin	-11.3885
▁filling	-11.3888
soo	-11.3891
▁gr	-11.3893
▁neil	-11.3893
▁au	-11.3896
▁shocking	-11.3898
▁bullets	-11.3917
▁tapes	-11.3925
▁soul	-11.3928
▁fortress	-11.3933
ol	-11.3934
▁dire	-11.3949
▁carl	-11.395
▁mor	-11.3951
▁unite	-11.3952
▁chemicals	-11.3955
▁lu	-11.3955
▁deck	-11.3956
▁nationalist	-11.3956
▁criticize	-11.3958
▁pray	-11.3959
▁sections	-11.3962
▁forever	-11.3979
▁counterparts	-11.3981
▁torre	-11.3983
▁trans	-11.3987
▁origin	-11.3993
▁trials	-11.3994
▁sounded	-11.4003
ization	-11.401
▁assert	-11.4013
▁farming	-11.4022
ran	-11.4031
▁coordinate	-11.4039
▁possess	-11.4049
▁wings	-11.4057
▁booked	-11.406
▁fail	-11.4061
▁jane	-11.4075
▁rick	-11.4077
▁guarded	-11.4087
▁highways	-11.4093
▁luck	-11.4093
allied	-11.4097
▁tense	-11.4102
▁hawk	-11.4106
▁fort	-11.4106
ate	-11.4112
▁sprint	-11.4114
▁recommend	-11.4116
▁endorse	-11.4116
▁commemorate	-11.4125
▁contingent	-11.4125
▁drag	-11.4127
▁ross	-11.413
air	-11.413
▁representation	-11.4133
▁forecasts	-11.4136
▁semifinal	-11.4136
▁crystal	-11.4138
▁hormone	-11.414
▁toddler	-11.414
▁fossil	-11.4141
▁stronghold	-11.4141
▁detective	-11.4141
▁cigarette	-11.4142
▁restraint	-11.4142
▁administrator	-11.4143
▁celebration	-11.4143
▁walter	-11.4145
▁elder	-11.415
ail	-11.4156
▁collide	-11.4157
si	-11.4158
▁buyer	-11.4173
▁opinions	-11.4175
▁estonia	-11.4177
mi	-11.4183
▁sugar	-11.4183
▁belonging	-11.4183
▁sometime	-11.4188
▁developments	-11.4191
▁speaks	-11.4192
▁tally	-11.4193
▁acquire	-11.4195
▁bridges	-11.4197
▁recep	-11.4209
▁arroyo	-11.4209
▁chocolate	-11.4209
▁karbala	-11.4209
▁minneapolis	-11.4209
▁mysterious	-11.4209
▁radcliffe	-11.4209
▁sacramento	-11.4209
▁santiago	-11.4209
▁zoellick	-11.4209
▁caretaker	-11.4209
▁identification	-11.4209
▁idaho	-11.4209
▁baltimore	-11.4209
▁subsidies	-11.4209
▁innocence	-11.4209
▁kitchen	-11.4209
▁cricket	-11.4209
▁extremism	-11.4209
▁exploration	-11.4209
▁muqtada	-11.4209
▁bbk	-11.4209
▁definition	-11.4209
▁contrary	-11.4209
▁tomatoes	-11.4209
▁reunification	-11.4209
▁squid	-11.4209
▁comedian	-11.4209
▁offshore	-11.421
▁cluster	-11.421
▁literally	-11.421
▁healthcare	-11.421
▁powder	-11.421
▁oversight	-11.421
▁contentious	-11.421
▁unchanged	-11.421
▁coordination	-11.4211
▁mummy	-11.4211
▁alfred	-11.4212
▁gps	-11.4212
▁bible	-11.4213
▁francis	-11.4213
▁blunt	-11.4213
▁undp	-11.4213
▁viacom	-11.4213
▁harrison	-11.4213
▁cameron	-11.4213
▁lightning	-11.4213
▁drunken	-11.4214
▁ledger	-11.4214
▁organizing	-11.4215
▁rejection	-11.4215
▁deposed	-11.4215
▁mouse	-11.4215
▁cloned	-11.4215
▁dirty	-11.4216
▁deutsch	-11.4217
▁guardian	-11.4217
▁internationally	-11.4217
▁courage	-11.4217
▁liu	-11.4217
▁autonomy	-11.4217
▁wives	-11.4218
▁deliberately	-11.4218
▁yankees	-11.422
▁concentrated	-11.4221
▁toppled	-11.4223
▁delight	-11.4223
▁barry	-11.4224
▁sharia	-11.4224
▁voluntarily	-11.4225
▁alleg	-11.4225
▁anyway	-11.4227
▁theme	-11.4229
▁dug	-11.423
▁fatally	-11.4231
▁bulk	-11.4234
▁click	-11.4235
▁measurement	-11.4238
▁slogans	-11.4243
▁breeding	-11.4245
▁hadley	-11.4245
▁consulting	-11.4245
▁chunk	-11.4247
▁mob	-11.425
▁bread	-11.4251
owed	-11.4252
▁eventual	-11.4253
▁cooking	-11.4254
▁aug	-11.4254
▁scholars	-11.4257
▁examiner	-11.4258
▁bicycle	-11.4258
▁taxpayers	-11.4261
▁ash	-11.4263
▁independents	-11.4265
▁divorced	-11.4268
▁tortured	-11.4271
▁organic	-11.4272
▁churches	-11.4275
▁horses	-11.4276
ap	-11.4276
▁priests	-11.4286
▁pandas	-11.4288
▁glimpse	-11.4288
▁mild	-11.4293
▁jun	-11.4296
▁twins	-11.4297
▁item	-11.4305
▁cook	-11.4306
▁barak	-11.4309
▁cage	-11.4317
▁specialists	-11.432
▁ya	-11.432
lashed	-11.432
▁explaining	-11.4322
▁buzz	-11.4329
▁interi	-11.4331
▁crop	-11.434
▁kenyans	-11.4347
▁mega	-11.4351
▁conversations	-11.4357
▁rico	-11.436
▁brig	-11.437
▁chin	-11.4383
held	-11.439
▁sin	-11.4393
▁debates	-11.44
▁bearing	-11.4407
▁clip	-11.4408
▁highlights	-11.4411
ell	-11.4424
▁avoided	-11.4431
pa	-11.4442
▁mus	-11.4448
▁iranians	-11.4459
hal	-11.4463
▁nationally	-11.4466
▁citi	-11.4466
den	-11.4467
▁hos	-11.4478
ul	-11.448
▁declines	-11.4481
▁dual	-11.4488
▁eased	-11.45
▁tap	-11.45
▁penn	-11.4505
ning	-11.4507
▁pills	-11.4513
▁answers	-11.4515
▁prodi	-11.4525
▁bolt	-11.4535
▁exam	-11.4547
▁digit	-11.4557
▁honors	-11.4568
▁lakes	-11.4569
▁refer	-11.4573
▁barr	-11.4574
▁carrie	-11.4579
▁colonel	-11.458
▁com	-11.4583
▁screens	-11.4585
▁avenue	-11.4588
▁guatemala	-11.4589
▁premium	-11.459
▁monster	-11.459
▁explorer	-11.4592
▁ceiling	-11.4595
its	-11.4595
▁component	-11.4596
▁bodyguard	-11.4597
▁shadow	-11.4598
bo	-11.4601
▁graphic	-11.4604
▁regulation	-11.4605
▁transmission	-11.4608
▁protein	-11.4611
▁container	-11.4612
▁romania	-11.4617
▁fidel	-11.4619
▁caution	-11.4623
▁employ	-11.4626
▁dismiss	-11.4626
▁hat	-11.4638
▁stalinis	-11.4642
▁zan	-11.4644
ab	-11.4649
▁premature	-11.4653
▁couch	-11.4661
▁annapolis	-11.4663
▁fitzgerald	-11.4663
▁illicit	-11.4663
▁negroponte	-11.4663
▁nintendo	-11.4663
▁taipei	-11.4663
▁identities	-11.4663
▁lennon	-11.4663
▁lhasa	-11.4664
▁sumatra	-11.4664
▁greenspan	-11.4664
▁lpga	-11.4664
▁disappointment	-11.4664
▁suharto	-11.4664
▁ministries	-11.4664
▁federline	-11.4664
▁provocative	-11.4664
▁levinson	-11.4664
▁rehab	-11.4664
▁priorities	-11.4664
▁venice	-11.4664
▁perception	-11.4664
▁discrimination	-11.4664
▁casualty	-11.4664
▁hardware	-11.4664
▁portrait	-11.4664
▁jewelry	-11.4664
▁properties	-11.4664
▁harper	-11.4664
▁database	-11.4664
▁sachs	-11.4664
▁fantastic	-11.4664
▁slavery	-11.4664
▁rashid	-11.4664
▁unconscious	-11.4664
▁steadily	-11.4664
▁masri	-11.4664
▁frontrunner	-11.4664
▁undecided	-11.4664
▁supervision	-11.4664
▁condemnation	-11.4665
▁anxious	-11.4665
▁multinational	-11.4665
▁blatter	-11.4665
▁uncertainty	-11.4665
▁reception	-11.4665
▁immune	-11.4665
▁contaminated	-11.4665
▁attractive	-11.4665
▁overweight	-11.4666
▁richie	-11.4666
▁gambling	-11.4666
▁ravaged	-11.4666
▁jason	-11.4666
▁bobby	-11.4666
▁handgun	-11.4667
▁serena	-11.4667
shift	-11.4667
▁yale	-11.4667
▁quartet	-11.4667
▁marriages	-11.4668
▁ugly	-11.4668
▁recess	-11.4668
▁midday	-11.4668
▁informal	-11.467
▁gradually	-11.4671
▁polaroid	-11.4672
▁millenni	-11.4673
▁barely	-11.4674
▁interstate	-11.4676
▁duke	-11.4678
▁relieved	-11.4679
▁educated	-11.468
▁conceded	-11.468
▁gorillas	-11.4684
responsibilities	-11.4684
▁bidding	-11.4686
▁colony	-11.4687
▁frost	-11.4692
▁menu	-11.4693
▁basin	-11.4693
▁besides	-11.4694
▁economically	-11.4695
▁eta	-11.4696
ullah	-11.4697
ax	-11.47
▁procession	-11.4701
▁defined	-11.4702
▁arrangements	-11.4704
▁matsu	-11.4705
▁boast	-11.4707
▁contacts	-11.4707
▁spare	-11.4707
▁topic	-11.4709
▁installations	-11.4709
▁cheers	-11.4712
▁im	-11.4713
▁nurses	-11.4719
▁junichi	-11.4719
▁leone	-11.472
▁campaigners	-11.4725
▁celebrat	-11.4728
▁examined	-11.4731
▁dominate	-11.4731
▁addresses	-11.4733
▁strengthened	-11.4734
▁pakistanis	-11.4735
▁elders	-11.4738
tting	-11.4739
▁consult	-11.4743
▁inspir	-11.4746
▁pcs	-11.475
▁strained	-11.4753
▁arrange	-11.4755
▁designers	-11.4755
▁muscles	-11.477
▁uniforms	-11.4775
▁migrants	-11.4777
▁laptops	-11.4778
▁mere	-11.4781
▁convene	-11.4782
▁hire	-11.4783
▁compile	-11.4787
apping	-11.4788
▁br	-11.4792
chum	-11.4792
▁holed	-11.4794
▁fin	-11.4799
▁nominat	-11.4807
▁prospects	-11.4808
▁hopefuls	-11.481
ill	-11.4822
▁explore	-11.4825
▁sect	-11.4834
▁distan	-11.4837
▁wield	-11.484
▁semi	-11.4852
▁brands	-11.4861
▁underscore	-11.488
▁recount	-11.4882
▁superb	-11.4883
▁ignor	-11.4884
▁rats	-11.4898
▁glow	-11.4903
▁billy	-11.4905
ved	-11.4915
▁timing	-11.4924
▁mask	-11.4927
▁advances	-11.4927
▁grip	-11.4929
▁generations	-11.4933
▁neal	-11.4938
▁commanding	-11.4939
ship	-11.4941
▁congratulate	-11.4942
▁favorites	-11.4944
ailed	-11.4945
ari	-11.4953
waiting	-11.4958
lo	-11.4978
aware	-11.4984
top	-11.4989
▁rap	-11.499
▁constitute	-11.4991
▁bon	-11.4997
▁seas	-11.5002
has	-11.5005
▁shake	-11.5012
▁reiterat	-11.5017
▁cartoon	-11.5019
▁counting	-11.5021
▁premiere	-11.5022
ced	-11.5023
her	-11.5023
▁grab	-11.5023
▁dependent	-11.5024
▁fiction	-11.5036
▁priced	-11.5043
▁sketch	-11.5043
▁seeming	-11.5056
▁acquisition	-11.5068
▁grammy	-11.5068
▁des	-11.507
▁cousin	-11.5073
▁drought	-11.5073
▁immigrant	-11.5073
▁assertion	-11.5074
▁denial	-11.5074
▁filmmaker	-11.5074
▁evaluation	-11.5075
▁breast	-11.5075
tomic	-11.5078
▁script	-11.5081
▁desk	-11.5084
▁resist	-11.5086
▁trademark	-11.5094
▁measur	-11.5095
▁sanction	-11.5097
▁uncle	-11.5098
▁nurs	-11.5099
▁qualify	-11.5099
▁thi	-11.51
pping	-11.5103
▁ethiopia	-11.511
▁plains	-11.5113
▁experiences	-11.5114
▁croatia	-11.5118
▁accelerate	-11.5119
▁dig	-11.5122
▁liter	-11.5125
▁stole	-11.5125
▁qu	-11.5126
▁riders	-11.5126
▁invite	-11.5127
▁reckless	-11.5129
▁accurate	-11.513
▁random	-11.5131
▁tribe	-11.5134
▁weakness	-11.5135
▁vigil	-11.5137
▁inland	-11.5138
▁jumpe	-11.5139
▁municipal	-11.5139
▁liver	-11.514
▁axelrod	-11.514
▁berkeley	-11.514
▁fertility	-11.514
▁jazeera	-11.514
▁kathmandu	-11.514
▁miliband	-11.514
▁scrutiny	-11.514
▁tycoon	-11.514
▁zarqawi	-11.514
▁luggage	-11.514
▁oxford	-11.514
▁verification	-11.514
▁lindsay	-11.514
▁observatory	-11.514
▁broadband	-11.514
▁gallery	-11.514
▁malawi	-11.514
▁apollo	-11.514
▁youssif	-11.514
▁poultry	-11.514
▁armstrong	-11.514
▁garcia	-11.514
▁rubber	-11.514
▁piano	-11.514
▁apologies	-11.514
▁seafood	-11.514
▁fitness	-11.514
▁escalating	-11.514
▁griffin	-11.514
▁fragile	-11.514
▁itunes	-11.514
▁keith	-11.5141
▁basque	-11.5141
▁hicks	-11.5141
▁vietnamese	-11.5141
▁tainted	-11.5141
▁harmony	-11.5141
▁recycling	-11.5141
▁darkness	-11.5141
▁terrain	-11.5141
▁blake	-11.5141
▁unilateral	-11.5142
▁atleti	-11.5142
▁persistent	-11.5142
▁foley	-11.5142
▁underwear	-11.5142
▁merchant	-11.5142
▁affordable	-11.5143
▁rioters	-11.5143
▁sympathy	-11.5143
▁emanuel	-11.5143
my	-11.5143
▁establishment	-11.5144
▁logo	-11.5148
▁bench	-11.5149
▁smokers	-11.515
▁lineup	-11.5151
▁noise	-11.5151
▁paralyzed	-11.5152
▁boulder	-11.5153
▁manufactured	-11.5153
▁helpful	-11.5155
▁accidentally	-11.5156
▁facial	-11.5158
▁mong	-11.5158
▁congressman	-11.5158
▁publicity	-11.5159
▁overlook	-11.5159
▁workforce	-11.516
slated	-11.516
▁upheld	-11.5163
▁programming	-11.5163
▁founding	-11.5165
▁glad	-11.5168
▁makeup	-11.5169
▁franchise	-11.5174
▁textbooks	-11.5174
▁lucas	-11.5178
▁pigs	-11.5179
▁staple	-11.518
▁exporters	-11.5182
▁requirements	-11.5184
▁hung	-11.5185
▁slumped	-11.5188
▁soften	-11.5189
▁biden	-11.5191
▁dave	-11.5191
▁quest	-11.5191
▁habits	-11.5196
▁tumbled	-11.52
▁sensor	-11.52
▁photographed	-11.52
▁painted	-11.5201
▁tires	-11.5202
▁clips	-11.5209
▁surrendered	-11.5209
▁sox	-11.5221
▁seasons	-11.5222
▁backers	-11.5223
▁adams	-11.5224
▁intel	-11.5231
▁tuck	-11.5231
▁remembered	-11.5236
▁fails	-11.5237
▁embryos	-11.524
▁substances	-11.524
▁balanced	-11.524
▁batch	-11.5241
▁fixing	-11.5244
▁rioting	-11.5245
▁qar	-11.5245
▁winger	-11.5246
▁rifles	-11.5252
▁novels	-11.5252
▁risky	-11.5254
▁separatists	-11.526
▁tops	-11.526
▁goh	-11.5267
▁travels	-11.5269
▁adventure	-11.527
▁chart	-11.527
▁baker	-11.5273
▁trader	-11.5274
▁vest	-11.5274
▁wheels	-11.5275
▁bother	-11.528
▁cop	-11.5282
▁passports	-11.5286
▁resemble	-11.5287
▁shwe	-11.5291
▁raj	-11.5304
▁cables	-11.5312
▁errors	-11.5315
▁greatly	-11.5316
▁carriers	-11.5321
▁clouds	-11.5321
ud	-11.5325
▁dissolve	-11.533
▁nis	-11.5331
▁shoulders	-11.5333
▁cove	-11.5337
▁belt	-11.5339
▁dell	-11.5341
▁extract	-11.5346
▁cor	-11.5349
▁franco	-11.5351
▁mikh	-11.5358
bank	-11.5361
wai	-11.5365
▁colors	-11.5395
▁outbreaks	-11.5399
▁autonom	-11.5402
▁slowing	-11.5402
▁debts	-11.5412
▁governors	-11.542
▁catholics	-11.5435
▁designat	-11.544
▁sacked	-11.5442
▁sat	-11.5442
▁fe	-11.5445
▁australians	-11.545
iling	-11.5451
▁em	-11.5476
▁ram	-11.5483
▁franc	-11.5484
▁exchanged	-11.5485
▁graves	-11.5487
won	-11.5494
▁respects	-11.55
▁chronic	-11.5511
▁confine	-11.5513
▁cd	-11.5516
▁triple	-11.553
▁propose	-11.5531
▁pioneer	-11.5535
▁flin	-11.5535
▁agrees	-11.5539
▁requir	-11.5539
wood	-11.554
▁jeff	-11.5541
▁smile	-11.5543
▁informant	-11.5554
▁attribut	-11.5558
▁showdown	-11.5561
▁breathe	-11.5565
▁guitar	-11.5566
▁males	-11.5567
▁creator	-11.5567
▁achiev	-11.5569
▁riches	-11.5569
▁nightclub	-11.557
wa	-11.557
▁conglomerate	-11.5571
▁pocket	-11.5571
▁physician	-11.5572
away	-11.5572
▁classroom	-11.5573
▁transaction	-11.5573
▁domain	-11.5574
cular	-11.5575
▁commuter	-11.5576
▁captive	-11.5576
▁contender	-11.5576
▁shipment	-11.5577
▁bio	-11.5581
▁lender	-11.5581
▁packages	-11.5584
▁smash	-11.5588
▁dorm	-11.5592
▁devote	-11.56
trapped	-11.56
more	-11.5605
▁spur	-11.5607
▁embarrass	-11.561
▁algeria	-11.5613
▁massage	-11.5616
▁tire	-11.5617
▁pledges	-11.5618
▁disperse	-11.562
▁bp	-11.5622
ard	-11.5625
▁pirate	-11.5625
▁await	-11.5626
▁unfortunate	-11.5631
▁hamburg	-11.5633
▁surprising	-11.5633
▁tr	-11.5634
▁vocal	-11.5638
▁siege	-11.5639
▁albatross	-11.564
▁calendar	-11.564
▁canberra	-11.564
▁gossip	-11.564
▁mediterranean	-11.564
▁noriega	-11.564
▁scorsese	-11.564
▁solidarity	-11.564
▁wyoming	-11.564
▁abraham	-11.564
▁dementia	-11.564
▁hsbc	-11.564
▁lesbian	-11.564
▁exxon	-11.564
▁significance	-11.564
▁commonwealth	-11.564
▁cecilia	-11.564
▁chungcheong	-11.564
▁applause	-11.564
▁chapel	-11.564
▁disclosure	-11.564
▁gerrard	-11.564
▁strife	-11.564
▁efficiency	-11.564
▁studded	-11.564
▁newcastle	-11.564
▁intact	-11.564
▁replied	-11.564
▁curator	-11.564
▁rogue	-11.564
▁categories	-11.564
▁eleven	-11.564
▁childhood	-11.564
▁keynote	-11.5641
▁klein	-11.5641
▁discoveries	-11.5641
▁disposal	-11.5641
▁copper	-11.5641
▁attendance	-11.5641
▁ashley	-11.5642
▁collaboration	-11.5642
▁jurors	-11.5642
▁commands	-11.5643
▁acceptance	-11.5643
▁collapsing	-11.5643
▁intelligent	-11.5644
▁zheng	-11.5644
▁finances	-11.5644
▁cordon	-11.5646
▁thriller	-11.5646
▁township	-11.5646
▁chanting	-11.5647
▁screaming	-11.5647
▁frustrated	-11.5647
▁diane	-11.5647
▁scope	-11.5648
▁discharged	-11.5649
▁daylight	-11.5649
▁regulatory	-11.5649
ner	-11.5649
▁instructor	-11.5649
▁rahman	-11.5651
▁poorest	-11.5652
▁bet	-11.5654
▁painting	-11.5656
▁butler	-11.5657
▁departed	-11.5657
▁seasonal	-11.5658
▁purchasing	-11.5662
▁brains	-11.5662
▁jean	-11.5667
▁mal	-11.5667
▁kiev	-11.5667
▁kitt	-11.5668
▁staffers	-11.5669
▁accidental	-11.567
▁awaited	-11.5671
pl	-11.5673
▁sidelines	-11.5673
▁rangers	-11.5674
▁observed	-11.5676
▁preserved	-11.568
▁kwang	-11.5686
▁clarke	-11.5686
▁reactors	-11.5687
▁conservationist	-11.5688
ium	-11.5693
▁dinosaurs	-11.5693
▁expires	-11.5694
▁attractions	-11.5694
▁chased	-11.5697
▁albanians	-11.5697
▁lover	-11.5698
▁gran	-11.57
▁cracked	-11.5703
▁turner	-11.5704
▁providers	-11.5705
▁sinking	-11.5706
▁evans	-11.5707
▁dealer	-11.571
▁nickname	-11.5711
▁commuters	-11.5715
▁tag	-11.5717
▁snakes	-11.5718
▁victor	-11.5719
▁complet	-11.572
▁naturally	-11.5722
understood	-11.5723
▁utter	-11.5731
▁blankets	-11.5732
rowing	-11.5735
▁enterprises	-11.5738
▁stretched	-11.574
▁oust	-11.5741
▁serbs	-11.5742
▁pretend	-11.5743
▁techniques	-11.5752
▁discs	-11.5756
▁cafes	-11.5762
weeping	-11.5762
ho	-11.5763
▁infections	-11.5769
▁necessar	-11.577
▁dumping	-11.5772
▁valued	-11.5775
▁towers	-11.578
▁spurr	-11.578
▁rig	-11.5781
ore	-11.5786
▁stir	-11.579
▁indications	-11.5794
▁arabian	-11.5799
▁deem	-11.5804
▁bros	-11.5807
ber	-11.5816
▁revenues	-11.5818
▁wash	-11.582
ging	-11.5828
▁structures	-11.583
▁sook	-11.5838
▁scuffle	-11.5841
▁gallons	-11.5841
▁tent	-11.5846
▁edged	-11.5854
▁kicks	-11.5855
▁mccanns	-11.5859
▁melt	-11.5867
rry	-11.587
▁bur	-11.5879
▁dub	-11.5879
▁bands	-11.5883
▁plain	-11.5889
ja	-11.5893
▁pad	-11.5896
▁rated	-11.5899
▁turks	-11.5901
▁exercises	-11.5922
▁lander	-11.5931
▁speeding	-11.5932
made	-11.5938
dominant	-11.5939
▁appealing	-11.5946
▁shy	-11.596
▁va	-11.5961
▁wander	-11.5962
▁sisters	-11.5963
▁surg	-11.5968
▁rankings	-11.5968
▁ed	-11.597
▁demilitariz	-11.5978
▁dangers	-11.5984
▁ark	-11.6003
ford	-11.6015
▁gene	-11.602
▁ears	-11.6024
▁rear	-11.603
elena	-11.6032
▁hell	-11.6034
▁suv	-11.6034
▁committ	-11.6035
▁flock	-11.6039
set	-11.6045
etic	-11.6048
▁mont	-11.6048
ev	-11.6053
▁cope	-11.6056
▁flick	-11.6057
▁readers	-11.6065
▁dentist	-11.6071
▁sincere	-11.6072
▁slum	-11.6077
▁umbrella	-11.6092
▁stomach	-11.6092
▁blockbuster	-11.6097
▁pistol	-11.6097
▁reviews	-11.6098
▁homicide	-11.6099
▁shareholder	-11.6099
▁extremist	-11.61
▁vista	-11.6102
▁expression	-11.6102
▁julia	-11.6104
cha	-11.611
▁presents	-11.6121
▁polled	-11.6122
▁forth	-11.6127
▁ak	-11.6127
ite	-11.6128
▁airliner	-11.6128
▁scare	-11.6135
▁jamaica	-11.6138
org	-11.6139
▁ufo	-11.6139
▁claus	-11.614
▁disagree	-11.6143
▁kph	-11.6154
rank	-11.6155
▁flower	-11.6155
▁absolute	-11.6158
▁imperial	-11.6166
▁amsterdam	-11.6166
▁bogota	-11.6166
▁bronze	-11.6166
▁deputies	-11.6166
▁djokovic	-11.6166
▁emperor	-11.6166
▁furniture	-11.6166
▁gorbachev	-11.6166
▁hectare	-11.6166
▁kangaroo	-11.6166
▁library	-11.6166
▁mcconnell	-11.6166
▁parallel	-11.6166
▁phuket	-11.6166
▁yasukuni	-11.6166
▁rwanda	-11.6166
▁cameroon	-11.6166
▁cholera	-11.6166
▁capabilities	-11.6166
▁lauterbach	-11.6166
▁mainstream	-11.6166
▁parachute	-11.6166
▁munich	-11.6166
▁animation	-11.6166
▁branson	-11.6166
▁robust	-11.6166
▁bribery	-11.6166
▁madison	-11.6166
▁rampant	-11.6166
▁evasion	-11.6166
▁confederation	-11.6166
▁restoration	-11.6166
▁storage	-11.6166
▁lottery	-11.6166
▁perspective	-11.6166
▁fireworks	-11.6166
▁vincent	-11.6167
▁forensic	-11.6167
▁unlawful	-11.6167
▁authorization	-11.6167
▁colombo	-11.6167
▁haniya	-11.6167
▁disablement	-11.6167
▁retiring	-11.6167
▁methane	-11.6167
▁bunch	-11.6167
▁leather	-11.6167
▁dirt	-11.6167
▁snapped	-11.6167
▁confidential	-11.6167
▁convincing	-11.6167
▁eacute	-11.6167
▁drives	-11.6168
▁truman	-11.6168
▁external	-11.6168
▁trek	-11.6168
▁keating	-11.6168
▁blackwater	-11.6168
▁caffeine	-11.6168
▁oriented	-11.6168
▁salary	-11.6169
▁chadian	-11.6169
▁physics	-11.6169
▁cycling	-11.6169
▁deported	-11.6169
▁peterson	-11.6169
aiming	-11.617
▁leung	-11.617
▁blitzer	-11.617
▁collins	-11.6171
▁seize	-11.6172
▁interpreter	-11.6172
▁qala	-11.6172
▁gibbs	-11.6172
▁usgs	-11.6173
▁justified	-11.6174
▁valuable	-11.6175
▁spree	-11.6176
▁diversity	-11.6176
▁garner	-11.6176
tar	-11.6176
▁mullah	-11.6177
▁widening	-11.6178
▁coastline	-11.6178
town	-11.6179
▁hijacked	-11.6179
▁joel	-11.618
▁goodwill	-11.6181
▁everyday	-11.6182
▁scrambling	-11.6182
▁lyrics	-11.6182
▁bubble	-11.6184
▁diverted	-11.6185
▁bloggers	-11.6186
▁jimm	-11.6189
▁profitable	-11.619
▁ltd	-11.6191
▁courthouse	-11.6192
cantil	-11.6192
▁cough	-11.6193
▁lyon	-11.6193
▁notified	-11.6195
▁exploited	-11.6195
▁pancreati	-11.6195
▁thunder	-11.6197
▁leaf	-11.6197
▁intervened	-11.6197
▁limbs	-11.6202
thy	-11.6204
▁swat	-11.6204
▁archives	-11.6205
▁emotions	-11.6206
▁coins	-11.6206
▁britons	-11.621
lese	-11.6211
▁nec	-11.6213
▁waged	-11.6214
▁soap	-11.6214
▁advocates	-11.6216
▁nk	-11.6216
▁eliminated	-11.6216
▁picket	-11.6217
▁recruited	-11.6217
▁balloons	-11.6221
▁mammals	-11.6221
har	-11.6222
▁lessons	-11.6224
▁vick	-11.6226
▁opt	-11.6226
▁enduring	-11.623
▁promptly	-11.6231
▁secretly	-11.6231
▁kissing	-11.6235
bound	-11.6235
▁harmed	-11.6236
▁destabilize	-11.6237
▁trump	-11.624
▁publish	-11.6241
▁helen	-11.6242
▁filmmakers	-11.6242
grid	-11.6244
▁components	-11.6245
▁recommends	-11.6249
▁improvements	-11.6252
▁companion	-11.6253
bed	-11.6257
▁shiites	-11.6258
▁medications	-11.6262
▁associates	-11.6263
▁surfaced	-11.6264
▁bull	-11.6268
▁plates	-11.6269
bu	-11.6271
ists	-11.6274
▁torres	-11.6275
▁solving	-11.6279
▁roofs	-11.6283
▁booming	-11.6284
▁plac	-11.6285
spects	-11.6287
▁leaking	-11.6295
▁licensed	-11.6296
▁contribut	-11.6297
▁shields	-11.6301
▁carla	-11.6303
▁argues	-11.6304
▁jang	-11.6308
▁facilitate	-11.6315
▁filmed	-11.6318
▁singles	-11.6319
▁usher	-11.632
▁saint	-11.6321
▁contested	-11.6321
▁preferr	-11.6327
▁christin	-11.6334
▁reign	-11.6336
▁wells	-11.6337
chasing	-11.6344
▁clinics	-11.6352
▁symbols	-11.6353
printed	-11.6363
▁pill	-11.6366
▁operates	-11.6373
water	-11.6398
▁toured	-11.6412
rolled	-11.6413
▁define	-11.6418
volutionary	-11.6422
▁licenses	-11.643
▁solo	-11.6441
▁recalls	-11.6445
▁differ	-11.6447
▁eva	-11.6448
▁nest	-11.645
▁arrivals	-11.6456
▁heighten	-11.6458
▁tru	-11.6465
▁suicides	-11.6466
lined	-11.6467
▁alma	-11.648
▁bypass	-11.6485
▁hurting	-11.6488
▁corn	-11.6492
gi	-11.6494
▁contracting	-11.6499
▁kam	-11.6502
op	-11.6512
▁kumar	-11.652
▁mode	-11.6525
▁tournaments	-11.6528
▁koo	-11.6532
ye	-11.6536
▁spat	-11.6542
▁hid	-11.6543
▁inspect	-11.6554
▁mates	-11.6556
▁squeeze	-11.6556
▁wii	-11.6559
▁erect	-11.656
▁provin	-11.6562
▁fur	-11.6568
▁cas	-11.6573
ww	-11.658
erry	-11.6582
▁freedoms	-11.6586
▁metro	-11.6588
▁bout	-11.659
▁lecture	-11.6597
▁bipartisan	-11.6603
▁gar	-11.6604
ess	-11.6611
▁sequence	-11.6614
▁frame	-11.663
▁draws	-11.6636
ron	-11.664
▁conventional	-11.6641
uous	-11.6641
▁update	-11.6645
▁regulator	-11.6645
▁frustration	-11.6648
▁maoist	-11.6651
▁veterinarian	-11.6651
▁signature	-11.6651
▁taxpayer	-11.6655
▁recommendation	-11.6655
▁defendant	-11.6656
▁experienc	-11.6656
▁sailor	-11.6657
▁enters	-11.6661
ini	-11.6662
▁array	-11.6663
▁cur	-11.6663
▁scholar	-11.6663
▁germans	-11.6664
▁blessing	-11.6665
▁implant	-11.6668
och	-11.6668
▁cleaner	-11.6671
▁cycle	-11.6678
lecommunications	-11.668
▁till	-11.6684
▁applaud	-11.6685
▁frog	-11.6687
▁alien	-11.669
▁stalemate	-11.6692
▁campaigned	-11.6697
▁articles	-11.6701
anned	-11.6704
▁stunt	-11.6707
▁wreck	-11.6708
▁pond	-11.671
▁guilt	-11.6714
▁collective	-11.6715
▁loya	-11.6716
▁veterinar	-11.6721
▁celsius	-11.6722
▁crawford	-11.6722
▁daejeon	-11.6722
▁gibson	-11.6722
▁humiliating	-11.6722
▁kasparov	-11.6722
▁lucrative	-11.6722
▁memorabilia	-11.6722
▁memphis	-11.6722
▁messenger	-11.6722
▁nistelrooy	-11.6722
▁precinct	-11.6722
▁productivity	-11.6722
▁substantive	-11.6722
▁syndrome	-11.6722
▁testosterone	-11.6722
▁zapeta	-11.6722
▁burglary	-11.6722
▁immense	-11.6722
▁ronaldinho	-11.6722
▁bahrain	-11.6722
▁rojas	-11.6722
▁tikrit	-11.6722
▁unesco	-11.6722
▁baggage	-11.6722
▁jefferson	-11.6722
▁grateful	-11.6722
▁garbage	-11.6722
▁fabio	-11.6722
▁queensland	-11.6722
▁gauge	-11.6722
▁pandemic	-11.6722
▁paramount	-11.6722
▁capello	-11.6722
▁dadullah	-11.6722
▁unauthorized	-11.6722
▁wholesale	-11.6722
▁sergeant	-11.6722
▁lehman	-11.6722
▁unbeaten	-11.6722
▁watson	-11.6722
▁destructive	-11.6722
▁ideology	-11.6722
▁interference	-11.6722
▁staunch	-11.6722
▁norris	-11.6722
▁sacred	-11.6722
▁khalid	-11.6722
▁liaison	-11.6722
▁cruz	-11.6722
▁looming	-11.6722
▁recruitment	-11.6722
▁shaft	-11.6722
▁lavish	-11.6722
▁presley	-11.6722
▁translator	-11.6722
▁grandchildren	-11.6723
▁landfall	-11.6723
▁brutality	-11.6723
▁anxiety	-11.6723
▁defence	-11.6723
▁reliable	-11.6723
▁fantasy	-11.6723
▁charred	-11.6723
▁equality	-11.6723
▁rigging	-11.6724
▁kidman	-11.6724
▁tokto	-11.6724
▁preston	-11.6724
die	-11.6725
▁translation	-11.6725
▁exploring	-11.6726
▁pullout	-11.6726
▁gradual	-11.6726
▁francois	-11.6727
▁ritual	-11.6727
▁deliveries	-11.6727
▁spectators	-11.6728
▁distributor	-11.6728
▁newborn	-11.6729
▁verified	-11.6731
▁spies	-11.6732
▁outrageous	-11.6733
▁liga	-11.6733
▁digging	-11.6733
▁considerably	-11.6734
▁alcoholic	-11.6734
▁somewhat	-11.6735
▁lynn	-11.6735
▁hardship	-11.6736
▁forbes	-11.6736
▁descended	-11.6737
▁illnesses	-11.6737
▁swiftly	-11.6737
▁roller	-11.6739
▁tur	-11.6739
hi	-11.6739
▁hampered	-11.674
▁aggravate	-11.674
▁surprisingly	-11.6741
▁acceptable	-11.6741
▁neutral	-11.6743
▁disturbing	-11.6746
▁prey	-11.6748
▁therapy	-11.6749
▁aero	-11.675
▁penguins	-11.6751
▁earning	-11.6751
▁breath	-11.6752
cial	-11.6753
▁defect	-11.6753
▁sightings	-11.6754
▁servants	-11.6754
▁resisted	-11.6755
▁distribute	-11.6755
▁sharon	-11.6756
▁thatcher	-11.6756
▁transformation	-11.676
▁mc	-11.676
▁slipp	-11.676
▁nike	-11.676
▁embark	-11.6764
▁hello	-11.6764
▁vary	-11.6765
▁gala	-11.6765
▁blank	-11.6766
▁byeon	-11.6769
port	-11.677
▁kar	-11.677
▁suppliers	-11.6773
▁biology	-11.6775
▁traced	-11.6776
▁objections	-11.6781
▁cardinals	-11.6782
▁pig	-11.6782
▁dodge	-11.679
▁prosper	-11.6791
▁uci	-11.6795
▁surpass	-11.6797
▁prop	-11.6797
▁lovers	-11.6798
▁slot	-11.6801
▁ratio	-11.6805
spoken	-11.6807
▁walters	-11.6808
▁tender	-11.6809
▁blacks	-11.681
▁asean	-11.6814
▁monitored	-11.6815
▁ambulances	-11.6816
▁prints	-11.6822
▁bees	-11.6823
▁cooling	-11.6823
▁searches	-11.6824
▁assure	-11.6833
▁precautions	-11.6834
▁ci	-11.6837
▁scan	-11.6841
fa	-11.6848
▁recruits	-11.6848
▁jams	-11.6849
▁hoon	-11.6857
▁checkpoints	-11.6859
▁lucian	-11.6864
▁vaccines	-11.687
▁platforms	-11.6874
▁boycotted	-11.6878
▁splash	-11.6878
▁ensur	-11.6886
▁ham	-11.6887
▁hoi	-11.6888
▁dvds	-11.6897
▁cinema	-11.6898
au	-11.69
▁appoint	-11.6902
▁spying	-11.6905
▁packs	-11.6907
▁responses	-11.6912
▁wh	-11.6916
▁chains	-11.6916
▁faction	-11.6928
iya	-11.6928
▁reassure	-11.6935
▁serial	-11.6935
▁mps	-11.6939
▁severed	-11.6948
▁todd	-11.6951
▁gi	-11.6955
reacted	-11.6959
▁dies	-11.6962
▁fu	-11.6967
▁nud	-11.6968
united	-11.6973
▁disc	-11.6973
▁kh	-11.6977
▁approaching	-11.6982
▁weird	-11.699
▁dealings	-11.6994
old	-11.6996
▁habit	-11.6997
▁sensation	-11.6999
▁torrent	-11.7001
▁cloth	-11.7002
▁lawn	-11.7004
▁freely	-11.7005
▁evolutionary	-11.7007
▁julie	-11.7008
▁imp	-11.7011
▁purchases	-11.7019
▁accompani	-11.7024
▁distribut	-11.7025
used	-11.7039
▁lim	-11.7054
▁presid	-11.7065
▁tina	-11.7083
all	-11.7099
▁characterize	-11.7111
▁speakers	-11.7113
ith	-11.7146
▁chae	-11.7174
▁chuck	-11.7176
fire	-11.7177
lin	-11.7178
▁combine	-11.7195
▁hun	-11.7201
▁shim	-11.721
ney	-11.7212
aw	-11.7213
▁downplay	-11.7217
▁cabin	-11.7224
▁tam	-11.7227
▁disabl	-11.7228
▁considerabl	-11.7229
▁heir	-11.723
▁wrist	-11.723
▁spider	-11.723
▁wheelchair	-11.7233
▁prototype	-11.7233
▁juvenile	-11.7233
▁trauma	-11.7233
▁feat	-11.7234
▁dictatorship	-11.7236
▁ukrainian	-11.7238
▁solomon	-11.7238
▁seizure	-11.724
▁porn	-11.724
▁peanut	-11.7241
▁broadcasts	-11.7241
▁salt	-11.7241
▁workplace	-11.7244
▁tongue	-11.7244
▁operative	-11.7245
▁prov	-11.7248
▁outfit	-11.7249
▁grenade	-11.7249
▁tube	-11.725
▁keeper	-11.7252
▁tenor	-11.7255
▁nurse	-11.7255
▁thre	-11.7256
▁albanian	-11.7257
▁owen	-11.726
▁tighten	-11.7261
nder	-11.7266
▁slid	-11.7272
▁folk	-11.7275
▁donate	-11.7279
▁salmon	-11.7279
▁spiral	-11.7282
▁enact	-11.7286
▁locate	-11.7291
▁defin	-11.7295
▁appreciate	-11.7295
▁indoor	-11.7295
▁surgeon	-11.7297
▁himalaya	-11.7299
▁constructive	-11.7299
▁concede	-11.73
▁precise	-11.7301
▁adequate	-11.7301
▁hover	-11.7301
▁embargo	-11.7303
▁situations	-11.7304
▁unofficial	-11.7304
▁tut	-11.7307
▁grain	-11.7308
▁homosexual	-11.7309
▁amusement	-11.731
▁antiquities	-11.731
▁auvinen	-11.731
▁brisbane	-11.731
▁currencies	-11.731
▁guangdong	-11.731
▁guangzhou	-11.731
▁hamilton	-11.731
▁incredible	-11.731
▁jupiter	-11.731
▁khartoum	-11.731
▁litvinenko	-11.731
▁marijuana	-11.731
▁mbeki	-11.731
▁pyeongchang	-11.731
▁quebec	-11.731
▁sorenstam	-11.731
▁vancouver	-11.731
▁escalation	-11.731
▁oecd	-11.731
▁pyeongyang	-11.731
▁schuster	-11.731
▁sluggish	-11.731
▁tsonga	-11.731
▁yushchenko	-11.731
▁capsule	-11.731
▁hewitt	-11.731
▁literature	-11.731
▁maintenance	-11.731
▁trafford	-11.731
▁integrity	-11.731
▁morocco	-11.731
▁lumpur	-11.731
▁roadmap	-11.731
▁referee	-11.731
▁disband	-11.731
▁whereabouts	-11.731
▁pedro	-11.731
▁stallone	-11.731
▁minorities	-11.731
▁mourners	-11.731
▁forthcoming	-11.731
▁exploitation	-11.731
▁backlash	-11.731
▁battleground	-11.731
▁saddened	-11.731
▁dmitr	-11.731
▁deteriorating	-11.7311
▁liquidity	-11.7311
▁renounce	-11.7311
▁nepalese	-11.7311
▁sickened	-11.7311
▁depressed	-11.7311
▁technological	-11.7311
▁ferraro	-11.7311
▁rigged	-11.7311
▁installment	-11.7311
▁occurring	-11.7312
▁canyon	-11.7312
▁complications	-11.7312
▁roland	-11.7313
▁mtv	-11.7313
▁plunging	-11.7313
▁occasionally	-11.7314
▁engulfed	-11.7314
▁defiant	-11.7314
▁overwhelmed	-11.7314
▁definitive	-11.7315
▁simultaneously	-11.7315
▁alter	-11.7315
▁middleton	-11.7315
▁coordinator	-11.7315
▁armenian	-11.7316
▁cowell	-11.7317
▁plame	-11.7317
▁unified	-11.7318
▁ivan	-11.7318
▁grandson	-11.7318
▁yan	-11.7319
▁chess	-11.7319
▁levy	-11.732
▁descent	-11.732
▁funny	-11.732
▁commentator	-11.7321
▁xiang	-11.7321
▁viable	-11.7322
▁sheik	-11.7322
▁passionate	-11.7322
▁beheaded	-11.7322
▁riza	-11.7322
▁clemen	-11.7322
▁heroes	-11.7323
▁kurds	-11.7323
▁kaka	-11.7324
▁artifacts	-11.7324
▁excerpts	-11.7324
▁stripp	-11.7325
▁liberia	-11.7325
▁waiver	-11.7325
▁finalize	-11.7326
▁sochi	-11.7326
▁soda	-11.7326
▁sultan	-11.733
▁magnetic	-11.7331
▁composed	-11.7331
▁integration	-11.7333
▁perry	-11.7334
▁raging	-11.7334
▁quietly	-11.7335
▁mentally	-11.7335
▁shrinking	-11.7336
▁bump	-11.7336
▁kilograms	-11.7341
▁anytime	-11.7342
▁integrate	-11.7343
▁speculated	-11.7344
▁ruins	-11.7344
▁frankly	-11.7347
▁contend	-11.7348
▁math	-11.7352
▁load	-11.7352
▁acquired	-11.7353
▁voices	-11.7354
▁gloom	-11.7354
▁physically	-11.7358
▁theories	-11.736
▁disagreements	-11.7361
▁masks	-11.7362
▁hyung	-11.7363
▁stint	-11.7364
▁successes	-11.7366
▁sheet	-11.7369
▁consultations	-11.737
▁crushed	-11.7372
▁instruments	-11.7372
field	-11.7379
▁violently	-11.7381
▁guaranteed	-11.7382
▁lend	-11.7383
▁probabl	-11.7384
▁instrument	-11.7387
▁launches	-11.7389
▁revived	-11.7391
▁succeeded	-11.7403
tta	-11.7408
▁aborigin	-11.7411
tracted	-11.7418
▁accessible	-11.742
▁statues	-11.7425
ied	-11.7427
▁pipelines	-11.7431
▁proven	-11.7432
▁costly	-11.7434
ld	-11.7434
olla	-11.7435
▁offenses	-11.7436
▁theatre	-11.7438
▁serge	-11.7444
▁woke	-11.7447
ck	-11.7447
▁evacuations	-11.7447
▁toilets	-11.745
▁lions	-11.7453
sen	-11.7466
▁wta	-11.7469
▁killers	-11.747
▁posing	-11.747
▁convictions	-11.7472
▁aspect	-11.7479
▁railways	-11.7481
▁nah	-11.7481
▁eyed	-11.7503
▁treatments	-11.751
▁permitt	-11.7514
▁snatch	-11.7524
▁lighter	-11.7526
▁assaulted	-11.7532
▁butter	-11.7534
▁calculate	-11.7538
▁warns	-11.7541
▁reconsider	-11.755
▁holdings	-11.7555
▁corporations	-11.7556
uda	-11.7559
▁interpret	-11.7568
▁darling	-11.7575
▁blade	-11.7578
power	-11.7584
ability	-11.7597
▁propelle	-11.7603
▁bore	-11.7606
▁skip	-11.7617
▁cac	-11.7623
▁professionals	-11.7625
▁alvar	-11.7632
▁sci	-11.7638
▁subjects	-11.7642
▁asif	-11.7642
▁debated	-11.7644
▁costa	-11.7648
ery	-11.766
▁merit	-11.7666
▁stricke	-11.7674
▁gal	-11.7678
▁visas	-11.7681
▁teach	-11.7681
cing	-11.7687
▁comb	-11.7688
war	-11.7694
ons	-11.7696
▁linger	-11.7709
▁seeds	-11.7716
▁ye	-11.7716
▁audiences	-11.7716
▁favors	-11.7717
cious	-11.7728
▁timo	-11.7729
▁qud	-11.7731
▁investigati	-11.7733
▁sim	-11.7753
▁kidnappings	-11.7758
▁ana	-11.7763
▁cub	-11.7769
▁divisions	-11.777
cover	-11.7779
▁twist	-11.7791
inous	-11.7794
lie	-11.7799
▁horn	-11.7801
▁ze	-11.7805
▁custom	-11.7807
▁arch	-11.782
▁sever	-11.7826
▁observe	-11.7829
▁fingerprint	-11.7837
▁wo	-11.7842
▁absorb	-11.7846
▁breed	-11.7847
▁expire	-11.7848
▁compatriot	-11.785
▁xp	-11.7853
▁sunnis	-11.7854
ered	-11.7857
▁miracle	-11.7858
▁consulate	-11.7858
▁lifestyle	-11.7858
▁ditch	-11.7859
▁disappear	-11.7863
▁disasters	-11.7864
▁snap	-11.7865
▁consultant	-11.7866
▁element	-11.7867
▁automobile	-11.7867
▁dinosaur	-11.7868
▁guerrilla	-11.7868
▁nichol	-11.7868
▁obligation	-11.7868
▁dissident	-11.7869
▁achievement	-11.7869
▁cardinal	-11.787
▁esta	-11.787
▁accusation	-11.787
▁objection	-11.7871
▁balloon	-11.7871
▁reinforce	-11.7871
▁mammal	-11.7873
▁feud	-11.7875
▁attraction	-11.7879
ells	-11.7887
▁portal	-11.7889
▁mobil	-11.7891
▁serie	-11.7892
▁monte	-11.7895
▁donation	-11.7896
▁failures	-11.79
related	-11.7905
▁harvest	-11.7905
▁drain	-11.7907
wards	-11.7914
▁pine	-11.792
▁karim	-11.792
▁tri	-11.7924
▁speculate	-11.7926
▁profound	-11.7928
▁capita	-11.7931
▁respective	-11.7932
▁sovereign	-11.7934
▁alkatiri	-11.7935
▁archbishop	-11.7935
▁azerbaijan	-11.7935
▁canaveral	-11.7935
▁davydenko	-11.7935
▁diarrhea	-11.7935
▁dicaprio	-11.7935
▁explicit	-11.7935
▁halloween	-11.7935
▁moroccan	-11.7935
▁napolitano	-11.7935
▁rasmussen	-11.7935
▁siniora	-11.7935
▁spielberg	-11.7935
▁suzuki	-11.7935
▁temblor	-11.7935
▁underneath	-11.7935
▁zapatero	-11.7935
▁amateur	-11.7935
▁clapton	-11.7935
▁henderson	-11.7935
▁portsmouth	-11.7935
▁wizard	-11.7935
▁belgrade	-11.7935
▁brooklyn	-11.7935
▁cmdr	-11.7935
▁commodities	-11.7935
▁fukuda	-11.7935
▁skepticism	-11.7935
▁warfare	-11.7935
▁allawi	-11.7935
▁padilla	-11.7935
▁dylan	-11.7935
▁malibu	-11.7935
▁barracks	-11.7935
▁soyuz	-11.7935
▁inquiries	-11.7935
▁overdose	-11.7935
▁credible	-11.7935
▁meltdown	-11.7935
▁leahy	-11.7935
▁ridiculous	-11.7935
▁livni	-11.7935
▁defiance	-11.7935
▁separation	-11.7935
▁mogul	-11.7935
▁qatar	-11.7935
▁podium	-11.7935
▁nhk	-11.7935
▁consciousness	-11.7935
▁mandela	-11.7935
▁siberia	-11.7935
▁disturbance	-11.7935
▁resistant	-11.7935
▁busiest	-11.7935
▁archipelago	-11.7935
▁hanaro	-11.7935
▁shortfall	-11.7935
▁blacksburg	-11.7935
▁drastically	-11.7935
▁interactive	-11.7935
▁robinson	-11.7935
▁horrific	-11.7935
▁overshadow	-11.7935
▁gerald	-11.7935
▁rebuke	-11.7936
▁enron	-11.7936
▁hungry	-11.7936
▁jeremy	-11.7936
▁standstill	-11.7936
▁orientation	-11.7936
▁courageous	-11.7936
▁intimidation	-11.7936
▁finland	-11.7936
▁excellent	-11.7936
▁unearth	-11.7936
▁fisheries	-11.7936
▁ballmer	-11.7936
▁crises	-11.7937
▁cancelled	-11.7937
▁breakdown	-11.7937
▁upscale	-11.7937
▁disappointing	-11.7937
▁quarterback	-11.7938
▁leverage	-11.7938
▁abruptly	-11.7938
▁frightened	-11.7938
▁genome	-11.7939
▁description	-11.7939
▁fundraising	-11.7939
▁computing	-11.7939
▁farther	-11.794
▁defensive	-11.7941
▁urgency	-11.7941
▁ancestors	-11.7942
▁chimps	-11.7942
▁contradict	-11.7942
▁penh	-11.7942
▁supplied	-11.7944
▁ordeal	-11.7944
▁cooperative	-11.7944
▁resuming	-11.7944
▁dismissal	-11.7945
▁estrange	-11.7945
▁zambia	-11.7946
▁bath	-11.7946
▁loving	-11.7947
▁handover	-11.7947
▁rover	-11.7947
▁irna	-11.7947
▁dodd	-11.7947
▁stiles	-11.7947
▁brent	-11.7948
▁nile	-11.7948
▁endured	-11.7949
▁dignitar	-11.7949
▁surname	-11.795
▁exclusively	-11.7951
▁wishes	-11.7951
▁drinkers	-11.7951
▁salaries	-11.7953
▁chilly	-11.7954
▁prais	-11.7954
▁reinforcements	-11.7955
▁motivation	-11.7955
▁plummeted	-11.7956
▁bosses	-11.7957
▁advocate	-11.7957
aron	-11.7958
▁anymore	-11.7959
▁architects	-11.796
▁departments	-11.796
▁zay	-11.7962
▁cheered	-11.7963
▁ingredients	-11.7963
▁default	-11.7965
▁performers	-11.7966
▁climbers	-11.7969
▁algerian	-11.797
▁corpses	-11.797
▁cheon	-11.7973
▁valeri	-11.7973
▁laughing	-11.7973
▁approaches	-11.7974
▁contestants	-11.7977
▁particles	-11.7978
▁drilling	-11.7978
▁slipping	-11.7978
▁reunion	-11.7979
▁adj	-11.798
▁siblings	-11.7981
▁tightened	-11.7982
▁backup	-11.7984
▁scam	-11.7987
▁showcase	-11.7988
▁lean	-11.7989
▁knocke	-11.7989
▁obstacles	-11.799
▁noble	-11.7992
unconstitutional	-11.7996
▁justify	-11.7997
▁functioning	-11.7998
nom	-11.7998
▁restor	-11.8
▁automobiles	-11.8003
▁achievements	-11.8003
▁bust	-11.8003
mar	-11.8004
ries	-11.8005
▁aliens	-11.8009
▁conspir	-11.8009
▁spann	-11.8013
▁postal	-11.8017
▁rem	-11.8019
▁reacting	-11.802
▁classrooms	-11.8021
▁karl	-11.8021
▁beca	-11.8022
▁keys	-11.8025
▁sabotage	-11.8031
▁rejoin	-11.8037
▁comet	-11.8037
▁praying	-11.8041
▁poorly	-11.8044
▁yemeni	-11.8045
▁ah	-11.8046
zone	-11.8051
▁plug	-11.8052
▁destinations	-11.8055
▁facto	-11.806
▁wil	-11.8062
▁cartel	-11.8062
▁jem	-11.8067
rely	-11.8074
▁mortars	-11.8075
▁infants	-11.8077
▁productive	-11.8081
▁mayors	-11.8085
work	-11.8086
▁compare	-11.8089
▁sided	-11.809
▁amendments	-11.8091
▁stimulate	-11.8091
▁nso	-11.8093
▁borrow	-11.8093
▁tail	-11.8094
▁smuggle	-11.8096
▁reads	-11.8098
▁shifted	-11.8099
▁banners	-11.8103
▁tents	-11.8111
ility	-11.8114
▁medals	-11.8118
▁references	-11.8119
▁advisors	-11.8119
hand	-11.8128
▁importantly	-11.813
bar	-11.8135
▁respected	-11.8136
▁rim	-11.8137
▁crossings	-11.814
nce	-11.8141
▁bury	-11.8141
anana	-11.8142
▁max	-11.8157
abo	-11.8159
ying	-11.8159
▁kan	-11.816
productive	-11.8162
▁eli	-11.8172
▁minded	-11.8177
▁pile	-11.8188
▁temples	-11.819
inal	-11.819
ruly	-11.8201
acent	-11.8204
▁roses	-11.8205
iled	-11.8215
▁reprocess	-11.8217
▁analyze	-11.8222
▁sw	-11.8222
▁mortgages	-11.8223
▁exploit	-11.8224
▁kt	-11.8231
yang	-11.8234
ounding	-11.8234
▁cheer	-11.8243
▁labels	-11.8244
▁tracked	-11.8248
▁interfere	-11.8252
lenty	-11.8259
▁kath	-11.826
▁designs	-11.8269
▁buck	-11.827
▁hak	-11.8277
▁absent	-11.8281
▁exists	-11.8285
▁boo	-11.8288
▁suburbs	-11.8289
▁defeating	-11.8295
▁neo	-11.8304
▁commented	-11.8304
secretary	-11.8309
▁tackl	-11.831
▁fold	-11.8319
hat	-11.8321
▁heating	-11.8333
ions	-11.8335
▁kara	-11.834
▁specifics	-11.8351
po	-11.8356
▁ce	-11.8359
▁thrill	-11.836
▁hank	-11.8371
▁exceptional	-11.8374
chen	-11.8375
ecame	-11.8384
ft	-11.84
▁kyong	-11.8409
▁levi	-11.8413
bs	-11.8413
▁jud	-11.8423
maker	-11.8428
▁joke	-11.8436
▁notify	-11.8437
▁displays	-11.844
▁alike	-11.8442
▁tibetans	-11.8449
▁dar	-11.8457
▁laugh	-11.8462
▁nutrition	-11.8464
off	-11.8484
▁grounded	-11.8485
▁patch	-11.8485
▁slapp	-11.8506
▁magazines	-11.8507
tial	-11.851
▁adjust	-11.8518
▁clown	-11.8522
▁fatigue	-11.8524
idf	-11.8525
▁viewing	-11.8525
▁evangelical	-11.8527
▁comparison	-11.8528
▁lag	-11.8528
▁battalion	-11.853
▁deportation	-11.8531
▁clerk	-11.8532
▁concentration	-11.8532
▁fiber	-11.8533
▁headline	-11.8533
▁monument	-11.8533
▁certificate	-11.8533
▁segment	-11.8533
▁blackout	-11.8534
▁bishop	-11.8535
▁installation	-11.8535
▁consultation	-11.8539
▁mediator	-11.8539
▁expectation	-11.8541
▁retire	-11.8541
▁organizer	-11.8542
▁musician	-11.8544
▁capitalist	-11.8545
▁hood	-11.8545
▁arabs	-11.8546
▁vo	-11.8548
▁outlet	-11.8548
▁sample	-11.855
▁relation	-11.855
▁trailer	-11.8551
▁speeds	-11.8553
▁gripp	-11.8555
▁swam	-11.8555
▁snack	-11.856
▁debat	-11.8562
▁comic	-11.8571
▁winston	-11.8573
▁amend	-11.8576
▁bulgaria	-11.8576
▁quarantine	-11.8577
▁olive	-11.8579
▁sustain	-11.8581
▁relocate	-11.8586
▁organize	-11.8588
▁delicate	-11.859
▁charisma	-11.8601
▁affidavit	-11.8601
▁birkhead	-11.8601
▁birmingham	-11.8601
▁bollywood	-11.8601
▁charlotte	-11.8601
▁credentials	-11.8601
▁crichton	-11.8601
▁criteria	-11.8601
▁endurance	-11.8601
▁guinea	-11.8601
▁hatoyama	-11.8601
▁kazemi	-11.8601
▁lakshmi	-11.8601
▁lufthansa	-11.8601
▁nephew	-11.8601
▁paraguay	-11.8601
▁pilgrimage	-11.8601
▁punjab	-11.8601
▁ubiquitous	-11.8601
▁wembley	-11.8601
▁xinjiang	-11.8601
▁zebari	-11.8601
▁credibility	-11.8601
▁excitement	-11.8601
▁lenient	-11.8601
▁lindsey	-11.8601
▁nasrallah	-11.8601
▁nevertheless	-11.8601
▁shrimp	-11.8601
▁valencia	-11.8601
▁baldwin	-11.8601
▁festivities	-11.8601
▁johansson	-11.8601
▁sanchez	-11.8601
▁barclay	-11.8601
▁wfp	-11.8601
▁lackluster	-11.8602
▁rangoon	-11.8602
▁motorcade	-11.8602
▁omx	-11.8602
▁coffin	-11.8602
▁garrison	-11.8602
▁populous	-11.8602
▁forbidden	-11.8602
▁radioactive	-11.8602
▁holmes	-11.8602
▁ivanovic	-11.8602
▁immunity	-11.8602
▁dynasty	-11.8602
▁redeployment	-11.8602
▁fritzl	-11.8602
▁diesel	-11.8602
▁irwin	-11.8602
▁luther	-11.8602
▁hawkins	-11.8602
▁abdel	-11.8602
▁competitiveness	-11.8602
▁inhabit	-11.8602
▁diaz	-11.8602
▁influenza	-11.8602
▁spotlight	-11.8602
▁derby	-11.8602
▁cemetery	-11.8602
▁barney	-11.8602
▁horrible	-11.8603
▁meaningful	-11.8603
▁blacklist	-11.8603
▁bloodshed	-11.8603
▁lawrence	-11.8604
▁emmy	-11.8604
▁stabbed	-11.8604
▁renowned	-11.8604
▁teddy	-11.8605
▁perceived	-11.8605
▁cleanup	-11.8605
▁bennett	-11.8605
▁lula	-11.8606
▁evolved	-11.8607
▁confiscated	-11.8608
▁bayern	-11.8608
▁verbal	-11.8609
▁noodles	-11.8609
▁cheating	-11.8609
▁osman	-11.8609
▁awakening	-11.8609
▁martial	-11.861
▁thoroughly	-11.861
▁foiled	-11.861
▁homeowners	-11.861
▁fargo	-11.8611
▁protective	-11.8611
racked	-11.8614
▁revise	-11.8614
▁bleeding	-11.8614
▁impressed	-11.8614
▁commentary	-11.8615
▁globalization	-11.8615
▁escalated	-11.8615
▁accountable	-11.8615
▁excluded	-11.8616
▁penny	-11.8617
▁mediation	-11.8617
▁layer	-11.8617
▁migration	-11.8617
▁drift	-11.8618
▁chopper	-11.8618
▁plc	-11.8618
▁premises	-11.8618
▁unleash	-11.8618
▁circulating	-11.8618
▁monarchy	-11.8619
▁unexpectedly	-11.8619
▁vinci	-11.862
▁minimiz	-11.862
▁outright	-11.8622
▁spouses	-11.8622
▁foul	-11.8624
▁stirring	-11.8624
les	-11.8625
ming	-11.8628
▁appreciated	-11.863
▁twisted	-11.8632
▁hopefully	-11.8632
▁ruth	-11.8633
▁frenchman	-11.8634
▁sampl	-11.8634
▁heath	-11.8635
▁therapist	-11.8635
▁olds	-11.864
▁tenth	-11.8641
▁sustainable	-11.8641
▁consulted	-11.8642
▁robin	-11.8646
▁nerves	-11.8649
▁coaches	-11.8652
▁regiment	-11.8653
▁backs	-11.8657
▁reminder	-11.8657
▁cox	-11.8658
▁carmakers	-11.8658
▁spared	-11.8658
▁swamp	-11.8659
▁confronted	-11.8663
▁mari	-11.8663
▁freezer	-11.8667
▁drops	-11.8669
▁visitor	-11.867
rammed	-11.8672
▁pak	-11.8674
▁operatives	-11.8677
▁slower	-11.8679
ura	-11.8681
▁surgeons	-11.8681
▁heaven	-11.8685
▁tier	-11.8688
▁inmate	-11.869
▁proclaim	-11.8691
▁accommodate	-11.8695
▁competed	-11.8697
▁pin	-11.8699
▁minimal	-11.87
ani	-11.8701
▁spurs	-11.8704
▁deserves	-11.8704
▁divert	-11.8707
ade	-11.8708
▁provider	-11.8709
we	-11.8714
▁spaniards	-11.8717
▁bricks	-11.8722
▁anwar	-11.8725
ova	-11.8728
▁contemporar	-11.873
▁contributions	-11.8731
ge	-11.8735
▁wraps	-11.8743
▁beliefs	-11.8744
sama	-11.8751
tted	-11.8754
▁fam	-11.8756
▁salam	-11.8757
▁existed	-11.8759
ative	-11.8765
▁nd	-11.8773
▁gamble	-11.8778
▁doo	-11.8787
▁belly	-11.8788
▁robots	-11.8798
▁stray	-11.8809
▁cre	-11.8813
▁socialists	-11.8814
▁conclusions	-11.882
▁monet	-11.8822
▁gorge	-11.8829
ice	-11.8829
ms	-11.8829
▁rolls	-11.8833
tor	-11.8839
▁offend	-11.8841
▁spirits	-11.8842
▁cake	-11.8843
▁stoke	-11.8843
▁cleaning	-11.8844
lihood	-11.8845
▁provisional	-11.8851
▁saudis	-11.8852
▁resigning	-11.8857
▁paths	-11.8864
▁lows	-11.8864
space	-11.8868
▁josh	-11.8875
▁para	-11.8875
▁alternatives	-11.8896
▁hamper	-11.89
▁input	-11.8901
itz	-11.8901
▁globally	-11.8905
▁characteriz	-11.891
mmy	-11.8916
ada	-11.892
▁ger	-11.8922
▁pit	-11.8929
▁rode	-11.8932
▁cab	-11.8934
▁bids	-11.8938
▁sorts	-11.8941
▁ringing	-11.8943
▁compounds	-11.8947
▁embezzl	-11.8948
▁dome	-11.8951
▁cure	-11.8951
if	-11.8957
▁rides	-11.8959
▁lap	-11.896
▁colon	-11.896
izing	-11.8961
adic	-11.8976
▁sue	-11.8977
tun	-11.8978
▁hinder	-11.8982
▁rotat	-11.8985
▁albums	-11.8989
▁bare	-11.901
▁offerings	-11.9013
▁marr	-11.9026
latter	-11.9037
▁dip	-11.9039
ugh	-11.9041
▁tables	-11.9046
▁deer	-11.9047
▁jogg	-11.9049
owing	-11.9056
▁lunche	-11.9056
▁annul	-11.9059
initiated	-11.907
lan	-11.9071
▁div	-11.9072
▁delegations	-11.908
▁fog	-11.908
▁versions	-11.9081
▁admitt	-11.9082
▁meteorologi	-11.9082
▁interfer	-11.9087
▁mason	-11.9089
▁reminiscen	-11.909
▁connections	-11.9093
▁rein	-11.9096
▁gamba	-11.91
▁pools	-11.9119
allest	-11.9122
▁ramp	-11.9124
▁mur	-11.9125
▁mil	-11.9128
▁coin	-11.9129
▁notable	-11.9135
▁papa	-11.9138
▁tvs	-11.9139
▁floors	-11.9146
lly	-11.9151
▁resource	-11.9152
▁decent	-11.9162
▁mp	-11.9165
▁brac	-11.9172
▁cr	-11.9172
▁plague	-11.9174
▁instruct	-11.9184
▁sink	-11.9187
alz	-11.9193
well	-11.9205
ught	-11.9206
▁quota	-11.922
ef	-11.9221
▁pal	-11.9225
▁wto	-11.9226
▁pleasure	-11.9231
▁provoke	-11.9235
▁mir	-11.9235
▁walkout	-11.9237
▁portrayal	-11.9239
▁mechanism	-11.9244
▁horror	-11.9244
▁column	-11.9244
▁hispanic	-11.9246
▁meteorologist	-11.9246
▁barrage	-11.9247
▁qualifier	-11.9247
▁beverage	-11.9248
▁supplier	-11.925
▁requirement	-11.9252
cs	-11.9252
▁buyout	-11.9252
ledged	-11.9253
▁geo	-11.9257
▁dai	-11.926
▁retailer	-11.9266
▁incorporate	-11.9267
▁leaning	-11.9269
▁intercept	-11.927
om	-11.9272
▁gum	-11.9275
▁defi	-11.9283
▁commons	-11.9294
▁tolerate	-11.9294
▁pol	-11.9297
▁conceal	-11.9297
rose	-11.9299
ara	-11.9299
▁atmospher	-11.93
▁amber	-11.9301
gm	-11.9302
▁henri	-11.9305
▁deepen	-11.9306
ou	-11.9307
▁thorough	-11.9307
▁indefinite	-11.9307
▁continuous	-11.9307
▁societ	-11.9308
ified	-11.9309
▁abdulla	-11.931
▁potato	-11.931
▁inspiration	-11.9314
▁amoeba	-11.9316
▁barksdale	-11.9316
▁chertoff	-11.9316
▁columbus	-11.9316
▁convenience	-11.9316
▁edinburgh	-11.9316
▁elbow	-11.9316
▁estrada	-11.9316
▁evacuees	-11.9316
▁gondola	-11.9316
▁guinness	-11.9316
▁jpmorgan	-11.9316
▁jurisdiction	-11.9316
▁laundry	-11.9316
▁lugovoi	-11.9316
▁machimura	-11.9316
▁meshaal	-11.9316
▁montgomery	-11.9316
▁mourinho	-11.9316
▁negligence	-11.9316
▁obesity	-11.9316
▁odyssey	-11.9316
▁peruvian	-11.9316
▁pneumonia	-11.9316
▁possibilities	-11.9316
▁ritchie	-11.9316
▁roosevelt	-11.9316
▁salvador	-11.9316
▁scientology	-11.9316
▁seinfeld	-11.9316
▁spencer	-11.9316
▁tebow	-11.9316
▁thieves	-11.9316
▁trezeguet	-11.9316
▁authoritarian	-11.9316
▁zurich	-11.9316
▁corrupt	-11.9316
▁erotic	-11.9316
▁kookmin	-11.9316
▁nashville	-11.9316
▁khalaf	-11.9316
▁shandong	-11.9316
▁lampard	-11.9316
▁ramallah	-11.9316
▁reluctance	-11.9316
▁supermodel	-11.9316
▁rainforest	-11.9316
▁titanic	-11.9316
▁vacant	-11.9316
▁benoit	-11.9316
▁indecent	-11.9316
▁sanitation	-11.9316
▁dengue	-11.9316
▁liberties	-11.9316
▁gallup	-11.9316
▁valentine	-11.9316
▁prague	-11.9316
▁specter	-11.9316
▁blanchett	-11.9316
▁florence	-11.9316
▁emmanuel	-11.9316
▁longoria	-11.9316
▁refineries	-11.9316
▁volley	-11.9316
▁mirren	-11.9316
▁muhammad	-11.9316
▁cyberspace	-11.9316
▁katie	-11.9316
▁intercourse	-11.9316
▁freud	-11.9316
▁dupre	-11.9316
▁ceasefire	-11.9316
▁unsafe	-11.9316
▁uncommon	-11.9316
▁anchorage	-11.9316
▁sadness	-11.9317
▁unnecessary	-11.9317
▁normalization	-11.9317
▁livestock	-11.9317
▁yoga	-11.9317
▁clarify	-11.9317
▁crazy	-11.9317
▁giggs	-11.9317
▁gilbert	-11.9317
▁ideological	-11.9317
▁equalizer	-11.9317
▁fatality	-11.9317
▁hungary	-11.9318
▁altogether	-11.9318
▁telegraph	-11.9318
▁hostility	-11.9318
▁lahim	-11.9318
▁greenback	-11.9318
▁buffett	-11.9318
▁plaza	-11.9318
▁plen	-11.9318
▁julio	-11.9318
▁motel	-11.9318
▁wolong	-11.9318
ving	-11.9318
▁rendition	-11.9319
▁eastwood	-11.9319
▁reviv	-11.9319
▁keane	-11.9319
▁physicist	-11.9319
▁imam	-11.9319
▁scorched	-11.932
▁stevens	-11.932
▁impasse	-11.932
▁skinny	-11.932
▁hogan	-11.932
▁exercising	-11.9321
▁steelers	-11.9321
▁contention	-11.9321
▁heartland	-11.9321
▁reflection	-11.9321
▁pickup	-11.9321
▁shootout	-11.9321
▁adaptation	-11.9322
▁everton	-11.9323
cc	-11.9323
▁pork	-11.9323
▁adjourned	-11.9323
▁globo	-11.9324
▁phrase	-11.9324
▁kbs	-11.9324
▁maru	-11.9325
▁looting	-11.9326
▁succession	-11.9327
▁kuznetsova	-11.9328
▁floodwaters	-11.9329
▁glenn	-11.9329
▁spaceship	-11.9329
▁firearms	-11.933
▁interrupted	-11.933
▁instability	-11.933
misunderstanding	-11.933
▁libi	-11.9331
▁chemistry	-11.9333
▁reservations	-11.9333
▁centimeters	-11.9334
▁wrestler	-11.9334
▁kwan	-11.9334
▁drum	-11.9334
▁baptist	-11.9334
▁swallowing	-11.9335
▁ignited	-11.9336
▁zoe	-11.9336
▁lodged	-11.9336
▁jihadist	-11.9336
▁thrilled	-11.9336
▁skies	-11.9337
▁intensifying	-11.9339
▁wise	-11.9339
▁insistence	-11.934
nants	-11.934
▁scrapped	-11.9341
▁warheads	-11.9341
▁catastrophe	-11.9341
▁cream	-11.9342
▁dresses	-11.9342
emptive	-11.9342
▁finalists	-11.9342
▁carlo	-11.9343
▁mansfield	-11.9343
▁constructed	-11.9343
▁janet	-11.9344
▁youngsters	-11.9345
▁bulletin	-11.9347
▁conscious	-11.9347
▁dipped	-11.9347
▁disagreed	-11.9348
▁cosmonauts	-11.9349
▁boards	-11.935
▁iii	-11.935
▁surpassed	-11.935
▁crane	-11.9351
▁jamaican	-11.9355
▁deepening	-11.9357
▁altered	-11.9357
▁analyzed	-11.9358
▁restrain	-11.936
ico	-11.9363
▁competitors	-11.9363
▁tattoos	-11.9366
▁slashing	-11.9367
▁marco	-11.9367
▁dear	-11.9367
▁firefight	-11.9368
▁vegetables	-11.9369
▁warships	-11.937
▁melting	-11.9375
▁casual	-11.9375
▁publishing	-11.9376
are	-11.9378
▁deby	-11.938
errill	-11.938
iest	-11.9382
▁conductor	-11.9385
▁consolidate	-11.9388
▁bishops	-11.9389
▁samba	-11.9391
▁reversed	-11.9391
pi	-11.9398
▁propos	-11.94
▁regulate	-11.9401
▁positively	-11.9402
▁zhu	-11.9407
▁hom	-11.9408
▁europeans	-11.9411
▁stump	-11.9415
▁forgotten	-11.9415
▁cds	-11.9416
▁healing	-11.9419
▁deter	-11.9419
▁punished	-11.9419
▁canoe	-11.9422
▁bankers	-11.9423
▁counseling	-11.9425
▁deserted	-11.943
▁takers	-11.9433
▁offset	-11.9434
▁enthusiastic	-11.9434
▁invention	-11.9435
▁fingers	-11.9439
▁watches	-11.9439
loyd	-11.9447
▁hy	-11.9447
bye	-11.9447
▁skidd	-11.9447
▁yass	-11.9448
▁circles	-11.9451
san	-11.9456
▁downloads	-11.9459
▁partnerships	-11.946
▁lesson	-11.9462
▁blogs	-11.9468
▁goers	-11.9468
▁von	-11.9469
▁peers	-11.9475
▁thigh	-11.9476
▁occasions	-11.9477
▁ir	-11.9487
ji	-11.9494
▁kg	-11.9499
▁hal	-11.9499
▁jungles	-11.9502
court	-11.9503
▁shells	-11.9504
▁gardens	-11.9512
▁bent	-11.952
▁nava	-11.9528
▁claudi	-11.953
▁scrapp	-11.9534
▁squeez	-11.9534
▁cubans	-11.9539
▁heal	-11.9543
▁continents	-11.9545
zi	-11.9547
▁pleas	-11.9548
▁val	-11.9553
▁rage	-11.9563
▁lied	-11.9568
▁mcc	-11.9573
▁institutes	-11.9573
▁newman	-11.9573
▁blazes	-11.9574
▁acclaim	-11.9574
▁intentions	-11.9594
▁moss	-11.9603
planes	-11.9605
▁abnormal	-11.9607
ern	-11.9609
head	-11.9621
▁stan	-11.9628
▁writes	-11.9639
▁brun	-11.9639
▁downer	-11.9641
▁suppressi	-11.9649
▁mel	-11.9653
▁clutch	-11.9655
ze	-11.9667
▁exert	-11.9673
place	-11.9691
around	-11.9701
▁dive	-11.9704
▁preside	-11.9708
va	-11.9713
ok	-11.9719
afa	-11.9732
▁foment	-11.9734
cked	-11.9736
satisfaction	-11.9739
tis	-11.9744
▁lawsuits	-11.9745
▁underline	-11.975
aki	-11.9751
▁norm	-11.9751
▁wrestl	-11.9756
▁pot	-11.9761
▁poise	-11.9766
▁clan	-11.9769
▁biting	-11.9771
q	-11.9772
▁frantic	-11.9773
▁sc	-11.9776
▁marin	-11.9778
▁arrang	-11.9786
▁ports	-11.9786
▁shunn	-11.9787
aah	-11.9805
▁zi	-11.9808
▁bl	-11.981
▁rash	-11.9812
▁coaster	-11.9816
oval	-11.9817
lled	-11.9841
▁resurgen	-11.986
els	-11.9863
ize	-11.9874
jiang	-11.9881
▁grows	-11.9888
▁apologiz	-11.9893
▁disguise	-11.99
▁yasu	-11.99
▁distinct	-11.9905
▁pushe	-11.9907
▁peel	-11.9908
▁seminar	-11.991
▁assum	-11.9912
▁lava	-11.9915
▁webb	-11.9917
▁advanc	-11.992
▁dish	-11.992
▁pri	-11.9938
▁rocker	-11.9938
▁styles	-11.9941
▁saves	-11.9948
unt	-11.9951
▁petrol	-11.9954
▁bucking	-11.9966
eb	-11.9972
▁pub	-11.9975
▁fou	-11.9977
▁behaviors	-11.9978
sef	-11.9978
▁trapp	-11.9984
state	-11.9986
▁disciplin	-11.9987
▁eagle	-11.9994
▁patriot	-11.9994
▁py	-11.9995
▁crashing	-12.0001
▁resting	-12.0004
▁deterrent	-12.0008
▁faa	-12.0009
▁humpback	-12.0011
▁rhythm	-12.0012
▁matchup	-12.0013
▁confession	-12.0016
▁cancellation	-12.0016
▁console	-12.0016
▁composer	-12.0017
▁ipod	-12.0017
▁obstacle	-12.0017
▁interaction	-12.0018
▁disagreement	-12.0018
▁precedent	-12.002
▁archaeologist	-12.002
▁donkey	-12.002
▁bor	-12.0021
▁scratch	-12.0023
▁waterway	-12.0024
laying	-12.0025
▁collar	-12.0025
▁briton	-12.0026
▁volcani	-12.0027
▁freight	-12.0029
▁closet	-12.0034
▁planner	-12.0035
lets	-12.0041
▁versa	-12.0043
▁partisan	-12.0045
▁reef	-12.0047
▁catastroph	-12.0057
▁cle	-12.0061
▁contractor	-12.0062
▁defuse	-12.0063
▁concentrate	-12.0065
▁lodge	-12.0071
▁emphasi	-12.0072
▁shall	-12.0079
ties	-12.0079
▁harris	-12.0084
▁aggregate	-12.0085
▁algiers	-12.0085
▁almeida	-12.0085
▁autumn	-12.0085
▁berlusconi	-12.0085
▁biblical	-12.0085
▁ceremonial	-12.0085
▁copenhagen	-12.0085
▁dormitory	-12.0085
▁elegant	-12.0085
▁galaxies	-12.0085
▁legitimacy	-12.0085
▁salaheddin	-12.0085
▁scowcroft	-12.0085
▁sulawesi	-12.0085
▁tarmac	-12.0085
▁tottenham	-12.0085
▁ultimatum	-12.0085
▁upheaval	-12.0085
▁bodlander	-12.0085
▁chengdu	-12.0085
▁ebola	-12.0085
▁harlem	-12.0085
▁medieval	-12.0085
▁onlookers	-12.0085
▁polanski	-12.0085
▁savvy	-12.0085
▁scooter	-12.0085
▁voyage	-12.0085
▁loneliness	-12.0085
▁presumably	-12.0085
▁villarosa	-12.0085
▁adolf	-12.0085
▁columbine	-12.0085
▁iucn	-12.0085
▁viagra	-12.0085
▁daewoo	-12.0085
▁gansu	-12.0085
▁shrek	-12.0085
▁tribune	-12.0085
▁mehsud	-12.0085
▁visibility	-12.0085
▁neglect	-12.0085
▁hanoi	-12.0085
▁erakat	-12.0085
▁bimbo	-12.0085
▁authenticity	-12.0085
▁burrell	-12.0085
▁resemblance	-12.0085
▁congratulations	-12.0085
▁mixture	-12.0085
▁vague	-12.0085
▁leopard	-12.0085
▁sindh	-12.0085
▁mansour	-12.0085
▁delaware	-12.0085
▁ramadi	-12.0085
▁enrollment	-12.0085
▁hazardous	-12.0085
▁circulation	-12.0085
▁snowfall	-12.0085
▁ghazi	-12.0085
▁ladies	-12.0085
▁rctv	-12.0085
▁identical	-12.0086
▁homosexuality	-12.0086
▁ecosystem	-12.0086
▁barroso	-12.0086
▁goldberg	-12.0086
▁martinez	-12.0086
▁meghani	-12.0086
▁wwf	-12.0086
▁anglican	-12.0086
▁liquor	-12.0086
▁dodgers	-12.0086
▁philosophy	-12.0086
▁grocer	-12.0086
▁backdrop	-12.0086
▁brink	-12.0087
▁sanctuary	-12.0087
▁disneyland	-12.0087
▁coerced	-12.0087
▁charleston	-12.0087
▁recycled	-12.0088
▁abdomen	-12.0088
▁jalal	-12.0088
▁schoolchildren	-12.0088
▁insufficient	-12.0088
▁shotgun	-12.0088
▁collaborators	-12.0088
▁ginger	-12.0088
▁reshuffle	-12.0089
▁affection	-12.0089
▁quinn	-12.0089
▁inventory	-12.0089
▁marble	-12.0089
▁embroi	-12.009
▁bachelor	-12.009
▁decorated	-12.009
▁forestry	-12.0091
▁conceived	-12.0091
▁altitude	-12.0091
▁kennel	-12.0092
▁heroic	-12.0092
▁messaging	-12.0093
▁perched	-12.0093
▁bystanders	-12.0094
▁looted	-12.0094
▁bulldozer	-12.0095
▁hunan	-12.0096
▁hallway	-12.0096
▁ounces	-12.0097
▁arthritis	-12.0097
▁analog	-12.0098
▁emory	-12.0098
▁choking	-12.0098
▁harrell	-12.0098
▁prohibition	-12.0098
▁letterman	-12.0098
▁shaky	-12.0098
▁allocated	-12.0099
▁widened	-12.0099
▁sculptures	-12.0099
▁roadblocks	-12.0099
confirmed	-12.0099
▁diminished	-12.01
▁hiking	-12.01
▁flies	-12.0102
▁chef	-12.0102
▁dogged	-12.0102
▁batons	-12.0103
▁salute	-12.0104
▁derailed	-12.0105
▁reptile	-12.0107
▁assembled	-12.0109
▁pricing	-12.0109
▁misleading	-12.011
▁eliminat	-12.0111
▁brakes	-12.0111
▁concealed	-12.0112
▁realistic	-12.0114
▁puerta	-12.0115
▁clara	-12.0115
▁businessmen	-12.0116
▁startup	-12.0116
▁aggressively	-12.0116
▁avert	-12.0117
▁policymakers	-12.0117
▁substantially	-12.0118
▁lawless	-12.0119
▁martyrs	-12.0119
▁edited	-12.0119
▁expired	-12.0119
▁adjusted	-12.012
▁biofuels	-12.0121
▁qin	-12.0121
▁smiled	-12.0121
▁qui	-12.0121
▁millionaire	-12.0122
▁workshop	-12.0122
hu	-12.0122
▁discard	-12.0123
nian	-12.0126
▁headaches	-12.0127
▁crist	-12.0127
▁laborers	-12.0128
▁hillside	-12.0129
fraction	-12.013
▁updated	-12.013
▁reopened	-12.0132
▁summons	-12.0133
▁intentional	-12.0133
▁kay	-12.0134
▁insight	-12.0134
▁interviewer	-12.0136
▁undermin	-12.0137
▁traveler	-12.0138
▁disappearing	-12.0138
▁finalized	-12.0139
▁presum	-12.014
naissance	-12.0143
▁lashes	-12.0143
▁tightening	-12.0143
▁perfectly	-12.0146
▁oak	-12.0146
▁prob	-12.0146
▁gadgets	-12.0148
▁feminin	-12.0149
▁nationality	-12.0149
▁valid	-12.015
▁shout	-12.0151
▁drums	-12.0157
▁hae	-12.0157
▁doha	-12.0157
▁enhanced	-12.0158
▁fuels	-12.0162
▁seekers	-12.0164
ow	-12.0164
▁myers	-12.0166
▁alarmed	-12.0169
▁blitz	-12.0169
▁recon	-12.0187
▁hon	-12.019
▁jeffs	-12.0195
▁execute	-12.02
▁authorize	-12.0203
▁nabi	-12.0206
▁coward	-12.0213
▁ec	-12.0213
▁wished	-12.0215
▁canister	-12.0222
▁maps	-12.0229
▁biologists	-12.023
▁cracking	-12.0233
▁cliff	-12.0237
▁stark	-12.0238
▁permits	-12.024
▁origins	-12.0241
▁lego	-12.0242
▁sail	-12.0243
▁skiing	-12.0245
▁vacationing	-12.0246
▁ti	-12.0249
▁irritat	-12.0251
▁invested	-12.0252
▁noel	-12.0253
gang	-12.0257
▁similarly	-12.0257
▁yun	-12.0259
lla	-12.0262
▁poster	-12.027
▁administer	-12.0274
▁predicts	-12.0276
▁cleaned	-12.0277
▁unhapp	-12.0288
▁tossed	-12.0295
▁ump	-12.0297
▁bra	-12.0299
opted	-12.0303
▁opener	-12.0304
▁bel	-12.0305
▁repairs	-12.0305
▁abortions	-12.0307
▁controller	-12.0317
▁ripple	-12.0317
▁tal	-12.0318
▁meal	-12.0322
▁closes	-12.0325
▁graduates	-12.0325
▁industrializ	-12.033
▁ridge	-12.0332
▁shau	-12.0332
▁trends	-12.0334
▁lynd	-12.0336
▁kent	-12.0341
▁egg	-12.0342
▁rejects	-12.0351
▁condemns	-12.0356
▁wonders	-12.0362
▁pur	-12.0367
▁op	-12.0367
▁broadcasters	-12.037
▁uni	-12.0374
min	-12.0375
▁continu	-12.0379
▁settlements	-12.0385
▁downgrade	-12.039
nell	-12.0391
ward	-12.0394
▁gag	-12.0396
▁sto	-12.0413
light	-12.0415
tel	-12.0423
▁lan	-12.0426
▁affiliates	-12.0429
che	-12.0429
▁vera	-12.0434
▁hook	-12.0435
▁figured	-12.0438
▁periods	-12.0443
▁traditions	-12.0444
ua	-12.0445
▁paramilitar	-12.045
tive	-12.0456
▁directions	-12.0462
row	-12.0467
provoked	-12.0469
▁grove	-12.0471
▁stored	-12.0482
▁xi	-12.0493
▁abn	-12.0501
nzo	-12.0507
▁cate	-12.0509
liffe	-12.051
▁treats	-12.0514
ayman	-12.0515
▁defy	-12.0538
▁locally	-12.0539
ita	-12.0539
▁syndicate	-12.0545
▁usage	-12.0553
▁enhanc	-12.0564
▁inform	-12.0577
bbie	-12.0579
▁taj	-12.0588
▁bite	-12.0591
▁plots	-12.0594
▁kha	-12.0601
▁reap	-12.0603
▁dwindl	-12.0606
▁flip	-12.061
ibly	-12.0615
▁peta	-12.0618
tech	-12.0619
▁protects	-12.0623
▁simulate	-12.0627
▁tone	-12.0628
hmer	-12.0638
ball	-12.0641
lley	-12.0653
silicon	-12.0655
so	-12.0656
▁jab	-12.0658
trust	-12.0659
▁pie	-12.0661
wn	-12.0663
▁fr	-12.0675
ira	-12.0688
▁govern	-12.0695
▁fift	-12.0697
kat	-12.0713
▁disarm	-12.072
▁slice	-12.0729
▁rises	-12.0734
▁slash	-12.0734
▁commenting	-12.0735
▁resorts	-12.0735
▁tangib	-12.0735
▁chill	-12.0738
▁urges	-12.074
▁fax	-12.0749
cent	-12.075
▁infect	-12.075
▁murd	-12.0766
▁stirr	-12.0779
▁beg	-12.0779
▁summers	-12.0785
▁insult	-12.0785
topped	-12.0787
▁mill	-12.0788
▁uphold	-12.0788
▁assaults	-12.079
▁recogniz	-12.079
▁stroll	-12.0804
▁kenne	-12.0805
hr	-12.0808
▁worship	-12.0808
▁deadlines	-12.0812
▁stockpile	-12.082
▁infiltrate	-12.082
▁incomes	-12.0828
western	-12.0829
▁imagination	-12.0833
▁expulsion	-12.0834
▁cart	-12.0834
▁superstar	-12.0834
▁racist	-12.0834
▁hoop	-12.0836
▁mat	-12.0837
▁cling	-12.0837
▁nightmare	-12.0837
▁seon	-12.084
▁orphanage	-12.0841
▁farmland	-12.0842
▁textile	-12.0845
▁barricade	-12.0849
▁miserable	-12.0849
chai	-12.0849
soon	-12.0849
▁gadget	-12.085
▁relie	-12.0851
▁aisle	-12.0851
▁slogan	-12.0851
▁rental	-12.0851
▁arrangement	-12.0852
▁rhino	-12.0853
▁carmaker	-12.0855
▁poison	-12.0856
▁ordinari	-12.0858
▁injection	-12.0858
▁publicize	-12.0858
▁timely	-12.086
▁dynamic	-12.086
▁dragon	-12.0866
▁specify	-12.0867
▁wan	-12.0871
▁costume	-12.0876
▁flavor	-12.0877
floated	-12.0879
▁mechanic	-12.088
▁exporter	-12.0884
bert	-12.0886
▁impeach	-12.0888
▁beard	-12.0889
▁plummet	-12.089
▁brook	-12.089
▁lithuania	-12.0891
▁confess	-12.0892
▁ferrer	-12.0892
▁relieve	-12.0893
lain	-12.0895
▁evaluate	-12.0896
▁allan	-12.0897
▁albania	-12.0897
▁panels	-12.0898
▁cubic	-12.0898
▁ev	-12.0901
▁kuznetsov	-12.0904
▁emphasize	-12.0907
▁invade	-12.0908
▁unconditional	-12.0909
▁hutchins	-12.091
▁topple	-12.0911
▁bernie	-12.0914
▁devi	-12.0916
▁hajj	-12.0918
harmonic	-12.0918
▁cockpit	-12.0918
▁rockefeller	-12.0918
▁abolition	-12.0918
▁alejandr	-12.0918
▁awkward	-12.0918
▁carnival	-12.0918
▁cheetah	-12.0918
▁daschle	-12.0918
▁devastation	-12.0918
▁enclave	-12.0918
▁fletcher	-12.0918
▁grylls	-12.0918
▁irrawaddy	-12.0918
▁juventu	-12.0918
▁madagascar	-12.0918
▁malnutrition	-12.0918
▁marseille	-12.0918
▁memorandum	-12.0918
▁mubarak	-12.0918
▁ohmynews	-12.0918
▁paleontologist	-12.0918
▁pavilion	-12.0918
▁peshawar	-12.0918
▁sullivan	-12.0918
▁tariq	-12.0918
▁trinidad	-12.0918
▁unhcr	-12.0918
▁wachovia	-12.0918
▁zvonareva	-12.0918
▁bollea	-12.0918
▁caldwell	-12.0918
▁vwp	-12.0918
▁deterioration	-12.0918
▁karrada	-12.0918
▁misconduct	-12.0918
▁thymus	-12.0918
▁zaidi	-12.0918
▁discontent	-12.0918
▁leisure	-12.0918
▁namibia	-12.0918
▁bamboo	-12.0918
▁hackett	-12.0918
▁omaha	-12.0918
▁samphan	-12.0918
▁swayze	-12.0918
▁duncan	-12.0918
▁superjumbo	-12.0918
▁context	-12.0918
▁raymond	-12.0918
▁morici	-12.0918
▁harassment	-12.0918
▁frigid	-12.0918
▁specimen	-12.0918
▁stuart	-12.0919
▁confinement	-12.0919
▁mismanagement	-12.0919
▁rainfall	-12.0919
▁sheehan	-12.0919
▁infringement	-12.0919
▁expectancy	-12.0919
eutic	-12.0919
▁strategies	-12.0919
▁puppy	-12.0919
▁unavoidable	-12.0919
▁whitmore	-12.0919
▁brawl	-12.0919
▁dublin	-12.0919
▁burris	-12.0919
▁appreciation	-12.0919
▁bradley	-12.0919
▁whitson	-12.0919
▁unhurt	-12.0919
▁adidas	-12.0919
▁liberalization	-12.0919
▁stockholm	-12.0919
▁colonies	-12.0919
▁batman	-12.0919
▁franklin	-12.0919
▁namdaemun	-12.0919
▁crouch	-12.0919
▁flattened	-12.0919
▁muddy	-12.092
▁dismal	-12.092
▁freshwater	-12.092
▁foremost	-12.092
▁eduardo	-12.092
▁consolidation	-12.092
▁journalism	-12.092
▁ayres	-12.092
▁connor	-12.092
▁tevez	-12.092
▁clipper	-12.092
▁forehand	-12.092
▁thriving	-12.0921
shan	-12.0921
▁gym	-12.0921
▁connery	-12.0921
▁marcus	-12.0921
▁unarmed	-12.0921
▁posco	-12.0921
▁glory	-12.0921
▁munitions	-12.0922
▁delinquents	-12.0922
▁enlist	-12.0922
▁troubling	-12.0922
▁columnist	-12.0922
▁calculations	-12.0922
▁revival	-12.0922
▁militiamen	-12.0922
▁reeling	-12.0923
▁iwc	-12.0923
▁philippe	-12.0923
▁hopkin	-12.0923
▁correa	-12.0923
▁archaeologi	-12.0924
▁suitcase	-12.0924
▁airspace	-12.0924
▁fabrication	-12.0924
▁architecture	-12.0924
▁straw	-12.0924
▁inevitable	-12.0925
▁ricard	-12.0925
▁qualification	-12.0926
▁flawed	-12.0926
▁roared	-12.0927
▁perpetrators	-12.0928
▁splitting	-12.0928
▁palestine	-12.0929
▁sushi	-12.0929
▁accelerating	-12.093
▁durable	-12.093
▁cesar	-12.093
▁honey	-12.0931
▁tuning	-12.0931
▁scary	-12.0931
rous	-12.0932
▁underwater	-12.0932
▁mosques	-12.0932
▁mario	-12.0933
▁plight	-12.0933
arly	-12.0933
▁clint	-12.0933
▁orphans	-12.0934
▁tornadoes	-12.0934
▁mercy	-12.0934
▁randomly	-12.0934
▁exhausted	-12.0935
▁flaws	-12.0937
▁sniper	-12.0937
▁arlington	-12.0938
▁centrifuges	-12.0939
▁depiction	-12.094
▁marshall	-12.094
▁urine	-12.0941
▁reinstated	-12.0942
▁preview	-12.0942
▁bias	-12.0943
▁periodic	-12.0944
▁som	-12.0944
▁skeptical	-12.0946
▁dimensional	-12.0948
▁asleep	-12.0949
▁receiver	-12.0949
▁overhead	-12.095
▁meyer	-12.0951
▁brady	-12.0951
▁ailments	-12.0951
▁intercepted	-12.0953
▁electorate	-12.0954
▁helmets	-12.0957
▁technicians	-12.0957
▁attendants	-12.0958
▁desirable	-12.0958
▁poisoning	-12.0959
▁candy	-12.096
▁windsor	-12.096
▁plumes	-12.0963
▁slopes	-12.0963
▁calories	-12.0963
▁compatible	-12.0964
▁borrowing	-12.0964
▁seller	-12.0965
▁hackers	-12.0967
▁embarrassed	-12.0968
▁outages	-12.097
▁zhe	-12.0971
▁instructions	-12.0972
▁owe	-12.0974
▁pharmaceuticals	-12.0975
▁wary	-12.0977
▁booster	-12.0977
▁leno	-12.0978
▁nova	-12.0979
▁oliver	-12.098
▁generators	-12.098
▁decreased	-12.0981
▁encountered	-12.0981
▁shatter	-12.0981
▁influen	-12.0982
▁marchers	-12.0983
▁permanently	-12.0984
▁deflect	-12.0984
▁brooks	-12.0984
▁yeon	-12.0987
▁discipline	-12.0988
▁por	-12.0991
▁saints	-12.0991
▁donkeys	-12.0993
▁nowhere	-12.0995
▁insults	-12.0996
▁jeon	-12.0999
▁insulting	-12.0999
uk	-12.1002
▁sellers	-12.1004
▁fulfilled	-12.1004
▁segments	-12.1005
hieu	-12.1006
taka	-12.1006
▁mediators	-12.1006
▁indexes	-12.1009
▁jokes	-12.1011
▁posters	-12.1016
▁oman	-12.1022
▁alleges	-12.1022
▁rout	-12.1023
▁tumbling	-12.1023
▁tu	-12.1025
ula	-12.1027
hood	-12.1028
▁temper	-12.1031
▁listing	-12.1032
▁physicians	-12.1035
▁infiltrat	-12.1036
▁vent	-12.1036
▁colorful	-12.1037
▁assertions	-12.1041
▁accomplish	-12.1041
▁fences	-12.1042
▁objected	-12.1042
▁eaten	-12.1046
▁hindus	-12.1047
▁reinstate	-12.1048
▁lame	-12.1048
▁peek	-12.1048
▁programme	-12.1049
▁unify	-12.1056
▁sup	-12.1056
▁expenses	-12.1056
▁rovers	-12.1057
▁objectives	-12.1057
▁downward	-12.1059
▁colleges	-12.1064
▁encounters	-12.1066
▁archive	-12.1067
▁tide	-12.1074
▁patent	-12.1075
▁construct	-12.1075
▁heroin	-12.1076
▁mediate	-12.1079
▁indicator	-12.1079
▁hunted	-12.1086
▁chickens	-12.1089
▁therap	-12.1089
▁lords	-12.1091
▁skulls	-12.1094
▁airplanes	-12.1097
dependence	-12.1097
ison	-12.1099
▁publishers	-12.11
▁shipp	-12.11
▁champ	-12.1103
▁dose	-12.1105
▁predecessors	-12.1107
▁joan	-12.1108
▁narrowed	-12.1113
▁relate	-12.1113
▁menus	-12.1118
tion	-12.1121
▁cardi	-12.1124
▁solved	-12.1127
▁ruin	-12.1128
▁nuts	-12.1132
▁reli	-12.1133
▁medi	-12.1137
▁guides	-12.1137
stra	-12.1141
▁comprise	-12.1141
▁exception	-12.1145
▁kicking	-12.1146
▁gabriel	-12.1149
▁concepts	-12.1149
▁translate	-12.1152
▁bong	-12.1157
▁pale	-12.1157
▁gro	-12.1158
shi	-12.1159
▁orchestrat	-12.1161
▁moms	-12.1162
▁notion	-12.1164
▁differently	-12.1169
▁tel	-12.1173
ique	-12.1179
▁thorn	-12.1181
ik	-12.1182
▁blend	-12.1185
▁fathers	-12.1186
▁fey	-12.119
▁normaliz	-12.1199
▁carolin	-12.12
▁stiff	-12.1202
▁bike	-12.1203
▁rods	-12.1205
▁qua	-12.1209
▁pumps	-12.1212
▁attitudes	-12.1215
▁drawings	-12.1217
▁gam	-12.1223
▁cl	-12.1224
▁tha	-12.1226
▁tales	-12.1227
undance	-12.1227
▁sexy	-12.1228
▁approves	-12.1229
▁hwa	-12.123
▁suite	-12.1232
▁kare	-12.1235
▁futurist	-12.1237
▁porter	-12.1239
▁aeros	-12.124
sized	-12.1243
▁nights	-12.1246
▁appointments	-12.1256
▁um	-12.126
ferred	-12.1266
▁flowing	-12.1271
asha	-12.1272
▁groom	-12.1273
▁worm	-12.1274
▁shower	-12.1279
ls	-12.1279
▁scramble	-12.1281
▁boil	-12.1283
media	-12.1286
ere	-12.1289
▁collections	-12.129
▁duran	-12.129
pplies	-12.1292
▁explains	-12.1298
▁skill	-12.1298
▁persi	-12.1299
▁shank	-12.1302
▁cement	-12.1309
▁gaps	-12.1316
▁intimate	-12.1321
▁ambassadors	-12.1322
▁processor	-12.1329
types	-12.1331
▁knees	-12.1333
▁inning	-12.1336
uted	-12.1343
▁africans	-12.135
▁candle	-12.1357
▁covert	-12.1359
▁memo	-12.136
▁thrive	-12.136
▁rattle	-12.1368
anked	-12.1368
▁foes	-12.1373
▁georgian	-12.1375
▁clerics	-12.1386
▁rafi	-12.1388
▁revere	-12.1389
▁unfit	-12.139
▁arrives	-12.139
af	-12.1393
▁dash	-12.1397
▁maca	-12.1401
ee	-12.1402
▁sands	-12.1405
▁psychiatri	-12.1409
▁deplor	-12.141
▁flush	-12.1416
ians	-12.1419
▁tasks	-12.1427
▁cam	-12.1428
▁sparks	-12.1436
mmering	-12.144
▁mistaken	-12.1446
▁wie	-12.1449
▁shifts	-12.1449
dong	-12.1455
bi	-12.1455
▁veer	-12.1464
▁examples	-12.1469
▁upward	-12.1471
▁domini	-12.1483
▁pi	-12.1492
▁bash	-12.1498
shin	-12.1499
evolutionary	-12.1501
▁simpsons	-12.1511
▁wears	-12.1515
▁eun	-12.1518
▁candid	-12.1519
▁touring	-12.1525
zio	-12.1533
specifi	-12.1534
▁cu	-12.1537
▁pav	-12.154
▁surprises	-12.1541
▁reactions	-12.1542
league	-12.1548
▁conventions	-12.1563
▁adventures	-12.1564
▁blackmail	-12.1576
▁dot	-12.158
▁foundations	-12.158
▁mock	-12.158
cau	-12.1582
▁cater	-12.1586
▁barb	-12.1593
risen	-12.1594
▁exclud	-12.1596
llied	-12.1599
▁pas	-12.1601
▁overturn	-12.1606
pr	-12.1612
▁prescrib	-12.1614
▁sake	-12.1615
ves	-12.162
grown	-12.1624
wearing	-12.1628
▁crest	-12.1634
sing	-12.1636
use	-12.1644
▁trap	-12.1645
▁cups	-12.1645
structed	-12.1651
continent	-12.1654
▁singers	-12.1657
▁suppress	-12.167
▁generat	-12.168
▁er	-12.1688
▁manufacture	-12.1708
ego	-12.1723
▁replica	-12.173
▁hatch	-12.1741
▁upgrade	-12.1743
▁interpretation	-12.175
▁preference	-12.175
▁manual	-12.1751
▁hitt	-12.1753
▁emotion	-12.1753
ating	-12.1753
▁memoir	-12.1754
▁provocation	-12.1755
▁battlefield	-12.1755
▁heavyweight	-12.1756
▁filipino	-12.1756
▁safeguard	-12.1756
▁supermarket	-12.1758
▁magistrate	-12.1759
▁vegetable	-12.1759
▁sibling	-12.176
▁textbook	-12.176
gan	-12.1761
▁prostitute	-12.1761
▁freeway	-12.1762
▁prediction	-12.1763
▁generator	-12.1763
▁nerve	-12.1763
▁restriction	-12.1764
▁checkup	-12.1764
▁ripp	-12.1764
▁quakes	-12.1765
▁playoff	-12.1765
▁mineral	-12.1766
▁ste	-12.1767
▁flank	-12.1768
▁enforc	-12.1768
▁athlete	-12.1771
▁warship	-12.1772
▁jewel	-12.1773
▁offender	-12.1773
▁employer	-12.1774
▁cannon	-12.1775
oli	-12.1776
▁persuad	-12.1777
▁overflow	-12.1778
▁assignment	-12.1784
▁shrink	-12.1788
▁overtake	-12.1788
▁abdom	-12.179
▁disturb	-12.1795
▁nail	-12.1796
mega	-12.1796
▁convict	-12.1799
▁inflict	-12.1799
▁compensate	-12.1808
▁humane	-12.1809
▁intra	-12.1812
▁chungchon	-12.1817
rei	-12.1817
▁isolate	-12.1818
▁unanimous	-12.1819
▁greg	-12.1821
▁mosquito	-12.1822
▁rahm	-12.1823
▁naha	-12.1826
▁sporadic	-12.1826
qtada	-12.1827
▁kazakh	-12.1827
▁aluminum	-12.1827
▁animosity	-12.1827
▁appetite	-12.1827
▁ballesteros	-12.1827
▁berezovsky	-12.1827
▁bhumibol	-12.1827
▁chihuahua	-12.1827
▁diwaniya	-12.1827
▁djamena	-12.1827
▁fayyad	-12.1827
▁fowler	-12.1827
▁fundraiser	-12.1827
▁gadhafi	-12.1827
▁gutierrez	-12.1827
▁innovative	-12.1827
▁jeopardy	-12.1827
▁jetliner	-12.1827
▁larijani	-12.1827
▁mantovani	-12.1827
▁mcclaren	-12.1827
▁moratorium	-12.1827
▁nargis	-12.1827
▁niigata	-12.1827
▁riyadh	-12.1827
▁rspb	-12.1827
▁rubaie	-12.1827
▁souvenir	-12.1827
▁srebrenica	-12.1827
▁steadfast	-12.1827
▁whatsoever	-12.1827
▁yangtze	-12.1827
▁yogyakarta	-12.1827
▁disqualified	-12.1827
▁divisive	-12.1827
▁icahn	-12.1827
▁petrochemical	-12.1827
▁rajasthan	-12.1827
▁staggering	-12.1827
▁advocacy	-12.1827
▁dawson	-12.1827
▁hoffman	-12.1827
▁melanoma	-12.1827
▁najaf	-12.1827
▁sderot	-12.1827
▁tanzania	-12.1827
▁fraudulent	-12.1827
▁lexicon	-12.1827
▁mafia	-12.1827
▁ericsson	-12.1827
▁lisbon	-12.1827
▁malignant	-12.1827
▁audiotape	-12.1827
▁balcony	-12.1827
▁ontario	-12.1827
▁disregard	-12.1827
▁rachel	-12.1827
▁jessica	-12.1827
▁loophole	-12.1827
▁montreal	-12.1827
▁goddess	-12.1827
▁knives	-12.1827
▁paterson	-12.1827
▁unemployed	-12.1827
▁xbox	-12.1827
▁camilla	-12.1827
▁dreamworks	-12.1827
▁krugman	-12.1828
▁pessimistic	-12.1828
▁quantum	-12.1828
▁alitalia	-12.1828
▁biometric	-12.1828
▁norfolk	-12.1828
▁hiatus	-12.1828
▁groundbreaking	-12.1828
▁comfortably	-12.1828
▁paradise	-12.1828
▁racism	-12.1828
▁opium	-12.1828
▁patriotism	-12.1828
▁obese	-12.1828
▁deceased	-12.1828
▁unstable	-12.1828
▁peggy	-12.1828
▁ramadan	-12.1828
▁dillon	-12.1828
▁zuma	-12.1828
▁cruelty	-12.1828
▁richmond	-12.1828
▁rushdie	-12.1828
▁unbelievable	-12.1828
▁flexibility	-12.1828
▁timeframe	-12.1828
▁charismatic	-12.1828
▁accessories	-12.1828
▁conscience	-12.1828
▁odell	-12.1828
▁outcry	-12.1828
▁ratified	-12.1828
▁ariel	-12.1828
▁scholes	-12.1828
▁radius	-12.1828
▁governance	-12.1828
▁problematic	-12.1828
▁yongsan	-12.1828
▁daegu	-12.1828
▁diaries	-12.1828
▁embarrassment	-12.1828
▁entries	-12.1828
▁cowboy	-12.1828
▁frequency	-12.1828
▁mekong	-12.1828
▁arabiya	-12.1828
▁sponsorship	-12.1828
▁tyranny	-12.1828
▁solana	-12.1828
▁panicked	-12.1828
▁gdp	-12.1828
▁dismantlement	-12.1828
▁graduation	-12.1828
▁hottest	-12.1828
▁cellular	-12.1828
▁jeju	-12.1828
▁dynamite	-12.1828
▁spinning	-12.1829
▁apache	-12.1829
▁elusive	-12.1829
▁liftoff	-12.1829
▁smugglers	-12.1829
▁outflow	-12.1829
▁gwen	-12.1829
▁takeshima	-12.1829
▁aceh	-12.1829
▁crescent	-12.183
▁tanner	-12.183
▁appalling	-12.183
▁slave	-12.183
▁hosseini	-12.183
▁artwork	-12.1831
▁wyman	-12.1831
▁zahir	-12.1831
▁refinery	-12.1831
▁revoked	-12.1831
▁psychiatry	-12.1831
▁abductees	-12.1831
▁gallas	-12.1831
▁barker	-12.1831
▁furious	-12.1831
▁sleet	-12.1832
...	-12.1832
▁perez	-12.1832
▁ibn	-12.1832
▁dismay	-12.1832
▁headphones	-12.1832
▁edmund	-12.1832
▁cotte	-12.1832
▁fearful	-12.1832
▁exaggerated	-12.1833
▁awful	-12.1833
▁jorge	-12.1834
▁nicholson	-12.1834
▁commercials	-12.1834
▁compact	-12.1834
▁burke	-12.1835
▁hamm	-12.1835
▁ouster	-12.1835
▁vanished	-12.1835
▁kfa	-12.1835
▁luke	-12.1835
▁yelled	-12.1835
▁fertile	-12.1836
▁udp	-12.1836
▁seismic	-12.1836
▁capitalism	-12.1836
▁sagar	-12.1837
▁elevated	-12.1837
▁unclaimed	-12.1837
▁cheema	-12.1837
▁bulbs	-12.1837
▁plaintiffs	-12.1838
▁interruption	-12.1838
▁dutt	-12.1838
▁skeptics	-12.1838
▁interceptor	-12.1839
▁cohen	-12.1839
▁confused	-12.184
▁adjustment	-12.184
▁birthrate	-12.1841
▁gloves	-12.1841
▁bergen	-12.1841
▁charm	-12.1841
▁crippled	-12.1842
▁marketplace	-12.1842
▁forgery	-12.1842
▁deteriorated	-12.1844
▁grasp	-12.1844
▁robertson	-12.1845
▁separating	-12.1845
▁mimic	-12.1846
▁clever	-12.1846
▁xue	-12.1846
▁creditors	-12.1848
▁barber	-12.1849
▁volcanoes	-12.1849
▁cooperating	-12.185
▁swaying	-12.185
▁brighter	-12.185
▁preconditions	-12.1851
▁valve	-12.1851
▁pois	-12.1851
▁ruined	-12.1851
▁hijackers	-12.1851
▁awake	-12.1853
acked	-12.1853
▁bee	-12.1853
▁generous	-12.1854
▁polluted	-12.1856
▁startling	-12.1856
▁tattoo	-12.1856
▁punching	-12.1856
▁interact	-12.1857
▁vendors	-12.1857
▁nutrients	-12.1857
▁accomplished	-12.1859
andy	-12.186
▁commando	-12.186
▁glasses	-12.1861
▁protester	-12.1862
▁carriages	-12.1863
▁foreclosures	-12.1864
▁scorer	-12.1865
▁huts	-12.1866
▁erratic	-12.1866
▁renamed	-12.1866
▁quicker	-12.1866
▁laughed	-12.1868
▁airship	-12.1868
▁westerners	-12.1869
▁rethink	-12.1869
▁boasted	-12.1869
▁scal	-12.187
▁machetes	-12.187
anford	-12.1871
▁crawl	-12.1871
▁shaken	-12.1871
▁scoop	-12.1873
▁saleh	-12.1875
▁museums	-12.1877
ighter	-12.1877
▁calf	-12.1877
▁joked	-12.1879
▁stresses	-12.1879
▁thankful	-12.188
▁historically	-12.1881
▁revelations	-12.1883
▁supplements	-12.1887
fest	-12.1888
▁amman	-12.1891
▁cannons	-12.1893
▁insulted	-12.1894
▁abolished	-12.1894
▁restructure	-12.1894
▁playoffs	-12.1896
▁magistrates	-12.1896
mz	-12.1897
▁categorical	-12.1897
▁advertise	-12.1899
▁withstand	-12.1899
▁distressed	-12.1901
▁nts	-12.1904
▁planners	-12.1906
▁shui	-12.1909
▁injections	-12.1909
▁email	-12.191
▁resisting	-12.1911
▁server	-12.1911
▁qara	-12.1915
▁sliding	-12.1915
▁surfing	-12.1916
▁trainers	-12.1917
▁gators	-12.1918
▁lonely	-12.1921
▁gere	-12.1923
▁nails	-12.1923
▁def	-12.1925
▁tooth	-12.1926
▁airlift	-12.1927
▁sleepy	-12.1928
▁askari	-12.1929
▁rip	-12.1929
elvis	-12.193
▁eads	-12.1932
▁freak	-12.1933
▁grabbe	-12.1934
rence	-12.1937
▁onboard	-12.1937
▁header	-12.1945
▁julian	-12.1948
tious	-12.1948
▁albe	-12.195
▁updates	-12.195
▁litter	-12.195
▁jeans	-12.195
▁expressions	-12.195
▁infring	-12.1954
▁pornograph	-12.1954
using	-12.1955
▁snu	-12.1956
▁denials	-12.1961
▁wired	-12.1963
▁cubs	-12.1964
ristina	-12.1965
val	-12.1965
▁endors	-12.197
acute	-12.197
▁administrators	-12.1972
▁beam	-12.1975
▁detectives	-12.1975
▁someday	-12.1977
▁prai	-12.1977
▁totti	-12.1977
ast	-12.1982
▁fallon	-12.1984
▁functions	-12.1985
▁grams	-12.1987
▁casinos	-12.1987
▁cardiov	-12.1988
▁disruptions	-12.1989
▁exams	-12.1998
▁dolphins	-12.2001
▁mauric	-12.2003
▁sacking	-12.2003
▁destroyer	-12.2003
▁normalize	-12.2005
▁transplants	-12.2007
▁concludes	-12.201
metric	-12.201
▁collid	-12.2015
▁canary	-12.2017
▁processes	-12.2017
▁bil	-12.2019
▁shorten	-12.2019
▁pos	-12.202
▁ble	-12.2023
lp	-12.2026
▁brigades	-12.2029
▁carson	-12.2035
▁saga	-12.2036
▁borne	-12.2041
▁specialize	-12.2041
▁bowling	-12.2042
▁practiced	-12.2042
▁disorders	-12.2047
▁peppers	-12.2048
▁ducks	-12.2049
▁loosen	-12.205
▁mos	-12.205
rc	-12.2053
▁belts	-12.2054
ola	-12.2057
▁sticks	-12.2058
ome	-12.2058
▁satisfaction	-12.206
▁liberate	-12.206
▁rope	-12.2061
▁dressing	-12.2062
ters	-12.2068
▁instances	-12.2068
ology	-12.2071
▁exported	-12.2077
▁zin	-12.208
▁drm	-12.2084
▁leftists	-12.2088
▁lightly	-12.2088
▁codes	-12.2098
▁inability	-12.2103
his	-12.211
▁cracks	-12.2113
▁eco	-12.2122
▁betting	-12.2123
▁zane	-12.2123
▁mills	-12.2127
▁doubl	-12.2127
▁strokes	-12.213
▁shores	-12.2136
▁scar	-12.2143
▁squares	-12.2144
▁painter	-12.215
kin	-12.2156
▁brace	-12.2169
▁assurance	-12.2169
▁screened	-12.217
▁birdie	-12.217
▁tian	-12.2171
▁nominate	-12.2172
▁skipp	-12.2173
onian	-12.2174
▁pew	-12.2179
▁verge	-12.2179
▁systematic	-12.218
ilo	-12.218
▁paula	-12.2181
▁rivera	-12.2187
▁spawn	-12.2192
▁fisc	-12.2194
▁trusted	-12.2196
rin	-12.22
▁editors	-12.2203
▁fonda	-12.2203
▁allergi	-12.2204
roy	-12.2204
▁sag	-12.221
ria	-12.2211
▁runways	-12.2222
▁enabl	-12.2225
▁congratulat	-12.2225
▁courses	-12.2228
▁garr	-12.223
▁mona	-12.224
rooted	-12.2247
▁bells	-12.2248
▁bounds	-12.2252
sang	-12.2256
gio	-12.2256
▁borg	-12.2256
▁initiatives	-12.226
▁res	-12.2261
▁compuls	-12.2265
▁metals	-12.2265
lying	-12.2266
▁meteorolog	-12.227
▁bot	-12.2276
▁asha	-12.2277
▁rulings	-12.2283
▁highs	-12.2286
▁beatings	-12.2286
▁balk	-12.2286
▁ker	-12.2294
▁raft	-12.2295
▁stam	-12.2304
▁weekends	-12.2304
▁schedules	-12.231
▁weddings	-12.2311
opped	-12.2317
▁mai	-12.2331
▁aaa	-12.2333
▁footballer	-12.2336
▁bloodie	-12.2336
▁denis	-12.2336
ire	-12.234
▁certifi	-12.2341
▁claren	-12.2347
▁liberals	-12.2348
gging	-12.2349
▁jeopardize	-12.2351
hill	-12.2362
▁casting	-12.2363
▁churn	-12.2365
▁financially	-12.237
▁hadn	-12.2371
▁sore	-12.2371
▁edges	-12.2382
▁sca	-12.2384
▁ann	-12.2384
▁retract	-12.2387
▁jett	-12.2394
▁unwilling	-12.2395
mes	-12.2398
era	-12.2413
mont	-12.2414
▁carat	-12.242
▁administrations	-12.2434
jected	-12.2436
▁pierce	-12.2444
ros	-12.2446
▁ceos	-12.2451
anning	-12.2454
▁bankrupt	-12.2456
▁propell	-12.2457
actic	-12.2466
▁disk	-12.2471
▁sik	-12.2485
▁bat	-12.2489
▁infuriate	-12.2506
▁dori	-12.2514
▁terrifi	-12.2516
▁planting	-12.2522
low	-12.2526
▁tele	-12.2533
▁blows	-12.2534
fully	-12.2538
▁jess	-12.2541
▁wastes	-12.2543
nmen	-12.2544
phone	-12.2552
▁samuel	-12.2557
wanted	-12.256
acio	-12.256
nprofit	-12.256
young	-12.2561
hallow	-12.2573
▁cultures	-12.2574
▁glen	-12.2578
▁jos	-12.2589
▁beta	-12.2594
▁zealander	-12.2594
▁pains	-12.2601
revor	-12.2605
iscal	-12.2606
▁hans	-12.2616
▁sham	-12.2623
shire	-12.2627
dding	-12.263
▁compris	-12.2631
pine	-12.2633
▁shap	-12.2635
▁resent	-12.2639
▁duc	-12.2654
▁introduc	-12.2657
ise	-12.2659
▁gh	-12.2661
bel	-12.2664
▁fier	-12.2665
government	-12.2666
fied	-12.2668
▁transfers	-12.267
ightened	-12.2672
▁births	-12.2677
▁hd	-12.2684
▁angri	-12.2688
▁provok	-12.2694
▁picks	-12.2697
can	-12.2698
▁shaha	-12.2699
▁candles	-12.2707
▁lease	-12.2707
▁luz	-12.2709
▁advise	-12.2711
▁doug	-12.2712
seong	-12.2717
jean	-12.2718
▁hardline	-12.272
▁persist	-12.2727
▁relat	-12.2733
▁salvage	-12.2734
▁creek	-12.2742
▁allege	-12.2743
▁buoy	-12.2743
ably	-12.2744
▁escalator	-12.2745
▁sur	-12.2749
iz	-12.275
▁sequel	-12.2751
▁fugitive	-12.2753
▁surrogate	-12.2753
▁skeleton	-12.2757
▁surround	-12.2757
▁pedestrian	-12.2757
▁athletic	-12.2758
▁presume	-12.2758
▁earl	-12.2758
▁pharmaceutical	-12.2759
▁competitor	-12.276
▁contestant	-12.2762
▁supplement	-12.2762
▁pardo	-12.2764
▁descend	-12.2765
▁emission	-12.2765
▁plantation	-12.2766
▁collector	-12.2767
▁adventurer	-12.2769
▁detector	-12.2769
▁depart	-12.277
▁backward	-12.2772
▁consequence	-12.2774
urely	-12.2775
▁conciliat	-12.2778
▁thumb	-12.278
▁exchang	-12.2782
▁observer	-12.2791
▁snub	-12.2793
▁aggravat	-12.2793
ain	-12.2793
▁trib	-12.2794
▁malfunction	-12.2797
▁launder	-12.2798
▁log	-12.2801
▁prominen	-12.2801
▁inherit	-12.2806
▁sweat	-12.2807
▁stampede	-12.2808
▁strippe	-12.281
▁feast	-12.2812
arlie	-12.2814
rd	-12.2816
▁brewer	-12.2818
▁simultaneous	-12.2818
▁geographic	-12.2819
▁eyewitness	-12.2821
▁assassinate	-12.2823
niyeh	-12.2825
▁drastic	-12.2827
▁absurd	-12.2827
▁acronym	-12.2827
▁antwerp	-12.2827
▁baradei	-12.2827
▁blizzard	-12.2827
▁buyukanit	-12.2827
▁cuisine	-12.2827
▁exodus	-12.2827
▁fabregas	-12.2827
▁faculty	-12.2827
▁fjord	-12.2827
▁flaherty	-12.2827
▁fretilin	-12.2827
▁goddard	-12.2827
▁hernandez	-12.2827
▁hiddink	-12.2827
▁hormuz	-12.2827
▁inadequate	-12.2827
▁jellyfish	-12.2827
▁karamanlis	-12.2827
▁lebouc	-12.2827
▁mclaren	-12.2827
▁monastery	-12.2827
▁mujahedeen	-12.2827
▁natanz	-12.2827
▁netscape	-12.2827
▁peloponnese	-12.2827
▁plymouth	-12.2827
▁politburo	-12.2827
▁precarious	-12.2827
▁shimbun	-12.2827
▁swollen	-12.2827
▁tempelhof	-12.2827
▁tigris	-12.2827
▁toothpaste	-12.2827
▁treadmill	-12.2827
▁virunga	-12.2827
▁yanukovych	-12.2827
▁basilica	-12.2827
▁belarus	-12.2827
▁patterson	-12.2827
▁badawi	-12.2827
▁milwaukee	-12.2827
▁nineveh	-12.2827
▁osbourne	-12.2827
▁dujana	-12.2827
▁frenzy	-12.2827
▁kirkuk	-12.2827
▁thirteen	-12.2827
▁enclosure	-12.2827
▁landlord	-12.2827
▁pfann	-12.2827
▁islamiah	-12.2827
▁mitch	-12.2827
▁cambridge	-12.2827
▁toshiba	-12.2827
▁lafayette	-12.2827
▁necessity	-12.2827
▁chaotic	-12.2828
▁chessboard	-12.2828
▁inhabitants	-12.2828
▁tgv	-12.2828
▁uncomfortable	-12.2828
▁twitter	-12.2828
▁malicious	-12.2828
▁cyprus	-12.2828
▁cyworld	-12.2828
▁jockey	-12.2828
▁nagasaki	-12.2828
▁fandel	-12.2828
▁motorola	-12.2828
▁subcommittee	-12.2828
▁slept	-12.2828
▁relentless	-12.2828
▁maldives	-12.2828
▁transgender	-12.2828
▁inventories	-12.2828
▁bartz	-12.2828
▁exhaustion	-12.2828
▁telecast	-12.2828
▁grandparents	-12.2828
▁hussain	-12.2828
▁autobiography	-12.2828
▁pierre	-12.2828
▁purple	-12.2828
▁knox	-12.2828
▁secularism	-12.2828
▁wrangling	-12.2828
▁heaviest	-12.2828
▁cheju	-12.2828
▁carroll	-12.2828
▁shrunk	-12.2828
▁hubei	-12.2828
▁solemn	-12.2828
▁preemptive	-12.2828
▁temptation	-12.2828
▁berkshire	-12.2828
▁midmorning	-12.2828
▁chinook	-12.2828
▁bolivia	-12.2829
▁vicious	-12.2829
▁drummer	-12.2829
▁calderon	-12.2829
▁jovi	-12.2829
▁spontaneous	-12.2829
▁quran	-12.2829
▁screenplay	-12.2829
▁hamza	-12.2829
▁submerged	-12.2829
▁mecca	-12.2829
▁rebuilt	-12.2829
▁jamestown	-12.2829
▁bengal	-12.2829
▁justification	-12.2829
▁airborne	-12.2829
▁bashir	-12.283
▁gregg	-12.283
▁czar	-12.283
▁cutler	-12.283
▁felony	-12.283
▁loyalty	-12.283
▁ashamed	-12.283
▁scarce	-12.283
▁pleasant	-12.283
▁pizza	-12.283
▁abandonment	-12.283
▁solace	-12.283
▁baines	-12.283
▁revamp	-12.283
▁brisk	-12.2831
▁perished	-12.2831
▁jittery	-12.2831
▁burton	-12.2831
▁penza	-12.2831
▁proposition	-12.2831
▁betrayal	-12.2831
▁paek	-12.2831
▁ntv	-12.2831
▁pollack	-12.2831
▁mansion	-12.2831
▁congresswoman	-12.2831
▁taek	-12.2832
▁groundwork	-12.2832
▁robben	-12.2832
▁pacify	-12.2832
▁kyoon	-12.2832
▁unreasonable	-12.2832
▁stabilizing	-12.2832
▁ravine	-12.2833
▁duration	-12.2833
▁funnel	-12.2833
▁reyes	-12.2833
▁inviting	-12.2834
▁faltering	-12.2834
▁alexandra	-12.2834
▁unsure	-12.2834
▁andersen	-12.2834
▁dishes	-12.2835
▁potatoes	-12.2835
▁clout	-12.2835
▁consuming	-12.2836
▁snipes	-12.2836
▁vying	-12.2837
▁escaping	-12.2837
wi	-12.2837
▁accumulated	-12.2838
▁sexuality	-12.2838
▁cameraman	-12.2838
▁affirm	-12.2839
▁buildup	-12.2839
▁swelling	-12.2839
▁interrogated	-12.2839
▁qualities	-12.2841
medics	-12.2841
▁prosecute	-12.2841
▁tasmania	-12.2841
▁invisible	-12.2841
▁slovakia	-12.2841
▁shu	-12.2841
▁andrea	-12.2842
▁gratitude	-12.2843
▁rivalry	-12.2843
▁breakup	-12.2843
▁predator	-12.2843
▁baek	-12.2844
▁laurent	-12.2844
▁homework	-12.2844
▁auditors	-12.2845
▁openness	-12.2845
yer	-12.2845
▁punk	-12.2845
aker	-12.2845
▁fluid	-12.2845
▁robbed	-12.2845
▁tzi	-12.2846
▁seale	-12.2846
▁chimpanzees	-12.2846
▁deliberations	-12.2846
▁baseless	-12.2846
▁ramon	-12.2846
▁extradited	-12.2846
▁remake	-12.2846
▁motorists	-12.2847
▁swallowed	-12.2847
▁rupture	-12.2848
▁haq	-12.2848
▁groundless	-12.2848
▁injunction	-12.2849
▁altar	-12.2851
▁vigilant	-12.2853
▁razed	-12.2853
▁regimes	-12.2853
▁rub	-12.2854
▁punched	-12.2854
▁alps	-12.2854
▁complement	-12.2854
▁feathers	-12.2856
▁surgical	-12.2857
▁gusts	-12.2858
▁koran	-12.2858
▁beads	-12.2859
▁inflicted	-12.2859
▁invaded	-12.2859
▁unfairly	-12.286
▁hacking	-12.2861
▁feedback	-12.2861
▁tolerated	-12.2862
▁patrioti	-12.2863
▁lagos	-12.2863
▁joya	-12.2865
▁compass	-12.2867
▁emotionally	-12.2867
▁rooftops	-12.2868
▁directive	-12.2868
▁sword	-12.2869
▁deepened	-12.287
▁messi	-12.287
▁newark	-12.287
▁addicts	-12.2871
▁pinch	-12.2874
▁senna	-12.2875
▁manipulate	-12.2876
▁spectacle	-12.2876
▁fillon	-12.2876
▁schult	-12.2878
▁prosecuted	-12.2878
▁departing	-12.2883
▁siren	-12.2883
▁predators	-12.2883
▁newsroom	-12.2884
▁tiles	-12.2884
▁marion	-12.2887
▁rib	-12.2887
▁steroids	-12.2888
▁lobbyists	-12.289
▁citation	-12.2891
▁tunes	-12.2892
▁inspected	-12.2895
▁intestin	-12.2895
▁smithson	-12.2899
ler	-12.29
▁slaughtered	-12.29
▁pun	-12.2903
▁heather	-12.2903
▁estonian	-12.2904
▁predictions	-12.2904
fty	-12.2906
▁comics	-12.2908
▁costumes	-12.291
▁consolidat	-12.2911
▁doom	-12.2912
▁admire	-12.2912
▁dj	-12.2913
▁lal	-12.2914
▁entertain	-12.2916
▁stoning	-12.2916
▁reneg	-12.2916
▁ipods	-12.2918
▁poorer	-12.2918
▁ducat	-12.2918
▁cancellations	-12.2919
▁combs	-12.2922
▁apiece	-12.2922
▁darre	-12.2924
▁internally	-12.2925
▁raged	-12.2926
▁merv	-12.2926
▁celesti	-12.293
▁monuments	-12.2933
▁ver	-12.2933
▁corporat	-12.2938
▁betray	-12.2941
▁fingerprints	-12.2941
smo	-12.2942
▁adrian	-12.2943
▁piles	-12.2943
ez	-12.2944
auger	-12.2948
▁drac	-12.295
▁bowed	-12.2961
▁ruler	-12.2963
lam	-12.2965
istic	-12.2966
▁utilize	-12.297
▁mik	-12.2976
▁biti	-12.2977
board	-12.2978
▁natali	-12.2978
▁topics	-12.298
▁mag	-12.298
▁masses	-12.2981
▁graphics	-12.2981
▁exceeding	-12.2983
▁bait	-12.2983
▁instruction	-12.2985
▁deposits	-12.2985
▁merchandise	-12.2988
iness	-12.2989
▁gymnast	-12.299
▁balloting	-12.299
▁toddlers	-12.2992
▁fruits	-12.2992
▁straits	-12.2992
ky	-12.2994
▁xu	-12.2994
▁digits	-12.2999
▁sol	-12.3003
may	-12.3004
▁handset	-12.3005
▁distract	-12.3011
▁sandbag	-12.3011
▁wow	-12.3015
▁nationalists	-12.3018
▁coordinates	-12.3025
▁bal	-12.3028
▁newsweek	-12.3029
▁timeline	-12.3034
▁inspiring	-12.304
▁assisting	-12.3043
▁hikes	-12.3043
▁grapple	-12.3044
▁preach	-12.3046
world	-12.3049
▁endorsements	-12.305
▁dispel	-12.3051
berg	-12.3053
▁sneaker	-12.3054
▁hedge	-12.3054
▁cows	-12.3056
▁interrogations	-12.3058
life	-12.306
ennis	-12.3061
▁flyer	-12.3061
▁chew	-12.3063
▁ubs	-12.3065
▁moreno	-12.3068
wed	-12.307
▁tabloids	-12.3072
fish	-12.308
▁tissues	-12.3085
▁circulate	-12.3087
▁mit	-12.3091
▁cruiser	-12.3092
▁shari	-12.3092
▁allah	-12.3094
sisting	-12.3096
▁locks	-12.3096
▁boundar	-12.3097
▁hyo	-12.3097
▁bark	-12.3097
▁publications	-12.3097
ker	-12.3098
▁afterwards	-12.3099
▁terminals	-12.31
▁admissions	-12.3102
asahi	-12.3103
▁poles	-12.3104
lar	-12.3108
ich	-12.3109
▁levee	-12.3114
▁consultati	-12.3114
▁dera	-12.3115
▁slams	-12.3118
▁ip	-12.3119
▁abductions	-12.3124
▁yung	-12.3128
terrestrial	-12.313
▁shaun	-12.3138
▁soak	-12.3142
hed	-12.3144
▁maure	-12.3144
▁bras	-12.3144
uala	-12.3145
▁observ	-12.3147
▁shrugg	-12.3147
cher	-12.3148
▁angels	-12.3153
fancy	-12.3156
▁cy	-12.3163
▁blazer	-12.3164
▁narrowing	-12.3165
▁genetics	-12.3168
▁routed	-12.3169
▁weber	-12.3171
▁pits	-12.3176
▁tw	-12.3179
▁pont	-12.3181
▁volcan	-12.3183
table	-12.3184
▁eclipse	-12.3185
ological	-12.3186
▁vacations	-12.3187
▁giro	-12.3192
▁morale	-12.3194
ake	-12.32
▁stack	-12.3201
fi	-12.3209
▁upside	-12.321
▁alerts	-12.321
▁wit	-12.3213
▁nobu	-12.3214
▁shine	-12.3214
▁corners	-12.3216
▁zhao	-12.3218
▁revis	-12.3222
▁grants	-12.3222
ss	-12.3224
▁refers	-12.3224
▁raf	-12.3226
▁fromong	-12.3226
▁bian	-12.3228
▁rang	-12.3244
▁rever	-12.3245
pe	-12.3254
▁scarf	-12.3255
▁kor	-12.3258
▁aunt	-12.3259
▁nll	-12.3261
▁aston	-12.3262
▁dispatche	-12.3263
leen	-12.3277
tched	-12.3278
atherin	-12.3278
▁endless	-12.3282
ndy	-12.3282
▁besi	-12.3285
▁moat	-12.3285
▁romans	-12.329
down	-12.3292
▁bass	-12.3294
▁margins	-12.3295
tu	-12.3299
▁worded	-12.3301
cation	-12.3303
▁shoots	-12.3309
▁inconvenience	-12.331
onic	-12.3313
▁tai	-12.3319
▁tran	-12.3321
▁firings	-12.3326
▁piro	-12.3331
hail	-12.3334
boy	-12.3335
▁nonprof	-12.3336
▁wolfe	-12.3337
▁ansa	-12.3341
was	-12.3345
▁gatherings	-12.3345
▁settl	-12.3346
▁modeling	-12.3357
right	-12.3364
▁francesc	-12.3367
▁stating	-12.337
▁roberts	-12.3378
rie	-12.339
ech	-12.3391
elix	-12.3395
ester	-12.3398
▁deliberat	-12.3403
mate	-12.3407
rk	-12.3412
▁sing	-12.3414
▁merc	-12.3415
▁outlin	-12.3417
ger	-12.3425
▁herman	-12.3425
nc	-12.3428
▁fare	-12.3432
dental	-12.3438
ix	-12.3456
▁robbi	-12.3462
ttered	-12.3468
▁deng	-12.3472
▁shade	-12.3472
col	-12.3477
liest	-12.3479
▁mold	-12.3482
▁resolutions	-12.3484
▁orbits	-12.3492
▁wasted	-12.3494
ready	-12.3501
nts	-12.3505
▁robe	-12.3506
print	-12.3511
ichi	-12.3512
▁patrols	-12.3521
▁intake	-12.3523
▁beds	-12.3527
aq	-12.3536
ooked	-12.3545
ama	-12.3548
▁oz	-12.355
▁roam	-12.3551
▁struggles	-12.356
money	-12.3561
▁sympath	-12.3566
▁obstructi	-12.357
▁civ	-12.3574
▁gong	-12.3575
ullman	-12.3577
▁gaine	-12.358
ricky	-12.3582
▁envelope	-12.3582
▁vir	-12.3587
sley	-12.359
worth	-12.3593
▁pluck	-12.3594
▁budgets	-12.3594
▁edw	-12.3597
▁combin	-12.3599
▁char	-12.3601
▁mara	-12.3608
▁defende	-12.3615
▁condon	-12.3617
ds	-12.3628
▁seated	-12.363
▁exiles	-12.3646
▁inject	-12.3646
stein	-12.3649
▁sideline	-12.3652
ys	-12.3665
fo	-12.3668
▁masa	-12.3678
▁induce	-12.3683
▁oceans	-12.3684
nted	-12.3686
▁multimillion	-12.3692
▁founders	-12.3692
▁progressing	-12.37
▁fre	-12.3707
▁zo	-12.3709
▁lev	-12.3709
▁waive	-12.3711
▁intimidat	-12.3712
▁competitions	-12.3719
▁unlock	-12.3722
▁balls	-12.3724
▁ritz	-12.3727
accessible	-12.3728
▁rows	-12.3729
▁richards	-12.3731
printing	-12.3746
heard	-12.375
▁beside	-12.3753
▁baking	-12.377
▁barre	-12.3772
▁cro	-12.3774
▁rais	-12.3776
nding	-12.3779
▁af	-12.3783
▁sneak	-12.3793
▁rus	-12.3794
▁pla	-12.3795
▁dare	-12.3803
▁bro	-12.3806
▁hil	-12.3807
▁ira	-12.381
▁gill	-12.3816
tana	-12.3818
▁burge	-12.3822
doo	-12.3832
fox	-12.3838
▁rumor	-12.384
▁uneas	-12.3843
▁basket	-12.3845
▁institutional	-12.3848
sian	-12.3849
▁summon	-12.3851
▁cull	-12.3853
▁ordinance	-12.3854
▁stoppage	-12.3854
▁fist	-12.3854
▁trunk	-12.3856
▁juice	-12.3857
▁cm	-12.3857
▁determin	-12.3859
▁hijack	-12.386
▁desktop	-12.3861
▁caesar	-12.3861
▁fertilizer	-12.3862
▁feline	-12.3864
▁motorbike	-12.3866
▁jaguar	-12.3866
▁psychiatrist	-12.3867
▁hazard	-12.3867
▁cheese	-12.3868
▁cigar	-12.3868
▁skyscraper	-12.3869
▁endanger	-12.3869
▁advertisement	-12.3869
▁revelation	-12.387
▁steroid	-12.3871
▁servant	-12.3871
▁guideline	-12.3872
▁gangster	-12.3872
▁satisfy	-12.3873
▁lobbyist	-12.3874
▁mathematic	-12.3874
▁jacket	-12.3875
▁fal	-12.3875
▁detainee	-12.3877
▁spacewalk	-12.3879
▁sting	-12.3881
▁mountainside	-12.3881
shed	-12.3883
▁empower	-12.389
▁intrigue	-12.389
borne	-12.3893
▁abba	-12.3894
▁fest	-12.3895
▁counterfeit	-12.3898
aved	-12.3902
▁bruis	-12.3903
▁hacker	-12.3905
▁structur	-12.3905
▁carli	-12.3905
▁perve	-12.3908
ster	-12.3909
▁derail	-12.3912
▁vik	-12.3914
ps	-12.3914
▁myth	-12.3916
▁escalate	-12.3917
▁postpone	-12.3918
los	-12.3921
▁scout	-12.3923
▁obsess	-12.3923
▁sophi	-12.3925
▁tumble	-12.3925
▁prolong	-12.3926
▁proportional	-12.3932
ologist	-12.3932
▁evident	-12.3933
now	-12.3935
con	-12.3937
▁undertake	-12.3937
▁auckland	-12.3939
▁bethlehem	-12.3939
▁boulevard	-12.3939
▁brancato	-12.3939
▁chiapas	-12.3939
▁daimler	-12.3939
[...]
