<pad>	0
<s>	0
</s>	0
<unk>	0
.	-3.18493
을	-3.58377
의	-3.72443
는	-4.02937
를	-4.03387
▁	-4.27143
은	-4.31237
가	-4.3916
,	-4.40353
이	-4.53199
에	-4.59103
고	-4.91538
▁일	-5.24819
한	-5.26686
▁이	-5.27254
로	-5.30374
인	-5.31418
에서	-5.32359
▁있다	-5.41949
▁고	-5.51317
과	-5.52313
으로	-5.53856
와	-5.58961
▁밝혔다	-5.64363
▁수	-5.64542
▁말했다	-5.66649
도	-5.68147
할	-5.80756
▁년	-5.83615
▁있는	-5.84005
▁그	-5.99175
▁그는	-6.02672
▁대한	-6.15021
▁위해	-6.16649
▁전	-6.19595
하고	-6.20356
▁이번	-6.22372
▁전했다	-6.24367
▁한	-6.24759
▁미국	-6.26094
지	-6.26114
▁월	-6.26761
다	-6.3008
▁지난	-6.32234
▁현지시간	-6.34875
▁.	-6.38061
하는	-6.41166
▁대해	-6.42271
▁며	-6.44957
▁것으로	-6.50096
▁미	-6.51454
▁중	-6.52707
▁명이	-6.53645
▁것이라고	-6.55118
▁것	-6.58474
에게	-6.60014
된	-6.60472
▁있다고	-6.61554
했다	-6.63451
▁그러나	-6.63969
▁것을	-6.64579
▁이라크	-6.71787
▁더	-6.75188
▁다른	-6.77505
▁명의	-6.79557
해	-6.79623
게	-6.83996
▁대통령	-6.85175
s	-6.8619
하게	-6.87846
▁한편	-6.89071
▁중국	-6.89879
히	-6.91062
▁이라고	-6.91621
기	-6.92476
▁만	-6.93887
▁약	-6.93926
▁북한	-6.94257
던	-6.96445
▁에	-6.96551
며	-6.98054
운	-6.99378
▁등	-7.01012
▁오바마	-7.03164
▁후	-7.03514
▁많은	-7.03997
▁위한	-7.04346
나	-7.04806
▁통해	-7.05661
▁이후	-7.07095
▁정부	-7.07654
▁부시	-7.07889
▁또	-7.07973
▁주	-7.08532
▁대통령은	-7.08589
▁가장	-7.11357
▁같은	-7.139
▁동안	-7.14663
들이	-7.15142
▁세	-7.1533
▁것이다	-7.15437
▁내	-7.16758
▁대변인은	-7.17149
▁영국	-7.17737
▁두	-7.22067
만	-7.22496
적인	-7.2263
▁한국	-7.23117
하지	-7.23951
자	-7.2474
▁명	-7.25741
▁할	-7.26121
▁주장했다	-7.26463
▁될	-7.27796
▁한다	-7.28855
▁현재	-7.29394
▁것은	-7.2956
▁달러	-7.29797
될	-7.30137
▁세계	-7.30638
하기	-7.30848
▁또한	-7.31115
▁개	-7.31124
▁가	-7.33958
▁했다	-7.34563
▁관련	-7.34705
스	-7.34889
▁보도했다	-7.36679
▁이상	-7.37117
▁the	-7.3756
▁덧붙였다	-7.37664
▁최근	-7.37717
및	-7.37919
이다	-7.38625
▁있었다	-7.39003
▁경우	-7.39504
▁때	-7.39936
▁않았다	-7.40911
까지	-7.41601
▁문제	-7.4306
했던	-7.4347
▁자신의	-7.43571
▁알	-7.43705
▁모든	-7.43873
▁,	-7.4404
▁영화	-7.45931
▁의	-7.46405
▁새로	-7.46589
서	-7.46634
들은	-7.46851
▁일부	-7.47406
▁함께	-7.47756
▁라고	-7.47848
▁당시	-7.48243
▁것이	-7.49781
▁바	-7.5081
▁미군	-7.52558
▁에서	-7.52749
▁그리고	-7.52765
하며	-7.53067
▁시간	-7.53442
▁때문에	-7.53799
▁일본	-7.54422
▁cnn	-7.5616
▁대	-7.56617
▁시	-7.57061
▁우리	-7.57909
▁예정이다	-7.58486
▁설명했다	-7.59749
▁로	-7.60463
▁있습니다	-7.6059
▁있으며	-7.61162
▁뒤	-7.61391
▁모두	-7.61505
▁수도	-7.61807
▁경찰은	-7.62948
▁하는	-7.63182
▁to	-7.64156
▁경제	-7.64208
▁정부는	-7.65035
▁몇	-7.65088
▁조사	-7.65585
라고	-7.66585
했으며	-7.67359
▁프랑스	-7.67614
▁큰	-7.67865
▁유엔	-7.68644
▁이들	-7.68745
드	-7.69552
▁파키스탄	-7.7119
▁러시아	-7.71544
야	-7.71574
▁없다	-7.72645
▁경기	-7.73193
▁지난해	-7.73302
▁결과	-7.73572
일	-7.73832
▁대통령이	-7.74696
▁국가	-7.7515
▁공격	-7.75476
▁올해	-7.75593
▁않을	-7.75597
▁민주당	-7.77117
▁클린턴	-7.77785
▁열린	-7.77884
했다고	-7.78344
▁하고	-7.78384
▁사고	-7.78641
▁계속	-7.78749
▁이날	-7.78789
▁사실	-7.78848
▁이스라엘	-7.79196
▁계획	-7.79701
라	-7.81186
▁억	-7.81364
해야	-7.81787
▁총리는	-7.81866
▁지역	-7.8198
▁발표했다	-7.82946
▁발생한	-7.83724
보다	-7.84028
▁받고	-7.84458
들을	-7.84585
▁차	-7.85386
▁이란	-7.85877
▁제	-7.86051
▁경찰	-7.8612
리	-7.86985
▁회담	-7.87043
▁있을	-7.87187
▁미국의	-7.87231
▁존	-7.87316
▁분	-7.88157
▁아직	-7.88322
▁명을	-7.88729
▁of	-7.88942
▁테러	-7.89232
했습니다	-7.89447
▁달	-7.89837
▁나	-7.89877
▁가운데	-7.90096
▁s	-7.90243
면	-7.90555
진	-7.9077
시	-7.90895
▁사람들이	-7.91103
▁됐다	-7.91429
주	-7.9233
▁a	-7.9293
▁정부가	-7.92993
트	-7.93154
▁후보	-7.93213
▁된다	-7.93231
됐다	-7.93357
에는	-7.94244
▁의해	-7.94614
▁주요	-7.9501
▁핵	-7.95049
▁다시	-7.95606
▁우리는	-7.9669
부터	-7.97181
▁인해	-7.97273
▁여성	-7.97674
이나	-7.9873
입니다	-7.98762
▁사건	-7.98956
▁않은	-8.00065
▁첫	-8.00762
▁지원	-8.00941
▁말	-8.01323
▁데	-8.01829
이라고	-8.0186
▁번째	-8.01905
▁tv	-8.02991
▁혐의로	-8.03045
어	-8.03218
▁이미	-8.03634
▁관계	-8.03761
▁초	-8.04195
으며	-8.05035
▁보고	-8.0521
▁비	-8.05219
라는	-8.05679
▁총리	-8.05766
하다	-8.0581
성	-8.0594
면서	-8.06032
▁아프간	-8.06275
▁있다는	-8.06314
▁거	-8.06597
▁지금	-8.06745
▁반	-8.06787
▁조치	-8.06851
▁시위	-8.06941
▁국제	-8.07171
▁지	-8.07445
▁위치한	-8.07926
▁매우	-8.08148
▁채	-8.08922
▁받았다	-8.091
▁결정	-8.09576
▁없는	-8.10037
지만	-8.104
▁선거	-8.10417
▁이슬람	-8.10474
사	-8.11318
?	-8.11851
에도	-8.11976
길	-8.12488
▁번	-8.12527
▁km	-8.12611
▁한다고	-8.14184
▁이는	-8.14387
▁줄	-8.14412
▁피해	-8.14641
▁대부분	-8.1532
▁않고	-8.15579
하면서	-8.15832
▁팔레스타인	-8.15933
▁조지	-8.16046
▁연구	-8.16182
▁오늘	-8.16217
▁해	-8.16397
▁관계자는	-8.16505
한다	-8.16888
▁대선	-8.17415
로부터	-8.17423
▁추가	-8.17444
수	-8.17495
▁어떤	-8.17784
▁년간	-8.18255
▁지적했다	-8.1838
▁총	-8.18505
▁위	-8.18896
적	-8.18937
▁살	-8.19352
▁탈레반	-8.19384
▁그들은	-8.19437
▁뉴욕	-8.19558
▁정보	-8.19633
▁in	-8.19653
▁자	-8.19979
▁혐의	-8.20019
▁이에	-8.202
▁안	-8.20442
▁원문기사보기	-8.20495
르	-8.20592
▁승리	-8.20633
▁잘	-8.20679
적으로	-8.20803
▁조	-8.20843
▁회사	-8.20975
▁개의	-8.21353
▁활동	-8.21571
▁하지	-8.21719
▁이라며	-8.22298
▁당국은	-8.2237
▁아이	-8.224
▁인도	-8.22523
에따르면	-8.22528
▁유럽	-8.22894
▁새	-8.22912
▁시장	-8.23242
▁호주	-8.23287
▁명은	-8.24015
▁포함	-8.24021
▁소속	-8.24022
▁없다고	-8.2432
▁우려	-8.24504
▁않는다	-8.25392
▁받은	-8.25407
▁군	-8.25897
즈	-8.25899
▁여러	-8.26078
▁인터넷	-8.26093
▁못했다	-8.26249
▁발표	-8.26336
▁하지만	-8.2652
▁상원의원	-8.26532
▁감독	-8.26673
처럼	-8.26728
▁기록	-8.2699
당	-8.27079
ing	-8.27132
▁점	-8.27133
▁협상	-8.27223
용	-8.27769
상	-8.27834
▁매케인	-8.27881
▁독일	-8.27978
▁방문	-8.28033
▁프로그램	-8.28044
▁내용	-8.28055
하여	-8.29054
간	-8.29297
되어	-8.2953
▁올림픽	-8.2957
니	-8.29725
▁부상	-8.29799
▁관리	-8.29807
▁박사	-8.29828
▁다	-8.30064
▁된	-8.30194
아	-8.30661
▁예정	-8.30784
▁있던	-8.31115
에서는	-8.31304
▁사	-8.31387
▁많	-8.31437
▁최고	-8.31645
▁북한이	-8.31729
▁오후	-8.32485
▁폭탄	-8.32666
▁원	-8.32799
크	-8.33817
▁인터뷰에서	-8.34348
▁사람	-8.34476
비	-8.34508
▁나는	-8.34902
▁준비	-8.35323
▁자동차	-8.35393
이며	-8.35429
▁것에	-8.35506
▁있어	-8.36044
▁이러	-8.36055
▁경찰이	-8.36132
▁앞으로	-8.36197
▁대학	-8.36507
돼	-8.36677
▁기자	-8.36962
▁갖고	-8.37211
▁마지막	-8.38042
▁있도록	-8.38045
▁강조했다	-8.38306
▁미얀마	-8.38348
▁w	-8.3874
▁도	-8.38846
치	-8.38923
었다	-8.39212
▁병원	-8.39641
▁오는	-8.39751
질	-8.39767
▁강	-8.39948
▁개월	-8.40098
▁컴퓨터	-8.40133
▁지지	-8.40145
▁차량	-8.40463
▁m	-8.40505
▁노	-8.40638
▁인쇄	-8.40836
▁그녀는	-8.40892
▁터키	-8.4171
▁비난했다	-8.41778
▁현지	-8.41858
▁가진	-8.42041
▁떨어진	-8.4207
▁입장	-8.42158
▁간	-8.42169
▁전쟁	-8.4237
▁미국과	-8.42513
▁독해	-8.42599
습니다	-8.42666
▁공화당	-8.42907
▁ap	-8.43142
▁앞서	-8.43296
▁버락	-8.43327
▁자신이	-8.43638
▁의사	-8.43657
▁장관은	-8.43718
▁joins	-8.43728
ed	-8.43729
설명	-8.4393
▁처음으로	-8.43961
▁변화	-8.44306
▁미국이	-8.44821
▁오전	-8.44883
▁처음	-8.45037
부	-8.45049
하는데	-8.45371
▁아시아	-8.45446
▁라	-8.45524
▁남자	-8.45772
▁규모	-8.45935
▁원문	-8.46083
▁지난달	-8.46109
▁없었다	-8.46161
▁석방	-8.46805
▁그녀	-8.46835
소	-8.46861
▁사망	-8.47191
▁사이	-8.47278
▁이를	-8.47347
▁사람들은	-8.47348
▁지역에서	-8.47502
▁검찰	-8.47813
▁좋은	-8.47866
▁방송	-8.48131
하도록	-8.4814
▁폭발	-8.48187
대	-8.48214
▁힐러리	-8.4836
▁있지만	-8.48683
▁관한	-8.48731
▁미국은	-8.48805
▁아	-8.48814
▁까지	-8.48833
▁곳	-8.4892
▁우주	-8.48997
▁평화	-8.49003
▁인근	-8.49118
▁성명	-8.49273
▁없이	-8.49377
▁주장	-8.49839
▁이런	-8.50615
▁차례	-8.50742
▁보인다	-8.50823
▁비난	-8.50841
e	-8.50849
▁이들은	-8.51312
되지	-8.51344
▁사망했다	-8.51491
릴	-8.51569
▁남부	-8.51595
에따라	-8.51667
▁가지	-8.51714
▁다음	-8.51792
▁보다	-8.52286
▁집	-8.52364
였다	-8.52376
▁않다	-8.52455
▁이탈리아	-8.52483
했고	-8.52895
▁최소	-8.52907
▁이어	-8.53078
▁사망자	-8.5309
▁으로	-8.53096
▁상황	-8.53101
▁마리	-8.53144
▁기술	-8.5322
되고	-8.53401
▁의회	-8.53534
▁도시	-8.53563
▁배	-8.536
▁정도	-8.53641
d	-8.53645
▁야당	-8.53657
거나	-8.53824
선	-8.54067
▁가능성	-8.54152
▁합의	-8.5418
전	-8.54221
▁스페인	-8.54409
▁투표	-8.54723
▁정책	-8.55009
▁만에	-8.55358
▁성	-8.55359
▁중요한	-8.55445
▁당국	-8.55744
y	-8.55914
▁이름	-8.56
▁오	-8.56017
▁와	-8.56212
▁밤	-8.5627
▁발생	-8.56326
▁볼	-8.56408
▁시작	-8.56422
▁article	-8.56767
▁못	-8.56939
▁사람들	-8.57068
▁노력	-8.5734
우	-8.57449
했지만	-8.57515
▁공식	-8.57527
▁이전	-8.57535
▁부	-8.57543
▁해결	-8.5781
으로부터	-8.57944
▁미사일	-8.58036
▁알려졌다	-8.58197
했으나	-8.58262
▁연방	-8.58545
▁사태	-8.58578
▁포인트	-8.58811
▁무샤라프	-8.58963
▁비행기	-8.59334
▁개발	-8.59471
▁불구하고	-8.59658
▁정치적	-8.59702
▁날	-8.59734
▁보도	-8.59866
▁대통령과	-8.59882
▁돈	-8.60266
▁보	-8.60347
▁불법	-8.60478
▁용의자	-8.60542
▁말했습니다	-8.60864
▁치료	-8.60941
▁법원	-8.60987
▁발생했다	-8.61098
▁여행	-8.611
▁생각	-8.61387
오	-8.61428
▁관심	-8.61526
▁for	-8.61778
▁알카에다	-8.61799
▁팀	-8.61822
▁전에	-8.61904
▁것입니다	-8.61943
▁행사	-8.62082
됐으며	-8.62703
▁주둔	-8.62712
되는	-8.62749
▁가격	-8.62894
▁영향	-8.63011
▁코리아	-8.63065
타	-8.63225
▁자신들	-8.63281
려	-8.63474
▁상태	-8.63509
▁자금	-8.63513
▁사망한	-8.6361
프	-8.63683
▁논의	-8.63754
산	-8.63834
▁금융	-8.64058
내	-8.64275
온	-8.6445
들	-8.64501
▁판매	-8.64533
▁마	-8.64718
▁인	-8.64885
▁자신	-8.64928
▁인질	-8.65108
▁것이라는	-8.65305
린	-8.65439
▁발언	-8.65496
▁물	-8.65538
미	-8.65588
▁김	-8.65714
▁런던	-8.65823
▁반면	-8.65888
▁안전	-8.66117
▁당	-8.66405
▁사망했다고	-8.66518
▁높은	-8.66538
▁서비스	-8.66779
▁주민들	-8.66862
되었다	-8.66955
▁일간	-8.67008
▁최대	-8.67024
▁무기	-8.67041
▁필요	-8.67171
▁회장	-8.67172
▁백악관	-8.67468
▁의하면	-8.67545
▁모습을	-8.67552
▁바그다드	-8.67657
▁사용	-8.67687
들에게	-8.67925
▁가능성이	-8.67933
▁북부	-8.6796
식	-8.6837
▁지역에	-8.68387
▁건물	-8.6846
▁학교	-8.68479
▁대표	-8.68498
▁출신	-8.68718
▁성명에서	-8.69018
▁더욱	-8.69062
사전	-8.6907
▁왔다	-8.69109
▁알고	-8.6911
▁반군	-8.69711
▁말을	-8.69737
코	-8.69915
▁지난주	-8.70115
▁것이며	-8.70212
이었다	-8.70264
▁위협	-8.7033
▁여	-8.70365
▁반대	-8.70386
데	-8.70674
이라는	-8.71136
디	-8.71186
▁지구	-8.71372
세	-8.71395
▁증가	-8.71419
제	-8.71589
▁이와	-8.71612
▁않는	-8.71628
▁공동	-8.71634
▁이용	-8.71709
▁부토	-8.71803
난	-8.71859
▁수사	-8.71916
했었다	-8.71957
▁생산	-8.72179
▁위험	-8.72207
▁아니다	-8.72343
▁가족	-8.72357
하기로	-8.72421
▁연기	-8.72496
▁필요한	-8.72512
보	-8.72526
하	-8.72558
▁만명	-8.7257
▁어제	-8.72647
▁역할	-8.72663
▁핵무기	-8.72961
▁총리가	-8.73067
▁병력	-8.73233
▁기	-8.73585
▁언론	-8.7412
▁군사	-8.74122
▁산	-8.74199
▁구	-8.74219
▁않았다고	-8.74432
였던	-8.74784
▁역사	-8.74817
▁아들	-8.74908
▁되는	-8.74916
도록	-8.74975
▁행위	-8.75048
▁결국	-8.75314
▁라이스	-8.75327
▁아이들	-8.75483
▁의원	-8.75557
토	-8.75774
▁이제	-8.75794
직	-8.76145
▁있고	-8.76198
▁관련된	-8.76206
▁외	-8.7629
▁아니라	-8.76378
▁기자회견에서	-8.76524
는데	-8.76612
들의	-8.76773
▁중단	-8.76886
▁장	-8.77126
▁지도자	-8.77164
▁인용	-8.77193
▁고위	-8.7725
레	-8.77378
▁올	-8.775
▁하마스	-8.77524
▁뜻	-8.77527
▁벌이	-8.77631
시킬	-8.77686
▁아버지	-8.77799
▁자살	-8.77811
▁정	-8.77866
▁양	-8.77974
▁열	-8.78077
▁충돌	-8.78104
이자	-8.78216
▁아침	-8.78219
▁전화	-8.78238
▁공급	-8.78281
▁사르코지	-8.78375
▁직접	-8.78423
▁검사	-8.78573
▁여부	-8.78661
▁행동	-8.78696
▁타고	-8.78727
▁부족	-8.78801
▁받을	-8.7892
▁and	-8.7913
▁억원	-8.79165
▁살해	-8.79225
▁위기	-8.79299
▁독립	-8.79465
▁노무현	-8.79482
마	-8.7949
▁은행	-8.79498
▁상	-8.79589
▁년에	-8.79807
▁동영상	-8.79947
▁우승	-8.79986
▁이야기	-8.80445
▁건강	-8.80688
▁티베트	-8.80735
▁사람이	-8.80772
▁이같	-8.80817
▁조직	-8.80879
▁서울	-8.80954
▁골	-8.8096
▁게임	-8.81101
▁korea	-8.81191
▁브라운	-8.8126
▁하나	-8.81263
▁e	-8.81285
▁하루	-8.81298
화	-8.81598
▁역시	-8.81628
▁eu	-8.81867
▁국경	-8.81884
▁방법	-8.82178
바	-8.82218
▁la	-8.82232
계	-8.82257
▁어떻게	-8.82343
하겠다고	-8.82655
▁시신	-8.82718
▁문제에	-8.8283
▁공항	-8.82872
▁년까지	-8.82873
▁열리는	-8.83051
▁정치	-8.83141
▁리	-8.83412
▁이유로	-8.83423
▁기간	-8.83435
▁천	-8.83476
com	-8.83539
▁사건에	-8.83644
▁베이징	-8.83914
구	-8.84165
▁곧	-8.84219
▁만달러	-8.8424
티	-8.8434
▁년대	-8.84345
러	-8.84388
▁폭탄테러	-8.84419
▁최초	-8.84516
▁국방부	-8.84593
▁피	-8.84707
▁캘리포니아	-8.84743
▁판결	-8.84871
카	-8.8492
▁국무부	-8.84928
파	-8.84983
▁카	-8.85033
▁숨졌다	-8.85337
▁한나라당	-8.85483
▁나라	-8.85531
▁재	-8.85816
▁협력	-8.85841
▁발사	-8.8602
하자	-8.86062
▁콜롬비아	-8.86285
▁요구	-8.86344
국	-8.86482
▁한국인	-8.86943
▁기업	-8.87115
들과	-8.87182
▁예정이라고	-8.87265
▁있게	-8.87283
▁말하는	-8.87682
▁전문가들은	-8.87783
▁워싱턴	-8.87817
▁기회	-8.87976
▁대선후보	-8.88014
▁있기	-8.88115
▁시작했다	-8.88168
▁호텔	-8.88318
▁에너지	-8.8839
▁했다고	-8.88757
▁같다	-8.88762
▁내년	-8.88909
▁증거	-8.88974
▁과학자들	-8.89203
중	-8.89268
▁요구했다	-8.89336
권	-8.89344
▁발견했다	-8.89446
▁회의	-8.89483
▁무	-8.89552
조	-8.89559
▁보였다	-8.89584
▁진행	-8.89844
▁매	-8.90032
날	-8.9008
▁타	-8.90164
▁데이비드	-8.90186
▁너무	-8.90214
▁보고서	-8.90321
▁또는	-8.90374
▁대규모	-8.90704
▁앞	-8.91021
▁투자	-8.91222
하던	-8.91273
▁빌	-8.91319
▁발견	-8.9156
▁거래	-8.91593
▁확인	-8.91633
▁각	-8.91648
▁사회	-8.91854
더	-8.92037
▁금지	-8.92122
▁손	-8.92309
▁교육	-8.92336
▁아프가니스탄	-8.92394
▁범죄	-8.92419
▁만원	-8.92424
▁법안	-8.92468
▁생활	-8.92621
▁특히	-8.9271
▁주변	-8.92873
▁언급	-8.92903
▁나타났다	-8.93122
▁대변인	-8.93158
노	-8.93365
▁약어표	-8.93508
▁앞두고	-8.93509
▁상원	-8.9353
▁연설	-8.93614
▁훈련	-8.93713
▁단체	-8.93769
▁인구	-8.93915
▁그들의	-8.93998
▁사망하고	-8.94233
▁철수	-8.94312
▁화재	-8.94334
▁보호	-8.94426
▁심각한	-8.94498
▁상승	-8.94533
▁생각한다	-8.94566
▁신	-8.94611
▁관할	-8.94819
▁레바논	-8.94828
▁불	-8.95074
▁안에	-8.95178
▁판사	-8.95265
▁선	-8.95419
하면	-8.95421
관	-8.95431
▁있었던	-8.95573
▁건설	-8.9562
▁전세계	-8.95908
▁포함한	-8.9594
▁도로	-8.95949
▁타임즈	-8.95993
▁여전	-8.96008
al	-8.96045
▁심	-8.9608
▁명과	-8.96086
▁수술	-8.96156
임	-8.96209
▁폴	-8.96329
▁저장	-8.9638
▁개인	-8.96473
▁태국	-8.96635
▁제안	-8.96641
▁공개	-8.96741
▁부인	-8.96751
▁비행	-8.96923
▁경기에서	-8.97214
▁교수는	-8.97223
▁납치	-8.97352
점	-8.97438
▁로버트	-8.97617
▁뉴스	-8.9763
▁전망	-8.97715
▁의원은	-8.98087
▁눈	-8.98227
차	-8.98281
됐다고	-8.98492
▁온	-8.98493
▁인도네시아	-8.98514
▁의견	-8.98531
▁대신	-8.98583
▁작은	-8.98638
▁촉구했다	-8.98665
▁입은	-8.9875
▁그들이	-8.98926
▁보안	-8.99056
▁주택	-8.99174
▁가지고	-8.99293
▁해외	-8.99374
▁밝혀졌다	-8.99389
친	-8.9948
▁신문	-8.99515
▁폐쇄	-8.99738
▁딸	-9.00048
▁남성	-9.0015
▁이상이	-9.0016
▁헬기	-9.00265
▁아닌	-9.00319
원	-9.00351
▁결혼	-9.00383
브	-9.00486
▁선수	-9.00529
▁법	-9.00595
▁성공	-9.00647
▁바로	-9.00664
▁푸틴	-9.00684
▁월에	-9.00751
▁대회	-9.00825
▁입었다	-9.0092
▁아기	-9.00936
▁전체	-9.01097
▁마이클	-9.01138
▁제재	-9.01167
▁사업	-9.01188
▁안보	-9.0123
▁방안	-9.01346
▁사진	-9.01373
▁수치	-9.01405
▁현	-9.01528
▁열차	-9.01628
▁승인	-9.0164
▁당신	-9.01781
▁억달러	-9.01896
신	-9.01941
▁비롯	-9.01943
▁재개	-9.02059
해서	-9.02112
정	-9.02394
▁이라크에서	-9.02516
▁체포	-9.0282
모	-9.02837
▁감소	-9.02869
종	-9.02995
혀	-9.03254
▁호	-9.03387
▁비디오	-9.03406
▁아무	-9.03419
▁말한다	-9.03523
▁us	-9.0356
▁n	-9.0358
▁예상	-9.03625
▁문	-9.03738
▁메시지	-9.03816
▁라디오	-9.03854
▁co	-9.03929
▁살고	-9.03944
▁작전	-9.04149
▁시도	-9.04217
▁마을	-9.04262
▁중인	-9.04411
▁하	-9.04491
▁관계자가	-9.04512
한다고	-9.04529
동	-9.04575
n	-9.04616
▁밝힌	-9.04705
c	-9.04751
▁그런	-9.04842
간의	-9.04867
▁파	-9.04922
▁경고했다	-9.04957
츠	-9.05039
터	-9.05125
▁음악	-9.05131
▁만약	-9.05203
▁없을	-9.05328
▁아프리카	-9.05379
▁받아	-9.05535
▁도움	-9.05845
▁발표한	-9.05868
▁최종	-9.05941
▁무장	-9.06096
▁남편	-9.06155
▁정상	-9.06157
▁하락	-9.06327
긴	-9.06488
▁민간인	-9.06507
▁화요일	-9.06794
법	-9.06874
▁석유	-9.06962
▁모	-9.06969
▁환경	-9.07022
▁외국인	-9.07061
▁어린이	-9.07114
▁국민들	-9.07141
▁얼마	-9.07359
▁장관	-9.07504
▁서로	-9.0755
▁하기	-9.07628
▁벌였다	-9.0765
▁얻	-9.07686
▁친구	-9.0773
▁비해	-9.07751
▁이동	-9.07769
▁경선	-9.08074
▁종	-9.08113
든	-9.08126
▁대의원	-9.08331
▁규정	-9.08376
하려는	-9.08397
▁대사관	-9.08419
▁드	-9.08448
▁행정부	-9.08499
▁온라인	-9.08619
▁스타	-9.08782
▁수입	-9.08793
▁스미스	-9.08889
▁홍콩	-9.09012
▁on	-9.09097
▁기록했다	-9.09129
▁양국	-9.0929
▁멕시코	-9.09298
▁필요하다	-9.09308
지는	-9.09393
▁지역의	-9.09397
▁un	-9.09435
▁후보가	-9.09504
▁미국에서	-9.09559
▁길	-9.09565
▁같이	-9.09648
▁지방	-9.09666
er	-9.09732
▁힐	-9.09774
▁통	-9.10032
▁출전	-9.10059
▁경고	-9.10149
▁관리들	-9.10345
▁내렸다	-9.10411
▁중동	-9.10493
▁거리	-9.10528
▁시설	-9.10732
피	-9.10897
▁책임	-9.10898
▁주식	-9.11024
장	-9.1108
▁퍼센트	-9.11219
t	-9.11568
▁브라질	-9.11578
▁밖에	-9.11598
▁일정	-9.11615
이었던	-9.11714
▁수준	-9.1178
란	-9.118
▁구조	-9.12234
▁시스템	-9.12238
▁각각	-9.12275
▁인간	-9.12289
▁권리	-9.12307
▁배우	-9.12332
▁유	-9.12428
▁총선	-9.12471
합니다	-9.12606
▁시위대	-9.12665
▁일본의	-9.12685
▁년부터	-9.12706
▁부통령	-9.12828
▁짐바브웨	-9.12927
▁비용	-9.13004
▁미국인	-9.13096
▁파업	-9.13118
▁웹사이트	-9.13136
▁수단	-9.13204
▁박	-9.13264
▁연료	-9.13282
단	-9.1337
▁시아파	-9.13399
▁p	-9.13534
▁원인	-9.13567
▁대변인이	-9.13596
▁여객기	-9.13641
▁환자	-9.13745
▁이수지	-9.13779
발	-9.13837
▁확보	-9.13858
▁임무	-9.13918
▁나오	-9.13943
▁걸	-9.13981
된다	-9.13984
력	-9.14077
울	-9.14119
▁여자	-9.14123
▁사이에	-9.14253
▁경쟁	-9.14308
▁과거	-9.1458
▁난	-9.14612
시켰다	-9.14648
▁코	-9.14908
▁본	-9.15155
▁네	-9.15187
▁주말	-9.1519
▁과정에서	-9.15213
▁가치	-9.15229
▁발견됐다	-9.15542
▁힘	-9.15669
▁내무부	-9.15771
▁걸쳐	-9.1579
▁인권	-9.15897
▁여명	-9.1601
▁경찰에	-9.16082
▁막	-9.16104
▁성장	-9.16131
▁결정했다	-9.163
▁않아	-9.16371
▁해군	-9.16421
▁부상했다	-9.16432
▁것과	-9.16433
▁항공	-9.16546
▁주민	-9.16649
▁국민	-9.16892
버	-9.17008
▁세금	-9.1708
▁선택	-9.17133
▁만나	-9.17167
▁앤	-9.17195
▁동물	-9.1723
▁여름	-9.17344
형	-9.1749
▁사건이	-9.1754
▁남	-9.17545
거	-9.17566
▁변호사	-9.17592
유	-9.17604
▁팔	-9.17715
▁학생	-9.17797
▁서	-9.17816
▁유일	-9.17874
▁이곳	-9.17953
▁동부	-9.17957
st	-9.1796
▁알리	-9.17986
▁다양	-9.18198
▁케냐	-9.18243
루	-9.18394
▁대상으로	-9.18501
▁인상	-9.18512
하려	-9.18834
하거나	-9.18854
▁주재	-9.18871
▁온몸	-9.18872
▁발	-9.19
▁약속	-9.19209
▁이유	-9.19214
▁후세인	-9.19425
▁어	-9.1943
▁사는	-9.19434
▁단	-9.19438
▁사임	-9.19508
▁우	-9.19537
▁강제	-9.19543
▁국내	-9.19759
▁바란다	-9.19932
▁평균	-9.1994
▁부대	-9.19949
▁바이러스	-9.19954
▁가스	-9.19998
▁어머니	-9.20106
▁시험	-9.20226
▁대해서는	-9.2034
▁캐나다	-9.20406
▁베네수엘라	-9.2046
▁이에앞서	-9.2046
▁익명	-9.20462
▁관계자들은	-9.20462
▁알려진	-9.20467
▁보내	-9.20714
▁부부	-9.20763
하라	-9.20828
위	-9.20907
▁전투	-9.20975
▁이명박	-9.20994
▁선고	-9.21052
씨는	-9.21108
a	-9.21199
▁발견된	-9.21214
▁완전	-9.21345
▁상대로	-9.21349
▁기상캐스터	-9.21532
▁출연	-9.2162
▁국영	-9.21628
▁텍사스	-9.21804
▁일까지	-9.21806
설	-9.2184
▁후보는	-9.22064
▁차베스	-9.22077
으나	-9.22102
▁g	-9.22181
▁공연	-9.22185
▁속	-9.22281
▁인기	-9.22363
▁되고	-9.22481
▁연합	-9.22489
있는	-9.22509
▁민주주의	-9.22672
▁받는	-9.2281
엔	-9.22821
▁아직까지	-9.22847
져	-9.23019
호	-9.23086
▁플로리다	-9.23166
▁북핵	-9.23175
▁지명	-9.23194
▁외국	-9.23301
▁변호사는	-9.23412
▁왕자	-9.23418
▁직원	-9.23723
▁담	-9.23727
▁크게	-9.23738
▁중국은	-9.23783
▁한다는	-9.23816
▁있지	-9.23907
▁반응	-9.24225
▁밝혔습니다	-9.24266
▁담당	-9.24285
▁인정	-9.24305
▁유권자들	-9.24314
▁때까지	-9.24322
▁예상된다	-9.24343
▁제작	-9.24447
그	-9.24482
▁총격	-9.2451
▁소녀	-9.24519
▁적이	-9.24807
▁다리	-9.25052
▁폭력	-9.25287
▁운영	-9.25554
▁강한	-9.25588
했을	-9.25609
▁버스	-9.25729
▁놓	-9.25731
▁합니다	-9.25811
안	-9.259
▁사람들을	-9.25937
▁산업	-9.25945
▁인터뷰	-9.26003
▁거대	-9.26081
▁받지	-9.26159
▁정부에	-9.26317
▁be	-9.26367
▁광고	-9.26432
▁정부와	-9.26444
▁곳에서	-9.26483
▁최악	-9.26506
▁나온	-9.26579
▁마크	-9.26633
로서	-9.26671
▁감시	-9.26684
▁자유	-9.26718
▁유지	-9.26987
▁사람은	-9.27043
▁아니라고	-9.27186
줄	-9.272
▁일부터	-9.27368
▁그것은	-9.27372
▁도움이	-9.27449
▁대만	-9.27558
▁위해서는	-9.27777
▁몸	-9.27904
▁북한에	-9.27955
▁국회	-9.27955
▁빈	-9.27961
▁파병	-9.28008
k	-9.28051
후	-9.28171
▁명으로	-9.28197
▁운동	-9.28209
▁임기	-9.28307
▁받게	-9.28343
▁동료	-9.28368
▁시즌	-9.28374
▁되어	-9.28488
▁주도	-9.28576
▁못하고	-9.28624
▁강력한	-9.28647
▁위원회	-9.2874
▁주간	-9.28752
▁무장세력	-9.28772
▁성폭행	-9.28793
▁수많은	-9.28798
▁건	-9.28905
▁두고	-9.28978
▁상원의원이	-9.29178
▁명령	-9.29222
▁nasa	-9.29379
▁매년	-9.29386
▁되었다	-9.2939
▁시간이	-9.29493
r	-9.29547
▁확인했다	-9.29593
▁위를	-9.29663
▁월요일	-9.29828
▁해안	-9.29856
판	-9.29884
▁있음	-9.29988
▁사과	-9.30099
▁여론조사	-9.30205
▁d	-9.30288
▁가능한	-9.30319
▁선수들	-9.30356
▁중에	-9.30491
▁못한	-9.30537
▁필리핀	-9.30581
▁재판	-9.30638
▁가졌다	-9.30676
▁가자지구	-9.30695
포	-9.30776
▁적어	-9.30812
▁목표	-9.30836
▁머리	-9.30923
▁f	-9.30938
▁언급했다	-9.30954
시켜	-9.31026
▁제품	-9.31102
▁저	-9.31108
▁공격으로	-9.31147
▁항공사	-9.31252
▁계약	-9.31257
▁나왔다	-9.31311
▁공	-9.3135
다고	-9.31402
▁보고서는	-9.31484
▁이집트	-9.31501
▁계획이다	-9.31537
▁친	-9.31573
m	-9.31633
▁레	-9.31651
영	-9.31653
요	-9.31716
▁차이	-9.31724
에서도	-9.31782
▁밝히지	-9.31793
▁사퇴	-9.31918
▁쿠바	-9.31947
▁학생들	-9.32028
▁상황이	-9.3206
급	-9.32067
감	-9.32121
▁따른	-9.32146
▁평가	-9.32293
▁개선	-9.32355
▁보냈다	-9.32445
▁소송	-9.32448
▁그룹	-9.32894
▁나머지	-9.3294
▁이끄는	-9.32941
슨	-9.32952
▁개최	-9.32981
▁제공	-9.33004
▁병사	-9.33218
▁사랑	-9.33235
▁책	-9.33339
▁사람들에게	-9.33346
중인	-9.33376
▁회	-9.33396
▁장면	-9.33426
▁되지	-9.33427
▁신고	-9.33452
de	-9.33464
동안	-9.3354
▁어느	-9.33546
▁들어	-9.33585
▁향해	-9.33606
▁작품	-9.33638
▁여론	-9.33665
u	-9.33723
▁요청했다	-9.34121
▁관해	-9.34138
▁불만	-9.34163
▁포	-9.34178
▁하원	-9.3422
▁올랐다	-9.34254
▁음식	-9.34321
▁공습	-9.3436
▁지나	-9.3438
▁주지사는	-9.34446
▁암	-9.34449
▁달리	-9.3455
▁국무장관	-9.34569
▁통제	-9.34585
▁있다며	-9.34636
▁지진	-9.34711
▁제임스	-9.34768
▁희망	-9.34836
▁영어	-9.34886
▁일자리	-9.3492
▁무역	-9.35019
▁교수	-9.3502
▁희생자	-9.35025
▁아내	-9.35049
▁외교	-9.35117
▁잘못	-9.35388
위원회	-9.35388
▁과	-9.35439
▁소재	-9.35441
▁표	-9.35591
▁갈	-9.35826
▁소	-9.3592
키	-9.3592
▁만큼	-9.35989
▁권력	-9.36002
▁다음달	-9.36017
▁뇌	-9.3602
▁맞	-9.36059
▁막기	-9.36123
▁미군이	-9.36169
회	-9.36175
▁참석	-9.36187
▁항공기	-9.36325
▁제한	-9.3637
▁남한	-9.36494
▁특별	-9.36533
▁목숨	-9.36633
장은	-9.36642
▁비밀	-9.36704
▁질문	-9.36736
▁u	-9.36744
▁부상자	-9.36865
▁자회담	-9.36971
▁위로	-9.36998
▁붕괴	-9.37087
속	-9.37106
▁이것은	-9.37111
▁기사	-9.37166
▁b	-9.37229
문	-9.3723
▁주장하고	-9.37242
▁팬들	-9.37259
▁서부	-9.37262
▁해야	-9.37291
록	-9.37345
▁야후	-9.37349
▁숨지고	-9.37361
▁스	-9.3748
▁전기	-9.37482
▁달러에	-9.37491
▁받았다고	-9.37546
▁칸	-9.3759
▁부모	-9.37748
▁들	-9.37749
▁정도로	-9.37787
▁암살	-9.37839
▁질문에	-9.37863
▁자체	-9.37894
▁긴장	-9.37931
▁수천명	-9.37942
▁국방장관	-9.37944
▁시리아	-9.38088
▁오바마가	-9.38151
군	-9.38213
▁사실이	-9.38298
금	-9.38363
▁회복	-9.38397
▁집단	-9.38463
▁어떠한	-9.38547
▁압력	-9.38565
▁만들어	-9.3857
▁수출	-9.38727
▁기지	-9.38741
▁후에	-9.38841
▁시기	-9.3918
▁편	-9.39259
▁끝에	-9.39325
▁라며	-9.39724
인한	-9.39738
▁적	-9.39776
▁오른	-9.39816
▁물론	-9.39836
▁나이	-9.39892
▁곳에	-9.39921
▁의미	-9.40006
▁헌법	-9.40038
한다는	-9.40161
▁작업을	-9.4022
▁위성	-9.4024
▁문화	-9.40277
▁추	-9.40285
▁사우디	-9.40326
▁기소	-9.40411
▁사원	-9.40451
▁시카고	-9.40493
▁병	-9.40508
▁시민	-9.40512
론	-9.40629
▁이라크에	-9.40702
기도	-9.4071
▁수요일	-9.40739
▁증시	-9.40747
▁당선인	-9.40775
▁전문가	-9.40856
▁수색	-9.40939
▁흑인	-9.40987
▁경제적	-9.40992
▁입고	-9.41023
▁항상	-9.41128
네	-9.41156
▁목적	-9.4123
하였다	-9.41253
▁전국	-9.41331
▁쇼	-9.41359
▁안정	-9.41381
실	-9.41557
▁별	-9.41585
▁파리	-9.41618
▁이래	-9.41705
▁이란이	-9.41797
▁자리	-9.41804
▁발전	-9.41805
▁누	-9.41984
▁구성	-9.42049
▁세력	-9.42245
▁유명한	-9.42267
▁진압	-9.42296
▁해리	-9.42364
▁처리	-9.42398
▁연	-9.42413
▁베컴	-9.42442
▁살인	-9.42608
▁이달	-9.42701
▁엘	-9.42727
▁개국	-9.42779
▁교전	-9.4282
되기	-9.42825
학	-9.42901
▁외무부	-9.42938
물	-9.43022
▁여성이	-9.43068
▁fbi	-9.43108
▁발생해	-9.43255
▁식량	-9.43367
명	-9.4342
▁수상	-9.43432
▁발생했다고	-9.43558
▁혼란	-9.43699
▁군대	-9.4377
▁개혁	-9.43775
▁아베	-9.43851
▁주가	-9.43917
▁로마	-9.43922
▁파괴	-9.43933
체	-9.4394
▁아주	-9.43968
▁사진을	-9.43998
▁사상	-9.44155
대로	-9.44173
기구	-9.44232
▁것이라	-9.44264
▁대표는	-9.44287
▁허가	-9.44326
▁일요일	-9.44548
▁병원에	-9.44679
▁합의했다	-9.44717
▁지도자인	-9.44749
▁패	-9.45031
▁new	-9.45033
▁기대	-9.45094
▁피해자	-9.45154
경	-9.45167
▁미래	-9.45192
▁자국	-9.45257
▁넘	-9.45279
▁대해서	-9.45283
▁존스	-9.45296
▁최고의	-9.45348
▁신원	-9.45388
▁질	-9.45393
▁뿐	-9.45475
▁자료	-9.45561
▁비슷	-9.45655
▁유권자	-9.45753
▁아무런	-9.45828
▁주민들이	-9.4583
▁실험	-9.45963
▁관련해	-9.45969
민	-9.46068
▁따라	-9.46083
▁위에	-9.46112
▁무장단체	-9.46118
▁방	-9.46141
였습니다	-9.46212
▁정권	-9.46233
▁삶	-9.4626
▁여명이	-9.46397
▁넘는	-9.46398
▁씨는	-9.46465
▁일이	-9.46475
▁않았지만	-9.46516
▁업체	-9.46521
▁벌	-9.46655
▁고통	-9.46799
▁작년	-9.46844
방	-9.46945
▁거주하	-9.46951
▁부분	-9.47067
▁통과	-9.47156
▁강화	-9.47165
▁싶다	-9.47166
▁게이츠	-9.47206
▁현장	-9.47254
▁인수	-9.4726
▁것인지	-9.47328
▁수익	-9.4736
▁선거에서	-9.47395
▁강력	-9.47418
▁가질	-9.47446
▁유명	-9.47501
▁상당	-9.47523
▁체포됐다	-9.47547
▁교회	-9.4767
o	-9.47882
너	-9.47997
▁승객	-9.48074
▁그들	-9.481
▁목표로	-9.48138
▁h	-9.48227
▁하며	-9.48333
함	-9.48334
▁마음	-9.48391
▁순간	-9.48395
▁관계자들	-9.48425
들에	-9.48599
▁언론은	-9.48602
▁심장	-9.48671
▁월부터	-9.48766
강	-9.48767
▁위치	-9.4878
▁돌	-9.4891
▁목요일	-9.48915
▁반대하는	-9.48959
▁사건은	-9.48974
▁선언	-9.49003
▁방문한	-9.49023
▁거부	-9.49044
▁허리케인	-9.49082
▁추락	-9.49089
▁정상회담	-9.49138
▁항의	-9.49247
되었습니다	-9.49264
▁좀	-9.49291
▁위반	-9.49337
▁숨진	-9.49343
▁정말	-9.4953
▁직원들	-9.49574
▁실시	-9.49596
▁센터	-9.49867
▁전력	-9.49878
하겠다	-9.49906
▁대중	-9.49968
▁선두	-9.50023
▁탑승	-9.50064
▁자녀	-9.50198
▁공군	-9.50236
▁c	-9.50245
▁마약	-9.50336
▁단지	-9.50492
▁사장	-9.50497
▁구속	-9.50601
▁요청	-9.50625
만이	-9.50658
힌	-9.50734
▁코소보	-9.5075
▁저는	-9.50763
▁종교	-9.50775
공	-9.50779
▁이라크전	-9.50822
되었다고	-9.50926
▁유로	-9.51112
▁백	-9.51134
▁대화	-9.51167
▁보이는	-9.51258
▁참가	-9.51275
▁주지사	-9.51308
▁당했다	-9.51386
▁있는지	-9.51462
▁나타나	-9.51475
▁들고	-9.51639
▁고문	-9.51816
▁논쟁	-9.51972
▁마련	-9.52062
▁인물	-9.52156
▁젊은	-9.52163
교	-9.52178
▁찰스	-9.52201
▁몇몇	-9.52206
▁신화통신	-9.52229
▁매일	-9.52286
▁추진	-9.52348
▁명에	-9.52531
▁회담에서	-9.52574
병	-9.52641
▁차기	-9.52731
팀	-9.52789
▁소리	-9.52791
l	-9.53059
▁집중	-9.53213
▁검토	-9.53234
▁체포했다	-9.5329
▁출마	-9.53356
▁복귀	-9.53464
▁연속	-9.53532
▁bbc	-9.53682
▁지역을	-9.53686
▁유죄	-9.53692
▁밝혀지지	-9.53705
▁약간	-9.53853
▁지도자들	-9.53861
▁가까	-9.53986
▁시상식	-9.54015
▁수석	-9.54038
▁압박	-9.54046
▁약물	-9.54116
▁총기	-9.54207
▁지지자들	-9.54254
측	-9.54259
▁연구소	-9.54274
케	-9.54295
tal	-9.54335
▁소말리아	-9.54388
▁다이애나	-9.54403
▁예	-9.54458
▁나토	-9.54464
▁감염	-9.54489
▁대형	-9.54509
▁자주	-9.54571
▁세기	-9.54637
▁전까지	-9.54735
▁섬	-9.54741
▁휴대폰	-9.54772
▁여당	-9.54942
▁충격	-9.5502
▁관광객	-9.55069
▁마일	-9.55174
▁올메르트	-9.55179
▁스스로	-9.5518
▁블레어	-9.55195
▁왜	-9.55203
▁씨	-9.5523
▁스위스	-9.5525
건	-9.55305
▁한국은	-9.55306
▁t	-9.55311
▁군부	-9.55332
▁선정	-9.55338
로써	-9.55341
▁어려움	-9.55361
▁치	-9.55385
▁사형	-9.55404
▁연설에서	-9.55477
▁추정	-9.55516
▁메	-9.55533
▁영국의	-9.55551
▁임시	-9.55729
▁id	-9.55741
▁오래	-9.55797
▁배치	-9.5584
▁의료	-9.55866
▁주의	-9.55909
됐	-9.55935
▁오랫동안	-9.55937
▁핵심	-9.55968
▁여성들	-9.56014
▁전시	-9.56069
▁확대	-9.56084
▁만든	-9.56089
▁긴급	-9.56092
▁제조	-9.56135
▁인사	-9.5617
▁병원에서	-9.56256
▁모델	-9.56372
여	-9.56374
▁이라	-9.56465
▁로켓	-9.56468
▁대비	-9.5648
▁한반도	-9.5654
▁노조	-9.56677
▁보기	-9.56687
▁비상사태	-9.56702
청	-9.56706
▁확실히	-9.56736
▁후보에	-9.56765
▁is	-9.56813
행	-9.56838
▁애	-9.56909
▁되	-9.57161
▁촬영	-9.57169
▁절차	-9.57306
▁이와같	-9.57343
▁고용	-9.57379
▁korean	-9.57386
스트	-9.57403
▁겪고	-9.57469
▁그렇게	-9.57469
▁직후	-9.57473
해왔다	-9.57511
▁설명	-9.5752
▁수가	-9.57557
▁착륙	-9.57631
▁운행	-9.57705
▁끝	-9.57749
▁사이트	-9.57754
▁전통	-9.57846
▁내부	-9.57904
▁지수는	-9.58004
▁중앙	-9.58012
▁상대	-9.58047
▁임명	-9.58064
cat	-9.58098
▁증가했다	-9.5812
▁버지니아	-9.5816
▁홍보	-9.58205
▁디	-9.58248
▁그에게	-9.58272
리자	-9.58293
▁수백명	-9.58295
반	-9.58349
▁피트	-9.58389
tp	-9.584
▁폭력사태	-9.58483
▁실제	-9.58541
▁효과	-9.58688
▁국제사회	-9.58807
es	-9.58815
▁군인	-9.58874
▁분기	-9.58878
▁프로젝트	-9.58906
▁탄	-9.58929
▁칼	-9.58936
▁빠른	-9.59027
▁맞아	-9.59141
▁고양이	-9.59204
▁집회	-9.59225
▁해제	-9.59429
▁사항	-9.59608
▁낮은	-9.59648
른	-9.59679
▁패배	-9.59753
▁탁신	-9.59784
▁동결	-9.59785
▁오랜	-9.598
▁국립	-9.59815
▁노래	-9.5982
▁원자로	-9.59827
▁스포츠	-9.59858
▁키	-9.59916
▁알게	-9.59958
▁북한과	-9.59976
거리	-9.60012
▁이밖에	-9.60046
▁남북	-9.60076
▁차지했다	-9.60097
▁실수	-9.60155
▁의원이	-9.60218
▁애플	-9.60463
▁경찰과	-9.60507
▁여왕	-9.60511
▁사무실	-9.6052
▁둔	-9.60553
▁산불	-9.60615
▁스피어스	-9.60618
▁집에서	-9.60709
▁내각	-9.60718
▁아마	-9.60746
▁관계자	-9.60812
▁윌리엄스	-9.60829
▁소식을	-9.60841
재	-9.60854
▁만명이	-9.60951
▁위기에	-9.60971
▁보이고	-9.60975
▁대화를	-9.60983
▁진출	-9.6108
b	-9.61169
▁정당	-9.6117
▁말하고	-9.61321
▁일에	-9.61342
▁베	-9.61387
▁폭풍	-9.61389
▁iaea	-9.61407
함으로써	-9.61416
▁동시	-9.61434
▁크리스토퍼	-9.61446
▁나타냈다	-9.61458
▁주년	-9.61467
지도	-9.61478
▁윌리엄	-9.61569
▁일반	-9.6161
▁속에	-9.61655
▁북	-9.6168
▁출발	-9.617
▁소비자	-9.61721
▁관광	-9.61746
▁법적	-9.6177
▁부인했다	-9.61807
▁전달	-9.61905
등	-9.61944
▁소장	-9.61947
▁수정	-9.61963
▁루	-9.61987
▁글	-9.61998
▁받기	-9.62013
▁중국이	-9.62036
▁올라	-9.62121
▁담배	-9.62201
▁높다	-9.62213
▁무가베	-9.62213
▁배럴	-9.62217
▁cia	-9.62218
▁개봉	-9.62242
▁가수	-9.62243
▁발생할	-9.62268
▁영상	-9.6227
▁시작된	-9.62291
▁블로그에	-9.62318
▁중이다	-9.62324
▁시행	-9.62396
▁소식통은	-9.62639
▁대법원	-9.62696
▁상황에서	-9.62796
▁이전에	-9.62822
하기도	-9.62833
▁옷	-9.62974
▁감사	-9.62988
▁청와대	-9.63017
갈	-9.63025
▁조금	-9.6306
▁말레이시아	-9.63101
▁않겠다	-9.63169
▁실패	-9.632
▁월까지	-9.63235
▁이미지	-9.6325
▁접촉	-9.63424
통	-9.63431
▁누구	-9.6344
▁ms	-9.63457
▁보여주	-9.63469
▁찾아	-9.63558
▁대가	-9.63576
▁문서	-9.63749
▁성적	-9.63777
▁떨어져	-9.63845
▁먼저	-9.63849
▁스티브	-9.63849
▁사망했으며	-9.64001
▁외무장관	-9.64036
▁구매	-9.6408
싼	-9.6411
▁목소리	-9.64168
▁장기	-9.64174
▁구성된	-9.64176
▁가량	-9.64183
▁도중	-9.64262
▁않기	-9.64286
▁위험한	-9.64314
튼	-9.64359
▁보낸	-9.64443
▁대책	-9.64502
▁장소	-9.6453
▁부정	-9.64532
▁가족들	-9.64573
▁고든	-9.64574
▁처벌	-9.64601
하길	-9.64655
▁네덜란드	-9.64672
▁하워드	-9.64674
▁kg	-9.64677
▁엄마	-9.64677
▁위원장은	-9.64683
본	-9.64684
▁제출	-9.64685
▁ht	-9.64687
▁하다	-9.64703
▁카운티	-9.6474
▁주에서	-9.6475
▁이용해	-9.64784
▁사기	-9.64803
▁남성이	-9.64835
▁프라이머리	-9.64911
▁듯	-9.6492
▁단계	-9.64934
▁작업	-9.64945
테	-9.65054
▁난민	-9.65112
▁잉글랜드	-9.65112
▁의혹	-9.65119
▁사용하는	-9.65162
다른	-9.65169
▁카메라	-9.6527
▁예측	-9.65351
분	-9.65467
asp	-9.6551
▁수천	-9.65512
▁있었으며	-9.65513
▁나섰다	-9.65554
▁술	-9.65613
▁찾기	-9.65638
▁지불	-9.65644
저	-9.65733
joins	-9.6582
▁역사적	-9.65865
▁사상자	-9.65938
▁수니파	-9.65963
▁후보로	-9.66099
만한	-9.66249
▁시민들	-9.66261
▁말한	-9.66303
▁넣	-9.66372
▁보안관	-9.66385
▁번째로	-9.66398
▁다쳤다	-9.66469
협회	-9.6659
▁실시된	-9.6663
▁연합군	-9.66757
▁현장에	-9.66896
심	-9.66899
▁등록	-9.669
▁그리스	-9.66907
▁높이	-9.67064
▁최소한	-9.67111
했는데	-9.6713
▁실	-9.67161
▁north	-9.67194
▁알려져	-9.672
출	-9.67207
▁못할	-9.67241
▁영향력	-9.67292
석	-9.6736
▁연구진	-9.6736
▁설치	-9.67418
▁감축	-9.67496
▁크리스마스	-9.67511
▁모습	-9.67611
▁j	-9.67638
림	-9.67673
▁시작됐다	-9.67683
▁대통령에게	-9.67733
▁것처럼	-9.6776
▁주로	-9.6778
▁작가	-9.67866
▁증언	-9.67917
▁아바스	-9.68068
▁접근	-9.68098
▁소식	-9.68164
▁테러로	-9.68304
▁할리우드	-9.68309
▁인정했다	-9.6843
▁홍수	-9.68628
▁의한	-9.68682
▁사례	-9.68798
▁하락했다	-9.68839
▁전자	-9.68868
▁도착	-9.68895
▁머물	-9.68899
▁모하메드	-9.68911
▁분위기	-9.68916
▁니콜라	-9.68931
▁알려지	-9.68946
▁원조	-9.68947
▁웹사이트에	-9.68949
▁규제	-9.68987
▁능력	-9.68987
▁만드는	-9.69049
▁수행	-9.691
▁과학	-9.69171
▁집행	-9.69174
▁빠르	-9.69207
▁통신	-9.69368
▁입	-9.6938
▁등이	-9.69383
▁우크라이나	-9.69388
▁그중	-9.69442
▁나와	-9.69591
▁일어난	-9.69741
▁당한	-9.69755
▁구호	-9.69773
▁빨리	-9.6978
▁정확한	-9.6978
▁farc	-9.69781
▁구글	-9.69786
▁없습니다	-9.69796
▁비판	-9.69926
▁측	-9.6993
▁얻었다	-9.69978
▁위해서	-9.69995
▁만들	-9.70001
▁들었다	-9.70088
▁지배	-9.70191
▁페	-9.70313
▁쿠르드	-9.70329
▁실제로	-9.70341
▁이란은	-9.70416
▁긴	-9.70455
▁게	-9.70471
▁조건	-9.70515
었습니다	-9.7056
▁취소	-9.70562
▁피터	-9.70628
▁쉽게	-9.70771
장을	-9.70782
▁미국에	-9.70886
▁사무총장은	-9.7089
▁걱정	-9.70934
▁과정	-9.70955
▁보좌관	-9.70981
스러운	-9.71023
▁그것	-9.71062
▁기관	-9.711
시킨	-9.71125
▁내려	-9.71197
▁없다는	-9.71252
무	-9.71253
▁나무	-9.713
▁문제로	-9.71313
▁있는데	-9.71331
▁실시한	-9.71352
▁부동산	-9.71433
▁대단	-9.71506
탄	-9.71512
▁가격이	-9.71525
▁south	-9.71542
▁유세	-9.71576
▁치안	-9.71578
▁소년	-9.7158
▁보이지	-9.71603
▁상황에	-9.71787
▁판	-9.71838
▁판단	-9.71841
▁자신들이	-9.71854
▁집권	-9.71924
▁강도	-9.71937
▁시대	-9.72079
다면	-9.72126
▁유사	-9.72201
▁사용할	-9.72386
ly	-9.72421
▁선출	-9.72432
!	-9.72435
▁토요일	-9.72435
▁말리키	-9.72436
▁김정일	-9.72454
▁콘돌	-9.72467
▁떨어졌다	-9.72529
▁중요하다	-9.72534
▁살해한	-9.7272
▁마무리	-9.72762
▁한국과	-9.72793
le	-9.72878
▁고래	-9.73016
커	-9.7306
▁분쟁	-9.73081
▁대응	-9.73096
▁기자는	-9.73171
▁공장	-9.7326
연	-9.73278
▁기후	-9.733
▁with	-9.73336
▁타격	-9.73343
▁운전	-9.73347
증	-9.73356
▁즉시	-9.73369
▁at	-9.73388
▁경기에	-9.73415
▁기자회견	-9.73452
▁만들었다	-9.73512
▁물질	-9.73703
▁이들이	-9.73735
▁휴가	-9.73766
▁분노	-9.73811
▁민병대	-9.73829
▁돼	-9.74028
▁장치	-9.74044
▁남북한	-9.74181
▁징역	-9.7421
▁웹	-9.74251
▁기억	-9.74278
▁기구	-9.74308
▁초기	-9.74379
▁놀라	-9.74413
▁마드리드	-9.7445
▁그러	-9.74464
워	-9.7458
▁이곳에서	-9.74608
▁요구한	-9.74615
근	-9.74621
▁마치	-9.74699
두	-9.74776
▁시위자들	-9.74908
▁없어	-9.74912
▁영국군	-9.75156
▁신속	-9.75182
▁검색어	-9.75186
▁참석한	-9.75239
▁월드컵	-9.75552
▁전문가들	-9.75631
졌다	-9.75661
▁어린	-9.75734
▁비자	-9.75747
▁협의	-9.75792
▁국장	-9.75794
▁쿠	-9.75795
▁주는	-9.7582
▁방해	-9.75852
▁조작	-9.75871
주의	-9.75874
▁도쿄	-9.759
▁중심	-9.75935
▁표현	-9.76011
▁소지	-9.76017
▁한미	-9.7602
▁경계	-9.76064
▁엘리자베스	-9.76088
▁유럽연합	-9.76102
▁속도	-9.76121
▁기타	-9.76141
▁fta	-9.76149
▁드라마	-9.76161
▁도전	-9.76219
▁조종사	-9.76251
▁요구하는	-9.76258
▁모른다	-9.76269
량	-9.7635
▁속에서	-9.76371
▁페르베	-9.76417
▁긍정적	-9.76481
▁범인	-9.76484
▁약속했다	-9.76485
▁분석	-9.76487
▁외교부	-9.76496
▁권	-9.76513
▁찾	-9.76539
▁확산	-9.76626
작	-9.76761
▁보건	-9.76795
▁경찰관	-9.76803
▁세대	-9.76804
▁법률	-9.76816
▁세르비아	-9.7684
▁장난감	-9.76951
▁수백	-9.76957
▁페일린	-9.77023
▁수반	-9.77036
▁의심	-9.77043
▁협정	-9.77047
▁일본은	-9.77285
▁구체적인	-9.77292
▁전략	-9.77296
▁보장	-9.77349
▁금	-9.77359
▁찬성	-9.77422
색	-9.77571
퍼	-9.7776
▁대사는	-9.77783
▁현장에서	-9.77827
▁공화당의	-9.77857
▁토니	-9.77945
▁이것이	-9.77966
▁매들린	-9.77967
▁귀국	-9.77985
▁갖추	-9.7799
▁소프트웨어	-9.77999
▁벌금	-9.78007
▁뉴	-9.7807
▁석	-9.78169
▁대표팀	-9.78182
▁시리즈	-9.78208
▁보여	-9.78295
▁걸어	-9.7835
▁주고	-9.7836
▁교통	-9.78366
▁의장은	-9.78377
▁넘어	-9.78488
▁캠프	-9.78515
▁체포된	-9.78522
시키는	-9.78606
▁소비	-9.78615
▁대표단	-9.78712
▁포함되어	-9.78735
▁이틀	-9.78898
▁사이클론	-9.78923
업체	-9.78929
▁조사하고	-9.78952
▁되면	-9.78971
▁아부	-9.78998
▁이르는	-9.7901
층	-9.79011
▁총선에서	-9.79024
▁백만	-9.79024
▁성인	-9.79029
▁통화	-9.79078
▁따	-9.79083
▁총리와	-9.79123
되면서	-9.79142
업	-9.79203
▁민간	-9.79298
▁전망이	-9.79338
▁고속도로	-9.79362
▁한번	-9.79485
▁요구를	-9.79568
▁깊	-9.79581
▁진행되	-9.79701
이지만	-9.79853
투	-9.79866
▁자살폭탄테러	-9.79877
▁cbs	-9.7988
▁론스타	-9.79882
▁반발	-9.79884
▁결론	-9.79887
▁루이스	-9.79903
▁축제	-9.79903
▁나달	-9.79908
▁ceo	-9.79913
▁무사	-9.79958
▁공식적으로	-9.79973
▁변	-9.7998
▁성화	-9.80042
▁테이프	-9.80085
▁집계	-9.80134
▁지지자	-9.80151
▁제기	-9.80293
▁마감	-9.80348
▁부패	-9.80417
▁맺	-9.80524
▁지지하는	-9.80534
▁경	-9.8058
▁문제는	-9.80752
▁태	-9.80775
▁태도	-9.80775
▁투자자들	-9.80782
▁샤	-9.80787
▁리버풀	-9.80851
▁있으나	-9.80861
▁에이즈	-9.80862
배	-9.8089
▁헤럴드	-9.80899
▁대피	-9.80902
▁압둘라	-9.80921
▁태풍	-9.80963
▁자격	-9.8105
▁해당	-9.81062
▁망명	-9.81062
▁이끌	-9.81109
▁터키군	-9.81178
▁동맹	-9.81188
▁나가	-9.81216
▁그와	-9.81256
▁개입	-9.81261
▁회담에	-9.81351
▁평화적	-9.81358
방송	-9.81406
▁잡	-9.81433
▁회담은	-9.81439
▁아르헨티나	-9.8144
▁진정	-9.81469
on	-9.81494
▁영국에서	-9.81509
▁연장	-9.81578
▁ac	-9.81631
▁곳으로	-9.81692
▁성공했다	-9.8172
▁중이라고	-9.81741
▁즉	-9.81755
▁투입	-9.8177
▁않으면	-9.81772
▁잭슨	-9.81827
▁우라늄	-9.81831
▁가능	-9.81833
▁않도록	-9.81839
▁힘든	-9.81854
▁그린	-9.81879
▁예산	-9.81896
▁근무	-9.819
▁감	-9.81903
▁통합	-9.81953
▁얼굴	-9.81979
▁축구	-9.82012
▁안보리	-9.82052
▁참여	-9.82185
▁트럭	-9.82239
▁대의	-9.82288
▁중국과	-9.82352
▁인식	-9.82399
▁지진으로	-9.824
▁테러가	-9.82484
▁날씨	-9.8263
▁받았	-9.82709
▁펜실베이니아	-9.8274
씨	-9.82773
▁언제	-9.82807
▁케네디	-9.82824
▁방어	-9.82838
▁드러났다	-9.82844
까	-9.82866
▁당선인은	-9.82892
▁올렸다	-9.82908
했는지	-9.82986
▁허용	-9.82996
▁용의자들	-9.83088
▁전문	-9.8315
쉬	-9.8327
▁급	-9.83308
▁본부	-9.83363
▁수감	-9.83374
▁저녁	-9.83432
▁길이	-9.8352
하지만	-9.8356
▁네팔	-9.83677
▁원유	-9.83692
▁커	-9.83708
▁맥	-9.83708
▁신용	-9.8382
▁좋지	-9.83822
▁휘발유	-9.83822
▁ppp	-9.83823
▁소개	-9.83828
▁향후	-9.8383
▁나쁜	-9.83831
▁민주화	-9.8384
▁대출	-9.8386
▁차관보	-9.83899
▁학살	-9.83899
▁협조	-9.83946
▁집에	-9.83991
▁경선에서	-9.84081
▁일부는	-9.841
▁상품	-9.84222
▁내에	-9.84279
▁저지	-9.84351
▁금리	-9.84428
▁워싱턴에서	-9.84436
▁협회	-9.84441
▁향하	-9.84444
▁들어가	-9.84494
▁당선	-9.84643
▁숨	-9.8476
▁해결하기	-9.84774
▁우주선	-9.84776
▁톰	-9.84795
▁내린	-9.84806
▁휴전	-9.8482
▁육군	-9.84842
▁경험	-9.84862
▁포함해	-9.84877
▁때문이다	-9.84888
▁복제	-9.84907
▁오하이오	-9.84917
한영	-9.8492
▁대사	-9.84972
▁충분	-9.85041
▁굴	-9.85099
▁회담이	-9.85149
▁정부군	-9.85183
▁제외	-9.852
▁형	-9.8521
▁침해	-9.85242
▁대통령에	-9.8533
▁세트	-9.85352
▁중에는	-9.85358
▁화성	-9.85371
▁계획에	-9.8545
▁개월간	-9.85459
▁교황	-9.8553
집	-9.85543
▁지도부	-9.85554
▁실종	-9.85608
▁자연	-9.85617
▁학생들이	-9.85651
약	-9.85709
시키고	-9.85743
▁편지	-9.85828
▁아카데미	-9.85834
▁훨씬	-9.85852
▁국제유가	-9.85853
▁불참	-9.85854
▁해리포터	-9.85854
▁벌어진	-9.85862
▁리비아	-9.85871
역	-9.85912
▁공개했다	-9.85965
▁예정이며	-9.85967
p	-9.85973
▁취임	-9.86075
▁토론	-9.86149
▁선거운동	-9.862
▁승무원	-9.86391
센	-9.86396
▁오픈	-9.8641
측은	-9.8642
▁찾는	-9.86446
▁시드	-9.86575
▁의료진	-9.86582
됐지만	-9.86583
▁예방	-9.86591
▁여기	-9.86594
기로	-9.86818
▁r	-9.86867
▁dna	-9.86886
▁힐튼	-9.86902
함에따라	-9.8693
▁반기문	-9.86949
▁학대	-9.86992
센터	-9.87042
▁랭킹	-9.87049
지역	-9.87054
▁대부분은	-9.87132
였다고	-9.87138
▁포드	-9.87351
▁충분한	-9.87411
▁요구하고	-9.87429
▁목격자들	-9.87467
▁벌인	-9.87486
▁자세	-9.87496
▁생명	-9.87591
▁밝혀	-9.87592
있다	-9.87631
▁버	-9.87671
▁해고	-9.87684
▁장관이	-9.87725
런	-9.87732
▁의장	-9.87761
▁쉬	-9.878
▁re	-9.87854
▁임신	-9.87874
▁로봇	-9.87927
▁체니	-9.87952
▁입국	-9.88014
▁방법으로	-9.88015
▁며칠	-9.88031
▁재산	-9.88036
었던	-9.88089
ment	-9.88091
▁킹	-9.88206
▁언급하지	-9.88276
▁국가들	-9.88277
으로서	-9.88361
g	-9.88366
초	-9.88378
▁주장하는	-9.88393
▁의도	-9.88396
▁침체	-9.88404
기간	-9.88446
▁완화	-9.88481
▁유가	-9.88481
▁핵실험	-9.8851
▁노동	-9.88531
f	-9.88698
언	-9.88702
▁불리는	-9.88709
w	-9.88745
▁특별한	-9.88792
▁끝난	-9.88806
▁잠	-9.88841
▁축하	-9.88862
▁믿고	-9.88953
▁최신	-9.88959
▁연락	-9.88959
▁부활	-9.88975
▁맨체스터	-9.88976
▁페더러	-9.88978
▁입양	-9.8898
▁화산	-9.88981
▁맨유	-9.88983
▁반정부	-9.89003
▁지출	-9.89022
한다면	-9.89039
자들	-9.89064
▁움직임	-9.89123
▁밀란	-9.89139
▁바그다드에서	-9.89202
▁시절	-9.89227
▁보상	-9.89325
▁개정	-9.8934
▁방지	-9.89345
볼	-9.89372
▁수십	-9.89411
▁방문할	-9.8942
▁것보다	-9.8952
▁노동자	-9.89569
▁아파트	-9.89577
▁사무총장	-9.89784
▁바람	-9.89816
양	-9.89835
▁자산	-9.89845
▁하게	-9.89865
었으며	-9.89914
하려고	-9.89982
▁방문했다	-9.89997
인지	-9.90001
▁이메일	-9.90041
▁대다수	-9.90043
▁접속	-9.90048
▁장식	-9.90118
▁이스라엘과	-9.90132
▁비상	-9.90173
▁지도	-9.90286
▁이익	-9.90294
▁회사들	-9.90325
▁기자들	-9.90433
▁파견	-9.90477
▁단체는	-9.90492
▁캠페인	-9.90679
▁an	-9.90712
▁생각하고	-9.90765
▁열린우리당	-9.90771
▁대처	-9.90792
▁아랍	-9.90817
▁원하는	-9.90826
▁연루	-9.90842
▁계획이	-9.90854
▁형성	-9.90887
▁협상이	-9.90955
▁임	-9.90976
겠다고	-9.91022
▁소유	-9.91113
▁밖으로	-9.91116
▁세계대전	-9.91117
▁존재	-9.91117
▁영변	-9.91118
▁리콜	-9.91121
▁president	-9.91125
▁센트	-9.91129
▁폭우	-9.91133
▁다이아몬드	-9.91169
▁사령관	-9.91174
▁잃었다	-9.91195
▁의원들은	-9.91195
남	-9.91204
▁대북	-9.91237
▁왕	-9.91261
▁k	-9.91309
▁적절한	-9.91429
h	-9.91451
▁포르투갈	-9.91467
겠다	-9.9151
▁이번주	-9.91565
▁동	-9.91707
▁발표된	-9.91718
▁현대	-9.91816
▁했으며	-9.91853
쳐	-9.91853
▁손실	-9.91884
▁목격자	-9.91969
▁동원	-9.91988
▁모습이	-9.9202
▁제시	-9.92031
▁분야	-9.92054
▁삼	-9.92082
▁지키	-9.92168
▁아이들이	-9.92172
▁마틴	-9.92208
▁출시	-9.92221
▁잠시	-9.92241
▁상어	-9.92318
▁아일랜드	-9.92333
▁밖에서	-9.92348
▁취할	-9.92354
▁빅	-9.92376
▁생존자	-9.92396
▁모양	-9.92436
▁적용	-9.9246
▁샤리프	-9.92585
i	-9.92606
▁행진	-9.92633
마다	-9.92679
▁후반	-9.9271
▁도착했다	-9.92712
▁재정	-9.92795
▁벨	-9.92796
스는	-9.92852
▁교체	-9.92903
▁내전	-9.92987
▁다니	-9.93015
▁고려	-9.93027
▁바라고	-9.93052
▁스티븐	-9.93072
▁변경	-9.93081
▁보면	-9.93105
or	-9.93253
▁iraq	-9.93297
▁무릎	-9.93302
▁현지시각	-9.93302
준	-9.93311
▁않았으며	-9.93312
▁버마	-9.93321
▁목	-9.93343
▁심문	-9.93351
▁말합니다	-9.93377
▁야	-9.93416
▁박물관	-9.93416
▁준	-9.93423
▁who	-9.93427
망	-9.93482
편	-9.93489
▁영	-9.93505
▁인질들	-9.93586
▁경찰서장	-9.93588
▁결	-9.93602
▁전투기	-9.93635
▁신뢰	-9.93645
▁멋	-9.93723
▁선포	-9.93868
▁예상했다	-9.93875
▁폐지	-9.93939
▁사건과	-9.94001
▁이스라엘군	-9.94009
▁대부분이	-9.94227
▁작성	-9.94284
▁공격이	-9.94349
▁멸종	-9.94413
▁nbc	-9.94416
▁will	-9.94416
▁우선	-9.94418
▁갑자	-9.94423
▁쿠데타	-9.94437
▁태평양	-9.94499
▁사건으로	-9.945
▁절반	-9.94501
자들이	-9.94506
▁말라	-9.94709
▁제거	-9.94712
▁가자	-9.94801
▁빠져	-9.94844
영한	-9.94872
액	-9.94892
▁차드	-9.94945
▁향	-9.94953
달하는	-9.94966
▁얘기	-9.9502
▁장비	-9.95023
▁자기	-9.95205
▁신청	-9.9529
▁가득	-9.9543
en	-9.95495
▁보통	-9.95562
▁어려운	-9.95574
▁핵시설	-9.95576
▁보고했다	-9.95623
에선	-9.9569
자들은	-9.95743
▁소니	-9.95749
해졌다	-9.95764
▁짐	-9.95774
▁주일	-9.95778
▁사실상	-9.9582
년	-9.95873
▁되기	-9.9594
▁면	-9.95946
▁잔해	-9.96013
▁cm	-9.9602
▁가까이	-9.96043
링	-9.96076
▁수요	-9.96165
품	-9.96183
▁일본에서	-9.96249
▁투	-9.96251
▁층	-9.96261
▁된다고	-9.96262
▁성과	-9.96336
▁찾고	-9.96442
▁현재까지	-9.96482
▁기도	-9.96492
▁진술	-9.96553
▁선물	-9.96619
▁톤	-9.96624
▁야생	-9.96673
▁이렇게	-9.96673
▁훌륭	-9.96673
▁파운드	-9.96674
▁힘들	-9.96678
▁원제	-9.96758
▁격차	-9.96807
▁적은	-9.96857
▁조사에	-9.9688
▁질환	-9.96887
▁부문	-9.96891
▁만날	-9.96959
▁처음이다	-9.96965
▁땅	-9.97044
▁외교적	-9.97092
▁둘	-9.97162
▁중국에서	-9.97172
▁그것이	-9.9718
지르	-9.97198
▁죽음	-9.97202
▁촉구	-9.97305
▁마이크	-9.97316
▁때문	-9.9734
으면	-9.97341
▁i	-9.9737
▁첼시	-9.97433
▁내용이	-9.97515
▁일본이	-9.978
▁카르자이	-9.97823
▁최선	-9.97831
▁걸릴	-9.97869
▁일리노이주	-9.97874
▁일환으로	-9.97876
▁치러진	-9.97877
▁떠나	-9.97946
▁신임	-9.97966
았다	-9.98019
▁가는	-9.98033
▁제안했다	-9.98047
▁가구	-9.98104
▁시작한	-9.98184
▁최초로	-9.9822
▁환영	-9.9823
▁인하	-9.98242
▁투어	-9.98251
▁찍	-9.98257
▁성향	-9.983
▁다르푸르	-9.98317
▁광산	-9.98325
▁차전	-9.9833
▁기업들	-9.985
씩	-9.98506
▁여사	-9.98526
▁남아	-9.98527
▁대체	-9.98577
▁역	-9.98639
▁주기	-9.98754
▁당선자	-9.98799
▁통신은	-9.98835
▁이혼	-9.98925
▁에드워즈	-9.98986
▁조정	-9.98994
▁폭동	-9.98997
▁라운드	-9.99027
▁경보	-9.99032
▁시위에	-9.99036
생	-9.99061
베	-9.99068
▁각국	-9.99114
처	-9.99137
▁쥐	-9.99261
▁설립	-9.99282
▁진행된	-9.99413
▁있어서	-9.99414
▁시장에서	-9.9947
▁사살	-9.99546
▁승	-9.9956
들어	-9.99567
▁추정되는	-9.99594
▁기념	-9.99608
▁총재	-9.9962
▁활용	-9.99793
▁사전	-9.99807
▁동의	-9.99811
▁통치	-9.99814
▁환자들	-9.99831
박	-9.99835
렸다	-9.99902
▁웨스트	-9.9996
▁상점	-9.99971
▁동물원	-9.99998
▁책임자	-10.0002
▁기능	-10.0005
▁근거	-10.0006
▁진실	-10.0007
▁조사에서	-10.0008
▁외부	-10.0012
▁년에는	-10.0015
▁덴마크	-10.0016
▁단순	-10.0017
▁의식	-10.0017
▁않지만	-10.0018
▁노력하고	-10.0019
▁소수	-10.0023
▁밑	-10.0023
▁폐기	-10.0023
▁모인	-10.0024
▁실행	-10.0026
▁파타	-10.0032
national	-10.0035
▁이하	-10.0053
▁밝히고	-10.0053
▁앨범	-10.0057
놓고	-10.0061
▁확신	-10.0065
▁상승했다	-10.0066
▁지적	-10.007
▁대기	-10.0073
▁못하는	-10.0083
▁목적으로	-10.009
▁잡지	-10.0097
▁지진이	-10.0105
▁카드	-10.0117
▁나서	-10.0127
▁더불어	-10.0135
▁누군가	-10.0135
▁척	-10.0136
▁성관계	-10.0137
▁신경	-10.0138
▁콘서트	-10.014
것	-10.0141
▁부담	-10.0149
관계	-10.0154
▁귀	-10.0157
▁맞서	-10.0158
▁늘어	-10.0166
▁가정	-10.0168
▁전해	-10.0169
래	-10.0174
▁지급	-10.0183
▁as	-10.0193
▁진입	-10.0195
천	-10.0197
▁특정	-10.0202
▁지수	-10.0203
▁존슨	-10.0203
▁차관	-10.0205
▁결혼식	-10.0205
▁서울에서	-10.0205
▁의회는	-10.0207
▁계속되고	-10.0207
리아	-10.0216
책	-10.0221
둔	-10.0226
▁손상	-10.0228
▁했지만	-10.0229
▁소식이	-10.0234
빠진	-10.0235
▁뉴질랜드	-10.0236
후드	-10.024
▁수집	-10.024
▁밝	-10.0242
▁당신이	-10.0249
▁한국군	-10.0254
an	-10.0254
▁japan	-10.0256
▁짧	-10.0256
▁농축	-10.0256
▁칠레	-10.0256
▁새끼	-10.0257
▁수백만	-10.0257
▁도입	-10.0258
▁유리	-10.0268
▁공격에	-10.0269
▁북측	-10.0269
▁음모	-10.0277
▁건의	-10.0281
▁즉각적	-10.0283
페	-10.0284
▁것이라며	-10.0285
자인	-10.0286
▁내릴	-10.0291
시키기	-10.0292
▁부근에서	-10.0299
▁전면	-10.03
▁이웃	-10.0301
▁없	-10.0302
▁대결	-10.031
▁추적	-10.032
했음	-10.0327
▁사용되	-10.0328
▁됩니다	-10.0328
▁헤즈볼라	-10.0338
▁수용소	-10.0346
낼	-10.0352
▁체결	-10.0354
▁입원	-10.036
▁의회에	-10.036
▁복구	-10.0375
▁불안	-10.0376
▁지시	-10.0377
▁네트워크	-10.0378
▁마카오	-10.0378
▁상처	-10.0379
▁없으며	-10.0381
▁삼성	-10.0384
▁순방	-10.0384
▁따라서	-10.0389
▁어린이들	-10.039
▁심각	-10.0401
▁표를	-10.0405
였으며	-10.0419
▁청소년	-10.0427
▁이유는	-10.0431
▁폭	-10.0437
▁말까지	-10.044
▁전날	-10.0442
하다고	-10.0442
▁서명	-10.0449
▁목사	-10.0462
▁공항에서	-10.0469
▁증가하고	-10.0473
▁재무장관	-10.0476
▁자리에서	-10.0476
▁수상자	-10.0478
▁일주일	-10.048
▁둘러	-10.0483
▁국회의원	-10.0485
▁구제	-10.0495
▁무력	-10.05
▁행성	-10.05
▁실시되	-10.0501
▁스웨덴	-10.0501
▁많다	-10.0504
▁카스트로	-10.0504
▁그래서	-10.0504
▁혜택	-10.0505
▁분명히	-10.0509
▁다니엘	-10.051
▁이뤄지	-10.0511
▁잇	-10.0512
▁개방	-10.0513
맨	-10.0513
▁고객	-10.0517
▁크기	-10.052
▁필	-10.0521
▁매장	-10.0531
▁진	-10.0532
▁철회	-10.0534
▁폭행	-10.0535
▁하면	-10.0537
▁연구원	-10.0539
이었다고	-10.054
▁반군이	-10.0541
▁오브	-10.0546
▁나갈	-10.0555
▁기다리고	-10.0557
▁운영하	-10.056
상을	-10.0566
▁이중	-10.0579
▁클럽	-10.0593
▁고발	-10.0604
드시	-10.0606
▁주지	-10.0613
▁다우존스	-10.0621
▁있다면	-10.0622
▁ioc	-10.0626
▁uefa	-10.0626
▁가입	-10.0627
▁무료	-10.0627
▁페루	-10.0628
▁사담	-10.0628
▁가옥	-10.0629
▁의회에서	-10.063
▁공원	-10.0634
▁포기	-10.0634
▁올린	-10.0642
▁명단	-10.0648
▁고대	-10.0656
▁생	-10.0662
▁오르	-10.0664
▁그동안	-10.0678
▁수감자들	-10.0682
려는	-10.0685
▁이행	-10.0686
▁싱가포르	-10.0694
▁수감자	-10.0697
칠	-10.0705
▁주지사가	-10.0717
▁방식	-10.0719
▁받	-10.0727
때	-10.0729
▁매각	-10.0736
us	-10.0736
▁동반	-10.0738
▁권한	-10.0743
▁제도	-10.0743
▁회원국	-10.0749
▁결정에	-10.0749
▁지도자들은	-10.0751
▁정확히	-10.0753
▁원문기사	-10.0753
▁탐사	-10.0754
▁늘	-10.0758
▁알래스카	-10.0759
▁요원	-10.0762
▁초점	-10.0762
▁검색	-10.0763
▁조원	-10.0764
▁있었고	-10.0768
▁온난화	-10.0777
되면	-10.0789
▁점령	-10.079
ar	-10.0798
대한	-10.0801
▁교도소	-10.0802
▁보고서에서	-10.0809
▁베이징에서	-10.0811
▁무대	-10.0817
▁선언했다	-10.082
▁사드르	-10.0824
▁경매	-10.0847
▁노출	-10.0848
▁특사	-10.0849
▁만일	-10.0855
▁국제적	-10.0863
▁발병	-10.0872
▁테	-10.0876
▁숫자	-10.0881
▁심지어	-10.0881
▁완벽	-10.0881
▁서방	-10.0882
▁차지	-10.0885
▁거뒀다	-10.0887
정부	-10.0893
▁고향	-10.0897
▁이사	-10.09
▁유전자	-10.09
▁제공하는	-10.0905
▁공화국	-10.0909
▁주인공	-10.091
▁영토	-10.0912
▁국	-10.0913
▁송	-10.0916
▁체계	-10.0919
▁형태	-10.0927
▁얻기	-10.0929
▁소환	-10.0931
▁논란	-10.0936
▁운항	-10.0938
▁선박	-10.094
▁혹	-10.0949
▁기독교	-10.095
▁음반	-10.0967
▁대가로	-10.0968
▁연결	-10.0973
▁부정적	-10.0977
율	-10.099
▁지휘	-10.0991
▁악화	-10.0993
▁레이스	-10.0998
▁대선에서	-10.1
▁폴란드	-10.1011
▁nato	-10.1011
▁frb	-10.1011
▁레알	-10.1011
▁철군	-10.1012
▁공산당	-10.1015
▁전반	-10.1017
▁현금	-10.1019
▁노대통령	-10.1021
▁주한미군	-10.1025
▁선거에	-10.1035
자가	-10.1048
▁경제에	-10.105
▁pc	-10.1052
▁안에서	-10.1052
▁심슨	-10.1053
▁현상	-10.1055
태	-10.1057
▁빙하	-10.1058
국가	-10.106
▁생각하는	-10.1062
▁심리	-10.1065
▁헤	-10.1069
▁이양	-10.1076
▁탈출	-10.1077
▁시위대는	-10.1097
▁야기	-10.1104
▁보인다고	-10.1118
▁마치고	-10.1118
▁답변	-10.1129
▁뉴욕에서	-10.1133
▁강경	-10.1137
▁봄	-10.1137
▁해병대	-10.1141
▁보여줬다	-10.1143
▁질병	-10.1145
▁서신	-10.1146
▁호세	-10.1147
했기	-10.1149
류	-10.1152
▁일반적으로	-10.1152
▁의무	-10.1153
▁싸움	-10.1156
▁승리했다	-10.1156
▁발생했으며	-10.1166
▁철도	-10.1181
▁만난	-10.1182
▁생존	-10.1184
료	-10.1189
락	-10.1193
▁이곳에	-10.1198
복	-10.1199
▁납치된	-10.1205
▁절대	-10.1206
▁찬	-10.1209
▁뛰어	-10.121
▁폭탄이	-10.1211
▁하던	-10.122
▁낸	-10.1226
▁전개	-10.1227
▁사라	-10.1234
▁기본	-10.1235
▁plan	-10.1237
▁유나이티드	-10.1237
쯤	-10.1244
▁지연	-10.1245
순	-10.1253
▁에도	-10.1254
▁크리스	-10.1254
▁빛	-10.1255
▁폭격	-10.1258
▁측은	-10.126
ia	-10.1261
▁국왕	-10.1269
▁수용	-10.127
▁노벨	-10.1271
▁보관	-10.1274
▁운동을	-10.1275
▁사우디아라비아	-10.1276
▁잃은	-10.1276
▁공공	-10.1276
▁토마스	-10.1276
▁아이디어	-10.1277
▁예비	-10.1278
▁크라이슬러	-10.1279
▁발간	-10.1283
▁런던에서	-10.1285
▁폐	-10.1287
달	-10.1289
▁기준	-10.1289
▁캘리포니아주	-10.1292
▁실종된	-10.1294
왔다	-10.1294
범	-10.1301
말	-10.1309
▁군인들	-10.131
▁방송국	-10.1313
로운	-10.1313
▁계획이라고	-10.1316
▁프로	-10.1317
▁라이트	-10.1318
▁다우	-10.1325
해줄	-10.1325
랑	-10.1326
▁명에게	-10.1326
▁시장에	-10.1327
▁낳	-10.1331
▁대회에서	-10.1335
▁기대하고	-10.1339
▁모여	-10.1343
▁발생하지	-10.1345
▁달간	-10.1345
▁합동	-10.135
▁위원회는	-10.1359
▁베트남	-10.1363
▁안전한	-10.1366
힐	-10.137
▁여자친구	-10.1372
▁피해가	-10.1374
▁창	-10.1379
▁과학자	-10.1382
렌	-10.1389
▁지역으로	-10.1391
▁신호	-10.1392
▁가했다	-10.1396
▁의회의	-10.1399
▁항소	-10.1403
▁것이고	-10.1404
▁법정	-10.1404
▁체제	-10.1409
▁태양	-10.141
▁붉은	-10.141
▁블랙	-10.141
▁맞춰	-10.1411
▁타이틀	-10.1411
▁있었지만	-10.1412
▁동티모르	-10.1414
▁신발	-10.1414
▁파산	-10.1415
▁쓰나미	-10.1418
ers	-10.1418
▁극	-10.1421
▁이스라엘이	-10.1423
랜드	-10.1427
▁저항	-10.1436
▁이사회	-10.1437
▁받아야	-10.1437
▁gm	-10.1447
시설	-10.1448
▁겨울	-10.1449
▁프리	-10.145
▁수상했다	-10.1451
▁교사	-10.1454
▁지하	-10.1462
▁울	-10.1466
▁재단	-10.1469
▁사회적	-10.1474
▁체	-10.1475
▁원한다	-10.1478
▁나이지리아	-10.1481
▁장애	-10.1481
▁희생자들	-10.1482
▁중국에	-10.1483
▁근처	-10.1488
▁복용	-10.1491
▁표했다	-10.1497
뿐	-10.1504
▁승리한	-10.1522
▁분간	-10.1529
▁유치	-10.1529
▁앞에	-10.1535
탈	-10.154
▁클린턴이	-10.1542
▁본사	-10.1544
▁엄격	-10.1548
▁첫번째	-10.1548
▁아니면	-10.1551
▁예전	-10.1552
▁모기지	-10.1552
▁교환	-10.1553
▁세계은행	-10.1554
▁갖게	-10.1557
▁높아지	-10.1558
▁난사	-10.1559
▁사용한	-10.156
▁총격전	-10.156
▁풀	-10.1563
▁누리	-10.1564
단체	-10.1565
▁점차	-10.157
▁한때	-10.157
▁주장에	-10.1571
▁보낼	-10.1574
▁금요일	-10.1574
▁신부	-10.1577
▁지시했다	-10.1579
▁책임이	-10.1583
▁빚	-10.1585
▁년이	-10.1586
▁보수	-10.1588
▁봤다	-10.1597
▁레이	-10.16
▁토	-10.1602
▁요	-10.1603
니다	-10.1605
▁상태에	-10.1611
들로	-10.1614
▁돌아가	-10.1614
▁고어	-10.1615
규	-10.1616
▁자세한	-10.1617
▁억류	-10.1617
▁시청	-10.1622
지에	-10.1627
▁그림	-10.1629
▁습격	-10.1637
때문에	-10.164
▁회의에서	-10.164
▁입증	-10.1647
▁캐	-10.1661
빈	-10.1664
▁지지율	-10.1671
▁프로그램에	-10.1672
메	-10.1675
▁민감	-10.1679
▁태어난	-10.1687
▁디자인	-10.1688
▁데이터	-10.1688
▁일리노이	-10.1689
▁하원의원	-10.1691
▁대량	-10.1694
▁케이블	-10.1696
▁전쟁에	-10.1696
지를	-10.17
▁소설	-10.17
▁만들어진	-10.1704
▁보유하고	-10.1705
▁불길	-10.1706
▁성공적	-10.1711
▁퍼	-10.1715
▁감독이	-10.1715
▁보트	-10.1728
▁달러로	-10.1728
▁방글라데시	-10.1731
▁계획은	-10.1732
킨	-10.1738
▁남아공	-10.1743
회사	-10.1744
▁지켜	-10.1746
▁고등학교	-10.1746
▁호텔에서	-10.1746
이기	-10.1754
▁도시에서	-10.1762
▁경쟁자	-10.1762
▁중부	-10.1762
▁여성의	-10.1766
▁다수	-10.1776
▁죽은	-10.1787
th	-10.1794
창	-10.1797
▁훼손	-10.1798
만큼	-10.1804
▁팬	-10.1818
▁외교통상부	-10.1819
▁거쳐	-10.1821
▁유감	-10.1827
▁소요	-10.1827
▁앓고	-10.1828
▁휴대전화	-10.1828
▁abc	-10.1829
▁커피	-10.1829
▁외환은행	-10.1831
▁마쳤다	-10.1831
▁뼈	-10.1834
▁열대	-10.1836
▁벤	-10.1838
▁아메리칸	-10.1838
▁예수	-10.184
▁물건	-10.1842
▁추방	-10.1845
만에	-10.1853
▁대상	-10.1858
▁응답자	-10.1858
▁회원	-10.1865
▁중독	-10.187
▁제대	-10.1872
▁지속적	-10.1886
▁양측	-10.1889
▁발생하는	-10.189
▁이라크와	-10.1891
▁흡연	-10.1892
▁접	-10.1894
톤	-10.1898
▁챔피언스리그	-10.1906
▁세상	-10.1909
스타	-10.1913
▁신체	-10.1915
개	-10.1916
▁거부했다	-10.1918
▁경영	-10.1923
▁엔	-10.1927
▁크루즈	-10.1931
▁자극	-10.194
▁사인	-10.1943
▁기반	-10.1943
▁주목	-10.1946
▁참석했다	-10.1951
조치	-10.1951
▁영화제	-10.1954
▁이후로	-10.1956
▁성화봉송	-10.196
▁혐의에	-10.1961
었다고	-10.1965
▁플레이	-10.1971
▁불능화	-10.1971
▁종류	-10.1972
▁주한	-10.1977
▁위조	-10.1981
▁발전소	-10.1981
▁논란이	-10.1984
▁추정된다	-10.199
들도	-10.2
▁동성애자	-10.2002
▁우리당	-10.2006
▁사령관은	-10.2006
▁분석가	-10.2014
▁당수	-10.2017
▁비용이	-10.2019
했다는	-10.202
▁말하며	-10.202
▁수업	-10.2023
▁의지	-10.2026
▁주석	-10.2026
▁한국에	-10.2026
족	-10.203
▁아동	-10.2033
▁값	-10.2034
▁법원에	-10.2038
되었던	-10.2041
▁잔	-10.2044
▁케리	-10.2049
▁파손	-10.2052
▁감정	-10.2055
▁실패했다	-10.2061
▁이내	-10.2077
▁달성	-10.2079
▁복잡	-10.2082
▁보지	-10.2098
▁자원	-10.2103
▁철저	-10.2105
▁색	-10.211
▁코미디	-10.2115
▁스코틀랜드	-10.2115
▁와인하우스	-10.2115
▁송환	-10.2116
▁저지른	-10.2116
▁무죄	-10.2117
▁것이었다	-10.2118
▁나올	-10.2119
▁헨리	-10.2119
▁방영	-10.212
▁낸시	-10.212
▁보는	-10.212
▁우리나라	-10.2122
▁펼쳤다	-10.2124
▁오스트리아	-10.2125
▁김대중	-10.2127
▁왕세자	-10.213
같은	-10.2136
▁혁명	-10.2136
기관	-10.2137
▁경기장	-10.214
없이	-10.2144
▁못한다	-10.2145
블	-10.2153
▁순찰	-10.2154
▁구입	-10.2161
으로써	-10.2163
▁국민들에게	-10.2164
▁폭발물	-10.217
▁업계	-10.217
▁이스라엘은	-10.2173
쿠	-10.2176
안을	-10.2181
▁세포	-10.2181
▁활주로	-10.2181
▁사용자	-10.2184
▁제기했다	-10.2189
▁북동부	-10.219
▁미국측	-10.2191
▁만개	-10.2194
▁관찰	-10.2195
빌	-10.2206
활동	-10.2208
▁사망자수	-10.2209
번	-10.2213
▁단체들	-10.2216
▁군정	-10.2223
살	-10.2231
▁아래	-10.2232
▁시기에	-10.2239
▁뿐만아니라	-10.2241
▁적극적	-10.2245
▁못해	-10.2248
▁엄청	-10.2254
▁대답	-10.2257
▁리처드	-10.2258
▁노예	-10.2259
골	-10.226
▁합병	-10.2262
▁가슴	-10.2262
▁블라고예비치	-10.2262
▁블라디미	-10.2262
▁공포	-10.2263
▁테스트	-10.2263
▁고위관리	-10.2264
▁임금	-10.2265
▁거절	-10.2267
▁요르단	-10.2267
▁견해	-10.2268
▁이루어졌다	-10.227
쇼	-10.2271
▁보도에따르면	-10.2276
▁답했다	-10.2278
▁받았으며	-10.2283
▁식품	-10.2284
▁대학교	-10.2287
▁이해	-10.2293
▁스리랑카	-10.2294
▁의문	-10.2296
▁중대한	-10.2296
수가	-10.2306
▁마감했다	-10.2316
▁진전	-10.2317
▁주문	-10.2325
매	-10.2328
▁l	-10.2336
▁pa	-10.2345
시간	-10.2346
엘	-10.2351
▁식당	-10.2359
▁발언에	-10.2365
▁샌프란시스코	-10.2381
베나	-10.2387
▁에어버스	-10.2392
▁살아	-10.2396
▁한국에서	-10.2397
▁유력	-10.24
▁물가	-10.2401
광	-10.2407
▁취재	-10.2408
▁찾을	-10.241
▁만났다	-10.2412
▁선거캠프	-10.2413
▁숀	-10.2413
▁상공	-10.2415
▁government	-10.2415
▁운송	-10.2415
▁노동당	-10.2415
▁없지만	-10.2415
▁백악관에서	-10.2417
▁여권	-10.2418
▁화해	-10.2421
▁부총리	-10.2422
▁섹스	-10.2423
▁독도	-10.2431
▁자유를	-10.2433
▁검사는	-10.2434
▁케	-10.2434
수록	-10.2436
ic	-10.2441
▁아니었다	-10.2446
▁방향	-10.2446
▁아프가니스탄에서	-10.2454
▁생각했다	-10.2455
▁백악관은	-10.2456
▁비판했다	-10.2459
▁기존	-10.246
▁자사	-10.2469
▁평양	-10.2479
▁분열	-10.2483
자로	-10.2484
▁기금	-10.2489
불	-10.249
▁의원들	-10.2493
▁총장은	-10.2499
▁분명	-10.2504
▁비치	-10.2508
▁뒤에	-10.2518
됐었다	-10.2536
절	-10.254
낸	-10.2542
▁법안이	-10.2544
▁압둘	-10.2552
▁시에	-10.2555
▁나스닥	-10.2563
▁샤라포바	-10.2563
▁from	-10.2563
▁리히터	-10.2563
▁패트릭	-10.2563
▁핵프로그램	-10.2564
▁다윈	-10.2564
▁강풍	-10.2565
▁왕실	-10.2565
▁오늘날	-10.2569
▁개표	-10.2572
▁우주비행사	-10.2572
▁전세계적으로	-10.2573
▁들어갔다	-10.2576
예	-10.2578
▁진영	-10.2578
▁했었다	-10.2583
은행	-10.2587
▁콩고	-10.2591
▁세인	-10.2594
▁주장하며	-10.2594
▁사용될	-10.2596
▁한국이	-10.2597
▁업무	-10.2601
외	-10.2604
▁맡은	-10.261
▁지속	-10.2617
▁이라크군	-10.2622
▁it	-10.2625
▁라스베이거스	-10.2627
▁허	-10.263
▁관광객들	-10.2639
▁교	-10.2642
▁스키	-10.2642
▁형제	-10.2642
▁불과	-10.2652
▁명예	-10.2653
▁니	-10.2656
▁공개된	-10.2659
▁전역에	-10.2665
▁회동	-10.2668
▁말해	-10.2669
▁조성	-10.2685
▁근	-10.2688
▁병사들	-10.2689
영화	-10.2689
▁콜	-10.2695
▁시민들이	-10.2697
▁그렇지	-10.2709
▁완전한	-10.2711
▁골프	-10.2714
▁불편	-10.2717
▁남서부	-10.2717
▁둘러싸	-10.2717
▁케빈	-10.2717
ion	-10.2718
려고	-10.2719
▁법무부	-10.2719
▁방화	-10.2719
▁축소	-10.2719
봉	-10.272
시장	-10.2724
▁공개적으로	-10.2727
▁논의하기	-10.2728
▁받아들일	-10.2729
▁수십명	-10.2729
▁이끌어	-10.273
▁천명	-10.2732
▁방침	-10.2736
▁보호하기	-10.2742
▁오바마와	-10.2744
▁증명	-10.2745
▁가능하다	-10.275
▁공항에	-10.275
▁이송	-10.275
▁공유	-10.2753
▁확실한	-10.2755
턴	-10.2757
▁방법이	-10.2758
▁세계적	-10.2761
▁우리에게	-10.2766
▁생긴	-10.277
▁회사가	-10.2771
▁테러리스트	-10.2772
▁거리에	-10.2773
▁수퍼	-10.2775
▁수영	-10.2786
▁진술했다	-10.2787
▁자신에게	-10.2793
▁결의안을	-10.2795
▁보유	-10.2796
▁폭락	-10.2796
▁외교관	-10.28
▁오염	-10.2808
▁시드니	-10.2808
▁유대인	-10.2811
독	-10.2813
▁벗어나	-10.2815
▁마찬가지	-10.2821
샤	-10.2825
이던	-10.2826
▁논평	-10.2827
▁잡고	-10.2836
▁즉각	-10.2839
▁인근에	-10.2839
각	-10.2842
▁no	-10.2843
▁달라이라마	-10.2849
▁정신	-10.2849
▁만들고	-10.285
서는	-10.285
승	-10.2856
레이	-10.2859
▁해변	-10.2865
▁웃	-10.2867
▁보내는	-10.2869
채	-10.2872
▁패션	-10.2872
▁마이애미	-10.2873
▁비타민	-10.2873
▁디지털	-10.2873
▁가택연금	-10.2873
▁호랑이	-10.2873
▁활약	-10.2873
▁라이벌	-10.2873
▁자치정부	-10.2874
한글뉴스	-10.2874
▁새벽	-10.2874
▁산사태	-10.2875
▁천재	-10.2876
▁조류	-10.2877
▁언어	-10.2878
▁다우지수	-10.2878
▁리그	-10.2879
▁무선	-10.2881
▁떠났다	-10.2889
겐	-10.2889
딘	-10.2894
▁맥주	-10.2894
▁영장	-10.2895
▁감염된	-10.2908
▁획득	-10.2914
섬	-10.292
▁얼음	-10.2924
▁전부터	-10.2925
문제	-10.2927
▁평가했다	-10.2927
▁시장이	-10.2935
▁기계	-10.2938
▁했습니다	-10.2939
▁거두	-10.2941
▁불러	-10.2943
▁영국인	-10.2954
주는	-10.2955
▁급등	-10.2964
▁시티	-10.2964
▁눈에	-10.2965
▁바르셀로나	-10.2974
라도	-10.2974
▁모스크바	-10.2974
▁조기	-10.2975
▁리조트	-10.2977
▁공중	-10.2986
▁격	-10.2987
관리	-10.2988
▁중재	-10.2995
▁상태로	-10.2999
▁지목	-10.3
▁노인	-10.3003
냐	-10.3013
머	-10.3014
▁요소	-10.3016
▁달라	-10.3016
▁강타	-10.3024
▁간단	-10.3029
▁나에게	-10.303
▁minister	-10.3032
▁토네이도	-10.3032
▁쌍둥이	-10.3032
▁천연가스	-10.3032
▁겨냥	-10.3032
▁로이터	-10.3033
▁사생활	-10.3033
먼	-10.3034
▁수석대표	-10.3034
▁벨기에	-10.3034
▁법무장관	-10.3036
▁선발	-10.3037
▁초반	-10.3039
▁의석	-10.3042
▁연금	-10.3044
▁치열한	-10.3049
▁구출	-10.3055
회의	-10.3055
뿐만아니라	-10.3055
되었으며	-10.3056
▁것인가	-10.3057
▁국민들이	-10.3058
▁연구팀	-10.3061
▁호수	-10.3062
▁있	-10.3064
▁소문	-10.3065
▁투표에서	-10.3065
▁문제들	-10.3066
▁재건	-10.3067
▁가족과	-10.3067
▁옮겨	-10.3072
▁북쪽	-10.3079
▁챔피언	-10.3082
▁페이지	-10.3082
▁붙	-10.3084
▁out	-10.3086
▁언론에	-10.3089
▁검거	-10.3091
ce	-10.3093
▁변호사가	-10.3097
▁전원	-10.3103
▁무엇	-10.3106
▁중순	-10.3106
ation	-10.311
▁보고서에	-10.311
▁물이	-10.3115
▁봉쇄	-10.3115
▁차량에	-10.3125
입	-10.3128
ies	-10.3133
▁아프간에서	-10.3134
▁움직이	-10.3134
사를	-10.3138
▁출동	-10.3139
▁채택	-10.314
▁출석	-10.3144
▁인생	-10.3147
▁바다	-10.3149
▁비난하고	-10.3153
▁하와이	-10.3157
▁배가	-10.3164
▁델	-10.3169
▁해양	-10.317
▁정지	-10.3171
▁백인	-10.3173
▁일으킨	-10.3173
▁인디애나	-10.3174
▁고립	-10.318
▁리차드	-10.3183
하고자	-10.3184
▁관	-10.3187
▁얻을	-10.3187
계획	-10.3188
▁부근	-10.3189
▁복무	-10.3193
▁nuclear	-10.3193
▁뿌리	-10.3193
▁쓰촨성	-10.3193
▁아메리카	-10.3193
▁결선투표	-10.3193
▁갖춘	-10.3193
▁은신처	-10.3193
▁보스턴	-10.3194
▁사찰단	-10.3195
▁곡	-10.3196
▁악어	-10.3197
▁받으며	-10.3197
▁카터	-10.3198
▁경력	-10.3199
▁하락세	-10.3199
▁상승세	-10.32
격	-10.3203
▁world	-10.3204
었고	-10.3205
▁측근	-10.3205
▁전환	-10.3206
▁이재민	-10.3206
▁사람에게	-10.3207
▁들어오	-10.3209
▁로한	-10.3209
▁미국인들이	-10.3211
▁미칠	-10.3212
▁구조대	-10.3213
▁증권	-10.3213
▁강조	-10.3215
대학	-10.3218
▁밴드	-10.3225
▁린	-10.3227
▁행복	-10.3227
▁자제	-10.323
▁알카에다와	-10.3237
▁데에	-10.3238
에만	-10.3248
▁재무부	-10.3253
▁데이	-10.3254
▁증가한	-10.3255
▁노스캐롤라이나	-10.3263
▁설득	-10.3264
▁아니	-10.3288
▁급속	-10.3291
▁지점	-10.3292
이었으며	-10.3296
▁아이오와	-10.3299
▁현실	-10.33
▁파티	-10.3302
▁일제	-10.331
▁참여한	-10.331
▁은퇴	-10.3315
표	-10.3316
▁제조업체	-10.332
▁연구에	-10.3325
▁전역	-10.3327
▁포경	-10.3328
▁직업	-10.3329
▁차량이	-10.3329
▁수위	-10.3333
▁군은	-10.3335
▁의사들	-10.3341
▁이란과	-10.3341
▁당국자	-10.3354
▁실망	-10.3354
▁pkk	-10.3357
▁늦게	-10.3357
▁비핵화	-10.3357
▁알렉산더	-10.3357
▁이산화탄소	-10.3357
▁좋다	-10.3357
▁키바키	-10.3357
▁오히려	-10.3357
▁오딩가	-10.3357
▁급격	-10.3358
▁할머니	-10.3359
▁아이폰	-10.3359
▁his	-10.3359
▁체중	-10.3359
▁밥	-10.3363
▁킬로미터	-10.3365
사건	-10.337
▁날짜	-10.3372
됐으나	-10.3376
▁장면이	-10.3379
다시	-10.338
▁본선	-10.3385
▁가동	-10.3387
▁노선	-10.3392
v	-10.3393
▁합의했다고	-10.3398
리는	-10.3403
▁얻어	-10.3412
▁그대로	-10.342
▁비교	-10.343
▁기록한	-10.3435
▁사람들과	-10.3437
▁미국인들	-10.3442
▁홀	-10.3444
▁관계에	-10.3444
▁치러	-10.3448
▁기다리	-10.345
되며	-10.3455
▁두바이	-10.3455
▁결과에	-10.3455
▁차단	-10.3458
▁테러와	-10.346
▁순위	-10.3462
▁계속되	-10.3467
▁결과는	-10.3476
▁쓴	-10.3484
▁총상	-10.3486
▁대상이	-10.3487
▁분만	-10.349
▁공기	-10.3496
▁이란에	-10.3498
사는	-10.3502
▁초대	-10.3508
▁타임스	-10.351
▁지내	-10.3513
j	-10.3514
▁표명	-10.352
▁기상	-10.3521
▁화재로	-10.3521
▁돌아오	-10.3523
▁직전	-10.3523
▁필라델피아	-10.3524
▁인플레이션	-10.3524
▁탄압	-10.3524
▁택시	-10.3525
▁사냥	-10.3525
▁성격	-10.3526
술	-10.3526
▁소위	-10.3527
▁보복	-10.3529
▁메일	-10.3532
▁군사적	-10.3532
▁쌀	-10.3532
▁다음날	-10.3532
▁이론	-10.3533
▁이뤄졌다	-10.3533
▁over	-10.3535
▁나오지	-10.3536
▁만남	-10.3539
▁투쟁	-10.3539
▁재난	-10.3546
▁인사들	-10.3549
▁입을	-10.3555
▁천만	-10.356
▁월요일에	-10.3563
▁그리	-10.3564
▁만들기	-10.3575
▁방식으로	-10.3576
▁수상한	-10.3578
▁개장	-10.3578
▁홍수로	-10.3595
▁정치인	-10.3595
▁식	-10.3598
▁것임	-10.36
▁구조대원들	-10.3601
▁양국간	-10.3603
▁연관	-10.3604
▁여론조사에서	-10.361
▁근로자	-10.361
▁정신적	-10.3613
▁예루살렘	-10.3617
▁민주	-10.3619
▁보안군	-10.3624
ial	-10.3637
▁기대한다	-10.3643
▁작동	-10.3646
ir	-10.3647
▁영웅	-10.3648
렛	-10.3648
▁중지	-10.3652
▁낮	-10.3661
▁사태에	-10.3663
▁주장한	-10.3664
▁일간지	-10.3668
▁시각	-10.3671
▁희생	-10.3674
▁티	-10.3675
▁문제의	-10.3678
▁한국인들	-10.3684
▁이루어지	-10.3687
▁명인	-10.369
▁이에따라	-10.3691
▁골키퍼	-10.3693
▁남자친구	-10.3693
▁왼쪽	-10.3693
▁다시한번	-10.3693
▁부여	-10.3693
▁china	-10.3694
▁러시아는	-10.3694
▁단어장	-10.3694
▁폭설	-10.3695
▁브랜드	-10.3696
▁날개	-10.3697
▁보이	-10.3697
▁유럽의	-10.3701
▁미군과	-10.3705
▁주최측	-10.3708
리스	-10.3713
▁not	-10.3713
개발	-10.3715
않게	-10.3722
올	-10.3722
컵	-10.3723
▁세력이	-10.3724
필드	-10.3729
▁신사	-10.373
▁표명했다	-10.3733
▁조사에따르면	-10.3734
령	-10.3735
▁가족들이	-10.3736
이라며	-10.3738
▁경험이	-10.3741
▁위협이	-10.3742
▁여행객	-10.3743
▁갖	-10.3753
▁내놓	-10.3753
▁극장	-10.3757
달라고	-10.3765
▁니콜	-10.3774
▁진행자	-10.3782
▁전통적	-10.3782
▁제작한	-10.3783
▁스톤	-10.3783
▁북서부	-10.3786
▁밀	-10.3786
▁분에	-10.3787
▁기소됐다	-10.3787
▁토지	-10.379
▁국방	-10.3794
▁갔다	-10.3795
▁열어	-10.3795
▁든	-10.3799
▁내일	-10.3802
▁부상으로	-10.3804
▁몰	-10.3813
보다는	-10.3813
▁불가능	-10.3816
▁구체적	-10.3816
▁단어	-10.3822
▁증시는	-10.3823
▁연주	-10.3828
▁대로	-10.3836
▁제공할	-10.3838
ch	-10.3843
▁시점	-10.3844
▁거듭	-10.3852
▁확인됐다	-10.3853
▁일본과	-10.3859
안에	-10.3865
▁hiv	-10.3866
▁코끼리	-10.3866
▁있었으나	-10.3866
▁영업	-10.3867
▁균형	-10.3867
▁라덴	-10.3867
▁위원장	-10.387
▁생일	-10.3872
▁징역형	-10.3872
▁정식	-10.3874
▁기온	-10.3876
▁올려	-10.3877
▁아난	-10.3877
▁성장률	-10.3879
▁비교적	-10.388
▁비율	-10.3882
▁에드	-10.3882
연합	-10.3883
▁마리아	-10.3884
찬	-10.3886
▁낼	-10.3887
▁맡고	-10.3895
카운티	-10.3899
▁커플	-10.3903
인들은	-10.3911
▁수리	-10.3911
▁조각	-10.3916
▁up	-10.3918
▁자신과	-10.3921
▁사용했다	-10.3923
▁여학생	-10.3935
▁물에	-10.3942
▁목격	-10.3944
▁극복	-10.3945
▁캄보디아	-10.396
▁공사	-10.3961
자와	-10.3963
▁방송사	-10.3964
▁대치	-10.3973
▁다섯	-10.3979
▁해결책	-10.398
▁마무	-10.398
▁허락	-10.3983
▁고객들	-10.3987
▁곳이	-10.3988
▁확정	-10.3989
▁조합	-10.3995
▁위인	-10.3999
▁폭발이	-10.4
되	-10.4004
어야	-10.4004
▁친구들	-10.4019
▁록	-10.402
▁키스	-10.402
▁인종	-10.4021
▁딕	-10.4022
▁디즈니	-10.4027
▁보잉	-10.4027
▁발굴	-10.4029
▁보험	-10.4033
▁윌	-10.4033
▁토론회	-10.4034
▁최저	-10.4036
▁쇼핑	-10.4038
▁뭄바이	-10.4041
▁선관위	-10.4041
▁테일러	-10.4041
▁후진타오	-10.4041
▁계좌	-10.4041
▁스트레스	-10.4042
▁show	-10.4042
▁줄리아니	-10.4043
▁케이트	-10.4043
▁제목	-10.4045
ese	-10.4046
▁음주	-10.4046
▁최근에	-10.4047
▁시내	-10.4055
▁미디어	-10.4056
▁화상	-10.4056
▁론	-10.4056
▁가족이	-10.4058
▁단속	-10.4063
▁보고서에따르면	-10.4064
▁일으켰다	-10.4065
손	-10.407
▁해도	-10.4072
▁일어났다	-10.4073
젠	-10.4082
▁도착한	-10.4082
▁로비	-10.4085
▁당국에	-10.4085
▁필요성	-10.4088
▁남부에서	-10.411
▁근처에서	-10.4112
▁이것	-10.4113
▁통신이	-10.4115
▁애도	-10.4121
▁진화	-10.4123
▁돼지	-10.4124
▁파악	-10.4124
▁하나인	-10.4128
▁감행	-10.4129
▁비난하는	-10.413
▁대피했다	-10.4131
▁들여	-10.4138
▁중단했다	-10.4141
▁진행되는	-10.4142
▁여성과	-10.4144
▁손에	-10.4144
▁선포했다	-10.4159
▁타이	-10.4162
▁발생하고	-10.4168
▁적절	-10.4169
▁슈	-10.4169
▁채널	-10.4169
열	-10.4171
▁정책에	-10.4171
회사인	-10.4172
▁일어나	-10.4173
▁유출	-10.4174
▁공격은	-10.4177
셔	-10.4177
▁음	-10.4194
▁탈	-10.4204
▁거주	-10.421
밖에	-10.421
▁파트너	-10.4213
▁통일부	-10.4216
닝	-10.4217
▁관영	-10.4218
▁승려들	-10.4219
▁구축	-10.4219
▁광범위	-10.422
▁다큐멘터리	-10.422
▁식료품	-10.422
▁탱크	-10.422
▁펠로시	-10.422
▁재검토	-10.422
▁돌고래	-10.422
▁교통사고	-10.422
▁거짓말	-10.422
▁nba	-10.422
▁소규모	-10.422
완	-10.4221
▁동생	-10.4221
▁전당대회	-10.4221
▁특수	-10.4222
▁화려	-10.4222
▁감바리	-10.4225
▁범행	-10.4225
▁기쁘다	-10.4225
▁보존	-10.423
▁시체	-10.4234
▁폭스	-10.4235
▁조명	-10.4236
▁치명적인	-10.4238
▁면담	-10.4242
▁조용	-10.4243
웠다	-10.4244
▁상당히	-10.4246
람	-10.4247
▁재판관	-10.4249
현	-10.4259
▁쓰고	-10.426
▁초청	-10.426
▁측정	-10.4264
▁팀이	-10.4264
▁북쪽으로	-10.4265
▁프레스	-10.4265
▁이로	-10.4267
▁보일	-10.4269
▁경찰서	-10.4269
▁무게	-10.427
▁인원	-10.4279
세력	-10.4282
▁곳이다	-10.4284
됐고	-10.4284
▁마라톤	-10.4285
▁년만에	-10.4286
▁이용하는	-10.4287
▁사용하지	-10.429
▁참석할	-10.4307
▁제출했다	-10.4309
it	-10.4312
▁유럽에서	-10.4316
킬	-10.4317
▁관계당국	-10.4318
▁화	-10.4319
▁머	-10.4319
▁여사는	-10.4322
▁세계적으로	-10.4328
▁의미한다	-10.4333
▁일본에	-10.4338
자는	-10.4338
▁경호원	-10.4346
▁중요	-10.4351
▁배경	-10.4365
▁인류	-10.4367
▁스테	-10.4368
플	-10.4369
ra	-10.4377
조사	-10.4378
▁수사관	-10.4378
▁맞는	-10.438
▁마이크로소프트	-10.4381
▁사용해	-10.4381
▁무슬림	-10.4385
▁보여주고	-10.4386
담	-10.4387
▁주었다	-10.4398
▁알코올	-10.4398
▁곤잘레스	-10.4399
▁dvd	-10.4402
▁돕기	-10.4402
▁듣고	-10.4402
▁샌디에이고	-10.4402
▁횡령	-10.4402
▁펀드	-10.4402
▁롬니	-10.4402
▁국제원자력기구	-10.4402
▁소련	-10.4402
▁예멘	-10.4402
▁침공	-10.4402
▁과반수	-10.4402
▁레이건	-10.4403
▁신규	-10.4403
▁거부권	-10.4405
▁후보자	-10.4405
▁해안에서	-10.4406
▁판정	-10.4406
▁반박	-10.4407
▁스타일	-10.4408
▁충돌이	-10.4408
▁마친	-10.4409
▁경관	-10.4413
▁녹	-10.4414
▁뇌물	-10.4414
▁늘어나	-10.4415
됐을	-10.4415
▁개정안	-10.4418
▁예정인	-10.4424
▁리치	-10.4426
▁서장	-10.4426
▁화학	-10.4426
▁이식	-10.4431
▁실적	-10.4433
▁요리	-10.4436
들로부터	-10.4437
벌	-10.4444
▁내리	-10.4446
▁달려	-10.4447
▁여성들이	-10.445
▁리드	-10.4457
▁차지하고	-10.4457
▁응	-10.4459
▁단체가	-10.4462
▁지정	-10.4463
▁중이었다	-10.4469
▁지점에서	-10.4472
▁돌아	-10.4477
▁실시할	-10.4479
▁근거로	-10.448
▁먼	-10.4481
▁주장한다	-10.4482
▁개시	-10.4484
▁때문이라	-10.4488
▁후보와	-10.4497
▁총재는	-10.4499
▁승리로	-10.4502
름	-10.4508
▁한나라당은	-10.4511
▁냈다	-10.4513
▁자유롭	-10.4515
▁소식통이	-10.4515
▁선원	-10.4515
▁생각이	-10.4517
▁성직자	-10.4519
▁o	-10.4522
정책	-10.4528
▁일찍	-10.4532
▁미스	-10.4534
성이	-10.4534
▁노동자들	-10.4536
▁x	-10.4537
▁여지	-10.4542
▁파도	-10.4542
▁코트	-10.4547
▁공약	-10.4548
▁하나로	-10.4553
▁침몰	-10.4557
▁지원할	-10.4562
▁상태에서	-10.4567
▁줄어들	-10.4567
▁폭파	-10.4569
▁원숭이	-10.4569
▁행사에	-10.4569
▁상을	-10.4573
▁적십자	-10.4575
▁운영하고	-10.4581
목	-10.4582
x	-10.4583
▁근육	-10.4585
▁지하철	-10.4585
▁에콰도르	-10.4587
▁확장	-10.4587
▁메르켈	-10.4587
▁특징	-10.4587
▁party	-10.4587
▁저희	-10.4588
▁항구	-10.4588
▁녹음	-10.4588
▁당초	-10.459
▁안전보장이사회	-10.4591
▁신조	-10.4592
▁않았던	-10.4592
▁조지아주	-10.4593
▁상호	-10.4594
▁지분	-10.4594
▁md	-10.4596
▁하미	-10.4598
▁모임	-10.4599
▁st	-10.4601
▁영화에	-10.4604
▁하늘	-10.4605
▁남성은	-10.4606
▁생산량	-10.4607
▁만화	-10.4609
▁이름이	-10.4609
▁발견한	-10.461
▁월드	-10.4611
▁운전사	-10.4612
▁합의한	-10.4626
▁위안부	-10.4633
▁나이트	-10.4634
▁맞추	-10.4634
▁검은	-10.4636
▁와인	-10.4637
▁달러화	-10.464
드는	-10.4643
▁원칙	-10.4645
▁최고치	-10.465
▁분리	-10.4652
▁나타내	-10.4656
▁보게	-10.4656
▁달린	-10.4656
▁day	-10.4657
▁있어야	-10.467
▁주전	-10.4682
▁용기	-10.4683
▁계속될	-10.4685
▁동의했다	-10.4685
▁확신한다	-10.4687
▁합	-10.4687
▁결과로	-10.4689
▁주식시장	-10.469
▁스턴	-10.4692
▁미치는	-10.4694
▁출연한	-10.4695
되어야	-10.47
▁받는다	-10.47
▁레스토랑	-10.4708
▁행	-10.4708
▁후보인	-10.4709
▁지도자가	-10.4714
▁죽	-10.4715
▁협상에	-10.4722
▁방법은	-10.4723
▁de	-10.4725
▁투르	-10.4725
▁싶어	-10.4732
▁천주교	-10.4738
▁요청을	-10.4742
▁국가에서	-10.4742
▁고소	-10.4745
▁동쪽	-10.4745
▁중단할	-10.4751
▁무고	-10.4757
▁딸이	-10.4759
이란	-10.4761
▁탄핵	-10.4765
▁진단	-10.4768
▁발표하고	-10.4768
닷컴	-10.4775
▁매니저	-10.4775
▁obama	-10.4775
▁프랭크	-10.4775
▁항공우주국	-10.4775
▁예를들어	-10.4776
▁애완견	-10.4776
▁난민촌	-10.4776
▁귀환	-10.4776
▁쉽지	-10.4776
▁빌딩	-10.4777
▁탄생	-10.4777
▁영화배우	-10.4778
▁전달했다	-10.4779
▁원래	-10.4779
▁리처드슨	-10.4781
▁밝혀진	-10.4785
▁미국인들은	-10.4785
▁무어	-10.4791
▁피부	-10.4792
▁없게	-10.4792
▁쿠퍼	-10.4793
▁결의안	-10.4794
▁자본	-10.4796
▁하루에	-10.4799
▁깊이	-10.4799
▁추세	-10.48
▁스타디움에서	-10.4803
▁텍사스주	-10.4804
▁등급	-10.4804
▁운전자	-10.4807
▁증세	-10.4807
▁무리	-10.481
▁강요	-10.4812
▁신문사	-10.4816
▁정원	-10.4821
한국	-10.4822
▁감소했다	-10.4822
▁다르다	-10.4823
▁어렵다	-10.4823
▁합류	-10.483
▁건축	-10.4832
▁물품	-10.4834
▁교황은	-10.4838
▁하면서	-10.4844
▁건물이	-10.4847
▁소집	-10.4847
음	-10.4849
▁하락한	-10.4851
▁바라는	-10.4859
▁추측	-10.4861
▁화요일에	-10.4863
었지만	-10.4873
▁작업에	-10.4876
▁동맹국	-10.4888
▁없고	-10.4893
▁경비	-10.4902
스키	-10.4907
▁해산	-10.4908
▁수송	-10.491
겠지만	-10.4912
▁가상	-10.4913
▁악	-10.4916
▁교도소에	-10.4921
▁심의	-10.4922
▁전부	-10.4923
시키려	-10.4926
장관은	-10.4932
▁파예드	-10.4938
▁구금	-10.494
▁걸린	-10.4944
▁옆에	-10.4953
▁촬영한	-10.4957
▁양측은	-10.4961
▁애리조나	-10.4961
▁조약	-10.4961
▁소식에	-10.4963
▁학교에	-10.4964
▁제정	-10.4966
▁정의	-10.4966
▁황금	-10.4967
▁생물	-10.4967
▁foreign	-10.4968
▁줄기세포	-10.4968
▁샘플	-10.4968
▁앤드류	-10.4968
▁예비선거	-10.4968
▁경기부양책	-10.4968
▁옐친	-10.4968
▁득표율	-10.4968
▁창문	-10.4969
▁끝날	-10.4971
▁다국적군	-10.4971
▁연구원들	-10.4973
▁테러범	-10.4973
▁최저치	-10.4974
▁일련	-10.4979
▁부채	-10.498
▁행정	-10.4981
▁인근에서	-10.4985
▁옆	-10.4987
▁식사	-10.4989
▁처해	-10.4996
▁문제와	-10.4999
▁테러에	-10.5002
조차	-10.5005
랄	-10.5009
▁공개됐다	-10.5011
▁예정이었다	-10.5021
▁졸리	-10.5024
▁가벼	-10.5032
▁해서	-10.5037
▁알지	-10.5048
▁ba	-10.505
▁일본인	-10.505
▁치러지	-10.5051
▁조건으로	-10.5051
내내	-10.5055
▁체코	-10.5055
▁협박	-10.5067
▁조치는	-10.5075
▁발견되었다	-10.5076
연맹	-10.5082
▁정권이	-10.5085
▁거절했다	-10.5087
▁부서	-10.5092
▁방문하는	-10.5101
▁제리	-10.5103
▁자리에	-10.5103
▁유도	-10.5105
▁불이	-10.5106
▁공대	-10.5108
▁투표에	-10.5109
▁살해했다	-10.5124
▁엔진	-10.5126
▁형사	-10.513
▁지지한다	-10.5137
▁선수가	-10.5139
합	-10.5144
in	-10.5146
▁마비	-10.5146
▁불구	-10.5151
▁빈곤	-10.5153
▁데일리	-10.5154
▁연쇄	-10.5164
▁먹이	-10.5164
▁뮤지컬	-10.5164
▁배터리	-10.5164
▁윔블던	-10.5164
▁일으킬	-10.5164
▁퍼거슨	-10.5164
▁플라스틱	-10.5164
▁프리미어리그	-10.5164
▁노르웨이	-10.5164
▁데이빗	-10.5164
▁유혈사태	-10.5164
▁빠질	-10.5165
▁생방송	-10.5165
▁외무성	-10.5165
▁밝혔지만	-10.5165
▁밝혔으며	-10.5165
▁오마르	-10.5165
▁아들이	-10.5166
▁로딕	-10.5166
▁실업률	-10.5167
▁드러냈다	-10.5167
▁american	-10.5167
▁이뤄진	-10.5168
▁접전	-10.5169
▁여겨지	-10.5169
▁브리핑	-10.5171
▁분량	-10.5172
▁숲	-10.5173
▁번역	-10.5173
▁발행	-10.5173
▁검증	-10.5179
▁알렸다	-10.518
▁살이	-10.5182
▁조항	-10.5184
통신	-10.5185
했	-10.5186
▁동물들	-10.5187
▁비행사	-10.5188
▁보이며	-10.5191
▁서울시	-10.5193
▁동일한	-10.5193
▁분석가들은	-10.5195
비아	-10.5198
▁잡스	-10.52
▁비난하며	-10.5204
▁상태이다	-10.5206
▁정상화	-10.5209
▁자택에서	-10.5211
▁지대	-10.5221
▁푸	-10.5229
▁발표됐다	-10.5251
마자	-10.5252
▁국기	-10.5256
▁취	-10.5256
우스	-10.5266
▁단체인	-10.5273
▁올리	-10.5278
▁부과	-10.5281
▁캐릭터	-10.5282
▁얻고	-10.5283
▁지원하는	-10.5291
▁취임식	-10.5292
추	-10.5294
▁해병	-10.5297
▁지지자들이	-10.5297
▁레드	-10.5298
▁답	-10.5299
▁국민의	-10.5302
▁나왔	-10.5303
▁국가들은	-10.5315
▁매달	-10.5315
▁처한	-10.5316
▁지상	-10.5317
▁대립	-10.5318
▁대륙	-10.532
해야만	-10.532
▁개인적	-10.5324
쳤다	-10.5325
▁감금	-10.5328
▁즐	-10.5338
▁벌였	-10.5339
▁상원의원과	-10.535
▁남극	-10.5353
슈	-10.5358
▁기부	-10.5362
▁슈퍼	-10.5364
▁파바로티	-10.5364
▁피라미드	-10.5364
▁느낄	-10.5364
▁오토바이	-10.5364
▁카트리나	-10.5364
▁보이콧	-10.5364
▁라파엘	-10.5364
▁암컷	-10.5364
▁여섯	-10.5364
▁라이언	-10.5364
▁mbc	-10.5365
▁기밀	-10.5365
▁법원에서	-10.5365
▁상대방	-10.5366
▁are	-10.5366
▁통증	-10.5366
▁멀리	-10.5367
▁백신	-10.5367
▁알렉스	-10.5368
▁오른쪽	-10.5368
▁않는다면	-10.5372
▁사설	-10.5373
▁출판	-10.5377
▁빠지	-10.5377
▁플레이어	-10.538
▁실시했다	-10.5381
▁맨	-10.5383
당한	-10.5384
▁요인	-10.5386
잔	-10.5392
▁유산	-10.5395
▁부실	-10.5398
▁소유하고	-10.5401
▁회의에	-10.5409
▁화장실	-10.541
▁앨	-10.5413
애	-10.5413
막	-10.5416
▁외치	-10.5418
▁약세	-10.5424
▁참여할	-10.5426
▁마을에서	-10.5429
립	-10.5434
경찰	-10.5435
▁표시	-10.5447
▁몰고	-10.5452
▁죽음을	-10.5455
▁덮	-10.5456
젤	-10.5459
▁취한	-10.546
▁사실은	-10.5462
▁입수	-10.5468
▁대학에서	-10.5469
스터	-10.5471
▁잡아	-10.5472
▁세워	-10.5474
선수	-10.5475
▁코커스	-10.5479
▁제시했다	-10.5481
▁장군은	-10.5481
트는	-10.5491
▁앉아	-10.5496
▁신중	-10.5517
▁했으나	-10.5518
▁두번째	-10.5518
▁끌어	-10.552
▁상승한	-10.5527
▁잠재적	-10.5539
▁북미	-10.5539
극	-10.5542
▁세우	-10.5544
결	-10.5548
▁봉사	-10.5548
▁부당	-10.5564
▁산림	-10.5564
▁아름다	-10.5568
▁visit	-10.5568
▁관타나모	-10.5568
▁마돈나	-10.5568
▁힘입어	-10.5568
▁불가리아	-10.5568
▁객실	-10.5568
▁again	-10.5568
▁imf	-10.5568
▁fda	-10.5568
▁않았으나	-10.5569
▁비틀즈	-10.5569
▁실질적	-10.5569
▁래리	-10.557
북	-10.5574
▁보급	-10.5574
▁도심	-10.5575
도시	-10.5576
▁서식지	-10.5576
▁묻	-10.5577
▁전국적으로	-10.5577
▁재직	-10.5577
▁재임	-10.5577
▁내려졌다	-10.5578
▁실종자	-10.5579
▁목표는	-10.5579
▁마시	-10.5581
▁격렬한	-10.5581
▁붙잡	-10.5582
▁조사한	-10.5588
▁열렸다	-10.5588
▁가족은	-10.559
▁주인	-10.5593
▁다음주	-10.5596
▁개편	-10.5598
▁광장	-10.5599
▁남동부	-10.5603
▁테니스	-10.5605
▁수립	-10.5606
총	-10.5607
▁모건	-10.561
▁주위	-10.5611
▁포함돼	-10.5612
장에서	-10.5614
▁범인이	-10.5616
델	-10.5618
▁방향으로	-10.5622
▁노력이	-10.5623
▁커지	-10.5626
▁군인들이	-10.5629
이라	-10.5637
햄	-10.5638
▁가게	-10.5639
레스	-10.5643
▁법안은	-10.5644
▁시한	-10.5647
▁화면	-10.5648
▁불에	-10.565
▁국가들이	-10.5655
▁제출한	-10.5656
▁국적	-10.5663
▁관여	-10.5672
▁일어날	-10.5673
▁절	-10.5673
▁해소	-10.5686
▁소식은	-10.5687
제도	-10.5691
▁존중	-10.5692
▁오사마빈라덴	-10.5692
▁인질들을	-10.5698
제를	-10.5707
▁고급	-10.5712
▁프라이머리에서	-10.5716
▁최대의	-10.5731
▁법안에	-10.574
▁농장	-10.5741
ro	-10.5744
▁마르	-10.5744
▁무엇보다	-10.5746
▁구간	-10.5748
▁주에	-10.575
age	-10.575
▁대학생	-10.5753
▁갖는	-10.5759
넬	-10.5764
▁세로	-10.5774
▁경기침체	-10.5776
▁끔찍	-10.5776
▁아테네	-10.5776
▁중남미	-10.5776
▁징계	-10.5776
▁히틀러	-10.5776
▁자유무역협정	-10.5776
▁take	-10.5776
▁롤링	-10.5777
▁관람	-10.5777
▁탈락	-10.5777
▁에이커	-10.5777
▁점검	-10.5778
▁자선단체	-10.5778
▁팝	-10.5778
▁talks	-10.5778
당국은	-10.5781
▁실린	-10.5781
▁state	-10.5781
▁자신감	-10.5782
▁중요성	-10.5785
▁국가로	-10.5785
렸	-10.5786
시아	-10.5789
▁강세	-10.5791
▁인형	-10.5795
▁사용하고	-10.5795
▁피해자들	-10.5797
▁nk	-10.58
▁겸	-10.5801
▁전반적인	-10.5801
▁포함하여	-10.5803
▁라이브	-10.5805
▁요구하며	-10.5806
▁플로리다주	-10.5808
적이고	-10.5812
▁해상	-10.5813
▁세웠다	-10.5818
▁생각하지	-10.582
▁않았고	-10.5821
▁조지아	-10.5821
당국	-10.5824
▁이틀간	-10.5825
▁직원이	-10.5826
▁뉴욕주	-10.5828
▁미터	-10.5835
▁손해	-10.5835
▁상징	-10.5836
▁민족	-10.5836
되었고	-10.5845
▁각자	-10.5846
알	-10.5848
▁유지하고	-10.5851
▁확실	-10.5857
▁좋아하는	-10.5857
▁유튜브	-10.586
▁매체	-10.5866
움	-10.5867
▁배후	-10.5867
▁얼	-10.587
▁예술	-10.587
▁득점	-10.5872
▁포함됐다	-10.5874
▁퇴임	-10.5884
▁일이다	-10.589
▁펜	-10.5892
▁fir	-10.5895
vs	-10.5895
▁미국으로	-10.5896
▁로브	-10.5898
▁아르	-10.5902
시킨다	-10.5902
▁회견	-10.5907
▁기소된	-10.591
▁털	-10.5912
인들이	-10.5915
▁하자	-10.5923
▁명확	-10.5929
▁사막	-10.5929
웨이	-10.593
▁상하이	-10.593
▁따뜻	-10.5937
▁보석	-10.5945
▁베르	-10.5947
▁지지하고	-10.5955
▁근로자들	-10.5959
졌	-10.5963
▁여부에	-10.5963
▁아는	-10.5966
▁죄	-10.5967
흐	-10.5976
▁남편이	-10.5982
▁마흐디	-10.5983
▁매춘	-10.5985
▁침략	-10.5986
▁로저	-10.5987
▁농업	-10.5988
▁opec	-10.5989
▁seoul	-10.5989
▁루아얄	-10.5989
▁에넹	-10.5989
▁우주왕복선	-10.5989
▁울포위츠	-10.5989
▁지지선언	-10.5989
▁허커비	-10.5989
▁징후	-10.5989
▁벌써	-10.5989
▁본격적	-10.5989
장치	-10.5989
▁파나마	-10.599
▁center	-10.599
▁함유	-10.599
▁떠날	-10.599
▁술집	-10.599
▁방출	-10.599
▁드러내	-10.599
▁범위	-10.5991
▁있었습니다	-10.5991
▁디스크	-10.5991
▁매매	-10.5991
▁건너	-10.5991
▁소형	-10.5991
▁않으며	-10.5992
▁연계	-10.5994
▁준수	-10.5995
▁음성	-10.5995
▁형식	-10.5995
▁새롭	-10.5995
▁집권당	-10.5995
▁국방성	-10.5996
▁연간	-10.5997
▁소득	-10.5998
▁막대한	-10.5998
▁통과시켰다	-10.6001
▁기분	-10.6003
▁탄소	-10.6003
▁얼마전	-10.6003
▁사이클	-10.6003
그룹	-10.6005
▁호소했다	-10.6012
▁있을지	-10.6013
▁내려진	-10.6013
▁벌어졌다	-10.6013
▁인력	-10.6015
▁mo	-10.602
▁당국자들	-10.602
▁열고	-10.6021
▁선전	-10.6025
되거나	-10.6032
▁지원하고	-10.6041
▁지휘관	-10.6041
착	-10.6051
주의자	-10.6052
▁콘	-10.6053
▁합의에	-10.6055
짜리	-10.6057
▁삭제	-10.6059
▁일이라고	-10.6064
▁끼	-10.607
▁중간	-10.607
▁전역에서	-10.6074
▁매케인이	-10.6077
었으나	-10.608
해질	-10.6085
▁올랐	-10.6091
▁벽	-10.6092
▁모색	-10.6095
re	-10.6097
▁몸에	-10.6097
▁포함된	-10.61
▁등에	-10.6106
▁모르는	-10.6109
▁필요로	-10.6119
▁부족하다	-10.6124
▁취했다	-10.6128
▁제공한	-10.6132
▁되찾	-10.6134
▁초안	-10.6134
▁베를린	-10.6137
▁건강이	-10.6137
▁보여준다	-10.6138
사가	-10.6138
▁여기에	-10.6142
▁용의자로	-10.6144
▁출산	-10.6147
▁않	-10.6148
▁하에	-10.6151
▁해적	-10.6152
▁북부에	-10.6157
▁이륙	-10.6159
▁바이	-10.6162
심한	-10.6165
▁온도	-10.6168
▁양국은	-10.6172
▁호소	-10.6173
▁되며	-10.6183
▁도달	-10.6184
▁공격했다	-10.6184
▁미시시피	-10.6199
▁부모들	-10.6199
▁직접적	-10.6199
돌	-10.6203
▁쓰레기	-10.6205
▁하나는	-10.6205
▁고이즈미	-10.6206
▁베네딕	-10.6206
▁쇠고기	-10.6206
▁싶지	-10.6206
▁조승희	-10.6206
▁포르노	-10.6206
▁우울증	-10.6206
▁교섭	-10.6207
▁경향	-10.6207
▁시라크	-10.6207
▁크리스티	-10.6207
▁cdc	-10.6207
▁more	-10.6208
▁거짓	-10.6208
▁다룬	-10.6208
▁지역사회	-10.6209
▁신분	-10.6209
▁왕세자비	-10.621
▁소동	-10.6211
▁상자	-10.6211
▁도시인	-10.6212
▁물체	-10.6212
▁에릭	-10.6213
▁예상되	-10.6214
▁보도에	-10.6216
▁분류	-10.6216
▁나토군	-10.6216
▁희망한다	-10.6217
▁소탕	-10.6217
▁리비	-10.6219
▁탑승객	-10.622
▁정전	-10.6222
▁강전에서	-10.6224
▁배출	-10.6227
▁뿐이다	-10.6227
▁사체	-10.6228
▁벗어	-10.6231
▁서서	-10.6235
에게서	-10.6244
짝	-10.6244
▁진지	-10.6246
▁발표했습니다	-10.6246
▁남자는	-10.6247
▁성명은	-10.6247
▁포로	-10.6249
▁결승전에서	-10.6252
웰	-10.6252
▁건강에	-10.6254
항공	-10.6255
▁외곽	-10.6256
▁황	-10.6257
▁운동가들	-10.626
▁계속해	-10.6266
▁원화	-10.6266
시켰다고	-10.6267
▁지위	-10.627
▁평	-10.6272
전에	-10.6274
▁완료	-10.6275
▁지켜보	-10.6275
곤	-10.6283
▁대법원장	-10.6285
▁담당자	-10.6287
▁고려하고	-10.6288
놀	-10.6291
다란	-10.6291
▁침입	-10.6295
▁산타	-10.6296
▁이민	-10.6296
미국	-10.6297
▁이용한	-10.63
▁놀	-10.6304
▁유전	-10.6305
연구소	-10.6308
▁대항	-10.631
▁군이	-10.6313
▁장례식	-10.6314
▁소비자들	-10.6316
▁스캔들	-10.6318
▁가족들과	-10.6324
▁참가자들	-10.6326
▁카페	-10.6329
▁운명	-10.6329
▁흔	-10.6332
률	-10.6337
▁반대로	-10.6337
쪽으로	-10.6345
▁조사할	-10.6355
▁살았	-10.6364
▁쿠웨이트	-10.6369
▁해적들	-10.6372
▁무장대원	-10.6377
▁연안	-10.6378
▁경매에	-10.6381
▁달러가	-10.6385
▁요원들	-10.6386
▁품	-10.6386
▁대통령직	-10.6391
▁청	-10.6393
▁상영	-10.6397
으면서	-10.6408
▁원인이	-10.6409
▁들어간	-10.641
익	-10.6411
▁뉴햄프셔	-10.6414
축	-10.6415
▁북극	-10.6416
백	-10.6419
ary	-10.6419
▁홈	-10.6419
▁경호	-10.6421
▁행위에	-10.6422
▁브라이언	-10.6423
▁남부에	-10.6425
▁파리에서	-10.6428
▁화합	-10.6428
▁학교에서	-10.6428
▁심장마비	-10.6429
▁아닙니다	-10.6429
▁최첨단	-10.6429
▁온실가스	-10.6429
▁노트북	-10.6429
▁두려움	-10.6429
▁압바스	-10.6429
▁윈도우	-10.6429
▁글로벌	-10.6429
▁이자율	-10.6429
▁가짜	-10.6429
▁부사장	-10.6429
▁저항세력	-10.6429
▁연례	-10.6429
▁관측	-10.6429
▁서양	-10.6431
▁갈등	-10.6431
▁신화	-10.6432
▁붙여	-10.6432
▁열심	-10.6433
▁발발	-10.6433
▁무슨	-10.6434
▁비서실장	-10.6434
▁받아왔다	-10.6435
▁미첼	-10.6436
로스	-10.6436
▁문구	-10.6436
▁대서양	-10.6437
▁톰슨	-10.6437
▁선임	-10.6439
▁사실에	-10.6449
▁확산되고	-10.6449
▁스파이	-10.6452
▁가해	-10.6453
▁참석하지	-10.6455
▁by	-10.6456
▁기상청	-10.6457
소를	-10.6459
▁탈레반측	-10.646
▁쪽	-10.6461
▁위원	-10.6463
▁time	-10.6467
스런	-10.6469
▁독일인	-10.6472
▁언론과	-10.6473
항	-10.6474
▁추구하	-10.6474
▁점수	-10.6476
▁보건부	-10.6477
▁청문회	-10.6487
조직	-10.6503
▁테리	-10.6503
▁공산주의	-10.6509
▁입지	-10.651
▁회장이	-10.6511
▁당해	-10.6511
▁베이	-10.6521
▁로스	-10.6521
▁모금	-10.6527
장이	-10.653
▁대전	-10.6535
▁나타내는	-10.6538
▁후원	-10.6539
▁has	-10.6541
▁결정적인	-10.6541
▁그래	-10.6544
경제	-10.6544
▁경로	-10.6547
▁겨	-10.6556
▁동기	-10.6559
▁사진이	-10.6569
▁베리	-10.658
▁일치	-10.6584
▁의상	-10.6588
▁보인	-10.6595
▁맞이	-10.6597
▁증상	-10.6598
▁오하이오주	-10.66
▁봉송	-10.6603
▁작업이	-10.6607
기에	-10.6609
상의	-10.661
▁명백	-10.6611
▁은행에	-10.6617
▁있은	-10.6624
▁동성애	-10.6624
▁공모	-10.6625
▁장관과	-10.6625
▁묻는	-10.6626
▁대대적	-10.6628
▁준비하고	-10.6629
▁공무원	-10.6636
▁반지	-10.6637
▁순	-10.664
▁정기적	-10.6642
▁왔	-10.6643
▁헌법재판소	-10.6645
갔다	-10.6646
행위	-10.6647
▁콜로라도	-10.6648
▁진보	-10.665
밀	-10.6652
▁에베레스트	-10.6654
▁석을	-10.6654
▁만족	-10.6655
▁troop	-10.6656
▁도요타	-10.6656
▁로드리게스	-10.6656
▁믿을	-10.6656
▁야생동물	-10.6656
▁펼친	-10.6656
▁플루토늄	-10.6656
▁허드슨	-10.6656
▁아마디네자드	-10.6656
▁인터폴	-10.6656
▁터널	-10.6656
▁벽돌	-10.6656
▁의약품	-10.6656
▁roh	-10.6656
▁우간다	-10.6656
▁금융위기	-10.6657
▁일어나는	-10.6657
▁빅토리아	-10.6657
▁파월	-10.6657
▁탄광	-10.6657
▁평화유지군	-10.6657
▁예약	-10.6658
▁고유가	-10.6658
▁들어갈	-10.6658
▁구류	-10.6659
▁이루어진	-10.6659
▁휴대	-10.6659
▁주연	-10.666
▁오프라	-10.666
▁아니지만	-10.666
▁이브라힘	-10.666
▁포터	-10.666
▁채취	-10.6661
▁간에	-10.6664
▁상관	-10.6664
▁사면	-10.6664
▁미래에	-10.6665
▁양쪽	-10.6666
▁점거	-10.6667
▁군사력	-10.6668
▁양보	-10.667
▁은행들	-10.667
▁승부	-10.6671
▁dis	-10.6673
▁house	-10.6674
▁경쟁력	-10.6674
▁빠졌다	-10.6675
▁서류	-10.6675
▁코치	-10.6678
▁쓸	-10.6679
▁언급하며	-10.6687
▁인터넷에	-10.6687
상태	-10.6691
▁정치인들	-10.6697
▁맞고	-10.6702
니스	-10.6703
▁말에	-10.6703
▁너무나	-10.6707
▁지도자는	-10.671
▁지식	-10.6711
▁벌여	-10.6719
▁시인했다	-10.6728
니아	-10.6729
▁자택	-10.6729
▁연구에서	-10.673
풍	-10.6742
▁법정에서	-10.6743
▁싱	-10.6744
▁위험성	-10.6747
됩니다	-10.6747
▁위원장이	-10.6751
글	-10.6751
▁수면	-10.6751
▁목사는	-10.6764
▁구역	-10.6764
속도로	-10.678
▁목격했다	-10.6785
▁회전	-10.6794
환	-10.6799
▁폴리	-10.68
▁하거나	-10.6805
▁관객들	-10.6819
버그	-10.6823
▁라이	-10.6824
▁착수했다	-10.6826
자들에게	-10.6826
▁경험을	-10.6827
▁승객들	-10.6836
이었습니다	-10.6837
▁담당자는	-10.6849
▁뿐이라	-10.685
키로	-10.6854
▁go	-10.6863
▁몰아	-10.6868
▁상상	-10.6868
▁화가	-10.6868
▁파키스탄군	-10.687
정도	-10.687
▁본다	-10.6872
▁계속된	-10.6878
▁멤버	-10.6879
▁올라가	-10.6883
▁행동에	-10.6883
▁낙태	-10.6886
▁부딪	-10.6888
▁화이트	-10.6888
▁washington	-10.6889
▁york	-10.6889
▁나눴다	-10.6889
▁망원경	-10.6889
▁무승부	-10.6889
▁성추행	-10.6889
▁수류탄	-10.6889
▁스타벅스	-10.6889
▁시나리오	-10.6889
▁아라비아	-10.6889
▁자르다리	-10.6889
▁최우선	-10.6889
▁확률	-10.6889
▁맥캔	-10.6889
▁토크쇼	-10.6889
▁남아프리카	-10.6889
▁에드워드	-10.6889
부대	-10.6889
▁머레이	-10.6889
▁긴밀	-10.6889
▁해수면	-10.6889
▁실현	-10.6889
▁물고기	-10.6889
▁송금	-10.6891
▁토대	-10.6891
▁고위급	-10.6895
bush	-10.6895
▁우세	-10.6896
▁카불	-10.6899
▁적합한	-10.6899
▁상세	-10.69
▁레바논군	-10.69
▁삭감	-10.69
▁사라졌다	-10.6905
▁당부했다	-10.6906
▁종료	-10.6906
▁하원의장	-10.6907
pa	-10.6907
▁장군	-10.6908
▁해당하	-10.6909
▁상업	-10.6909
▁시작했다고	-10.691
▁미니	-10.6912
▁맡았다	-10.6913
▁총통	-10.6913
▁위하여	-10.692
겨	-10.692
▁달한다	-10.6923
▁항	-10.6924
▁넓	-10.6924
악	-10.6925
▁크다	-10.6926
▁인권단체	-10.6926
▁차질	-10.6927
▁해주	-10.6928
▁탈레반이	-10.6931
▁부검	-10.6933
▁종이	-10.6934
학교	-10.6935
▁마이	-10.6936
▁차례의	-10.6939
앙	-10.694
▁목록	-10.694
▁중심지	-10.6946
철	-10.6947
▁느끼고	-10.6948
▁찾지	-10.6951
▁개인적으로	-10.6951
▁워	-10.6952
▁뉴욕시	-10.6953
▁움직임은	-10.6953
▁복역	-10.6953
▁제시한	-10.6959
▁발휘	-10.6959
▁셀	-10.696
▁착수	-10.6961
▁one	-10.6961
죠	-10.6965
▁수행할	-10.6968
▁종결	-10.6978
▁방문해	-10.698
▁협약	-10.6983
▁의견이	-10.6986
▁남아있는	-10.6986
▁성공한	-10.6987
▁방송에	-10.6988
새	-10.6988
▁이름으로	-10.6988
▁힘들다	-10.6989
왔	-10.6992
▁해임	-10.6993
펠	-10.6993
지역에서	-10.6994
▁출연했다	-10.6994
▁국가에	-10.7007
▁명에서	-10.7009
▁러	-10.7012
관련	-10.7017
▁all	-10.702
▁선거법	-10.702
돼야	-10.7023
덴	-10.7023
▁압수	-10.7026
업자	-10.7027
▁가방	-10.7027
▁사법	-10.7031
릭	-10.7033
된다고	-10.7034
▁강진이	-10.7035
▁알아	-10.7035
해주	-10.7037
▁건물에	-10.7043
▁플라	-10.7047
▁사우스캐롤라이나	-10.7047
▁분야에서	-10.7052
▁밝히	-10.7053
▁패스	-10.7055
▁영국과	-10.7062
▁검문소	-10.7065
▁안으로	-10.7066
▁본토	-10.7068
▁이후에	-10.7068
▁지역인	-10.707
▁전복	-10.7071
▁감지	-10.7071
▁방콕	-10.7072
▁카리	-10.7072
▁진전이	-10.7073
분께	-10.7075
▁모른다고	-10.708
▁테러조직	-10.7088
▁맛	-10.7088
▁응급	-10.7089
▁물러나	-10.709
▁에는	-10.7095
▁딘	-10.7096
▁나누	-10.7096
▁성당	-10.7099
산업	-10.7102
▁맡았	-10.7102
▁매력	-10.7102
▁공룡	-10.7106
▁사용된	-10.7106
▁환호	-10.7106
▁미리	-10.7112
기가	-10.7125
▁갤런	-10.7127
▁높게	-10.7127
▁메드베데프	-10.7127
▁서브프라임	-10.7127
▁아웅산수치	-10.7127
박근혜	-10.7127
▁출구조사	-10.7127
▁유죄판결	-10.7127
▁international	-10.7127
▁포셋	-10.7127
▁say	-10.7127
▁연패	-10.7127
▁권총	-10.7127
▁복원	-10.7128
▁추격	-10.7128
▁연구결과	-10.7128
▁숨졌으며	-10.7128
▁환율	-10.7128
▁타밀	-10.7128
▁카를로스	-10.7128
▁연출	-10.7129
▁aig	-10.7129
널리	-10.7129
▁선고했다	-10.713
▁부처	-10.7131
▁부품	-10.7131
▁여러번	-10.7131
▁핵개발	-10.7131
▁중앙은행	-10.7136
▁지구에	-10.714
▁수색작업	-10.714
▁루니	-10.714
▁씨가	-10.7143
▁its	-10.7144
▁도디	-10.7147
▁정보부	-10.715
▁미성년자	-10.715
▁재활용	-10.7152
▁대리인	-10.7154
▁우즈	-10.7155
▁남아있다	-10.7155
▁선수로	-10.7157
▁활동에	-10.716
틀	-10.716
▁가난한	-10.7163
▁유발	-10.7164
▁공정한	-10.7165
▁상당수	-10.7167
▁테러리스트들	-10.7168
▁업적	-10.7168
▁열었다	-10.7174
▁간주	-10.7175
▁방법에	-10.7184
랜	-10.7185
ol	-10.7195
▁축	-10.7196
▁의원들이	-10.7206
비용	-10.7208
▁기차	-10.7211
왕	-10.7212
▁불리	-10.7212
▁수배	-10.7213
▁석방됐다	-10.7215
꺼	-10.7216
폰	-10.7221
▁시작으로	-10.7225
희	-10.7229
싱	-10.7232
▁출신으로	-10.7235
▁war	-10.7236
역을	-10.7246
▁생기	-10.7255
▁상황이다	-10.726
▁판결이	-10.7263
▁결심	-10.7271
▁이어지	-10.7277
차량	-10.7281
lo	-10.7283
▁출두	-10.7284
▁기적	-10.7292
▁체포되었다	-10.7295
▁점이	-10.7301
▁공격한	-10.7301
원은	-10.7302
▁하여	-10.7305
▁학생이	-10.7306
▁떠	-10.7309
▁궤도	-10.731
▁돌파	-10.731
▁사과했다	-10.7314
▁향상	-10.7316
▁이주	-10.7316
▁상담	-10.7316
▁도착할	-10.7317
▁응답	-10.7318
▁입법	-10.732
▁노리	-10.7331
▁항의하	-10.7337
▁구멍	-10.7339
ve	-10.7344
간에	-10.7345
ist	-10.7352
▁증강	-10.7356
▁바뀌	-10.7356
▁소년이	-10.736
▁기분이	-10.736
▁자문	-10.736
▁발급	-10.7362
숙	-10.7363
하에	-10.7363
냈다	-10.7364
▁키우	-10.7367
▁승인했다	-10.7367
▁초에	-10.7368
▁국가비상사태	-10.737
▁ibm	-10.7371
▁먹고	-10.7371
▁선거관리위원회	-10.7371
▁하이브리드	-10.7371
▁교착	-10.7371
▁자전거	-10.7371
▁최루탄	-10.7371
▁bda	-10.7371
됨에따라	-10.7371
▁좌석	-10.7371
▁바꿀	-10.7371
▁앨런	-10.7371
▁독감	-10.7371
▁이뤄질	-10.7372
▁돌아갈	-10.7372
▁설계	-10.7372
▁mdc	-10.7372
▁않았습니다	-10.7372
▁재배치	-10.7373
▁데리고	-10.7373
됐는지	-10.7373
▁만년	-10.7374
▁휴일	-10.7375
▁던진	-10.7375
▁보증	-10.7376
▁심판	-10.7376
▁부양책	-10.7376
▁화물	-10.7377
▁서브	-10.7377
▁앞섰다	-10.7377
▁줄이기	-10.7378
▁해체	-10.7378
▁개체수	-10.7379
▁전형적	-10.7381
▁윌슨	-10.7381
▁윈프리	-10.7383
▁자동	-10.7383
▁해석	-10.7385
▁아프간에	-10.7386
▁국회에서	-10.7393
▁한국은행	-10.7394
▁산하	-10.7396
▁반전	-10.7399
▁전격	-10.7401
▁공주	-10.7403
벨	-10.7404
▁권고했다	-10.7408
▁드레스	-10.7409
▁남측	-10.7409
▁다르	-10.741
▁김치	-10.7412
▁공개하지	-10.7413
▁피하기	-10.7416
▁권고	-10.7416
▁흥분	-10.7419
▁처음에	-10.7419
▁발견되지	-10.7422
om	-10.7424
▁섭취	-10.7425
▁군과	-10.7426
▁명백한	-10.7427
▁얻게	-10.7428
▁향한	-10.7428
▁판매량	-10.7429
▁준다	-10.743
▁양자	-10.7431
▁고조되	-10.7431
▁모아	-10.7432
▁cd	-10.7435
▁거리에서	-10.7435
▁두려워	-10.7436
▁분석했다	-10.7436
▁외상	-10.7442
▁이스라엘에	-10.7452
▁전사	-10.7455
측에	-10.7461
▁담고	-10.7463
▁바꾸	-10.7465
▁수감된	-10.7466
▁이라크내	-10.7469
뉴스	-10.7472
필	-10.7473
▁디자이너	-10.7475
법원	-10.7476
▁제치	-10.7476
▁떠난	-10.7477
으	-10.748
▁직	-10.7482
▁어깨	-10.7484
이라크	-10.7487
▁변화에	-10.7497
▁남용	-10.7506
▁묘사	-10.7506
ate	-10.7507
▁차지하는	-10.751
더라도	-10.7512
▁출신인	-10.7512
▁게리	-10.7517
받았다	-10.752
▁영화에서	-10.7522
▁돌려	-10.7524
▁내지	-10.7525
▁햄	-10.7535
▁중이며	-10.7538
러스	-10.7542
▁개성	-10.7546
슨은	-10.7547
▁동영상에서	-10.7548
▁지고	-10.7551
▁모두에게	-10.756
▁견	-10.7565
▁편의	-10.7566
▁일어났	-10.7571
▁품목	-10.7577
▁주제	-10.7584
▁불어	-10.7589
▁암시	-10.76
est	-10.7605
▁네바다	-10.7613
딩	-10.7614
▁뛰	-10.7615
▁기증	-10.7616
넷	-10.7617
▁혼자	-10.7618
▁테러범들	-10.7618
▁데이비스	-10.762
▁똑같	-10.762
▁맨해튼	-10.762
▁무렵	-10.762
▁바티칸	-10.762
▁유람선	-10.762
▁호나우두	-10.762
▁깨끗	-10.7621
▁행렬	-10.7621
▁요즘	-10.7621
▁언덕	-10.7621
▁fifa	-10.7621
▁동참	-10.7621
▁시티그룹	-10.7621
▁영양	-10.7621
▁아스날	-10.7621
▁국민투표	-10.7621
▁절약	-10.7621
▁퇴진	-10.7621
▁유럽과	-10.7622
▁연승	-10.7622
▁자동차업계	-10.7623
▁가끔	-10.7623
▁불안정	-10.7623
▁존스턴	-10.7623
▁보조금	-10.7624
▁상병	-10.7626
▁만능	-10.7627
▁수컷	-10.7628
▁그에	-10.763
▁공개한	-10.763
▁지나가	-10.7631
▁월에는	-10.7633
▁피랍된	-10.7634
▁도청	-10.7635
▁의학	-10.7639
▁경주	-10.7642
▁후임	-10.7645
▁매수	-10.7647
▁퀸	-10.7647
기업	-10.7651
la	-10.7655
▁경영진	-10.7656
▁취해	-10.7657
▁출전하지	-10.7659
▁맞은	-10.7663
▁불가능하다	-10.7663
▁눈물	-10.7664
▁차별	-10.7668
▁여러분	-10.7672
▁돌아와	-10.7672
소한	-10.7672
▁어렵	-10.7673
▁al	-10.7675
▁부산	-10.7676
▁젊은이들	-10.768
▁야구	-10.7685
▁판다	-10.7689
▁중앙일보	-10.769
▁브	-10.7691
▁무샤라프는	-10.7697
▁본드	-10.7705
▁민주당이	-10.7708
놓	-10.7708
시스템	-10.7712
▁연대	-10.7716
황	-10.7719
▁취하고	-10.7721
▁병력이	-10.7725
▁학생들에게	-10.7727
곡	-10.7727
▁참가한	-10.7729
▁시간에	-10.7731
▁방송에서	-10.7742
▁부분이	-10.7751
▁나선	-10.7752
▁소식통	-10.7762
▁오바마에	-10.7775
▁공간	-10.7778
▁회사에	-10.7779
▁위에서	-10.7782
▁전하고	-10.7798
▁고장	-10.7802
기록	-10.7806
▁현상이	-10.7806
ti	-10.7807
▁지방에서	-10.7808
▁부리	-10.7809
▁촉진	-10.7813
▁메리	-10.7819
상황	-10.7821
▁센	-10.7825
▁광부	-10.7826
▁호텔에	-10.7826
▁창출	-10.7828
▁표면	-10.7828
▁치를	-10.7829
▁열리	-10.7833
▁해왔다	-10.7837
▁단장	-10.7838
▁정거장	-10.7839
▁재판에서	-10.7839
▁해안에	-10.7842
▁회원국들	-10.7843
▁먹는	-10.7844
션	-10.7851
▁빌리	-10.7852
co	-10.7853
▁피랍	-10.7859
▁수사에	-10.786
▁외국인들	-10.786
▁이들에게	-10.7861
▁바라	-10.7861
▁물러	-10.7866
▁납치한	-10.7869
▁바위	-10.7869
▁용납	-10.787
▁간부	-10.787
▁풍부	-10.7875
베르토	-10.7875
▁브래드	-10.7877
▁apec	-10.7877
▁people	-10.7877
▁가즈프롬	-10.7877
▁꺾고	-10.7877
▁디트로이트	-10.7877
▁마이스페이스	-10.7877
▁억만장자	-10.7877
▁음주운전	-10.7877
▁저렴	-10.7877
▁창기라이	-10.7877
▁러닝메이트	-10.7877
▁military	-10.7877
▁인명피해	-10.7877
▁코카인	-10.7877
▁피츠버그	-10.7877
▁가져올	-10.7877
▁아빠	-10.7877
▁라호르	-10.7877
▁돌아올	-10.7877
▁참배	-10.7877
▁미셸	-10.7878
▁산맥	-10.7878
▁후지모리	-10.7878
two	-10.7878
▁외환	-10.7878
▁치매	-10.7878
▁유통	-10.7878
▁아기들	-10.7879
▁국방위원장	-10.7879
▁부결	-10.7879
▁제작사	-10.788
▁않습니다	-10.788
▁포스트	-10.788
▁로켓포	-10.788
▁파커	-10.788
▁그들에게	-10.7881
▁의심되는	-10.7882
▁시민권	-10.7882
▁내무장관	-10.7884
었는지	-10.7887
▁서식하	-10.7888
▁곰	-10.7889
▁걸렸다	-10.789
▁하비	-10.7891
암	-10.7891
▁분경	-10.7891
▁철	-10.7894
▁실패한	-10.7895
▁구조작업	-10.7896
▁못했지만	-10.7897
▁트리	-10.79
▁돌아왔다	-10.7902
▁투표율	-10.7903
▁발매	-10.7905
▁인치	-10.7906
▁정부에서	-10.7909
▁사고는	-10.7909
▁포장	-10.7911
▁해방	-10.7912
▁계산	-10.7912
▁윤	-10.7912
▁당일	-10.7914
▁클린턴과	-10.7915
▁한달	-10.7916
▁덜	-10.7919
버리	-10.7921
▁진행될	-10.7922
▁업무를	-10.7922
▁fa	-10.7923
▁불과하다	-10.7923
▁크	-10.7923
▁요금	-10.7924
▁메이	-10.7926
▁그랜드	-10.7927
▁휴	-10.793
▁믿는다	-10.7931
▁급증	-10.7935
▁트	-10.7935
▁have	-10.7943
▁상사	-10.7945
▁바스라	-10.7946
▁침대	-10.7951
▁경사	-10.7951
▁평화상	-10.7953
▁진행중	-10.7954
▁관련하여	-10.7957
▁파크	-10.796
▁회견에서	-10.7961
▁계속할	-10.7961
롭	-10.7962
▁전해지	-10.7964
▁정기	-10.7968
▁클린턴에	-10.7971
해진	-10.7971
▁선택했다	-10.7976
▁설	-10.7977
▁찾아내	-10.7979
▁배제	-10.7983
엄	-10.7996
▁남자아이	-10.7996
칸	-10.7998
▁교도소에서	-10.7999
▁내정	-10.8004
▁북부에서	-10.8006
▁거부한	-10.8011
▁열기	-10.8011
▁것이기	-10.8018
ne	-10.8019
장인	-10.8021
▁동료들	-10.8024
▁가중	-10.8027
ri	-10.8032
▁몰려	-10.8034
▁위협에	-10.8034
▁보조	-10.8034
▁반대하고	-10.8039
▁아시아에서	-10.8042
▁입었	-10.8044
▁측이	-10.8045
대에	-10.8046
드라	-10.8046
▁대선에	-10.8047
▁연말	-10.805
▁챔피언십	-10.8058
▁짓	-10.8059
▁셰	-10.8067
트리	-10.8068
▁입어	-10.8068
▁악화되	-10.8071
▁이슬라마바드	-10.8072
▁무시	-10.8076
▁사살했다	-10.8079
▁한명	-10.8085
▁방문에	-10.809
▁내고	-10.8097
▁win	-10.8098
▁중점	-10.8099
▁남학생	-10.8099
▁am	-10.8101
▁민	-10.8101
스톤	-10.8101
▁전체가	-10.8102
▁활발	-10.8106
▁로드	-10.8108
ity	-10.8108
아야	-10.8109
▁비극	-10.8112
▁석방된	-10.8113
보기	-10.8116
▁전쟁이	-10.812
▁개막	-10.8128
▁블루	-10.8129
▁크기의	-10.8131
▁가즈니	-10.8132
▁뉴저지	-10.8132
▁예선	-10.8133
▁밀려	-10.8133
▁군중들	-10.8133
▁해저	-10.8137
▁부속	-10.8138
장으로	-10.8139
▁표준	-10.814
▁금메달	-10.814
▁럼스펠드	-10.814
▁엘리베이터	-10.814
▁최고경영자	-10.814
껏	-10.814
▁북극곰	-10.814
▁secretary	-10.814
▁떠오르	-10.814
▁남아프리카공화국	-10.814
▁포획	-10.814
▁라모스	-10.8141
▁안토니오	-10.8141
▁결합	-10.8141
▁lg	-10.8141
▁진료	-10.8141
▁마찰	-10.8141
▁알제리	-10.8141
▁설정	-10.8142
▁클라크	-10.8142
▁밀러	-10.8142
▁프랑스에서	-10.8142
▁파편	-10.8143
▁환수	-10.8143
▁던져	-10.8145
▁펄	-10.8146
▁출장	-10.8147
▁즐기는	-10.8148
▁배심원단	-10.8148
▁경비대	-10.815
▁군함	-10.8151
▁반등	-10.8151
▁사이버	-10.8151
마리	-10.8151
▁맞았다	-10.8153
▁넣었다	-10.8156
▁소유주	-10.8157
▁사회당	-10.8157
▁제공하기	-10.8159
▁사라진	-10.8159
▁특파원	-10.8159
▁거친	-10.816
▁말이	-10.816
▁약속한	-10.8163
▁세가	-10.8164
▁상금	-10.8165
▁일으키	-10.8165
▁찾았다	-10.8166
▁사용자들	-10.8169
▁기원	-10.817
▁여단	-10.8175
▁그곳에서	-10.8176
▁먼지	-10.8177
▁인정하지	-10.8182
▁망	-10.8188
▁쉬운	-10.8188
▁대비해	-10.8189
▁나치	-10.8191
사인	-10.8191
▁강에	-10.8204
▁독재자	-10.8206
▁전용	-10.8206
▁표시했다	-10.8208
▁부르	-10.8208
▁수년	-10.821
▁발이	-10.8212
▁확인하기	-10.8214
▁수사관들은	-10.8215
▁정상들	-10.8216
▁활동이	-10.8217
▁자라	-10.8227
▁바지	-10.8232
슬	-10.8234
▁걸려	-10.8235
▁던지	-10.8237
▁방문은	-10.8239
▁막아	-10.8245
되었는데	-10.8246
ty	-10.8247
▁폭로	-10.8251
▁정부군과	-10.8251
▁최	-10.8252
▁업체들	-10.8253
▁이른	-10.8261
▁제작자	-10.8261
▁내리는	-10.8265
▁월스트리트	-10.8266
▁난민들	-10.8269
▁ai	-10.8272
▁유지할	-10.8283
작전	-10.8284
음을	-10.8287
▁남쪽	-10.8294
▁연행	-10.8301
▁느끼는	-10.8305
▁수요일에	-10.8308
▁보유한	-10.8309
운동	-10.8311
▁게릴라	-10.8311
겠습니다	-10.8312
▁장소에서	-10.8327
▁부위	-10.8329
▁처	-10.833
군이	-10.8334
▁대원들	-10.8337
▁직장	-10.8338
▁소유한	-10.8342
▁장기적	-10.8342
▁미라	-10.8348
▁언급한	-10.8348
▁없다며	-10.8351
▁통보	-10.8355
▁청사	-10.8356
▁컵	-10.8359
베이	-10.8359
▁정계	-10.8366
므로	-10.8369
사태	-10.8372
▁독	-10.8377
▁소비자들이	-10.8381
▁했고	-10.8382
▁공안	-10.8383
압	-10.8387
▁다루	-10.8387
해서는	-10.839
▁병사들이	-10.8392
▁에티오피아	-10.8393
▁받아들여	-10.8394
▁위장	-10.8394
포드	-10.8395
▁유인	-10.8398
▁총회	-10.8404
▁투명	-10.8405
▁오스카	-10.8407
징	-10.8407
▁알라	-10.8407
▁휩쓸	-10.8408
▁섹시	-10.8409
▁해수욕장	-10.841
▁human	-10.841
▁그린피스	-10.841
▁시애틀	-10.841
▁대한민국	-10.841
▁브루니	-10.841
▁엉덩이	-10.841
▁넬슨	-10.841
▁브레이크	-10.841
▁스콧	-10.8411
▁동굴	-10.8411
▁밝혀냈다	-10.8411
▁제보	-10.8411
▁슈퍼볼	-10.8411
▁장벽	-10.8411
▁낭비	-10.8411
▁절감	-10.8412
▁좌파	-10.8412
▁오늘밤	-10.8412
▁단독	-10.8412
▁추천	-10.8412
▁켈리	-10.8412
▁유골	-10.8412
▁생명체	-10.8412
▁외쳤다	-10.8412
▁바하마	-10.8413
▁승점	-10.8413
▁모집	-10.8413
▁교내	-10.8414
▁위축	-10.8414
▁반환	-10.8414
▁다행히	-10.8415
▁보수당	-10.8415
▁휴식	-10.8416
▁였다	-10.8417
▁출연해	-10.8418
▁참여했다	-10.8418
▁네바다주	-10.8418
▁아민	-10.8419
▁인도분	-10.8419
um	-10.842
▁느낀다	-10.842
▁고등법원	-10.8424
▁미셀	-10.8425
▁아니며	-10.8426
▁좋아한다	-10.8426
리그	-10.8427
▁화제	-10.8428
▁회원들	-10.8428
▁받아들이지	-10.8429
▁케이시	-10.8435
▁우승자	-10.8436
▁강간	-10.8439
▁복장	-10.8439
▁버지니아주	-10.844
▁턱	-10.8441
지원	-10.8442
▁근처에	-10.8443
▁꽃	-10.8443
▁됐	-10.8444
▁웨인	-10.8446
▁이어졌다	-10.8448
▁남쪽으로	-10.8452
▁예측했다	-10.8454
▁숙	-10.8454
▁원하지	-10.8454
변	-10.8457
▁밝히기	-10.8459
▁거래됐다	-10.8462
▁부상자들	-10.8464
▁통해서	-10.8466
▁지지자들에게	-10.8469
▁과제	-10.8473
▁지수가	-10.8473
국이	-10.8476
▁유해	-10.8478
▁게재	-10.8481
▁명단에	-10.8484
▁변호인	-10.8488
▁민주적	-10.8491
▁분야에	-10.8492
▁전쟁에서	-10.8494
▁제일	-10.8498
▁강타한	-10.85
검사	-10.8504
▁포트	-10.8506
▁상의	-10.851
▁개발한	-10.8511
ish	-10.8515
▁폭력사태로	-10.8516
북한	-10.8517
▁조국	-10.8518
▁특사는	-10.8525
▁입수한	-10.8526
▁완성	-10.8527
▁피고인	-10.8528
드리	-10.853
▁포럼	-10.8532
▁탄도	-10.8534
▁안나	-10.8534
▁명성	-10.8535
▁조절	-10.8541
▁국경지역	-10.8543
헤	-10.8543
규모	-10.8543
▁대통령으로	-10.8544
정보	-10.8545
▁주최	-10.8548
▁일어나지	-10.8554
▁쓰는	-10.8558
▁계속하고	-10.856
▁법적으로	-10.8565
tv	-10.8566
▁목요일에	-10.8566
▁취소했다	-10.8568
▁된다면	-10.8571
▁이라크인	-10.8576
▁시청자들	-10.8583
▁연구가	-10.8583
▁움직임이	-10.8592
▁약화	-10.8592
▁있었기	-10.8594
▁정착	-10.8606
▁종식	-10.8606
▁상원에서	-10.8615
▁유물	-10.8624
▁르	-10.8625
▁탈북자	-10.8635
▁경비원	-10.8636
▁세트에서	-10.8637
▁원주민	-10.8644
▁활성화	-10.8645
스와	-10.8645
▁출생	-10.8648
▁개최된	-10.8651
▁청구	-10.8654
학자	-10.8655
▁좌절	-10.8659
▁개발에	-10.8663
▁일시적	-10.8667
▁어려	-10.8668
▁중단됐다	-10.8669
▁번지	-10.8676
▁티벳	-10.8677
▁시카고에서	-10.8677
듯	-10.8678
▁배심원	-10.8678
▁친환경	-10.8682
▁주유소	-10.8683
냥	-10.8685
▁감바	-10.8686
▁살아남	-10.8686
▁국무총리	-10.8688
▁유괴	-10.8688
▁england	-10.8688
▁규칙	-10.8688
▁기준금리	-10.8688
▁끝났다	-10.8688
▁듣지	-10.8688
▁버냉키	-10.8688
▁슬픔	-10.8688
▁원자바오	-10.8688
▁유수프	-10.8688
▁텔레비전	-10.8688
▁트라볼타	-10.8688
▁헬리콥터	-10.8688
▁호날두	-10.8688
▁스튜디오	-10.8688
▁바바라	-10.8688
▁모험	-10.8688
▁휴스턴	-10.8688
▁멸종위기	-10.8688
▁놀랄	-10.8688
▁워렌	-10.8689
▁숨겨	-10.8689
▁대선주자	-10.8689
▁논문	-10.8689
▁남녀	-10.8689
▁레이저	-10.8689
▁구호품	-10.869
▁도핑	-10.869
▁반체제	-10.869
▁금속	-10.8691
축구연맹	-10.8691
▁입력	-10.8692
▁탐사선	-10.8692
▁역대	-10.8694
▁금액	-10.8695
▁신원이	-10.8698
▁밝히며	-10.8699
▁지나치	-10.87
▁노대통령은	-10.87
▁라울	-10.8701
스럽게	-10.8701
▁카지노	-10.8702
▁인터	-10.8703
▁터	-10.8703
▁금융시장	-10.8703
▁조치로	-10.8704
▁텐트	-10.8704
▁도살	-10.8705
▁위생	-10.8708
▁처방	-10.8709
▁폴슨	-10.8709
▁탈레반과	-10.8711
▁임대	-10.8712
▁첫날	-10.8712
▁약품	-10.8712
▁조선	-10.8717
▁군중	-10.8717
▁위협하	-10.8721
▁처분	-10.8722
▁개설	-10.8723
▁유명하다	-10.8726
▁여기서	-10.8727
▁러시아와	-10.8727
▁년형	-10.8737
르게	-10.8737
▁결정이	-10.8742
▁신장	-10.8743
▁바르	-10.8746
얼	-10.8747
▁재선	-10.8747
▁투기	-10.8748
▁가족들에게	-10.8751
▁이른다	-10.8751
▁자녀들	-10.8752
▁시작될	-10.8756
▁선박이	-10.8759
▁착용하	-10.8762
어로	-10.8762
▁과정에	-10.8762
▁바닥에	-10.8764
▁집회에	-10.8765
▁논	-10.8766
▁보냈	-10.8767
▁처형	-10.8773
▁결함	-10.8775
▁참	-10.8775
▁세부	-10.8778
▁후보들	-10.8779
▁조직원	-10.8783
▁러드	-10.8789
▁지역이	-10.879
▁취하지	-10.8791
▁영국은	-10.8792
▁내용에	-10.8795
▁도구	-10.8804
▁일어나고	-10.8807
▁전합니다	-10.8807
▁생각해	-10.881
▁강화할	-10.8811
중국	-10.8814
▁변호	-10.8814
패	-10.8816
▁결승전	-10.8817
▁구호단체	-10.8818
셀	-10.882
였고	-10.8826
z	-10.8826
충	-10.8828
동맹	-10.8829
▁작용	-10.8832
덕	-10.8834
▁용	-10.8835
▁계	-10.8836
클	-10.8847
▁알려	-10.8852
▁선원들	-10.8853
▁가졌	-10.8856
▁탐험	-10.886
▁통계	-10.886
▁이루	-10.8866
내용	-10.8866
▁들어와	-10.8866
▁파키스탄에	-10.887
▁tr	-10.8871
▁여객기는	-10.8872
▁형태로	-10.8873
▁샤리프는	-10.8874
se	-10.8875
▁돌입	-10.8884
▁피살	-10.8885
▁사안	-10.8892
▁에어	-10.8894
▁추락한	-10.8896
▁지붕	-10.8897
▁다수의	-10.8899
▁파키스탄에서	-10.89
▁주권	-10.89
▁자카르타	-10.8901
▁국립공원	-10.8903
▁조언	-10.8906
▁뉴올리언스	-10.8922
▁선출된	-10.8925
▁가리	-10.8928
▁프로그램이	-10.8928
▁입원했다	-10.8931
▁sc	-10.8937
▁남성들	-10.8941
업계	-10.8943
▁한다면	-10.8943
▁광	-10.8944
▁조씨	-10.8947
▁서안	-10.895
▁남성과	-10.8954
▁세속주의	-10.8963
▁판결에	-10.8966
▁대회에	-10.897
▁제공했다	-10.8971
훈	-10.8972
▁알바니아	-10.8972
▁court	-10.8974
▁머리카락	-10.8974
▁산타클로스	-10.8974
▁애니메이션	-10.8974
▁애틀랜타	-10.8974
▁칸다하르	-10.8974
▁크로아티아	-10.8974
▁맥케인	-10.8974
▁week	-10.8974
▁히드로	-10.8974
▁적응	-10.8974
▁브루스	-10.8974
▁신용카드	-10.8974
▁밝혔으나	-10.8974
▁몸값	-10.8975
▁마침	-10.8975
▁군사작전	-10.8976
▁정밀	-10.8976
▁집필	-10.8976
▁가죽	-10.8976
▁새겨	-10.8977
▁복수	-10.8977
▁소유권	-10.8978
▁편안	-10.8978
▁경찰청	-10.8979
▁신병	-10.8979
버렸다	-10.8979
▁장거리	-10.898
▁피난	-10.898
▁중반	-10.898
▁코피	-10.898
▁마사지	-10.898
▁구경	-10.8981
▁회계	-10.8981
위원회는	-10.8981
▁때문입니다	-10.8982
▁대령	-10.8983
▁다이애나비	-10.8983
▁나와즈	-10.8983
id	-10.8984
▁음료	-10.8984
▁주말에	-10.8985
▁근무하	-10.8986
▁알렌	-10.8987
▁모았다	-10.8989
라며	-10.899
▁받아들였다	-10.8992
▁예선전	-10.8993
▁여아	-10.8996
▁관점에서	-10.8999
▁구름	-10.8999
▁참사	-10.9
▁목적이	-10.9
▁공무원들	-10.9001
▁장기간	-10.9005
▁태우고	-10.9008
라면	-10.9008
▁예정되어	-10.9008
▁사라지	-10.9012
▁돈이	-10.9014
▁시계	-10.9016
점으로	-10.9017
▁부르는	-10.9019
▁증언했다	-10.9019
▁발달	-10.9019
▁녹화	-10.902
▁특별히	-10.9021
▁일으키는	-10.9023
▁대우	-10.9027
▁수여	-10.9028
▁그곳에	-10.9029
리에	-10.9035
▁효율적	-10.9036
▁재판이	-10.9037
tor	-10.9038
▁확신했다	-10.9039
▁sk	-10.9039
▁인도주의적	-10.9044
▁기아	-10.9049
▁역임	-10.9053
▁차원에서	-10.9056
▁치르	-10.9057
▁레이더	-10.9057
▁라인	-10.9059
▁재해	-10.9061
▁or	-10.9062
▁적발	-10.9064
▁갖기	-10.9069
▁중상	-10.907
삼	-10.9071
▁예술가	-10.9073
▁윈	-10.9074
▁회수	-10.9077
▁특이	-10.9081
ick	-10.9085
▁평양에서	-10.9086
▁성분	-10.9088
▁이송됐다	-10.9091
▁중계	-10.9092
▁적자	-10.9093
월	-10.9099
▁내리고	-10.9099
▁반영	-10.9103
▁행동이	-10.9104
▁정치적으로	-10.9105
▁대답했다	-10.9111
▁명령했다	-10.9111
푸	-10.9112
대가	-10.9112
▁중심부	-10.9113
귀	-10.9114
▁부인하고	-10.9115
이어	-10.9117
병원	-10.9117
▁가고	-10.9119
▁사회에	-10.9119
▁확인하고	-10.912
▁급습	-10.912
▁어린이들이	-10.9121
▁투자자	-10.9124
▁줬다	-10.9127
▁발포	-10.9131
▁남기	-10.9134
▁강화하고	-10.9136
▁내게	-10.9139
▁요구에	-10.914
▁접수	-10.9144
▁do	-10.9147
man	-10.915
▁안전에	-10.9152
▁선장	-10.9153
▁괴한	-10.9155
un	-10.9158
▁특	-10.9162
장에	-10.9171
▁재판에	-10.9178
▁발표는	-10.9179
▁제작된	-10.9179
▁느끼	-10.918
▁사진들	-10.9181
지역에	-10.9185
▁주당	-10.9192
▁종교적	-10.9197
▁데비	-10.9201
▁존경	-10.9202
시대	-10.9202
▁논의했다	-10.9202
▁의존	-10.9203
▁사람과	-10.9205
▁무덤	-10.9206
▁리오	-10.9208
시에서	-10.9209
▁정리	-10.921
▁줄이는	-10.9211
▁묵	-10.9211
▁원치	-10.9213
▁주주들	-10.9216
▁지원하기	-10.9217
비치	-10.9224
▁기술이	-10.9232
▁써	-10.9235
▁도난	-10.9237
▁행사에서	-10.924
▁계기	-10.9243
▁중심에	-10.9245
▁이슬람교	-10.9245
▁필립	-10.9248
▁장악	-10.925
▁밴	-10.925
▁실업	-10.925
▁탐	-10.9251
▁밝혔었	-10.9252
현정	-10.9253
▁위치해	-10.9257
▁모자	-10.9258
▁의장이	-10.9258
▁가자지구에서	-10.9261
▁창설	-10.9263
▁포경선	-10.9264
▁재고	-10.9265
릿	-10.9267
▁세탁	-10.9267
▁스탈린	-10.9267
▁박격포	-10.9267
최지	-10.9267
▁securit	-10.9268
▁끊임없	-10.9268
▁떨어질	-10.9268
▁마케팅	-10.9268
▁뮌헨	-10.9268
▁베어스턴스	-10.9268
▁베탕쿠르	-10.9268
▁브리트니	-10.9268
▁비즈니스	-10.9268
▁썼다	-10.9268
▁아칸소	-10.9268
▁에르도간	-10.9268
▁오케스트라	-10.9268
▁타협	-10.9268
▁테러지원국	-10.9268
▁풀려났다	-10.9268
▁크레이그	-10.9268
▁맥도날드	-10.9268
▁무소속	-10.9268
▁소탕작전	-10.9268
▁대폭	-10.9268
같이	-10.9269
▁고릴라	-10.9269
▁조짐	-10.927
ive	-10.927
▁버튼	-10.927
▁타결	-10.927
▁영감	-10.927
▁평소	-10.9271
▁수만명	-10.9272
▁분쟁이	-10.9273
▁입구	-10.9273
▁파문	-10.9274
▁식수	-10.9275
▁출입	-10.9276
▁여유	-10.9278
▁많아	-10.9279
▁mm	-10.9279
▁포위	-10.928
▁국회에	-10.928
▁미만	-10.9281
▁연방준비제도이사회	-10.9283
▁앞선	-10.9283
▁인명	-10.9283
▁일단	-10.9283
▁버전	-10.9284
▁개념	-10.9285
▁가져다	-10.9285
▁적십자사	-10.9286
▁해명	-10.9289
▁겪었다	-10.929
▁느꼈다	-10.9292
▁잡았다	-10.9294
▁경제학자들	-10.9295
▁파일	-10.9297
▁미치지	-10.9298
▁청년	-10.9298
▁인도네시아에서	-10.9299
▁슛	-10.9299
전에서	-10.9304
허	-10.9305
▁궁	-10.9305
▁유지하기	-10.9307
▁때마다	-10.9308
at	-10.9308
▁나아가	-10.9311
▁십	-10.9313
▁news	-10.9315
▁전년	-10.9322
is	-10.9323
물을	-10.9323
▁말하면서	-10.9327
▁주차	-10.933
▁죽었다	-10.9331
▁심사	-10.9333
▁붕괴된	-10.9333
▁가기	-10.9334
▁여야	-10.9336
▁보호하고	-10.9336
견	-10.9339
▁블	-10.934
▁적극	-10.9341
▁입학	-10.9342
▁비만	-10.9345
▁프랑스와	-10.9348
▁자금이	-10.9352
별	-10.9355
▁전체에	-10.9355
▁싶어한다	-10.9356
▁비가	-10.9359
기술	-10.936
▁오리	-10.9364
▁여사와	-10.9367
▁생산하는	-10.9368
▁물었다	-10.9368
▁건수	-10.9368
하였으며	-10.9373
▁추락했다	-10.9377
▁보도한	-10.9383
▁사임했다	-10.9386
경기	-10.9388
▁애완동물	-10.9392
▁요청할	-10.9393
▁시위자	-10.9399
▁축출	-10.9403
▁당국과	-10.9404
▁요청한	-10.9405
▁교전이	-10.9407
▁자랑	-10.9407
부는	-10.9409
디아	-10.941
▁파손됐다	-10.9412
▁확인된	-10.942
▁제공하고	-10.9422
몰	-10.9423
▁열렸	-10.9423
▁기술자	-10.9426
▁사용하기	-10.9427
▁동맹국들	-10.943
▁지도자들과	-10.9444
▁개최되	-10.9445
데스	-10.9455
▁연이	-10.9461
▁시인	-10.9462
▁파파라치	-10.9463
▁발의	-10.9467
▁과격	-10.9469
▁직면	-10.9472
▁총장	-10.9481
▁가족에게	-10.9482
▁펼쳐	-10.9484
▁소매	-10.9492
▁날이	-10.9496
▁독재	-10.9497
▁바닥	-10.9503
▁공판	-10.9505
▁서울에	-10.9507
▁기리	-10.9508
▁me	-10.9515
▁추구	-10.9517
▁자발적	-10.9519
▁지구에서	-10.9524
▁말로	-10.9531
▁인접	-10.9548
▁보였다고	-10.9555
▁보내기	-10.9557
▁노력에	-10.9558
에르	-10.9563
▁오클라호마	-10.9565
렐	-10.9569
기위해	-10.9569
▁high	-10.957
▁골든글로브	-10.9571
▁구호물품	-10.9571
▁뉴욕타임스	-10.9571
▁에스토니아	-10.9571
▁유니세프	-10.9571
▁유조선	-10.9571
▁일으켜	-10.9571
▁좋게	-10.9571
▁티셔츠	-10.9571
▁항생제	-10.9571
▁야스쿠니	-10.9571
▁press	-10.9571
▁다운로드	-10.9571
▁크로커	-10.9571
▁kim	-10.9571
▁출범	-10.9571
▁바꿔	-10.9572
▁저택	-10.9572
▁대략	-10.9572
▁양키스	-10.9572
▁wto	-10.9572
▁복권	-10.9572
▁city	-10.9572
▁첩보	-10.9572
▁요르단강	-10.9573
▁폭등	-10.9573
▁풍선	-10.9573
▁어두운	-10.9574
▁패리스	-10.9574
▁현지경찰	-10.9574
▁아이돌	-10.9575
▁차원	-10.9576
land	-10.9576
▁입었으며	-10.9577
▁소란	-10.9577
▁설문	-10.9577
▁명칭	-10.9577
▁가택	-10.9577
▁신도	-10.9578
▁볼튼	-10.9578
▁추산했다	-10.9578
▁거둔	-10.9579
▁모르겠다	-10.9579
▁상반기	-10.9579
▁유적지	-10.9579
▁타이어	-10.958
▁기자들이	-10.9581
▁시골	-10.9581
▁부유	-10.9582
▁쏘	-10.9584
▁조속	-10.9585
▁뒤집	-10.9586
▁제프리	-10.9588
▁덕분에	-10.9588
▁자치	-10.959
▁알려주	-10.959
▁주장했지만	-10.9593
▁채권	-10.9595
▁you	-10.9596
량이	-10.9596
▁중령	-10.9598
▁인정받	-10.9598
▁양성	-10.9599
▁예상보다	-10.9602
▁투표할	-10.9602
▁스텔	-10.9602
▁과시	-10.9602
▁뉴욕에	-10.9604
줬다	-10.9612
▁타임	-10.9613
▁환경에	-10.9617
▁지낸	-10.9618
▁관객	-10.9626
▁년전	-10.9627
▁미시간	-10.9627
▁하더라도	-10.9629
▁유기	-10.9633
▁제트	-10.9642
▁벌어졌	-10.9645
▁트레	-10.9649
▁기록하며	-10.9651
▁차지한	-10.9651
▁프레드	-10.9651
▁자신에	-10.9653
▁사랑하는	-10.9654
▁구단	-10.9654
되었지만	-10.9655
▁하도록	-10.9657
▁보낸다	-10.9661
▁테러단체	-10.9663
▁사용한다	-10.9668
▁정보국	-10.968
스가	-10.9684
▁과장	-10.9685
▁착용	-10.9685
▁올리고	-10.9688
둘	-10.9689
▁전략적	-10.969
있거나	-10.9698
▁위안	-10.9699
▁즐기	-10.9699
▁장악하	-10.97
▁아마디	-10.9703
주에서	-10.9707
▁기획	-10.9709
▁취급	-10.9709
▁농민들	-10.971
▁침묵	-10.9715
▁년에서	-10.9715
▁작성한	-10.9716
▁풀어	-10.9717
▁편집	-10.9722
▁배포	-10.9723
폭	-10.9727
값	-10.9731
더스	-10.9733
웅	-10.9735
▁결의안에	-10.9736
켈	-10.974
▁상륙	-10.9743
▁국가인	-10.9744
▁이해할	-10.9745
▁들어가는	-10.9746
조약	-10.975
▁끝나는	-10.975
▁부문에서	-10.975
▁시까지	-10.9754
보호	-10.9756
▁드는	-10.9759
▁교육부	-10.9772
기금	-10.9786
까지도	-10.9788
▁나타난	-10.979
▁최고위	-10.979
▁위협했다	-10.9795
▁줄여	-10.9798
▁머리에	-10.9801
▁벌어지	-10.9801
▁설치된	-10.9802
▁세운	-10.9803
네스	-10.9804
▁빼	-10.9805
▁이래로	-10.981
업자들	-10.9813
▁가자지구에	-10.9815
▁man	-10.9818
▁농민	-10.9818
▁호주에서	-10.9822
▁벗	-10.9824
드로	-10.9826
쳤	-10.9831
▁전설	-10.9835
오는	-10.984
▁비난한	-10.9842
시티	-10.9842
▁실어	-10.9849
▁흔들	-10.9851
▁촉구하	-10.9854
▁우주인	-10.9861
▁왜곡	-10.9863
▁시위로	-10.9863
▁바다로	-10.9865
▁되었습니다	-10.9865
▁참여하는	-10.9873
▁실무	-10.9875
▁피닉스	-10.988
▁매입	-10.9882
▁afp	-10.9883
▁london	-10.9883
▁nfl	-10.9883
▁wfp	-10.9883
▁걷는	-10.9883
▁기습	-10.9883
▁마라도나	-10.9883
▁모바일	-10.9883
▁클루니	-10.9883
▁포괄적	-10.9883
▁흰색	-10.9883
▁셰이크	-10.9884
▁린제이	-10.9884
▁교과서	-10.9884
▁잔혹	-10.9884
▁취득	-10.9884
▁정해지지	-10.9884
▁흐름	-10.9884
▁lpga	-10.9884
▁칭찬	-10.9884
▁페이스북	-10.9884
▁상관없이	-10.9884
▁모로코	-10.9884
▁이르기까지	-10.9884
▁호킹	-10.9884
▁같습니다	-10.9884
▁닉슨	-10.9884
▁스튜어트	-10.9885
▁워너	-10.9885
▁연극	-10.9885
▁평화협상	-10.9885
▁bank	-10.9886
▁점프하	-10.9886
▁모래	-10.9886
▁추출	-10.9887
▁학위	-10.9887
▁끝나	-10.9888
▁전대통령	-10.9889
▁장교	-10.9889
▁참석해	-10.989
▁관리자	-10.989
▁뚫	-10.9891
▁마을에	-10.9892
▁극단주의자들	-10.9893
▁받았지만	-10.9893
▁없었던	-10.9894
▁불렀다	-10.9895
▁하산	-10.9896
▁회부	-10.9897
▁줄이고	-10.9897
▁우리베	-10.9898
▁서명했다	-10.9898
▁연임	-10.99
▁정오	-10.99
▁나체	-10.9902
▁비유	-10.9903
▁교외	-10.9906
▁참여하지	-10.9907
력이	-10.9908
▁표결	-10.9908
받아	-10.9908
▁성공회	-10.9909
▁통일	-10.9909
▁그라운드	-10.991
▁반미	-10.9916
▁불화	-10.9917
▁연방수사국	-10.9921
위원	-10.9923
▁호화	-10.9923
▁선적	-10.9923
▁자크	-10.9925
▁시달리고	-10.9926
▁life	-10.9926
▁아이티	-10.9927
담당	-10.9927
▁해외에서	-10.9929
▁일반적인	-10.9929
분야	-10.993
▁모의	-10.9932
▁거주지	-10.9936
▁단식	-10.9938
▁개조	-10.9938
▁my	-10.9939
▁없었	-10.994
▁이어질	-10.9943
ml	-10.9943
▁광부들	-10.9952
▁발생했	-10.9953
▁드립니다	-10.9953
▁의원들에게	-10.9955
▁수용할	-10.9957
▁중에서	-10.9957
▁확실하지	-10.9957
▁오를	-10.9961
▁확보했다	-10.9963
▁선정됐다	-10.9965
▁정신과	-10.9965
▁인기가	-10.9988
▁명시	-10.9996
기때문에	-10.9997
▁극적	-11.0005
▁불교	-11.0005
▁했을	-11.0006
대사	-11.0007
▁보호하는	-11.0008
▁소방관	-11.0011
▁열정	-11.0012
연구	-11.0014
▁이득	-11.0024
▁단계에	-11.0025
▁선언한	-11.0033
▁슬	-11.0033
▁지니	-11.0035
▁완	-11.0036
몬	-11.0037
▁혼란에	-11.0038
하러	-11.0041
▁지지도	-11.0041
거래	-11.0046
▁본국	-11.0047
녀	-11.0048
▁장관들	-11.0049
공격	-11.0058
바라데이	-11.006
▁참가했다	-11.0062
홀	-11.0067
선거	-11.0068
▁기간에	-11.0069
▁중단하고	-11.0069
▁힐튼이	-11.0074
▁승자	-11.0075
▁아내와	-11.0081
▁창조	-11.0085
▁경제의	-11.0096
시켰	-11.0098
▁국무장관이	-11.01
ah	-11.01
▁스크린	-11.0104
▁지원금	-11.0106
▁학생들과	-11.011
▁어머니와	-11.0113
▁홍	-11.0114
▁모스	-11.0117
▁공정	-11.0122
▁손자	-11.0129
▁패한	-11.0129
▁오픈에서	-11.0135
▁제안한	-11.0139
▁대테러	-11.014
▁au	-11.0145
▁영광	-11.0146
룬	-11.0148
▁참석하기	-11.0149
▁장성	-11.0151
▁킨	-11.0154
▁금연	-11.0155
▁유대	-11.0156
▁후보들은	-11.016
▁수명	-11.016
▁급락	-11.0163
▁부통령이	-11.0164
▁소속의	-11.0165
▁남편과	-11.0166
▁차례로	-11.0173
▁비교해	-11.0178
▁명이다	-11.0178
▁소식통들	-11.0183
▁염려	-11.0184
▁비행기에	-11.0185
▁잇따	-11.0187
▁확고	-11.0196
▁루이지애나	-11.0198
▁지는	-11.0203
▁착취	-11.0206
▁예배	-11.0206
▁url	-11.0206
▁광우병	-11.0206
▁뉴캐슬	-11.0206
▁당나귀	-11.0206
▁매머드	-11.0206
▁몸무게	-11.0206
▁싶은	-11.0206
▁이르렀다	-11.0206
▁제니퍼	-11.0206
▁집무실	-11.0206
▁카자흐스탄	-11.0206
▁국가주석	-11.0206
▁글래스고	-11.0206
▁대주교	-11.0206
▁지중해	-11.0206
▁세비야	-11.0206
▁효력	-11.0206
▁농담	-11.0206
▁쇼핑몰	-11.0206
▁혈액	-11.0206
▁둘째	-11.0206
▁무너져	-11.0207
▁레논	-11.0207
▁트로피	-11.0207
▁왕복선	-11.0207
▁있었는지	-11.0207
▁허블	-11.0207
▁몰래	-11.0207
▁베어	-11.0207
장관	-11.0207
▁퇴치	-11.0207
▁may	-11.0208
▁할아버지	-11.0208
▁정체	-11.0208
▁넣어	-11.0209
▁밤새	-11.0209
▁기름	-11.0209
▁나가는	-11.0209
▁피닉스호	-11.021
▁종양	-11.021
▁무너진	-11.021
▁우연	-11.021
▁제패	-11.0211
▁이례적	-11.0211
▁높아졌다	-11.0213
▁계열사	-11.0213
▁공조	-11.0214
▁병역	-11.0214
▁난동	-11.0214
▁부른	-11.0214
▁가정에	-11.0214
▁강연	-11.0214
▁조사는	-11.0215
▁공세	-11.0215
▁기소했다	-11.0215
▁예언자	-11.0215
▁사법부	-11.0215
▁재발	-11.0216
▁권위	-11.0216
▁감원	-11.0216
ma	-11.0216
용으로	-11.0216
▁상위	-11.0218
▁버진	-11.0218
▁경영자	-11.0218
▁지속될	-11.022
▁시경	-11.0222
▁황우석	-11.0222
해지고	-11.0223
▁만명에	-11.0224
▁확인되	-11.0224
▁전례	-11.0225
▁폐기물	-11.0226
▁연휴	-11.0227
▁조사하기	-11.023
▁발리	-11.023
▁남미	-11.0231
▁광대	-11.0232
▁연기했다	-11.0232
▁나란	-11.0232
▁선데이	-11.0232
▁신도들	-11.0233
▁면적	-11.0234
▁저가	-11.0239
렸으며	-11.024
▁내정자	-11.0241
▁주가가	-11.0245
▁지키기	-11.0246
▁모르	-11.0247
스크	-11.0248
평	-11.0249
▁틸	-11.0251
▁구상	-11.0251
▁페리	-11.0256
▁라이프	-11.0257
웨	-11.0262
▁걸었다	-11.0262
▁돌리	-11.0263
▁화장	-11.0264
▁감시단	-11.0265
▁시작되는	-11.0266
▁경찰에따르면	-11.027
▁한쪽	-11.0275
▁런던에	-11.0285
되자	-11.0287
▁하이	-11.0288
▁문자	-11.0299
▁상원의원에	-11.03
▁인도에서	-11.03
▁취임한	-11.0302
▁주인이	-11.0306
▁가져	-11.0308
▁포기했다	-11.031
으려	-11.0311
▁연방정부	-11.0312
▁시점에서	-11.0315
▁크고	-11.0316
▁수십억	-11.0317
▁천문학자들	-11.0324
▁모스크바에서	-11.0326
▁수락	-11.0326
▁당황	-11.0334
▁오해	-11.0339
▁구하기	-11.0353
서비스	-11.0359
▁의혹에	-11.0361
▁총선에	-11.0362
기자	-11.0364
▁가서	-11.0365
▁총격으로	-11.0365
▁공격수	-11.0369
▁국민이	-11.0369
▁탈출했다	-11.0371
▁금지하고	-11.0372
▁증진	-11.0376
▁시작되었다	-11.0376
▁시스템이	-11.0376
▁압	-11.0377
▁소행성	-11.0383
▁독일에서	-11.0387
ca	-11.0388
구조	-11.0391
▁th	-11.0392
▁새해	-11.0393
▁부토는	-11.0393
짓	-11.0394
▁검토하	-11.0394
빙	-11.0395
▁추모	-11.0395
롱	-11.0395
콜	-11.04
사항	-11.04
▁자회담에	-11.0403
제품	-11.0403
▁실은	-11.0404
▁관계자들과	-11.0404
▁단행	-11.0407
▁범	-11.0409
다소	-11.0412
▁범죄에	-11.0414
자료	-11.0415
▁관리인	-11.0418
▁사무	-11.0418
▁서쪽	-11.0419
▁기한	-11.0419
세이	-11.0421
▁있었을	-11.0422
▁받아들이	-11.0423
화를	-11.0424
▁판결했다	-11.0429
▁들었	-11.0429
former	-11.0433
▁주장이	-11.0433
존	-11.0438
▁시설에	-11.044
▁신문에	-11.0442
▁느낌	-11.0444
침	-11.0446
▁일에도	-11.0449
▁우드	-11.0454
▁제공한다	-11.046
▁전송	-11.0461
화된	-11.0463
▁모술	-11.0463
▁안되	-11.0465
▁동영상에	-11.0465
▁지지율이	-11.0466
▁뉴델리	-11.0467
▁저질렀다	-11.0471
▁하버드	-11.0472
▁국제우주정거장	-11.0475
학과	-11.0479
▁측면	-11.0479
▁미소	-11.0483
▁다이	-11.0486
▁시작해	-11.0486
행사	-11.049
▁할지	-11.0492
uk	-11.0492
향	-11.0493
▁산책	-11.0493
스코	-11.0498
스틴	-11.0498
▁싸	-11.0502
▁협상단	-11.0505
럼	-11.0508
▁만나기	-11.051
▁불가피	-11.051
▁인자	-11.0511
▁출	-11.0515
▁하려	-11.0517
본부	-11.0517
▁승객들이	-11.0519
▁펜실베니아	-11.0523
▁위스콘신	-11.0525
▁구제금융	-11.0527
▁성경	-11.0528
▁메릴랜드	-11.0536
▁니케이	-11.0536
▁승무원들	-11.0537
닛	-11.0539
▁association	-11.0539
▁났다	-11.0539
▁도널드	-11.0539
▁벤자민	-11.0539
▁상파울루	-11.0539
▁세계보건기구	-11.0539
▁우주정거장	-11.0539
▁잃지	-11.0539
▁커뮤니티	-11.0539
▁로스앤젤레스	-11.0539
▁피아노	-11.0539
▁그루지아	-11.0539
▁호르몬	-11.0539
▁자서전	-11.0539
▁닥터	-11.054
▁office	-11.054
▁부작용	-11.054
▁침투	-11.054
▁양육권	-11.054
▁지뢰	-11.054
▁홈런	-11.054
▁여배우	-11.0541
▁조셉	-11.0541
▁토양	-11.0541
▁쿠르드족	-11.0541
▁두뇌	-11.0541
▁퇴장	-11.0541
▁아끼	-11.0541
▁해킹	-11.0541
▁안내	-11.0541
▁지닌	-11.0542
▁수비수	-11.0542
▁인디아나	-11.0542
▁출국	-11.0542
▁재벌	-11.0542
▁국가안보	-11.0542
▁받았으나	-11.0543
▁식민지	-11.0543
▁토론토	-11.0545
▁후퇴	-11.0545
▁기초	-11.0545
▁기각	-11.0545
▁정보기관	-11.0546
▁group	-11.0547
▁교량	-11.0547
▁복지	-11.0548
▁시장과	-11.0548
▁요트	-11.0549
▁문신	-11.0549
▁구단주	-11.0549
▁비준	-11.0549
▁닭	-11.0551
▁필리스	-11.0552
▁인공	-11.0552
▁감면	-11.0553
▁활기	-11.0554
▁차림	-11.0555
▁지하드	-11.0556
▁일축했다	-11.0557
▁쓰	-11.0559
▁향했다	-11.0559
▁주류	-11.0559
▁인계	-11.0562
국으로	-11.0563
▁그럼	-11.0565
▁확실하다	-11.0566
▁군데	-11.0567
▁inter	-11.0567
▁usa	-11.057
▁끄	-11.0575
▁군부대	-11.0585
▁성명서	-11.0587
식이	-11.0588
▁없애	-11.0588
이기도	-11.0593
▁조치에	-11.0593
▁군복	-11.0598
인데	-11.0598
▁누르고	-11.0599
et	-11.0601
▁그때	-11.0605
▁알았다	-11.0605
▁이베이	-11.0607
ta	-11.0608
▁결의	-11.0609
▁안드레	-11.0609
▁기울이	-11.0613
▁걸리	-11.0615
▁후보들이	-11.0616
▁남자들	-11.0618
▁국회의	-11.0618
▁도시로	-11.0621
▁벌어지고	-11.0621
▁open	-11.0625
▁노동부	-11.0629
▁아이들과	-11.063
▁대사가	-11.063
ft	-11.0632
▁전파	-11.0632
▁기반으로	-11.0634
▁증인	-11.0635
▁사회주의	-11.0638
▁표현했다	-11.0645
▁과학적	-11.066
▁칼라	-11.0663
▁합의문	-11.0673
▁펼치	-11.0675
▁포함된다	-11.0675
▁세관	-11.0676
▁내장	-11.0679
▁시일	-11.0683
▁정책이	-11.0684
▁사이트에	-11.0687
이라면	-11.069
회담	-11.0691
▁밝혀내	-11.0692
▁대기업	-11.0698
▁동물을	-11.07
이면	-11.0701
▁thi	-11.0707
na	-11.0708
▁아프가니스탄에	-11.0708
육	-11.0709
▁통신사	-11.071
▁장려	-11.0715
▁반대한다	-11.0718
▁지연되	-11.0718
▁반대했다	-11.0719
씨가	-11.0724
중이다	-11.0725
▁돌아온	-11.0727
▁경찰서에	-11.0727
▁움직임에	-11.0728
▁취소됐다	-11.0734
▁부장관	-11.0736
▁물리치	-11.0739
협정	-11.0743
▁란	-11.0745
▁일상적	-11.075
▁벽에	-11.0751
▁추진하고	-11.0752
▁흥미	-11.0753
▁약탈	-11.0755
리고	-11.0756
버스	-11.0758
▁오고	-11.0766
▁프	-11.0769
시키	-11.0774
▁매출	-11.0774
▁관중	-11.0774
달라	-11.0783
▁인정한	-11.0785
▁중국인	-11.0792
▁문제점	-11.0792
▁보호할	-11.0794
ent	-11.0799
▁기다려	-11.0802
▁시위대와	-11.0804
▁과도	-11.0807
금지	-11.081
▁아이들에게	-11.0813
▁영국에	-11.0816
▁던졌다	-11.0816
▁control	-11.0819
▁않았	-11.0822
▁당의	-11.0824
▁진행됐다	-11.0825
스카	-11.0831
▁크레	-11.0832
▁미치	-11.0837
able	-11.0839
▁야후는	-11.0839
▁못했	-11.0845
ext	-11.0845
▁동일	-11.0847
▁사원에서	-11.085
▁감옥에	-11.0851
시장에서	-11.0854
마르	-11.0861
▁운동가	-11.0861
▁국정원	-11.0863
시켜야	-11.0864
▁풍경	-11.0866
me	-11.0866
▁유입	-11.0867
▁치른	-11.0868
탁	-11.087
▁홈페이지에	-11.087
▁미국에서는	-11.0872
▁아담	-11.0872
▁디스	-11.0874
사회	-11.0875
▁높아	-11.0875
넨	-11.0877
▁이브	-11.0878
▁매사추세츠	-11.0879
▁모니터	-11.0884
▁치솟	-11.0884
▁prim	-11.0884
▁police	-11.0884
▁그루지야	-11.0884
▁매코맥	-11.0884
▁미드필더	-11.0884
▁박테리아	-11.0884
▁뱅크	-11.0884
▁수하르토	-11.0884
▁슈워제네거	-11.0884
▁악영향	-11.0884
▁알자와히리	-11.0884
▁암스트롱	-11.0884
▁오징어	-11.0884
▁재정경제부	-11.0884
▁캠벨	-11.0884
▁케르비엘	-11.0884
▁탔다	-11.0884
▁프로듀서	-11.0884
▁흥행	-11.0884
▁동계올림픽	-11.0884
▁맥코맥	-11.0884
▁블룸버그	-11.0884
▁research	-11.0884
▁death	-11.0884
▁방사능	-11.0884
▁도덕적	-11.0884
▁중서부	-11.0884
▁스피처	-11.0884
▁무하메드	-11.0884
▁계곡	-11.0885
▁속옷	-11.0885
▁종신형	-11.0885
▁타이완	-11.0885
▁아닐	-11.0885
▁태양열	-11.0885
▁면밀	-11.0885
▁맹세	-11.0885
▁요격	-11.0885
▁블록	-11.0885
▁굿	-11.0886
▁참전	-11.0887
▁불안감	-11.0887
▁고려해	-11.0887
▁피셔	-11.0887
▁몸집	-11.0887
▁교토	-11.0888
▁성행위	-11.0888
▁총알	-11.0889
▁존드로	-11.0889
▁외교관계	-11.089
▁대학살	-11.0891
▁정통	-11.0891
▁마흐무드	-11.0892
▁얼리	-11.0892
▁용서	-11.0892
▁세인트	-11.0893
▁배제하지	-11.0894
▁혼다	-11.0895
▁호송	-11.0895
▁같았다	-11.0896
▁냄새	-11.0897
▁면서	-11.0898
▁크리스티나	-11.0898
▁가르치	-11.09
▁닷	-11.0901
▁리타	-11.0902
▁수백만명	-11.0903
▁지문	-11.0903
▁통로	-11.0905
▁여파로	-11.0906
▁제트기	-11.0906
▁기후변화	-11.0907
▁필립스	-11.0908
만으로	-11.0908
▁확인하는	-11.0909
치료	-11.0909
▁폭격기	-11.091
▁후보에게	-11.091
▁운하	-11.091
▁차가	-11.0912
▁아카데미상	-11.0912
때까지	-11.0914
▁성전	-11.0915
▁춤	-11.0916
일정	-11.0918
▁일방적	-11.0918
▁가난	-11.0921
▁도시에	-11.0922
▁off	-11.0925
▁말했지만	-11.0927
▁둔화	-11.0928
▁유용	-11.0929
▁생겼다	-11.093
▁부상당	-11.093
께	-11.093
▁남았다	-11.093
▁부진	-11.0931
▁포기하지	-11.0931
▁지냈	-11.0933
▁캐리	-11.0936
▁재배	-11.0936
▁단서	-11.0937
▁따르	-11.0942
▁장악한	-11.0945
▁남부의	-11.0947
▁쏟아	-11.0951
▁백악관에	-11.0951
▁내로	-11.0954
▁강조하고	-11.0959
▁액	-11.0962
사의	-11.0963
▁팬들에게	-11.0967
▁환영했다	-11.0972
▁방치	-11.0975
▁선고받	-11.0976
▁반군과	-11.098
측이	-11.0981
▁함	-11.0984
▁하는데	-11.0985
스티	-11.0993
▁제품에	-11.0995
▁북한에서	-11.0999
▁금지하는	-11.0999
▁돌보	-11.1
▁집안	-11.1004
▁가속화	-11.1005
▁임원	-11.1009
었을	-11.1012
았습니다	-11.1017
▁경제와	-11.1017
나갈	-11.1019
▁치고	-11.1019
▁재무	-11.1028
염	-11.103
시기	-11.1035
▁프로그램은	-11.1036
▁로라	-11.1037
▁지도자로	-11.1038
▁공원에서	-11.104
ll	-11.1047
▁코스	-11.105
부분	-11.105
▁막고	-11.1056
혈	-11.1061
▁떨어지는	-11.1064
▁목격한	-11.107
▁주지사와	-11.107
▁내년에	-11.1072
▁강진	-11.1074
▁물어	-11.1075
트라	-11.1078
▁측에	-11.1079
▁장소로	-11.1083
느	-11.1088
끼	-11.1089
▁릭	-11.1089
룰	-11.1091
▁pro	-11.1091
▁건물에서	-11.1092
▁민간인들	-11.1092
▁ge	-11.1093
▁쌍	-11.1094
▁떨어지	-11.1095
▁실직	-11.1096
뜨	-11.1101
▁제인	-11.1104
▁총리로	-11.1113
의원	-11.1118
▁영국으로	-11.1119
ss	-11.112
렉	-11.1121
사와	-11.1124
▁걸려있	-11.1127
▁얼음이	-11.1128
▁부근에	-11.1129
▁동전	-11.1133
▁차량은	-11.1134
▁웨이	-11.1139
▁양측의	-11.1141
▁광장에	-11.1143
▁사무실에서	-11.1147
▁국왕이	-11.1148
▁배로	-11.115
▁듯한	-11.1151
▁쳐	-11.1156
▁면에서	-11.1157
▁기숙사	-11.1157
▁방한	-11.1157
▁미트	-11.1161
▁법정에	-11.1162
▁정한	-11.1163
▁관료	-11.1168
례	-11.117
텔	-11.1179
▁손님	-11.1182
▁속한	-11.1183
▁주소	-11.1185
▁임명된	-11.1185
▁사제	-11.1186
▁부적절	-11.1187
카드	-11.1187
▁오지	-11.1192
▁일으켰	-11.1193
ap	-11.1193
▁so	-11.1194
▁신고했다	-11.1198
니는	-11.1202
▁출전한	-11.1207
▁교회에서	-11.1208
▁박탈	-11.1213
바로	-11.1215
▁격리	-11.1216
ter	-11.1222
원인	-11.1223
▁서한	-11.1223
과정	-11.1224
▁배급	-11.1225
▁구타	-11.1225
▁상승으로	-11.1228
▁파손되	-11.1229
▁관광객들은	-11.1229
▁election	-11.123
널	-11.1231
▁전당	-11.1231
▁여자들	-11.1231
▁도주	-11.1232
▁서약	-11.1236
▁클라	-11.1236
▁납치범들	-11.1236
▁종합	-11.1237
픈	-11.1237
▁chin	-11.1241
▁오렌지	-11.1241
▁학년	-11.1241
▁bmw	-11.1241
▁구스마오	-11.1241
▁김계관	-11.1241
▁꿈을	-11.1241
▁돕고	-11.1241
▁만장일치	-11.1241
▁사형집행	-11.1241
▁세실리아	-11.1241
▁승용차	-11.1241
▁실업수당	-11.1241
▁애틀란타	-11.1241
▁자메이카	-11.1241
▁캠퍼스	-11.1241
▁크누트	-11.1241
▁클리블랜드	-11.1241
▁탈라바니	-11.1241
▁펼칠	-11.1241
▁피추시킨	-11.1241
▁깃발	-11.1241
▁비영리	-11.1241
▁economic	-11.1241
▁퍼트레이어스	-11.1241
▁said	-11.1241
▁벨몬트	-11.1241
▁공략	-11.1242
▁issue	-11.1242
▁월드시리즈	-11.1242
▁미망인	-11.1242
▁러셀	-11.1242
▁모하마드	-11.1242
▁유혈	-11.1242
▁염두	-11.1242
▁전염병	-11.1242
▁메뉴	-11.1242
▁평범	-11.1242
▁구조조정	-11.1242
▁노왁	-11.1242
▁완공	-11.1242
▁감추	-11.1242
▁무엇인지	-11.1243
▁행방	-11.1243
▁united	-11.1243
▁방북	-11.1243
▁eta	-11.1243
▁페리노	-11.1243
▁확인해	-11.1243
▁발목	-11.1243
▁간섭	-11.1243
▁제이미	-11.1244
▁머피	-11.1244
▁야심	-11.1244
▁want	-11.1244
▁탄약	-11.1244
▁천억원	-11.1244
▁제라드	-11.1244
▁타입	-11.1244
▁만든다	-11.1244
▁주치의	-11.1245
▁현행	-11.1245
▁왔습니다	-11.1245
▁국영방송	-11.1245
▁보석금	-11.1246
▁교황청	-11.1246
▁외교정책	-11.1246
▁올랐으며	-11.1247
▁세균	-11.1248
▁여자아이	-11.1248
▁유포	-11.1248
▁헐	-11.1248
▁북동쪽	-11.1249
▁팜	-11.1249
▁폭풍우	-11.125
놨다	-11.1252
▁보상금	-11.1252
▁중단하라	-11.1253
▁반도	-11.1253
▁않자	-11.1254
▁안건	-11.1255
▁순찰대	-11.1255
▁북서쪽	-11.1256
▁대피소	-11.1257
▁전하며	-11.1258
▁번영	-11.126
이었고	-11.126
▁가려	-11.126
▁놀랐다	-11.1262
▁기내	-11.1262
▁프레	-11.1263
▁판사들	-11.1263
▁대도시	-11.1264
▁억제	-11.1266
▁메달	-11.1266
▁공개되지	-11.1267
▁전반적으로	-11.1267
▁상원의원직	-11.1269
▁건립	-11.1272
베리	-11.1273
▁아버지와	-11.1275
▁지방의	-11.1275
▁자리잡고	-11.1283
▁면접	-11.1284
▁일째	-11.1284
▁만여	-11.1285
▁절도	-11.1285
▁낙	-11.1286
▁바퀴	-11.1287
▁그쳤다	-11.1287
▁생존자들	-11.1289
▁의제	-11.1289
▁갖는다	-11.129
▁무시하고	-11.1292
▁산소	-11.1294
▁칩	-11.1295
▁넘기	-11.1296
▁아시	-11.1296
▁준장은	-11.1301
▁비극적	-11.1304
▁적대적	-11.1307
▁하나이다	-11.1307
▁것이냐	-11.1308
▁범죄자들	-11.1308
▁민주당과	-11.131
사업	-11.131
▁연관된	-11.1311
▁환영한다	-11.1316
▁보여주기	-11.1318
▁고고학자들	-11.1318
▁모르고	-11.1326
▁페이스	-11.1332
▁당장	-11.1333
▁금년	-11.1336
▁들어있는	-11.1336
▁파이	-11.1337
▁떼	-11.1338
▁든다	-11.134
▁제작자들	-11.1341
▁방문이	-11.1345
▁꺼	-11.135
▁침	-11.1356
타르	-11.1356
▁등장	-11.1358
▁무장괴한	-11.136
누	-11.1366
▁사업에	-11.1367
▁was	-11.1367
▁성지	-11.1371
▁핀	-11.1372
▁face	-11.1377
하자는	-11.1377
▁시판	-11.1384
▁공학	-11.1393
▁불안한	-11.1398
▁기자들과	-11.1403
▁단체에	-11.1407
▁양상	-11.1412
▁것이지만	-11.1416
▁덕	-11.1418
째	-11.142
▁감독상	-11.1421
팅	-11.1421
▁거치	-11.1422
받고	-11.1422
▁국민에게	-11.1424
▁국가들과	-11.1425
▁시도한	-11.1426
받은	-11.1429
▁다음과	-11.1429
▁미사	-11.143
▁파악하	-11.143
해진다	-11.1433
▁재정적	-11.1434
▁leader	-11.1437
▁자정	-11.1437
▁확인한	-11.1437
▁전설적	-11.1437
▁딜러	-11.1438
▁흔적	-11.1438
▁살해하겠다	-11.1439
공사	-11.1443
▁지역이다	-11.1444
▁칼리	-11.1447
검	-11.1449
▁장착	-11.1451
▁풍	-11.1452
칭	-11.1454
▁줄기	-11.1457
▁시리아와	-11.1461
폐	-11.1464
▁목소리로	-11.1466
협상	-11.1466
좌	-11.1468
▁fire	-11.1472
되었	-11.1476
▁그날	-11.1478
쳤으며	-11.1479
▁책정	-11.1481
▁임무는	-11.1482
▁전미	-11.1485
▁천억	-11.1485
▁케이	-11.1486
▁것들	-11.1487
▁갑작스	-11.1488
▁최대한	-11.1489
▁내렸	-11.1497
생활	-11.1502
나무	-11.1504
▁에따르면	-11.1506
▁예상되는	-11.1508
▁총리직	-11.1508
▁열려	-11.151
▁도쿄에서	-11.1512
▁될지	-11.152
자리	-11.1525
▁진행할	-11.1525
▁정당이	-11.1529
타임	-11.153
있었다	-11.1535
▁않았을	-11.1535
이든	-11.154
▁추정되	-11.1541
tion	-11.1542
▁프라	-11.1542
리오	-11.1546
▁경기도	-11.1556
▁블로그	-11.1563
▁자회담에서	-11.1566
▁고안	-11.1569
▁암호	-11.1572
▁노스	-11.158
▁밀어	-11.1581
▁위기로	-11.1581
▁수준의	-11.1585
▁거래가	-11.1585
▁비방	-11.1588
lee	-11.1591
▁동성	-11.1591
▁원자력	-11.1591
▁일정이	-11.1596
▁부인과	-11.1601
▁델타	-11.1603
▁콜린	-11.1605
▁계획한	-11.1606
▁캔자스	-11.1606
▁개헌	-11.1607
▁시도했다	-11.1609
▁흘러	-11.161
▁감옥	-11.161
▁머무	-11.161
▁코스피	-11.161
▁화염	-11.1611
▁아마존	-11.1611
밍	-11.1612
▁chief	-11.1612
▁consumer	-11.1612
▁general	-11.1612
▁peace	-11.1612
▁넘어섰다	-11.1612
▁늘어났다	-11.1612
▁댈러스	-11.1612
▁따돌리	-11.1612
▁무책임	-11.1612
▁브로드웨이	-11.1612
▁색깔	-11.1612
▁습관	-11.1612
▁에탄올	-11.1612
▁여동생	-11.1612
▁올바른	-11.1612
▁웨스트버지니아	-11.1612
▁흡수	-11.1612
▁financ	-11.1612
▁하리리	-11.1612
▁이벤트	-11.1612
▁투데이	-11.1612
▁도메인	-11.1612
▁셔츠	-11.1612
▁전시회	-11.1612
▁앙겔	-11.1612
▁수하물	-11.1612
▁어휘	-11.1612
▁겁니다	-11.1612
▁유혹	-11.1612
▁압승	-11.1612
▁열쇠	-11.1612
▁하얀	-11.1612
▁평결	-11.1612
▁빨간색	-11.1612
▁후계자	-11.1613
▁홀랜드	-11.1613
▁공백	-11.1613
▁디스커버리호	-11.1613
▁내셔널	-11.1613
▁영입	-11.1613
트로터	-11.1613
차이	-11.1613
▁자치구	-11.1614
▁이른바	-11.1614
▁초대형	-11.1614
▁허위	-11.1614
▁change	-11.1614
▁에이미	-11.1615
▁납치됐다	-11.1615
▁제재조치	-11.1615
▁모르지만	-11.1615
▁독점	-11.1616
▁많지	-11.1616
▁파키스탄이	-11.1616
▁아랍에미리트	-11.1616
▁데니스	-11.1617
▁원격	-11.1617
▁소감	-11.1617
▁악성	-11.1618
▁외출	-11.1619
▁자매	-11.1619
▁초등학교	-11.162
▁마련했다	-11.1621
▁영역	-11.1622
▁월마트	-11.1623
▁대담	-11.1623
▁담겨있다	-11.1623
▁경위	-11.1623
▁노동력	-11.1624
▁상정	-11.1625
▁검찰총장	-11.1625
▁옹호	-11.1626
▁생각합니다	-11.1626
▁호흡기	-11.1626
▁분출	-11.1629
▁자유당	-11.1629
▁투표권	-11.1631
인들에게	-11.1631
▁악화될	-11.1631
슬리	-11.1633
▁입장권	-11.1633
▁올릴	-11.1634
▁힐러리는	-11.1634
▁도왔다	-11.1635
▁납치했다	-11.1637
▁상아	-11.1639
▁초래할	-11.1639
▁조카	-11.164
▁골드	-11.1641
▁이용하여	-11.1641
▁분실	-11.1644
▁고수	-11.1644
▁불가피하다	-11.1645
▁선보	-11.1645
▁장착된	-11.1646
▁여개	-11.165
▁때로는	-11.1651
▁국회의원들	-11.1651
▁사이즈	-11.1651
▁뜨거	-11.1653
▁지미	-11.1654
▁러시아에서	-11.1656
▁back	-11.1657
▁박수	-11.1657
▁후임자	-11.166
▁파견된	-11.166
▁iss	-11.1665
대표	-11.1668
▁과도한	-11.167
▁맡아	-11.1671
▁우주에서	-11.1674
린다	-11.1677
▁수잔	-11.1679
▁보았다	-11.1682
▁고백	-11.1682
▁부회장	-11.1683
▁놓았다	-11.1683
ure	-11.1684
▁지목했다	-11.1685
▁용인	-11.1687
▁입원한	-11.1688
▁조사했다	-11.1689
ry	-11.1689
▁당연	-11.169
▁암살된	-11.1694
▁통상	-11.1695
▁펼치고	-11.1695
into	-11.1698
▁죽이	-11.1702
▁발생했던	-11.1704
▁거부하	-11.1705
▁웹사이트에서	-11.1708
▁인적	-11.1709
졌으며	-11.171
▁vi	-11.1717
▁중유	-11.172
▁기어	-11.1721
▁내리기	-11.1721
▁개발도상국	-11.1724
▁강행	-11.1726
▁환	-11.1727
디스	-11.1729
▁상태였다	-11.1729
▁재판은	-11.1731
사이	-11.1735
▁주민이	-11.1736
way	-11.1739
▁알리기	-11.1741
▁일부에서는	-11.1742
▁유지하는	-11.1742
▁참가자	-11.1745
▁판매되	-11.1746
물이	-11.1747
▁이라크전에	-11.1748
▁게이	-11.175
▁con	-11.1752
▁가격에	-11.1752
▁나라들	-11.1754
▁길에	-11.1757
▁전인	-11.1757
▁이탈	-11.1759
▁하겠다	-11.1763
버린	-11.1768
▁악의	-11.1772
▁공격할	-11.1776
▁리더	-11.1777
▁부자	-11.178
▁내주	-11.1783
▁아니고	-11.1785
▁하라	-11.1786
▁정보가	-11.1789
▁통신과	-11.1791
▁일년	-11.1791
▁폭발했다	-11.1794
▁브리	-11.1795
▁여진이	-11.1798
▁웨	-11.1798
▁다음으로	-11.1798
▁미군측	-11.18
▁임신한	-11.1802
직에서	-11.1804
▁이슈	-11.1806
안전	-11.1806
수술	-11.1808
li	-11.181
이었지만	-11.1812
▁관심사	-11.1813
▁각료	-11.1818
▁무산	-11.1825
▁가할	-11.1825
ance	-11.1825
▁보아	-11.1828
▁여러분들	-11.1835
▁부부의	-11.1836
▁조심	-11.1838
▁제이	-11.1839
ba	-11.1842
▁괜찮	-11.1848
▁제공해	-11.1849
잉	-11.1851
▁고속	-11.1852
감독	-11.1853
넌	-11.1855
않	-11.1856
핀	-11.1857
▁su	-11.1859
김	-11.1859
하우스	-11.186
스케	-11.186
▁체인	-11.186
월드	-11.1863
▁없기	-11.1864
표를	-11.1864
▁고려할	-11.187
▁예로	-11.1871
▁수행하	-11.1871
일본	-11.1879
▁정치에	-11.1881
▁마련하기	-11.1883
▁공개할	-11.1889
▁녹아	-11.1892
ail	-11.1895
▁침팬지	-11.1897
▁가한	-11.1898
▁직면한	-11.1899
▁체류	-11.19
▁주사	-11.1901
▁받았고	-11.1903
▁잃어버	-11.1905
▁우리들	-11.1906
▁나라에서	-11.1908
▁연예	-11.191
▁끝내	-11.1911
▁이란에서	-11.1916
ha	-11.1925
▁시민단체	-11.1928
가격	-11.1931
해달라	-11.1943
▁헤어	-11.1946
▁주장해	-11.1946
▁뒤에서	-11.1953
시위	-11.1953
▁여성에게	-11.1956
▁소총	-11.1956
버트	-11.1958
▁제기한	-11.196
▁올리는	-11.196
▁star	-11.1962
자르	-11.1963
▁범죄자	-11.197
▁인민	-11.1976
타운	-11.1978
▁정찰	-11.1984
윈	-11.1984
▁기본적	-11.1984
▁달에	-11.1986
군은	-11.1988
▁데뷔	-11.1988
▁득표	-11.1988
픽	-11.1989
▁되돌아	-11.199
무라	-11.199
하일	-11.1992
쁜	-11.1992
▁코너	-11.1993
▁내기	-11.1993
▁make	-11.1994
▁못하다	-11.1996
▁촛불	-11.1996
▁agency	-11.1996
▁baghdad	-11.1996
▁bbk	-11.1996
▁ufo	-11.1996
▁가뭄	-11.1996
▁과테말라	-11.1996
▁국가보안법	-11.1996
▁기쁨	-11.1996
▁높였다	-11.1996
▁당분간	-11.1996
▁마호메트	-11.1996
▁보건복지부	-11.1996
▁싱가폴	-11.1996
▁엔터테인먼트	-11.1996
▁저작권	-11.1996
▁정동영	-11.1996
▁제네바	-11.1996
▁조코비치	-11.1996
▁집행유예	-11.1996
▁추수감사절	-11.1996
▁퍼레이드	-11.1996
▁health	-11.1996
▁베테랑	-11.1996
▁수족관	-11.1996
▁의구심	-11.1996
▁콜레라	-11.1996
▁pakistan	-11.1996
▁유태인	-11.1996
▁태어나	-11.1996
▁white	-11.1996
▁규명	-11.1996
▁링컨	-11.1996
▁가볍	-11.1997
▁혼합	-11.1997
▁참패	-11.1997
▁대지진	-11.1997
▁의료보험	-11.1997
▁조선중앙통신	-11.1997
▁티켓	-11.1997
▁꾸준	-11.1997
▁신용위기	-11.1997
▁토마토	-11.1997
▁힌두교	-11.1997
▁졸업	-11.1997
▁신념	-11.1997
▁뉴욕증시	-11.1997
▁배럭	-11.1997
▁삼엄	-11.1997
▁브리티시	-11.1997
▁원내대표	-11.1997
▁워커	-11.1997
▁광경	-11.1997
▁설교	-11.1998
▁비공개	-11.1998
▁영예	-11.1998
▁코미디언	-11.1998
▁연합뉴스	-11.1998
▁격분	-11.1998
▁포스터	-11.1998
▁관행	-11.1998
▁노리에가	-11.1998
▁계단	-11.1999
▁이정인	-11.1999
▁q	-11.1999
▁호주오픈	-11.1999
▁검진	-11.1999
▁v	-11.1999
▁세번째	-11.2
▁순회	-11.2
▁지폐	-11.2
능	-11.2
▁히트	-11.2
▁레저	-11.2001
▁태양계	-11.2001
▁발작	-11.2001
▁없었지만	-11.2001
▁재생	-11.2001
▁통행	-11.2002
▁보류	-11.2002
▁당원	-11.2002
▁열렬한	-11.2004
▁단호	-11.2004
▁시사회	-11.2004
▁dc	-11.2005
▁제프	-11.2006
▁맡게	-11.2006
▁suv	-11.2006
▁야간	-11.2006
▁남겼다	-11.2007
▁후보자들	-11.2008
소리	-11.2008
▁플래	-11.2009
▁국면	-11.201
▁붐	-11.201
▁더이상	-11.201
▁논의하고	-11.201
▁비자금	-11.2011
▁돌아갔다	-11.2011
▁기념일	-11.2011
▁get	-11.2011
▁주교	-11.2012
것을	-11.2013
▁호우	-11.2013
▁브로	-11.2015
▁인플루엔자	-11.2016
▁참모	-11.2018
▁우파	-11.2018
▁비율이	-11.2019
▁댄	-11.2019
▁발견돼	-11.2019
▁정상적으로	-11.202
▁이끌었다	-11.2021
▁필수	-11.2021
▁단백질	-11.2021
▁지명자	-11.2025
▁피어	-11.2026
▁애쓰고	-11.2028
▁년째	-11.2028
▁zan	-11.2029
▁군의	-11.203
▁초래	-11.203
▁강화했다	-11.203
▁일자	-11.2032
▁하마스와	-11.2034
▁개국이	-11.2036
▁봐	-11.2038
졌습니다	-11.204
▁심정	-11.204
▁닐	-11.2042
▁취해야	-11.2044
▁작곡가	-11.2044
▁결승에서	-11.2045
▁지질	-11.2049
▁계층	-11.205
▁리사	-11.2051
▁찬사	-11.2056
▁사업가	-11.2057
▁미수	-11.2058
▁재판소	-11.2061
▁하원에서	-11.2064
국인	-11.2067
▁대표들은	-11.2068
단은	-11.2069
▁잡기	-11.2071
원을	-11.2073
▁air	-11.2078
▁몽	-11.208
▁나갔다	-11.2084
▁결과에따르면	-11.2084
적이	-11.2092
▁분기에	-11.2093
▁자회사	-11.2095
▁식으로	-11.2097
치고	-11.2097
▁친구들과	-11.2099
▁독자	-11.21
▁진행하는	-11.2101
▁공격하는	-11.2103
▁유행	-11.2105
원이	-11.2107
▁뉴스는	-11.2107
▁언	-11.2107
▁사무소	-11.2109
▁비리	-11.2111
▁말했으며	-11.2112
▁잡혀있	-11.2114
▁살아있는	-11.2118
▁극심	-11.212
▁돌입했다	-11.212
▁베를린에서	-11.2122
금을	-11.2122
▁등장하	-11.2126
▁문화적	-11.2126
▁의견에	-11.2128
▁대원	-11.2129
▁결승전에	-11.2132
▁가르	-11.2132
▁펭귄	-11.2133
▁해변에서	-11.2138
▁발표에	-11.2138
▁홀에서	-11.2138
▁정치범	-11.214
▁전선	-11.2142
▁줄어	-11.2145
▁요한	-11.2145
▁줄어들고	-11.2156
▁코커스에서	-11.2168
▁수반과	-11.2169
▁사태로	-11.217
▁친척	-11.2173
혼	-11.2173
▁초과	-11.2176
리어	-11.2177
▁방문객	-11.2183
▁hd	-11.2186
▁se	-11.2186
바리	-11.2188
▁죽을	-11.219
▁차고	-11.2192
▁여행객들	-11.2193
▁시작하기	-11.2193
느냐	-11.2193
바이	-11.2198
노조	-11.2198
▁중심가	-11.2201
투어	-11.2201
▁경의	-11.2202
▁동원해	-11.2205
▁버렸다	-11.2206
▁가축	-11.221
▁시작하는	-11.2213
택	-11.2225
▁생성	-11.2236
치는	-11.2236
▁소방관들	-11.2236
▁중국인들	-11.2237
▁공부	-11.2238
▁도로에	-11.2239
▁갇혀	-11.2245
▁합의는	-11.2245
▁구조대원	-11.2249
▁쇼에	-11.225
벤	-11.2252
섭	-11.2254
찌	-11.2254
칼	-11.2255
오픈	-11.2258
▁경선이	-11.2258
돈	-11.2259
떨어진	-11.2259
▁개헌안	-11.226
▁위반한	-11.2262
▁하에서	-11.2263
▁무기한	-11.2265
▁땅에	-11.2265
▁와서	-11.2266
▁가담	-11.2268
▁캔	-11.2269
주재	-11.2277
▁공장에서	-11.2279
▁발생하기	-11.228
▁결의안은	-11.2282
▁주문했다	-11.2282
▁주자	-11.2284
직원	-11.2285
시에	-11.2289
▁지사	-11.2291
틴	-11.2294
▁살해됐다	-11.2307
머리	-11.2308
▁별로	-11.2311
▁사진에	-11.2311
▁되풀이	-11.2314
치를	-11.2315
▁동유럽	-11.2318
▁재미	-11.2323
▁석방했다	-11.2324
▁베이루트	-11.2325
▁하는지	-11.2328
▁미군에	-11.2329
▁저자	-11.2331
▁pf	-11.2331
▁용의	-11.2335
▁양곤	-11.2337
▁묘지	-11.2338
▁기권	-11.234
▁도움으로	-11.2341
법에따라	-11.2343
▁개막식	-11.2343
▁클	-11.2346
▁겐	-11.2347
▁약혼	-11.2353
장과	-11.2353
▁상업적	-11.2356
▁콩	-11.2359
▁기념하기	-11.2359
▁압도적	-11.2361
당했다	-11.2365
럴	-11.2367
▁나섰	-11.2369
▁취약	-11.2374
세스	-11.2374
▁들어온	-11.2375
▁안다	-11.2376
하겠지만	-11.2379
핑	-11.2379
▁바탕	-11.238
▁호흡	-11.2381
▁불평	-11.2384
▁심화	-11.2385
▁year	-11.2386
▁제안에	-11.2386
마누엘	-11.2388
▁안락사	-11.2388
멸	-11.2389
▁america	-11.2389
▁김선일	-11.239
▁정권은	-11.2392
성에	-11.2394
▁빨간	-11.2396
겔	-11.2396
▁스카이	-11.2396
▁갤럭시	-11.2396
▁곤돌라	-11.2396
▁농작물	-11.2396
▁로맨틱	-11.2396
▁마닐라	-11.2396
▁백화점	-11.2396
▁아웅산수지	-11.2396
▁얀코비치	-11.2396
▁짝짓기	-11.2396
▁치렀	-11.2396
▁카라카스	-11.2396
▁카톨릭	-11.2396
▁타블로이드	-11.2396
▁페널티킥	-11.2396
▁폴라로이드	-11.2396
▁횟수	-11.2396
▁ftse	-11.2396
▁이데올로기	-11.2396
▁최우수	-11.2396
▁테이블	-11.2396
▁페르난도	-11.2396
▁로페즈	-11.2396
▁자이툰	-11.2396
▁wild	-11.2396
▁동남아시아	-11.2396
▁살모넬라균	-11.2396
▁카리스마	-11.2396
▁밀접	-11.2397
▁보스니아	-11.2397
▁that	-11.2397
▁명만	-11.2397
▁동점골	-11.2397
▁결승골	-11.2397
▁대통합민주신당	-11.2397
▁소수민족	-11.2397
▁범람	-11.2397
▁엔데버호	-11.2397
▁가자시티	-11.2397
▁유망주	-11.2397
▁기둥	-11.2397
▁부정선거	-11.2397
▁평생	-11.2397
▁패널	-11.2397
▁울머	-11.2397
▁관광산업	-11.2397
▁난폭	-11.2398
▁내비쳤다	-11.2398
▁사절	-11.2398
▁이끌었던	-11.2399
▁오스틴	-11.2399
▁삼림	-11.2399
▁유예	-11.2399
▁동행	-11.2399
▁결별	-11.2399
▁품질	-11.24
▁외각	-11.24
▁심장병	-11.2401
▁온천	-11.2401
▁관세	-11.2401
▁경제성장률	-11.2401
▁페퍼	-11.2402
▁매사추세츠주	-11.2402
▁억압	-11.2403
▁신의	-11.2403
▁면허	-11.2403
▁종파	-11.2403
▁바스크	-11.2404
▁세레나	-11.2404
▁책임감	-11.2404
임에	-11.2406
▁숨지게	-11.2406
▁삼았다	-11.2406
▁이끈	-11.2406
▁감행했다	-11.2409
▁무너졌다	-11.241
▁대승	-11.241
▁여정	-11.2412
▁홈페이지	-11.2413
▁과실	-11.2414
▁반란	-11.2415
▁투수	-11.2416
▁국민당	-11.2417
▁행운	-11.2417
▁화석	-11.2422
▁표적이	-11.2423
문화	-11.2424
▁누드	-11.2425
▁발생한다	-11.2426
▁낙관적	-11.2426
▁양당	-11.2427
▁포기하	-11.2429
▁전범	-11.2429
▁소아과	-11.2429
▁나중에	-11.2431
베키	-11.2437
▁은행이	-11.244
▁du	-11.2441
개의	-11.2443
▁많았다	-11.2445
▁줄어들었다	-11.2446
▁pop	-11.2447
▁의뢰인	-11.2449
▁연예인	-11.2451
▁행한	-11.2451
▁것일	-11.2452
▁work	-11.2452
▁행동으로	-11.2453
▁모닝	-11.2454
리안	-11.2456
▁육	-11.2458
▁감기	-11.2459
▁무혐의	-11.246
▁후임으로	-11.2461
▁넘어서	-11.2462
▁맡기	-11.2463
▁이룬	-11.2464
하르	-11.2466
▁어선	-11.2467
▁막는	-11.247
▁대처하기	-11.2471
▁유명인사	-11.2474
▁번식	-11.2475
▁현직	-11.2475
▁왔으며	-11.2479
아누	-11.2479
▁불과했다	-11.2483
net	-11.2484
▁당원들	-11.2486
▁방콕에서	-11.249
▁국제공항	-11.2493
▁어디에	-11.2493
▁포기할	-11.2495
팔	-11.2495
▁선거전	-11.2497
▁사망했고	-11.25
▁하트	-11.25
▁걸스	-11.2503
▁지구로	-11.2505
▁이라크로	-11.2506
▁전통적으로	-11.2507
▁위치에	-11.2508
▁퍼지	-11.2511
▁이목	-11.2514
▁파괴됐다	-11.2514
▁지정된	-11.2519
out	-11.2526
▁탑	-11.2526
▁선거는	-11.2529
국장	-11.253
▁바스라에서	-11.2533
▁침수	-11.2534
진다	-11.2535
전문가	-11.2537
▁분명한	-11.2539
▁발표하지	-11.254
▁기록적인	-11.254
▁이동했다	-11.2542
▁거라고	-11.2545
▁원장은	-11.2545
▁협정에	-11.2549
▁남지	-11.2552
▁협상에서	-11.2556
▁수감됐다	-11.2558
▁로한이	-11.2559
률이	-11.2564
티드	-11.2565
야만	-11.2565
▁국경지역에	-11.2567
▁영화로	-11.2567
▁사고에	-11.257
▁여성으로	-11.2581
▁정부로부터	-11.2584
해왔	-11.2584
▁이어진	-11.2585
▁말하지	-11.2591
▁태국에서	-11.2595
▁이외	-11.2595
나마	-11.2595
▁자연적	-11.2598
군의	-11.2603
▁폰	-11.2608
부를	-11.2608
▁연합은	-11.2608
▁ex	-11.261
▁되면서	-11.2614
▁섬에	-11.2614
관은	-11.2621
▁워싱턴에	-11.2622
▁래	-11.2624
▁일기로	-11.2624
▁앙	-11.2628
▁전달한	-11.263
▁관광객이	-11.2632
▁얻는	-11.2632
▁사람들에	-11.2633
▁방송과	-11.2633
▁롤	-11.2636
▁직면해	-11.2636
▁고무	-11.2637
▁수성	-11.2642
▁이상으로	-11.2645
▁선호	-11.2649
▁승리하는	-11.2649
▁게임에서	-11.265
▁정직	-11.2651
▁포착	-11.2652
자에	-11.2653
▁여객기에	-11.2653
▁사정	-11.2653
▁편집자	-11.2653
▁업	-11.2665
▁call	-11.2669
딜	-11.267
▁가하고	-11.267
묘	-11.2671
▁가결	-11.2674
환경	-11.2676
베르	-11.2677
장비	-11.2679
과정에서	-11.2679
▁복용한	-11.268
▁획득했다	-11.2683
▁피신	-11.2697
▁발사했다	-11.2703
▁배에	-11.2703
▁치르는	-11.2704
▁열린다	-11.2705
지오	-11.2705
▁놓여	-11.271
▁사육	-11.2717
▁강사	-11.2719
▁페르	-11.2721
▁반군에	-11.2721
▁한반도에서	-11.2725
▁반복	-11.2727
체제	-11.2729
ant	-11.2737
▁조달	-11.2738
▁옮기	-11.2741
▁접근할	-11.2742
▁맞이하	-11.2744
▁나가고	-11.2746
▁다가	-11.2752
▁만달러를	-11.2752
혐의로	-11.2753
▁일요일에	-11.2755
▁편이	-11.2758
▁높이고	-11.2767
▁아바	-11.2773
▁인도와	-11.2773
▁관광지	-11.2773
▁선박에	-11.278
▁독일과	-11.2781
▁고전	-11.2783
통이	-11.2783
▁고정	-11.2786
▁임박	-11.2786
▁보여준	-11.2796
▁언제든	-11.2797
▁캐롤	-11.2797
옥	-11.2799
▁세라	-11.2801
▁불쾌	-11.2801
▁일하고	-11.2801
▁공군기지	-11.2803
▁메사추세츠	-11.2804
▁아프	-11.2804
▁나눠	-11.2806
▁다국적	-11.2807
▁이룩	-11.2807
▁발사한	-11.2809
▁경제성장	-11.281
튜	-11.2812
▁브뤼셀	-11.2813
▁wwf	-11.2813
▁가톨릭	-11.2813
▁레젭	-11.2813
▁로널드	-11.2813
▁무크타다	-11.2813
▁버시바우	-11.2813
▁연습	-11.2813
▁임산부	-11.2813
▁컨퍼런스	-11.2813
▁콘크리트	-11.2813
▁횡단	-11.2813
▁기번스	-11.2813
▁사카쉬빌리	-11.2813
▁팔루자	-11.2813
▁힉스	-11.2813
▁크리켓	-11.2813
▁페인트	-11.2813
▁about	-11.2813
▁부정부패	-11.2813
▁합참의장	-11.2813
▁home	-11.2813
▁금융제재	-11.2813
▁오마바	-11.2813
▁평방	-11.2814
▁간첩	-11.2814
▁번호판	-11.2814
▁불쾌감	-11.2814
▁호르타	-11.2814
▁여객선	-11.2814
▁소요사태	-11.2814
▁동북아	-11.2814
▁엄중	-11.2814
▁싸울	-11.2814
▁최후	-11.2815
▁철거	-11.2815
▁와중에	-11.2815
▁글렌	-11.2815
▁아지즈	-11.2815
▁있겠지만	-11.2815
▁포격	-11.2815
▁이루어질	-11.2815
▁총격사건	-11.2816
▁주니어	-11.2816
돌프	-11.2816
▁정글	-11.2816
▁단절	-11.2816
▁활력	-11.2816
▁피델	-11.2816
▁union	-11.2816
▁통계청	-11.2816
▁콜레스테롤	-11.2816
▁금지령	-11.2816
▁베스트	-11.2817
▁팔렸다	-11.2817
▁본래	-11.2817
▁말라위	-11.2817
▁패션계	-11.2817
▁스탠리	-11.2817
느라	-11.2818
▁테러공격	-11.2818
▁테네시주	-11.2818
▁변동	-11.2818
▁예금	-11.2818
▁울프	-11.2819
▁황제	-11.2819
▁추모식	-11.2819
▁터진	-11.2819
▁급파	-11.2819
▁스노	-11.2821
▁반격	-11.2821
▁구분	-11.2821
▁rights	-11.2821
▁휴양지	-11.2822
▁지나친	-11.2822
▁건조	-11.2823
워진	-11.2823
▁데이트	-11.2824
▁태아	-11.2824
▁조종	-11.2825
▁뉴저지주	-11.2825
▁신종	-11.2826
▁안개	-11.2826
▁안심	-11.2826
▁앙리	-11.2826
▁액수	-11.2827
▁줄었다	-11.2827
▁점에서	-11.2828
▁지도력	-11.2829
▁두목	-11.283
자금	-11.283
▁상실	-11.2833
▁수직	-11.2834
▁멜	-11.2834
▁펠리	-11.2835
▁분명하다	-11.2835
▁외모	-11.2836
마른	-11.2836
▁흉기	-11.2836
▁반감	-11.2836
▁수년간	-11.2836
▁기관들	-11.2837
▁이민자들	-11.2838
▁봤	-11.2843
▁만톤	-11.2843
취	-11.2843
▁상징적인	-11.2844
▁인용하여	-11.2845
▁미쳤다	-11.2845
▁발사된	-11.2846
▁뮤직	-11.2846
▁톱	-11.2846
▁공격하기	-11.2846
▁지원한	-11.2847
▁문제다	-11.285
▁열리기	-11.2852
▁배아	-11.2852
▁지침	-11.2853
▁자선	-11.2855
▁리서치	-11.2855
▁억류된	-11.2855
▁휩싸였다	-11.2857
▁노동자들이	-11.2857
▁작용할	-11.2857
▁명명	-11.2858
▁제기되	-11.2859
▁맺었다	-11.2861
▁보수적인	-11.2863
▁인파	-11.2864
▁발견했으며	-11.2864
▁전술	-11.2865
▁만행	-11.2868
▁영구	-11.2869
▁중년	-11.2869
▁통과한	-11.2871
▁작품상	-11.2873
▁심각하다	-11.2874
▁경찰청장	-11.2876
▁달라이라마는	-11.288
▁경쟁에서	-11.2881
▁클로	-11.2882
▁켄	-11.2883
▁정상에	-11.2887
▁이견	-11.289
▁핵문제	-11.289
▁장례식에	-11.289
▁방위	-11.2893
기지	-11.2894
▁오르는	-11.2894
▁방문객들	-11.2895
▁헤이	-11.2895
▁끝내고	-11.2896
▁단기	-11.2897
▁의원과	-11.2897
▁나르	-11.2897
▁감자	-11.2898
▁교도	-11.2899
▁시대에	-11.29
▁ag	-11.2901
▁관료들	-11.2901
▁간다	-11.2902
▁만족한다	-11.2906
▁선보였	-11.2914
▁시스템에	-11.2916
▁차지할	-11.2916
▁앤더슨은	-11.2917
▁토로	-11.2918
시오	-11.2921
▁지속된	-11.2921
▁가사	-11.2922
▁해치	-11.2922
▁거물	-11.2924
▁치료제	-11.2926
▁미화	-11.2931
▁앞에서	-11.2937
커스	-11.2939
▁열리고	-11.294
▁누르	-11.2945
▁의원들과	-11.2946
▁판매하는	-11.2947
▁전임	-11.2951
아갈	-11.2952
▁돌아가는	-11.2954
▁설립한	-11.2963
▁지지율로	-11.2965
송	-11.2965
▁박물관에	-11.2969
▁결정될	-11.298
▁들어가기	-11.2981
▁장소에	-11.2981
어져	-11.2982
▁ps	-11.2983
▁살리	-11.2984
▁시사	-11.2986
▁난자	-11.2986
▁노력으로	-11.2989
▁중재자	-11.2994
▁경고하고	-11.2995
ster	-11.3001
▁맡	-11.3003
▁ma	-11.3006
▁프린스	-11.3007
▁도착했을	-11.3008
▁린다	-11.3012
▁파괴된	-11.3013
▁내용이다	-11.3016
▁괴한들	-11.3018
▁충돌했다	-11.302
▁클럽에서	-11.3021
▁한국정부	-11.3022
▁쓰이	-11.3022
▁생활에	-11.3024
얀	-11.3024
▁일반인들	-11.3028
▁지배하	-11.303
▁실려	-11.3036
어진	-11.3039
▁발부	-11.3041
쪽	-11.3045
스테	-11.3047
▁후송	-11.3051
착륙	-11.3052
었	-11.3053
갑	-11.3058
▁올렸	-11.3061
▁오만	-11.3061
닉	-11.3063
찰	-11.3063
▁이뤄	-11.3064
사실	-11.3069
▁수퍼대의원	-11.3071
▁선택한	-11.3075
▁지점에	-11.3077
▁거론	-11.308
▁미국내	-11.3086
ern	-11.309
el	-11.3099
걸	-11.3099
짐	-11.31
척	-11.31
▁공습이	-11.3101
▁요인이	-11.3102
눌	-11.3104
▁작전에	-11.3104
▁운반	-11.3105
개혁	-11.3107
테러	-11.3107
▁구형	-11.3107
탑	-11.3107
▁이루어	-11.3108
캐	-11.3109
▁물리적	-11.311
시즌	-11.311
▁ha	-11.3113
▁만료	-11.3114
▁두개골	-11.3115
▁중산층	-11.3116
▁피고인들	-11.3117
▁게임에	-11.3121
부시	-11.3127
▁취하	-11.3129
▁도착했다고	-11.3132
▁전문의	-11.3136
▁람	-11.314
장소	-11.3144
우드	-11.3146
▁제외하고	-11.3146
여부	-11.3148
▁사건에서	-11.3153
▁강화하기	-11.3158
▁싶어하	-11.3159
▁울리	-11.3162
▁물질이	-11.3166
▁적지	-11.3168
▁검찰에	-11.3171
▁도달했다	-11.3176
혔다	-11.3177
▁수만	-11.318
▁만대	-11.3181
te	-11.3183
▁멈추	-11.3186
ig	-11.3187
▁교착상태	-11.3189
▁남아있	-11.3194
▁법무	-11.3202
▁세웠	-11.3204
▁공급받	-11.3204
▁격추	-11.3208
▁프로그램과	-11.3212
▁매케인과	-11.3214
▁겪었	-11.3215
▁못하면	-11.3217
▁ak	-11.3218
▁이용자들	-11.322
▁학자들	-11.3224
▁우주비행사들	-11.3231
▁환경보호	-11.3233
▁통과할	-11.3234
▁줄리	-11.3234
▁뉴멕시코	-11.3236
▁감량	-11.324
▁정유	-11.324
▁차에	-11.324
▁이유에	-11.3242
▁테네시	-11.3242
▁여년	-11.3243
▁풀려	-11.3243
해준	-11.3244
▁인정하고	-11.3245
▁돌아다니	-11.3245
▁꿈이	-11.3245
▁오락	-11.3245
돼있다	-11.3246
▁법에	-11.3247
통신은	-11.3247
▁다뤄	-11.3247
▁fun	-11.3248
▁진정시키	-11.3248
▁모터	-11.3248
▁australia	-11.3248
▁oecd	-11.3248
▁school	-11.3248
▁그린스펀	-11.3248
▁급상승	-11.3248
▁낙하산	-11.3248
▁대량살상무기	-11.3248
▁디얄라	-11.3248
▁라우터바흐	-11.3248
▁롱고리아	-11.3248
▁선거캠페인	-11.3248
▁슈나이더	-11.3248
▁앨라배마	-11.3248
▁언색호	-11.3248
▁오차범위	-11.3248
▁잃게	-11.3248
▁잃을	-11.3248
▁지구온난화	-11.3248
▁카메론	-11.3248
▁테헤란	-11.3248
쭉	-11.3248
▁올랜도	-11.3248
▁유시프	-11.3248
▁저녁식사	-11.3248
▁획기적	-11.3248
▁농산물	-11.3248
▁정부청사	-11.3248
▁administration	-11.3248
▁리더십	-11.3248
▁좌익	-11.3248
▁six	-11.3248
▁졸릭	-11.3248
▁황교수	-11.3248
▁tax	-11.3248
▁검열	-11.3248
해져	-11.3248
▁토끼	-11.3248
▁호킨스	-11.3248
▁gnp	-11.3248
▁냉전	-11.3249
▁평창	-11.3249
▁반도체	-11.3249
▁발송	-11.3249
▁안젤리	-11.3249
▁자본주의	-11.3249
▁재능	-11.3249
▁무엇인가	-11.325
▁기념품	-11.325
▁그린랜드	-11.325
▁설립자	-11.325
▁친밀	-11.325
▁아바타	-11.325
▁동맹관계	-11.325
▁그렇다면	-11.325
▁증오	-11.325
구역	-11.325
▁라틴	-11.325
▁외교관들	-11.3251
▁친절	-11.3251
▁서열	-11.3251
▁깜	-11.3251
▁검시관	-11.3251
▁샤론	-11.3252
▁탈세	-11.3252
▁회색	-11.3252
▁보였지만	-11.3252
▁교역	-11.3252
▁바이오	-11.3253
▁허용하는	-11.3253
▁선거일	-11.3253
▁출간	-11.3253
▁참수	-11.3253
▁한국전쟁	-11.3253
▁살짜리	-11.3254
▁천연	-11.3255
▁생선	-11.3255
▁식물	-11.3256
▁자유로운	-11.3256
▁미시간주	-11.3258
▁도박	-11.3258
▁받았습니다	-11.3258
▁신설	-11.3259
▁십만	-11.3259
▁불경기	-11.3261
▁말았다	-11.3261
▁스파이스	-11.3261
▁대신해	-11.3262
▁지난밤	-11.3262
▁생각할	-11.3263
상으로	-11.3263
있	-11.3263
▁관계자에따르면	-11.3263
▁국정	-11.3263
된다면	-11.3263
▁태어났다	-11.3264
▁시범	-11.3265
▁탈당	-11.3266
▁이민법	-11.3267
▁종전	-11.3267
▁선거자금	-11.3267
▁노벨상	-11.3268
객	-11.3269
▁원한다면	-11.327
▁없음	-11.3271
▁주입	-11.3271
▁호위	-11.3272
▁온실	-11.3272
▁적당한	-11.3272
▁자루	-11.3273
▁비행선	-11.3273
▁사찰	-11.3273
▁활	-11.3273
▁아미	-11.3275
▁끝나지	-11.3275
▁섬유	-11.3276
▁피터슨	-11.3277
▁보호소	-11.3277
▁진상	-11.3277
▁들어보	-11.3279
▁시작했고	-11.3279
▁캥거루	-11.328
▁적군	-11.3281
▁빵	-11.3282
▁채우	-11.3284
▁단일	-11.3284
▁별도로	-11.3285
▁기여	-11.3286
▁kt	-11.3286
▁샘	-11.3289
▁효과적인	-11.329
▁경상	-11.3291
▁비공식	-11.3291
▁답변했다	-11.3293
▁질서	-11.3293
▁연인	-11.3294
▁말했었다	-11.3295
▁누구나	-11.3296
▁참가국들	-11.3297
▁기대된다	-11.3297
▁주둔군	-11.3299
▁영부인	-11.33
▁과일	-11.3301
▁본즈	-11.3302
▁서쪽으로	-11.3304
▁성능	-11.3304
▁위크	-11.3304
▁대조	-11.3305
▁ro	-11.3306
▁해결하는	-11.3308
▁토로했다	-11.3309
▁대학생들	-11.331
명이	-11.3312
▁요구해	-11.3313
▁서울시장	-11.3313
▁만들어내	-11.3313
▁들어주	-11.3315
▁의미하는	-11.3316
▁경유	-11.3317
▁자란	-11.3317
▁작고	-11.3318
단계	-11.3318
▁엠	-11.3319
ice	-11.3319
▁납	-11.332
▁내리지	-11.3321
▁년대에	-11.3323
▁위반했다	-11.3323
▁실종됐다고	-11.3323
▁한가지	-11.3324
▁팔레스타인과	-11.3326
▁정국	-11.3327
▁지원에	-11.3328
▁풍자	-11.3329
▁일종	-11.3331
▁후안	-11.3332
▁아랍어	-11.3332
지요	-11.3333
▁시선	-11.3334
▁학	-11.3336
▁파고	-11.3337
▁중태라	-11.3337
▁생각된다	-11.3342
▁바그다드에	-11.3342
▁격려	-11.3344
▁부상했으며	-11.3346
마저	-11.3346
▁서부지역	-11.3347
▁참가하는	-11.3348
▁ban	-11.3351
▁들어서	-11.3353
▁제어	-11.3354
▁따뜻하	-11.3356
▁시작한다	-11.3357
▁해준다	-11.3357
▁주정부	-11.3361
▁사망했	-11.3361
▁외곽에서	-11.3366
▁입장이다	-11.3367
▁살상	-11.3368
시키는데	-11.3369
되었으나	-11.3372
▁결정한	-11.3374
▁모였다	-11.338
대는	-11.338
▁닉	-11.3382
▁증거로	-11.3383
▁로즈	-11.3385
▁비전	-11.3386
▁휩싸	-11.3387
▁순간에	-11.3388
▁팔려	-11.3389
▁국내에서	-11.339
▁근거지	-11.339
▁최근까지	-11.339
▁페이	-11.3393
▁실시됐다	-11.3393
▁파기	-11.3396
▁칭	-11.3396
▁설치한	-11.3397
부가	-11.3401
이라도	-11.3405
▁피로	-11.3409
▁지불할	-11.341
▁진출에	-11.3413
▁식당에서	-11.3414
▁사항이	-11.3414
▁파업이	-11.3415
▁보좌관들	-11.3415
▁수행했다	-11.3416
▁매케인에	-11.3422
▁수행한	-11.3425
▁끌어들이	-11.3426
▁행위로	-11.3433
였지만	-11.3437
▁신자	-11.344
▁마련된	-11.3448
▁승무원들은	-11.3455
▁피우	-11.346
▁일본인들	-11.3461
▁보도된	-11.3461
▁아파트에서	-11.3461
▁파견했다	-11.3465
▁다루는	-11.3465
▁구조됐다	-11.3465
▁투자가	-11.347
▁관계자와	-11.3471
디어	-11.3474
▁작년에	-11.3481
▁지방에	-11.3481
균	-11.3482
법안	-11.3482
▁소유자	-11.3483
▁돕는	-11.3493
▁중국정부	-11.3494
연구원	-11.3495
지에서	-11.3498
대회	-11.35
▁단계적	-11.3507
수는	-11.3507
▁bo	-11.3508
▁여인	-11.3513
▁아프리카에서	-11.3518
재단	-11.3525
레나	-11.3526
▁동부에	-11.3527
▁총리에	-11.3529
▁여진	-11.353
▁영화화	-11.354
어스	-11.3541
▁연기됐다	-11.3542
▁추문	-11.3542
▁투자가들	-11.3544
▁선포한	-11.3547
보고	-11.3552
멘	-11.3558
▁내야	-11.3558
콘	-11.3561
풀	-11.3561
▁성공할	-11.3562
즐	-11.3564
▁배달	-11.3566
안보	-11.3568
▁정말로	-11.357
면서도	-11.357
▁피의자	-11.3571
투표	-11.3571
▁산업이	-11.3571
사람	-11.3573
ction	-11.3575
▁틀	-11.3576
ho	-11.3578
▁결함이	-11.3578
▁down	-11.358
▁나비	-11.3581
▁해결에	-11.3582
됐기	-11.3583
였을	-11.3586
▁빚어	-11.3587
교육	-11.3591
방안	-11.3592
▁구의	-11.3596
min	-11.3598
▁김씨	-11.36
▁낮추	-11.3601
▁도착해	-11.3601
▁수의사	-11.3602
▁일본군	-11.3603
▁믿는	-11.3607
▁sun	-11.3607
▁우려하는	-11.361
▁경제학자	-11.3613
▁친구와	-11.3614
▁부지	-11.3618
▁중단된	-11.3618
▁켄터키	-11.3621
▁인터넷에서	-11.3621
▁공항으로	-11.3624
▁카라치	-11.3626
▁안고	-11.3629
▁움직이는	-11.3637
▁이스트	-11.364
▁덴버	-11.3641
룩	-11.3648
요원	-11.3648
▁날아	-11.3655
▁채로	-11.3655
▁떠났	-11.3656
▁지원했다	-11.3657
▁낮아	-11.3658
▁부탁	-11.3658
▁아스널	-11.3659
▁버스에	-11.3665
▁노력했다	-11.3667
▁항복	-11.3667
▁중장	-11.367
▁능력이	-11.3671
▁전투에서	-11.3672
▁대학은	-11.3673
▁도시들	-11.3674
▁우주로	-11.3675
▁감독과	-11.3678
세포	-11.3683
켓	-11.3683
▁닌텐도	-11.3685
▁조직원들	-11.3685
▁참가국	-11.3687
▁결백	-11.3688
이션	-11.3689
▁매트	-11.3691
▁발령	-11.3692
▁주도하고	-11.3692
콤	-11.3694
▁연령	-11.3695
춘	-11.3698
▁메이저	-11.37
▁나온다	-11.37
▁불황	-11.3701
▁녹색	-11.3701
▁총기난사	-11.3702
▁진흙	-11.3702
겹	-11.3702
▁beijing	-11.3702
▁claim	-11.3702
▁defense	-11.3702
▁movie	-11.3702
▁nymex	-11.3702
▁society	-11.3702
▁street	-11.3702
▁summit	-11.3702
▁system	-11.3702
▁가금류	-11.3702
▁가라앉	-11.3702
▁갱신	-11.3702
▁국제사면위원회	-11.3702
▁김경준	-11.3702
▁돈세탁	-11.3702
▁먹을	-11.3702
▁몰디브	-11.3702
▁무중력	-11.3702
▁믿음	-11.3702
▁베스트셀러	-11.3702
▁신천옹	-11.3702
▁아이슬란드	-11.3702
▁자부심	-11.3702
▁자이언트	-11.3702
▁페르난데스	-11.3702
▁폭넓	-11.3702
▁황박사	-11.3702
▁오페라	-11.3702
▁푸에르토리코	-11.3702
▁진원지	-11.3702
▁차세대	-11.3702
▁hsbc	-11.3702
▁프리킥	-11.3702
▁내다봤다	-11.3702
▁라시드	-11.3702
▁콘텐트	-11.3702
▁대중교통	-11.3702
▁브라더스	-11.3702
▁트레킹	-11.3703
▁남서쪽	-11.3703
▁강아지	-11.3703
▁삭스	-11.3703
▁프레슬리	-11.3703
▁근접	-11.3703
▁해리왕자	-11.3703
▁푸켓	-11.3703
▁걸프	-11.3703
▁선제골	-11.3703
▁않으려	-11.3703
▁화폐	-11.3703
▁포옹	-11.3703
▁전화통화	-11.3703
▁아이팟	-11.3703
▁gps	-11.3703
▁탑재	-11.3703
▁맞춘	-11.3703
▁다툼	-11.3703
▁삼성그룹	-11.3703
▁프라임	-11.3704
▁지방선거	-11.3704
▁과잉	-11.3704
▁기차역	-11.3704
▁미술관	-11.3704
▁단축	-11.3705
▁무패	-11.3705
▁정교회	-11.3705
▁지저스	-11.3705
▁복부	-11.3705
▁물러난	-11.3705
▁빈번	-11.3705
▁석탄	-11.3705
▁다룰	-11.3706
▁데이브	-11.3706
▁공방	-11.3706
▁북경	-11.3707
▁디에고	-11.3707
▁익사	-11.3707
▁이틀째	-11.3707
▁후쿠다	-11.3707
▁급진	-11.3707
대상	-11.3707
▁공표	-11.3708
▁모욕	-11.3708
▁선진국	-11.3708
▁프로디	-11.3708
▁사이먼	-11.3709
▁저명	-11.3709
▁기부금	-11.3709
▁시께	-11.3709
▁변형	-11.371
▁해산물	-11.371
▁발레리	-11.3711
▁실바	-11.3711
▁장관급	-11.3711
▁침실	-11.3712
▁전반에	-11.3712
▁live	-11.3712
▁방위군	-11.3712
▁시술	-11.3712
▁서버	-11.3712
▁break	-11.3712
▁승려	-11.3713
▁하위	-11.3713
▁주식시장이	-11.3713
▁공동성명	-11.3713
▁보리스	-11.3713
▁린치	-11.3714
▁왕위	-11.3714
▁시합	-11.3715
▁조업	-11.3716
▁결성	-11.3716
▁선동	-11.3716
▁웃음	-11.3716
▁골든	-11.3717
▁리터	-11.3718
▁끈	-11.3718
▁콜로라도주	-11.3718
▁어미	-11.3719
▁방송이	-11.3719
▁펴	-11.3719
▁솜	-11.3719
▁역전	-11.3719
▁왕궁	-11.3719
▁나이키	-11.372
▁변호사들	-11.372
▁좋았다	-11.372
▁sg	-11.372
▁최상	-11.3721
▁방침이다	-11.3722
▁정비	-11.3723
비오	-11.3723
▁폐허	-11.3724
▁됐고	-11.3724
▁표한다	-11.3724
▁좋아	-11.3725
▁근본주의	-11.3725
▁연어	-11.3725
▁딴	-11.3725
허가	-11.3727
▁brit	-11.3728
▁잔인	-11.3728
▁결혼했다	-11.3728
▁조각상	-11.373
▁찍었다	-11.373
▁자바	-11.373
▁위법	-11.373
디는	-11.3731
▁덩어리	-11.3731
▁이적	-11.3731
▁그럴	-11.3732
▁허리	-11.3732
▁space	-11.3732
▁낮게	-11.3732
▁내려오	-11.3733
▁쓰지	-11.3733
▁우주복	-11.3734
▁제작진	-11.3734
▁곳곳에서	-11.3734
복을	-11.3734
▁친구인	-11.3734
▁지표	-11.3737
▁계속됐다	-11.3738
▁예보	-11.374
▁집중적	-11.374
▁선언문	-11.3741
▁비중	-11.3741
▁희생자들이	-11.3741
▁시사했다	-11.3742
▁채무	-11.3742
▁목표물	-11.3742
▁보험사	-11.3744
▁국제법	-11.3746
▁감각	-11.3747
베스	-11.3748
▁장난	-11.3749
▁주차장에서	-11.375
▁몰린	-11.3751
▁보건당국	-11.3752
▁영해	-11.3752
▁템	-11.3756
▁하퍼	-11.3759
▁연정	-11.376
러운	-11.3764
▁저널	-11.3765
▁저자인	-11.3765
길에	-11.3766
▁발표하면서	-11.3768
쟁	-11.3773
▁숨기	-11.3778
▁손님들	-11.3779
▁결과에따라	-11.378
▁시작했으며	-11.3781
▁재료	-11.3781
▁연결하	-11.3782
▁남부지역에서	-11.3782
▁당선됐다	-11.3783
▁뒤지	-11.3783
▁라일	-11.3783
▁타이거	-11.3787
▁확인하지	-11.3787
▁조사단	-11.3787
▁담겨	-11.379
▁떠나지	-11.3792
▁결의안이	-11.3794
▁이었다	-11.3795
▁대표와	-11.3795
▁한국계	-11.3797
▁프로젝트에	-11.3797
▁na	-11.3802
▁주목할	-11.3802
▁엘리	-11.3805
▁만여명	-11.3806
▁배상	-11.3806
▁바람에	-11.3808
▁기록했으며	-11.3808
▁ira	-11.3814
▁나사	-11.3815
▁간호사	-11.3816
▁바비	-11.3818
▁관여한	-11.3819
▁하기로	-11.3819
▁대표들이	-11.3821
▁아카	-11.3823
▁베이징에	-11.3824
▁말아	-11.383
▁제시할	-11.3833
▁되려	-11.3837
려면	-11.3837
▁카라	-11.3837
▁요청했다고	-11.3843
▁설립된	-11.3844
▁간부들	-11.3844
▁지명에	-11.3847
▁에이	-11.385
▁완화하기	-11.385
▁진도	-11.3852
▁박스	-11.3852
▁로이	-11.3852
▁돼있다	-11.3854
▁신비	-11.3855
조차도	-11.3857
▁자신만	-11.3862
▁경호원들	-11.3866
▁가나	-11.3866
▁대변	-11.3866
▁재미있는	-11.3871
▁방안에	-11.3875
라이트	-11.3879
▁퇴원했다	-11.3883
▁결정하기	-11.3883
▁석방에	-11.3883
▁he	-11.3885
▁특파원이	-11.3886
▁파키스탄과	-11.3888
▁중대	-11.3893
▁수행하는	-11.3893
▁신체적	-11.3894
▁고집	-11.3895
▁선정했다	-11.3897
▁한반도에	-11.3898
▁당이	-11.3899
해줬다	-11.3901
▁결심했다	-11.3901
▁토론회에서	-11.3902
▁압수했다	-11.3904
▁방문하고	-11.3912
▁윤리	-11.3912
▁본부장	-11.3913
▁고민	-11.3915
▁교통부	-11.3915
▁내려가	-11.3917
▁이혼했다	-11.3921
▁폐쇄하고	-11.3922
식을	-11.3925
▁졌다	-11.3925
▁실험에	-11.3925
▁국제적으로	-11.3926
▁무장대원들	-11.3931
▁폭락했다	-11.3935
▁공화당원들	-11.3942
▁미얀마에서	-11.3942
▁특파원은	-11.3944
▁엄	-11.3946
▁맞을	-11.3946
▁가정에서	-11.3948
▁목록에	-11.3951
이상	-11.3954
하기위해	-11.3955
▁일상	-11.3957
준다	-11.3957
▁에디	-11.3963
▁수비	-11.3964
▁부분에	-11.3965
▁레바논에서	-11.397
▁되어야	-11.3972
▁시점에	-11.3972
uri	-11.3974
▁지어	-11.3977
▁워터	-11.3978
▁헌신	-11.3978
▁센터는	-11.398
▁배정	-11.3986
▁내부에	-11.3989
▁악화된	-11.3993
▁하와	-11.3993
▁결정된	-11.3994
리스트	-11.3996
▁제품들	-11.3997
▁한국측	-11.3998
▁결승	-11.401
버릴	-11.401
▁집회에서	-11.4014
들이다	-11.4015
▁제조사	-11.4015
▁무엇이	-11.4016
▁움	-11.4017
위를	-11.4019
▁야당의	-11.4021
▁메가	-11.4023
부의	-11.4023
뉴	-11.4024
▁말고	-11.4025
굴	-11.4031
배우	-11.4031
▁운전자들	-11.4031
힘	-11.4032
tt	-11.4033
▁항의했다	-11.4033
▁소방대원	-11.4034
▁연맹	-11.4035
랭	-11.4035
솔	-11.4036
▁인정하	-11.4038
▁모여들	-11.404
▁캘리포니아에서	-11.404
▁잡혀	-11.4041
▁제의	-11.4041
작업을	-11.4045
▁사고기	-11.4045
주택	-11.4045
조건	-11.4046
부족	-11.4048
▁날에	-11.4048
증권	-11.4048
▁촉구하고	-11.4049
▁일정에	-11.4049
수사	-11.405
체계	-11.4051
▁직원과	-11.4054
사고	-11.4056
요금	-11.4057
건물	-11.4058
fa	-11.4058
▁무너지	-11.4058
져야	-11.4066
▁홍콩에서	-11.407
▁처했다	-11.4071
one	-11.4076
▁숨지	-11.4077
전선	-11.4078
▁사실이다	-11.4082
▁젊은이들이	-11.4088
용품	-11.4089
▁이스탄불	-11.4093
ors	-11.4099
▁의자	-11.4102
▁십대	-11.4102
보드	-11.4102
▁산악	-11.4103
▁병이	-11.4107
▁일이었다	-11.4108
첼	-11.4111
▁기간이	-11.4114
간다	-11.4116
▁빼앗	-11.412
▁은행은	-11.4124
▁치열	-11.4129
▁목에	-11.4129
형을	-11.4129
▁실종됐다	-11.4131
▁전비	-11.4136
렁	-11.414
▁이용했다	-11.4144
▁펼쳤	-11.4148
▁나타냈	-11.4148
▁post	-11.4149
▁유럽에	-11.415
▁red	-11.415
▁북한군	-11.4152
인당	-11.4152
지구	-11.4152
▁응원	-11.4155
데이	-11.4157
▁촉발	-11.4158
롬	-11.4163
▁복합	-11.4164
▁고고학자	-11.4166
▁교황이	-11.4168
▁미네소타	-11.4171
▁물의	-11.4173
▁낙찰	-11.4175
▁오르기	-11.4176
▁report	-11.4177
▁동남	-11.4178
▁agree	-11.4178
▁리얼리티	-11.4178
▁얼룩	-11.4178
▁우편	-11.4178
▁black	-11.4179
▁ecb	-11.4179
▁public	-11.4179
▁russia	-11.4179
▁가로질러	-11.4179
▁그랜드슬램	-11.4179
▁라스무센	-11.4179
▁레드삭스	-11.4179
▁마터호른	-11.4179
▁맞교환	-11.4179
▁믿지	-11.4179
▁불필요	-11.4179
▁빈라덴	-11.4179
▁소렌스탐	-11.4179
▁스콜세지	-11.4179
▁스탤론	-11.4179
▁식이요법	-11.4179
▁신용경색	-11.4179
▁아라파트	-11.4179
▁알자지라	-11.4179
▁얼어붙	-11.4179
▁와지리스탄	-11.4179
▁유네스코	-11.4179
▁제너럴	-11.4179
▁질렀다	-11.4179
▁코네티컷	-11.4179
▁팽팽	-11.4179
▁펌프	-11.4179
▁포틀랜드	-11.4179
▁푸에르타	-11.4179
덟	-11.4179
▁고마움	-11.4179
▁이건희	-11.4179
▁국가정보원	-11.4179
▁candidate	-11.4179
▁commission	-11.4179
▁science	-11.4179
▁만델라	-11.4179
▁본거지	-11.4179
▁로드맵	-11.4179
▁밀리밴드	-11.4179
▁남동쪽	-11.4179
▁가이트너	-11.4179
▁주미대사	-11.4179
▁아로요	-11.4179
▁파이프라인	-11.4179
▁땅콩	-11.4179
▁블레이크	-11.4179
▁외딴	-11.4179
▁버클리	-11.4179
▁생태계	-11.4179
▁있느냐	-11.4179
▁완승	-11.4179
▁신분증	-11.418
▁불러일으키	-11.418
▁아메드	-11.418
▁로얄	-11.418
▁그래함	-11.418
▁점유율	-11.418
▁청색	-11.418
▁함정	-11.418
▁연애	-11.4181
▁사탕	-11.4181
▁사촌	-11.4181
▁음란물	-11.4181
▁이뤄져야	-11.4181
▁나이로비	-11.4181
▁절단	-11.4181
▁버려진	-11.4181
▁러브	-11.4181
▁진심	-11.4181
▁육상	-11.4181
▁경색	-11.4181
▁jp	-11.4182
▁정황	-11.4182
▁심리적	-11.4182
▁투병	-11.4182
▁유머	-11.4182
▁증권거래소	-11.4182
▁봅	-11.4182
▁잠재력	-11.4183
▁wti	-11.4183
▁부착	-11.4183
▁화물선	-11.4183
▁위안화	-11.4183
▁정확하게	-11.4184
▁소식통에따르면	-11.4184
메스	-11.4184
▁테마	-11.4184
▁사절단	-11.4184
▁프로그램에서	-11.4185
▁테러범이	-11.4185
▁긴장감	-11.4186
▁노엘	-11.4186
▁육성	-11.4186
▁감행한	-11.4186
▁애정	-11.4186
▁forces	-11.4187
▁보험금	-11.4187
함으로서	-11.4188
▁드문	-11.4188
▁대통령궁	-11.4188
▁인천	-11.4189
light	-11.4189
▁hit	-11.4189
▁바이든	-11.4189
▁텔레콤	-11.4189
▁파타당	-11.4189
▁인준	-11.4189
▁사우스	-11.419
▁판결문	-11.419
▁버크	-11.419
▁작전이	-11.4191
▁납치범	-11.4191
▁박차	-11.4191
있던	-11.4192
▁엔화	-11.4193
포트	-11.4193
▁대열	-11.4193
▁전인대	-11.4193
▁줄리아	-11.4194
▁시청률	-11.4194
▁상원의	-11.4195
▁가졌으며	-11.4195
▁루디	-11.4196
▁장애물	-11.4196
▁효과적으로	-11.4196
▁루즈	-11.4197
▁장점	-11.4197
▁앞서있다	-11.4197
▁선제	-11.4198
▁분배	-11.4198
▁금주	-11.4198
▁엔지니어	-11.4199
▁거세지	-11.4199
▁통역	-11.42
▁자체적으로	-11.42
▁팔아	-11.4202
▁신선	-11.4202
▁금융계	-11.4203
▁공공장소에서	-11.4204
▁붙였다	-11.4205
▁국가와	-11.4205
▁치료법	-11.4206
▁들소	-11.4206
▁높았다	-11.4206
▁달렸다	-11.4207
▁행정부에	-11.4207
▁내달	-11.4207
▁교실	-11.4207
▁듀	-11.4208
▁선박들	-11.4209
▁있을까	-11.4209
▁동상	-11.4209
▁sh	-11.421
▁솔	-11.4212
▁시작됐으며	-11.4212
판매	-11.4214
▁문어	-11.4215
▁합법적으로	-11.4217
▁서울대	-11.4217
▁혼인	-11.4218
▁비평가들은	-11.4218
▁펜실베이니아주	-11.4218
▁들어왔다	-11.4219
▁비티	-11.4221
▁치우	-11.4222
▁첫째	-11.4222
▁수영장	-11.4223
▁왕국	-11.4223
▁예상치	-11.4223
▁당선자가	-11.4223
than	-11.4227
▁주심	-11.4228
군과	-11.4228
▁출판사	-11.423
▁정당화	-11.423
▁국토안보부	-11.4234
▁사단	-11.4235
▁걸리는	-11.4236
▁경찰관들	-11.4236
▁이성	-11.4236
▁합법적인	-11.4239
▁의존하고	-11.4239
▁철학	-11.424
▁다운	-11.4241
▁남부지역	-11.4242
▁올드	-11.4244
▁교착상태에	-11.4244
▁돌며	-11.4245
▁전용기	-11.4247
▁ra	-11.4248
바인	-11.4249
▁폐쇄했다	-11.4249
▁언론인	-11.425
▁임명했다	-11.4251
▁더미	-11.4251
▁잃어	-11.4253
▁양곤에서	-11.4253
국의	-11.4255
부문	-11.4255
▁들며	-11.4256
▁만회	-11.4257
▁우주센터	-11.4257
▁금연법	-11.4258
▁수준에	-11.4259
▁변수	-11.4259
하였으나	-11.426
▁모델로	-11.426
▁착용한	-11.426
▁대통령으로서	-11.4261
▁적게	-11.4265
▁못했으며	-11.4265
▁에스	-11.4268
▁토레	-11.427
▁영화관	-11.4271
▁매력적	-11.4274
▁실질적으로	-11.4275
▁호주군	-11.4284
▁나이에	-11.4284
▁음와	-11.4284
▁관여하	-11.4285
▁측면에서	-11.4287
▁fc	-11.4288
▁가계	-11.4291
▁작가들	-11.4293
▁생물학적	-11.4294
▁빼고	-11.4296
▁없었고	-11.4297
▁카불에서	-11.4298
▁궤도에	-11.43
▁묘	-11.4301
▁해법	-11.4303
▁분리주의자들	-11.4305
▁이슬라마바드에서	-11.4305
▁확보에	-11.4306
▁팀에	-11.4309
있으며	-11.4313
▁미친	-11.4315
▁경찰관이	-11.4317
▁조사팀	-11.4318
▁수용소에	-11.432
▁돌아왔	-11.4321
▁조화	-11.4322
▁손상된	-11.4326
▁항해	-11.4333
▁구입한	-11.4333
▁바라보	-11.4336
▁대면	-11.4339
다르	-11.4341
▁이사장	-11.4342
▁서명한	-11.4343
▁ta	-11.4345
sa	-11.4345
▁대응할	-11.4345
▁이끌어내	-11.4346
▁중위	-11.4353
▁등정	-11.4354
▁칼로	-11.4354
▁전사들	-11.4356
▁충돌해	-11.4357
▁하우스	-11.4358
▁심리학	-11.4359
▁친척들	-11.4359
▁te	-11.4362
▁째	-11.4363
▁혈	-11.4366
▁리버	-11.4368
▁논쟁의	-11.4369
▁확보해	-11.4373
밀리에	-11.4374
▁플	-11.4377
▁수준이	-11.4378
▁등록된	-11.4381
▁방문했	-11.4384
▁di	-11.4384
▁시민이	-11.4387
▁기르	-11.4388
세르	-11.4391
▁발효	-11.4392
▁몬	-11.4395
▁제방	-11.4396
▁우려해	-11.4396
▁마이크로	-11.4397
▁유전적	-11.4399
잡	-11.4401
▁때가	-11.4405
▁유대인들	-11.4408
▁보수파	-11.4409
▁마련해	-11.4414
▁강화된	-11.4419
▁침범	-11.4419
▁만나고	-11.442
▁증가하	-11.4422
▁과다	-11.443
▁근교	-11.4431
▁기울	-11.4432
▁타는	-11.4432
방법	-11.4434
▁일반인	-11.444
▁션	-11.4442
son	-11.4442
▁개월이	-11.4447
▁수장	-11.4451
▁적도	-11.4456
▁시작되	-11.4456
▁세르	-11.446
▁살해하고	-11.4462
▁회복하고	-11.4463
▁포기한	-11.4464
▁요구한다	-11.4466
▁마시는	-11.4467
▁완수	-11.4468
국은	-11.4468
▁can	-11.447
▁지지했다	-11.447
호가	-11.4475
▁농	-11.4476
▁감동	-11.4477
▁격돌한	-11.4482
▁팔레스타인인	-11.4484
▁이씨	-11.4489
▁바다에	-11.4497
▁중력	-11.4498
▁의문이	-11.4499
라드	-11.4512
▁교회에	-11.4513
▁올림픽에서	-11.4514
▁시행되	-11.4516
쓰	-11.4519
홍	-11.4521
▁치명적	-11.4521
닌	-11.4523
ny	-11.4524
▁소행이라	-11.4525
day	-11.4528
▁그곳	-11.4528
▁무장세력과	-11.4529
▁지속되	-11.453
▁대에	-11.453
킹	-11.4532
멜	-11.4533
▁근본적	-11.4533
첸	-11.4535
자이자	-11.4535
떼	-11.4537
훈련	-11.4539
▁트럭이	-11.4539
주기	-11.4539
▁기록됐다	-11.454
앞	-11.4541
사무소	-11.4541
top	-11.4543
민족	-11.4543
▁요새	-11.4543
신문	-11.4545
▁집이	-11.4548
▁위험하다	-11.4549
졌지만	-11.4551
▁연구하는	-11.4552
▁사람으로	-11.4555
▁이행할	-11.4557
▁시위대에	-11.4558
▁재활	-11.4559
▁노인들	-11.4565
▁구제안	-11.4569
▁합법적	-11.4575
▁사마라	-11.4576
▁인물이	-11.4577
▁소화	-11.4579
▁번에	-11.458
적이지	-11.4583
▁벌여왔	-11.4583
▁수단으로	-11.4585
제로	-11.4586
▁나이로	-11.4587
▁남겨	-11.4592
▁lo	-11.4594
▁노출되	-11.4596
▁오키나와	-11.4597
▁실내	-11.4599
코프	-11.46
▁조세	-11.4602
▁터미널	-11.4603
▁맞지	-11.4604
▁발견해	-11.4607
▁중앙정보	-11.4609
▁재미있	-11.4609
▁소방	-11.461
▁우호적	-11.4614
▁대안	-11.4618
▁잡을	-11.4621
▁폭발물이	-11.4625
▁악재	-11.4627
롤	-11.4627
▁공격해	-11.4628
ki	-11.4632
▁비평	-11.4633
▁중태	-11.4635
▁증	-11.4635
▁관리들과	-11.4636
▁외계	-11.4639
▁일삼	-11.4643
▁넘겨	-11.4644
▁안된다	-11.4644
까요	-11.4646
▁캐나다에서	-11.4646
lin	-11.465
▁카르	-11.4652
▁혐의와	-11.4654
▁태어났	-11.466
▁숨어	-11.466
▁재처리	-11.4661
▁밀집	-11.4663
님	-11.4664
▁사격	-11.4664
▁market	-11.4667
▁good	-11.4668
ful	-11.4669
▁미주리	-11.4673
▁뒤덮	-11.4678
▁시간으로	-11.4678
▁와이오밍	-11.4679
헴	-11.4679
▁rctv	-11.4679
▁uae	-11.4679
▁window	-11.4679
▁www	-11.4679
▁갖췄다	-11.4679
▁갱단	-11.4679
▁겪은	-11.4679
▁뚜렷	-11.4679
▁매카트니	-11.4679
▁뭔가	-11.4679
▁비아그라	-11.4679
▁빨라	-11.4679
▁쌓인	-11.4679
▁쓰러져	-11.4679
▁영유권	-11.4679
▁왜냐하면	-11.4679
▁자민당	-11.4679
▁즈보나레바	-11.4679
▁초콜릿	-11.4679
▁해안경비대	-11.4679
▁현수막	-11.4679
▁흑자	-11.4679
▁support	-11.4679
▁아폴로	-11.4679
▁터무니	-11.4679
▁하루종일	-11.4679
▁포츠머스	-11.4679
▁마리화나	-11.4679
▁무자비	-11.4679
▁헝가리	-11.4679
▁프리츨	-11.4679
▁함부르크	-11.4679
▁뉴욕상업거래소	-11.4679
▁게놈	-11.4679
▁france	-11.4679
▁혜성	-11.4679
▁독특	-11.4679
▁다이앤	-11.4679
▁glob	-11.4679
▁휴이트	-11.4679
▁딜런	-11.4679
▁오스만	-11.4679
▁연못	-11.4679
▁가르시아	-11.4679
▁food	-11.4679
▁park	-11.4679
▁순결	-11.4679
▁본인	-11.4679
▁참의원	-11.4679
▁눈보라	-11.4679
▁자살폭탄	-11.4679
▁해들리	-11.4679
▁네그로폰테	-11.4679
▁도미니카	-11.468
▁척추	-11.468
▁솔직하	-11.468
▁잠비아	-11.468
▁제이슨	-11.468
▁막으려	-11.468
▁돌풍	-11.468
▁떨어졌습니다	-11.468
▁매도프	-11.468
▁야외	-11.468
▁faa	-11.4681
▁거슬러	-11.4681
▁홈구장	-11.4681
▁갤러리	-11.4681
▁test	-11.4681
▁재앙	-11.4682
▁투여	-11.4682
▁인텔	-11.4682
▁파이프	-11.4682
▁버린	-11.4682
▁법령	-11.4682
▁기원전	-11.4682
▁악마	-11.4683
▁아흐마디네자드	-11.4683
▁마스리	-11.4683
▁조사결과	-11.4683
▁인질극	-11.4683
▁룰라	-11.4684
▁단언	-11.4684
▁내놓았다	-11.4684
▁베이비	-11.4684
▁짜	-11.4684
▁초드리	-11.4685
▁순수	-11.4685
▁훔쳐	-11.4685
▁정박	-11.4685
▁해리슨	-11.4686
▁유아	-11.4686
단체가	-11.4686
▁제약	-11.4686
▁없었으며	-11.4686
▁크로스	-11.4686
da	-11.4687
▁검	-11.4687
▁도착하자	-11.4687
▁태세	-11.4687
▁사라질	-11.4688
▁발명	-11.4688
▁뒤이어	-11.4689
▁번개	-11.4689
▁남긴	-11.469
▁임상	-11.4691
▁랜드	-11.4691
▁창업자	-11.4691
▁무거	-11.4692
▁예정이지만	-11.4693
▁실었다	-11.4693
▁촉발된	-11.4693
▁서구	-11.4694
▁케이스	-11.4694
▁힐러리경	-11.4694
▁살리기	-11.4695
▁승진	-11.4695
▁분양	-11.4695
▁동력	-11.4695
▁토드	-11.4696
▁앵커	-11.4697
▁요청하	-11.4697
▁제기됐다	-11.4698
▁선고받았다	-11.4698
▁잡혔다	-11.4698
▁아이오와주	-11.4698
▁기종	-11.4699
▁지방법원	-11.4699
▁구성원	-11.4699
▁포크	-11.4699
▁가져왔다	-11.47
▁체포됐으며	-11.4702
▁걸음	-11.4702
▁포즈	-11.4704
▁멍	-11.4704
▁그래픽	-11.4704
▁목성	-11.4705
▁센트럴	-11.4705
▁방사	-11.4705
▁추종자들	-11.4705
▁휘	-11.4705
▁레이드	-11.4706
▁리우	-11.4706
▁mid	-11.4706
▁티나	-11.4707
▁동해	-11.4708
파크	-11.4708
▁미션	-11.4709
▁따내	-11.471
▁평론가들은	-11.4711
▁올림픽에	-11.4713
▁의류	-11.4715
▁센터에서	-11.4716
▁중립	-11.4716
▁신성	-11.4717
▁막았다	-11.4718
▁사무국장	-11.4718
▁배역	-11.4718
▁아크	-11.4721
▁기용	-11.4722
▁참석하는	-11.4724
▁손길	-11.4725
▁웰스	-11.4725
▁띠	-11.4726
▁head	-11.4726
▁운영되	-11.4728
▁근본	-11.473
▁전제	-11.4731
▁플로	-11.4733
▁전쟁의	-11.4736
▁구속했다	-11.4736
▁기각했다	-11.4736
▁발표되지	-11.4737
▁관광객들에게	-11.4738
bar	-11.4738
▁ump	-11.4739
▁지르	-11.4739
▁말했으나	-11.474
▁쉐	-11.474
라인	-11.4741
▁독립국가	-11.4744
▁여왕이	-11.4744
▁상승하며	-11.4746
▁예산안	-11.4746
▁청소	-11.4747
▁당선된	-11.4748
▁슈퍼대의원	-11.4749
▁샤프	-11.475
▁북해	-11.4752
▁편집장	-11.476
▁임무에	-11.476
▁추락해	-11.4761
▁공개될	-11.4763
▁해안가	-11.4763
▁정상회의	-11.4769
▁시간만	-11.4771
▁싱글	-11.4772
▁이제까지	-11.4772
▁구사	-11.4779
▁첸	-11.478
단이	-11.4782
▁외계인	-11.4784
▁제조업	-11.4785
▁노린	-11.4786
▁죽였다	-11.4786
ts	-11.4788
▁제품이	-11.4789
▁따라잡	-11.4791
▁밀림	-11.4792
▁연행됐다	-11.4793
▁경찰에게	-11.4793
비드	-11.4794
▁정해진	-11.4796
▁몰아내	-11.4799
▁건이	-11.48
▁길게	-11.4801
pr	-11.4801
▁농부들	-11.4802
▁le	-11.4804
▁위원회에	-11.4804
▁명확한	-11.4806
▁두번째로	-11.4807
▁해일	-11.4807
▁조사관	-11.4809
▁역할에	-11.4812
▁무대에	-11.4812
▁측에서는	-11.4814
▁생산된	-11.4815
▁free	-11.482
자에게	-11.4821
▁신뢰할	-11.4822
▁지나간	-11.4823
▁루이	-11.4824
치기	-11.4828
▁나타난다	-11.4831
▁균	-11.4832
▁방에서	-11.4843
▁부분에서	-11.4843
▁타지	-11.4847
았다고	-11.4852
▁아서	-11.4854
▁지켜보고	-11.4856
▁누설	-11.486
▁통과된	-11.486
▁높이기	-11.4861
▁포기하고	-11.4861
▁마르코	-11.4864
▁광장에서	-11.4865
▁않았다면	-11.4867
이어서	-11.4867
▁기업에	-11.4869
▁월터	-11.4872
▁염	-11.4873
▁하스	-11.4874
▁느끼지	-11.4874
▁가져가	-11.4876
▁했는지	-11.4879
▁여행사	-11.4881
▁주최한	-11.4884
▁이집트에서	-11.4885
▁조사하는	-11.4887
▁차이나	-11.4891
▁결정하지	-11.4893
▁월말	-11.4893
▁북한측	-11.4893
▁않았기	-11.4895
▁독일은	-11.4898
▁고리	-11.4902
피크	-11.4903
▁경기장에서	-11.4911
▁주석이	-11.4911
▁추산	-11.4912
▁앤드	-11.4914
▁이전에는	-11.4917
▁라드	-11.4919
▁건물들	-11.4921
▁위협받	-11.4924
▁제조회사	-11.4926
점에서	-11.4934
▁외곽에	-11.4935
▁샌프란시스코에서	-11.4944
tic	-11.4952
▁롭	-11.4952
▁하나다	-11.4952
▁보내지	-11.4956
▁좋아하	-11.4959
▁연구자들	-11.4961
▁기념하	-11.4961
▁월스트리트에서	-11.4964
▁제국	-11.4965
회에서	-11.4966
텐	-11.497
▁운항이	-11.497
스에서	-11.4971
▁창고	-11.4975
▁구속됐다	-11.4976
▁동물원에서	-11.4979
▁절반이	-11.498
▁레인	-11.4982
▁감염자	-11.4991
▁지아	-11.4991
▁작	-11.4993
▁깨	-11.4993
▁십년	-11.4993
▁봉	-11.4997
▁개정된	-11.4999
▁회사에서	-11.5002
▁면제	-11.5006
▁정보원	-11.5007
▁곤	-11.5007
▁가시	-11.5027
▁im	-11.5027
▁방문한다	-11.5031
유지	-11.5032
▁기념식	-11.5036
▁마드리드에서	-11.5038
▁발언이	-11.5039
▁설립했다	-11.504
▁반응이	-11.5042
▁기술에	-11.5046
ition	-11.5047
번에	-11.5048
궁	-11.5049
▁동의한다	-11.505
딕	-11.5051
▁고속도로에서	-11.5052
▁우방	-11.5053
▁상징으로	-11.5054
▁서있	-11.5059
▁사냥꾼	-11.5061
▁기준에	-11.5061
전문	-11.5062
전략	-11.5064
세계	-11.5069
▁현대적	-11.5071
보고서	-11.5074
처리	-11.5076
▁배우자	-11.5076
호프	-11.508
▁효율	-11.5081
학자인	-11.5081
신원	-11.5081
▁업무에	-11.5081
조정	-11.5082
▁통과했다	-11.5084
▁농부	-11.5085
▁비로	-11.5087
에너지	-11.5092
▁커플은	-11.5092
▁하루만	-11.5095
통제	-11.5096
▁금요일에	-11.5102
▁기기	-11.5104
▁적들	-11.5108
▁청소년들	-11.5112
즈는	-11.5114
▁정치가	-11.5115
▁ad	-11.5117
▁소송에서	-11.5118
▁미술	-11.5119
▁질병에	-11.512
발전	-11.5121
▁heart	-11.5121
철도	-11.5125
▁플로리다에	-11.5126
▁바쿠바	-11.5127
▁모가디슈	-11.5135
▁가야	-11.5136
▁매도	-11.5142
▁명이었다	-11.5144
▁해외로	-11.5145
▁놓인	-11.5145
▁교사들	-11.5146
▁싸우	-11.5148
▁통신에	-11.5153
▁검출	-11.5154
▁총살	-11.5158
▁들어갔	-11.5158
▁시청자	-11.516
▁히스	-11.5166
그만	-11.5169
▁피플	-11.517
스타인	-11.5173
장의	-11.5176
▁달아	-11.5177
▁밀수	-11.5177
▁후보작	-11.5184
▁직면하	-11.5186
▁이소연	-11.5189
▁law	-11.5192
▁생겨	-11.5194
▁right	-11.5195
▁퇴역	-11.5196
▁스위	-11.5196
촌	-11.5199
▁괴	-11.5199
▁검문	-11.52
▁위원회에서	-11.5201
▁메모리	-11.5202
▁부시와	-11.5202
▁meet	-11.5202
▁혐오	-11.5204
셋	-11.5204
▁지칭	-11.5204
▁얻었	-11.5204
해주고	-11.5205
▁첨단	-11.5205
▁밀라노	-11.5205
▁economy	-11.5205
▁power	-11.5205
▁strike	-11.5205
▁travel	-11.5205
▁가깝게	-11.5205
▁가솔린	-11.5205
▁겪을	-11.5205
▁꿀벌	-11.5205
▁니스텔로이	-11.5205
▁동성결혼	-11.5205
▁디스플레이	-11.5205
▁르완다	-11.5205
▁리트비넨코	-11.5205
▁메르세데스	-11.5205
▁미항공우주국	-11.5205
▁바랍니다	-11.5205
▁박정희	-11.5205
▁방코델타아시아	-11.5205
▁베를루스코니	-11.5205
▁성매매	-11.5205
▁순이익	-11.5205
▁스즈키	-11.5205
▁아제르바이잔	-11.5205
▁애틀랜티스호	-11.5205
▁요하네스버그	-11.5205
▁인공위성	-11.5205
▁재규어	-11.5205
▁조선일보	-11.5205
▁즐거움	-11.5205
▁칠면조	-11.5205
▁토튼햄	-11.5205
▁핀란드	-11.5205
▁합법화	-11.5205
▁핸드폰	-11.5205
▁usgs	-11.5205
▁오사카	-11.5205
▁원자재	-11.5205
▁비너스	-11.5205
▁로날드	-11.5205
▁징조	-11.5205
▁막바지	-11.5205
▁와일드	-11.5205
▁hostage	-11.5205
▁예정이었으나	-11.5205
▁대운하	-11.5205
▁옥스포드	-11.5205
▁참혹	-11.5205
▁강원도	-11.5205
▁북대서양	-11.5205
▁관절염	-11.5205
▁묵념	-11.5205
▁사형선고	-11.5205
▁셰퍼드	-11.5205
▁카펠로	-11.5205
▁페라로	-11.5205
▁반세기	-11.5205
▁키드먼	-11.5205
▁나이트클럽	-11.5205
▁버틀러	-11.5205
▁평등	-11.5205
▁프라이스	-11.5205
▁하이킹	-11.5205
▁앗아	-11.5205
▁불매운동	-11.5205
▁블랙워터	-11.5205
▁반짝이	-11.5205
▁심장질환	-11.5205
▁액션	-11.5205
▁몸싸움	-11.5205
▁쉽다	-11.5205
▁역전승	-11.5205
▁체첸	-11.5205
▁그리핀	-11.5205
▁정권인수팀	-11.5205
▁관례	-11.5205
▁빠져나가	-11.5205
▁드라이브	-11.5205
▁크리스틴	-11.5205
▁영사관	-11.5205
▁인내심	-11.5205
▁파란색	-11.5206
▁휴먼	-11.5206
▁poll	-11.5206
▁재건축	-11.5206
▁노워크	-11.5206
▁군복무	-11.5206
▁부유층	-11.5206
▁오닐	-11.5206
▁잠수함	-11.5206
▁선거유세	-11.5206
▁환급	-11.5206
▁소방차	-11.5206
▁조립	-11.5206
▁좌우	-11.5206
▁쏟아져	-11.5206
▁어디서	-11.5206
▁꾸미	-11.5206
▁형벌	-11.5206
▁증산	-11.5207
▁꼬리	-11.5207
▁파라오	-11.5207
▁터져	-11.5207
▁카누	-11.5207
게임	-11.5207
▁생물체	-11.5207
▁요구사항	-11.5207
데일	-11.5207
▁가정집	-11.5207
▁국가들에	-11.5207
▁리틀	-11.5207
▁난항	-11.5208
▁부국장	-11.5208
▁그려진	-11.5208
▁연봉	-11.5208
▁아흐메드	-11.5208
▁사직서	-11.5208
▁soldiers	-11.5208
▁괴물	-11.5208
▁라이더	-11.5208
▁찍힌	-11.5208
모어	-11.5209
▁표범	-11.5209
▁deal	-11.5209
▁들렸다	-11.5209
▁마스크	-11.5209
▁샤리아	-11.5209
▁마스터스	-11.5209
▁접종	-11.5209
▁사귀	-11.521
▁낳았다	-11.521
▁난처	-11.521
▁경감	-11.521
▁타개	-11.521
▁숨져	-11.521
▁만들어졌다	-11.521
▁미주리주	-11.5211
▁드러나	-11.5211
▁카렌	-11.5211
▁친분	-11.5211
▁파워	-11.5211
▁렌	-11.5212
▁국토	-11.5212
▁가져오	-11.5212
▁기다렸다	-11.5213
▁사과문	-11.5213
▁직위	-11.5213
▁유타주	-11.5213
▁테디	-11.5214
▁얼굴에	-11.5214
▁미시건주	-11.5215
▁이르다	-11.5215
▁반란군	-11.5215
▁제약회사	-11.5215
▁표정	-11.5216
▁좋겠다	-11.5216
▁보였으며	-11.5216
▁여건	-11.5217
▁국가적	-11.5217
▁치타	-11.5218
▁지켜봤다	-11.5218
▁며칠간	-11.5218
▁생길	-11.5218
▁루이지애나주	-11.5218
▁매설	-11.5219
▁회복세	-11.5219
▁aft	-11.522
▁넘겼다	-11.5221
▁우표	-11.5221
▁형량	-11.5222
▁백만명	-11.5223
▁구제금융안	-11.5224
▁그런데	-11.5225
▁빙	-11.5226
▁top	-11.5226
▁카카	-11.5226
▁예상한	-11.5226
▁바오로	-11.5227
▁은신	-11.5227
▁we	-11.5229
▁블루스	-11.5229
▁루트	-11.523
▁저하	-11.523
▁반경	-11.523
▁명절	-11.5231
▁펜실베니아주	-11.5231
▁urge	-11.5231
▁끝나기	-11.5231
▁들어있다	-11.5232
▁돌진	-11.5234
▁우수	-11.5235
▁북부지역	-11.5237
▁주장했었다	-11.5239
▁날려	-11.5239
▁연관성	-11.524
▁개체	-11.524
▁나포	-11.5241
▁복도	-11.5241
▁문명	-11.5242
받을	-11.5243
▁최다	-11.5243
▁불행한	-11.5244
▁푸미	-11.5245
▁합의에따라	-11.5245
▁연방법원	-11.5245
▁쉴	-11.5246
▁나간	-11.5246
적이며	-11.5248
▁인내	-11.5248
▁피해지역	-11.5248
공장	-11.5248
▁qu	-11.5249
▁보잉사	-11.525
▁링	-11.525
▁start	-11.5251
프리	-11.5252
어질	-11.5252
제가	-11.5253
▁퓨	-11.5254
▁입원해	-11.5255
▁나노	-11.5257
▁cut	-11.5257
▁압도적으로	-11.5259
▁단계로	-11.526
▁권했다	-11.5261
▁내부에서	-11.5261
회장은	-11.5262
되었을	-11.5262
▁구속력	-11.5264
▁이겼다	-11.5265
▁인종적	-11.5267
▁건스	-11.5267
▁정회장	-11.5267
노프	-11.5267
cent	-11.5267
▁놓치	-11.5269
▁밝혔고	-11.527
▁무장세력들	-11.527
▁연합통신	-11.5271
▁보이지만	-11.5271
▁자질	-11.5272
▁스트리트	-11.5272
▁가담한	-11.5276
▁소령은	-11.5277
▁팔레스타인인들	-11.5277
ease	-11.5278
▁천국	-11.528
▁클레이	-11.528
▁한창	-11.5283
▁수송기	-11.5285
▁달했다	-11.5286
▁수사관들	-11.5286
▁bill	-11.5286
▁산책로	-11.5287
벨리	-11.5287
nd	-11.5289
▁아비	-11.5291
▁책상	-11.5291
▁무너지고	-11.5291
▁공해	-11.5292
▁죽음의	-11.5292
▁원주민들	-11.5293
▁교류	-11.5294
▁보스	-11.5295
▁정서	-11.5298
▁벌인다	-11.5299
▁일시	-11.5299
▁애널리스트	-11.5299
을때	-11.53
▁고조	-11.5301
▁다닐	-11.5303
▁촬영된	-11.5303
▁의거	-11.5303
▁총회에서	-11.5307
시민	-11.5313
율이	-11.5314
▁국경지역에서	-11.5314
앤	-11.5315
▁결혼한	-11.5318
▁시에서	-11.532
▁지시한	-11.532
▁환경에서	-11.5322
▁정부기관	-11.5324
▁미얀마에	-11.5325
▁주제로	-11.5325
▁북한으로	-11.5325
셰	-11.5327
▁모색하고	-11.533
렌스	-11.5332
▁금지된	-11.5334
▁진압하기	-11.5334
▁대피령	-11.5335
▁드리	-11.5337
▁실력	-11.5337
▁만들었	-11.5341
▁분주	-11.5346
▁제압	-11.5347
▁인사들과	-11.5347
가렛	-11.5348
▁과정이	-11.5349
▁고독	-11.5351
▁추방된	-11.5355
▁바에따르면	-11.5358
▁남쪽에	-11.5359
▁그레이스	-11.5359
▁져야	-11.5361
▁청문회에서	-11.5361
▁이동하	-11.5361
▁가두	-11.5365
▁에바	-11.5374
듯이	-11.5378
▁정상회담에	-11.5379
▁담당하	-11.5379
▁호의	-11.5379
▁bp	-11.5379
ious	-11.5381
▁행복한	-11.5381
▁탈레반에	-11.5381
▁어기	-11.5383
▁che	-11.5383
해도	-11.5384
▁영향으로	-11.5392
▁섭	-11.5393
ama	-11.5393
▁인디언	-11.5396
대의	-11.5399
▁증상이	-11.5401
▁도피	-11.5401
브리지	-11.5402
▁희생됐다	-11.5403
▁거래되	-11.5404
▁개최지	-11.5408
▁비난해	-11.5409
▁법규	-11.5409
브라	-11.541
▁번호	-11.5412
▁심리에서	-11.5413
바르	-11.5414
수도	-11.5414
il	-11.5419
▁여당이	-11.5421
받	-11.5423
ci	-11.5423
▁죽고	-11.5424
▁스티	-11.5426
▁참여하고	-11.5426
▁인질들은	-11.5432
▁거부할	-11.5435
▁실직자	-11.5436
arly	-11.5438
▁car	-11.5438
▁말은	-11.5441
▁갈라	-11.5443
▁지었다	-11.5444
▁조심스럽	-11.5445
▁부인이	-11.5447
▁설명하지	-11.5449
▁시드니에서	-11.545
▁따르지	-11.5453
▁매춘부	-11.5455
▁북쪽에	-11.5459
▁금지했다	-11.546
▁정보에	-11.5463
▁학자	-11.5463
▁가하는	-11.5463
헌	-11.5468
▁사원에	-11.5468
으므로	-11.5468
▁동원됐다	-11.547
▁전차	-11.547
▁들려	-11.547
▁미미	-11.5471
다리	-11.5473
▁목적지	-11.5473
▁도발적	-11.5474
▁이어져	-11.5479
▁주어진	-11.548
▁되자	-11.5481
국민	-11.5483
▁여행자	-11.5495
▁별장	-11.5496
▁다해	-11.5497
▁여론조사에	-11.5497
▁기독교인	-11.5499
▁부문에	-11.5501
▁윤리적	-11.5507
▁통과하	-11.5507
▁그녀에게	-11.5507
▁병장	-11.5511
ni	-11.5516
▁들어왔	-11.552
▁만들어지	-11.552
▁추측이	-11.552
▁제작했다	-11.5523
▁덧붙	-11.5533
▁허용했다	-11.5533
▁자원봉사자들	-11.5536
▁죽음이	-11.5537
▁편에	-11.5549
▁ka	-11.5549
어졌다	-11.555
▁벌이다	-11.5558
자들과	-11.5561
함에	-11.557
▁국무장관과	-11.5571
▁라파	-11.5572
▁맞붙	-11.5574
▁장이	-11.5575
▁헬	-11.5577
▁다리에	-11.5578
▁헌법에	-11.5578
▁앤더슨	-11.5579
▁aid	-11.5579
▁싼	-11.5579
▁pre	-11.558
▁거부하는	-11.558
▁set	-11.5582
냈	-11.5586
▁루마니아	-11.5591
결과	-11.5593
▁차량과	-11.5596
▁주관	-11.5598
답	-11.5599
법에	-11.56
▁중앙일보는	-11.56
▁복	-11.5601
밤	-11.5602
퇴	-11.5602
탕	-11.5604
맥	-11.5609
▁이용자	-11.5609
▁변호사와	-11.5612
roll	-11.5616
▁임원들	-11.5616
컴	-11.5616
book	-11.5618
빛	-11.5619
펜	-11.562
▁지지해	-11.5621
푸르	-11.5621
open	-11.5621
최초	-11.5623
음악	-11.5623
▁경우에	-11.5625
음에	-11.5626
▁성장이	-11.5626
▁하반기	-11.5628
▁기사에	-11.5629
▁젠	-11.5629
이거나	-11.563
▁po	-11.5633
▁경쟁이	-11.5634
▁단계에서	-11.5636
▁싫어하	-11.5637
사이트	-11.5637
함이	-11.5638
리지	-11.5641
▁사령관이	-11.5641
▁노출된	-11.5646
▁역사가	-11.5658
▁기술자들	-11.5658
▁확정된	-11.5662
▁충격적	-11.567
▁끊어	-11.5673
▁게시	-11.5679
자들에	-11.5683
▁세기에	-11.5683
심리	-11.5685
▁시달리	-11.5685
겼다	-11.569
▁관람객	-11.5694
▁동안에	-11.5698
bc	-11.57
▁자행	-11.5709
▁훔	-11.5711
명의	-11.5712
▁물건들	-11.5715
▁이재민들	-11.5715
투자	-11.5717
▁bet	-11.5717
▁빈민가	-11.5717
▁정교	-11.5718
▁표결에	-11.5719
▁말레이시아에서	-11.572
▁나타났	-11.5724
▁소방서	-11.5725
▁ab	-11.5726
▁눈으로	-11.5727
지점	-11.5731
▁파예드는	-11.5732
▁퇴직	-11.5738
▁보였	-11.574
▁놀이	-11.574
▁권장	-11.5741
▁몬타나	-11.5746
▁산업에	-11.5747
▁계열	-11.5749
▁터너	-11.5749
▁service	-11.5749
하였다고	-11.575
▁바람직	-11.5752
▁극단주의	-11.5753
▁권유	-11.5753
▁교정	-11.5754
▁세상에	-11.5758
▁손해배상	-11.5758
▁밀매	-11.5759
▁농촌	-11.5759
▁힌두	-11.576
▁예외	-11.576
▁살모넬라	-11.576
sweek	-11.576
▁가석방	-11.576
▁승부차기	-11.576
▁california	-11.576
▁dead	-11.576
▁epl	-11.576
▁paris	-11.576
▁개성공단	-11.576
▁걸림돌	-11.576
▁겪는	-11.576
▁경기후퇴	-11.576
▁국제올림픽위원회	-11.576
▁금강산	-11.576
▁긱스	-11.576
▁남우주연상	-11.576
▁뉴잉글랜드	-11.576
▁독극물	-11.576
▁라크시미	-11.576
▁불공정	-11.576
▁상임이사국	-11.576
▁새크라멘토	-11.576
▁샌안토니오	-11.576
▁서둘러	-11.576
▁선거기부금	-11.576
▁세골렌	-11.576
▁신행정수도	-11.576
▁아프카니스탄	-11.576
▁악천후	-11.576
▁애슐리	-11.576
▁엑스파일	-11.576
▁유동성	-11.576
▁이바노비치	-11.576
▁자르카위	-11.576
▁잠깐	-11.576
▁재결합	-11.576
▁제퍼슨	-11.576
▁즐거운	-11.576
▁지켰다	-11.576
▁췌장암	-11.576
▁컸다	-11.576
▁쿠즈넷소바	-11.576
▁히스패닉	-11.576
벡	-11.576
습니까	-11.576
캇	-11.576
▁grow	-11.576
▁깁슨	-11.576
▁나타날	-11.576
▁대법관	-11.576
▁추기경	-11.576
▁키티호크	-11.576
▁하니야	-11.576
쯔	-11.576
▁루카스	-11.576
▁산체스	-11.576
▁석유수출	-11.576
▁깁스	-11.576
▁하드웨어	-11.576
▁다둘라	-11.576
▁헐리우드	-11.576
▁바시르	-11.576
▁진짜	-11.576
▁백과사전	-11.576
▁즐겁	-11.576
▁개구리	-11.576
▁business	-11.576
▁어쩔	-11.5761
▁어렸을	-11.5761
▁캐롤라인	-11.5761
▁music	-11.5761
▁isaf	-11.5761
▁보도자료	-11.5761
▁committee	-11.5761
▁탈퇴	-11.5761
▁진상조사	-11.5761
▁글로리아	-11.5761
▁유엔사무총장	-11.5761
▁nhc	-11.5761
▁바레인	-11.5761
▁음향	-11.5761
▁출현	-11.5761
▁즐겨	-11.5761
▁four	-11.5761
▁million	-11.5761
▁기념행사	-11.5761
▁헌터	-11.5761
▁욕구	-11.5761
▁항구도시	-11.5761
▁여러차례	-11.5761
▁어워드	-11.5761
▁uci	-11.5761
height	-11.5762
▁case	-11.5762
▁액체	-11.5762
▁핵연료	-11.5762
▁big	-11.5762
▁주어지	-11.5762
▁철강	-11.5762
▁어윈	-11.5762
▁오디오	-11.5762
▁빙산	-11.5762
▁컬럼비아호	-11.5762
▁옮겨졌다	-11.5763
▁쿠마르	-11.5763
▁카타르	-11.5763
▁벌어질	-11.5763
▁루머	-11.5763
▁오래전부터	-11.5763
▁호황	-11.5763
▁실망감	-11.5764
▁버리고	-11.5764
▁트럭에	-11.5764
▁돌파구	-11.5764
▁평화협정	-11.5764
▁썩	-11.5765
▁어류	-11.5765
▁중동평화회의	-11.5765
▁이어갔다	-11.5765
▁오리건주	-11.5766
▁항공편	-11.5766
▁집결	-11.5766
▁모여들었다	-11.5766
▁표본	-11.5767
▁청와대에서	-11.5767
▁진동	-11.5767
상과	-11.5767
▁토티	-11.5767
▁탈선	-11.5767
▁국제축구연맹	-11.5767
▁ces	-11.5767
▁에밀리	-11.5767
▁attacks	-11.5767
▁기대감	-11.5768
▁잔디	-11.5768
▁체스	-11.5769
▁현저	-11.5769
▁교도통신	-11.5769
▁몬테	-11.5769
▁동요	-11.577
▁대위	-11.577
▁꺼내	-11.577
▁출산율	-11.5771
▁목표에	-11.5771
▁사료	-11.5771
▁존재하지	-11.5773
▁밝혀질	-11.5773
▁로렌스	-11.5773
▁망치	-11.5773
▁코란	-11.5773
▁허가했다	-11.5773
▁통제권	-11.5773
▁비스타	-11.5774
▁회교도	-11.5774
▁엑스	-11.5774
▁과감	-11.5775
▁king	-11.5775
▁won	-11.5775
▁green	-11.5776
▁궁극적으로	-11.5776
▁감당	-11.5776
▁수익금	-11.5776
▁만평	-11.5778
▁성실	-11.5778
▁변호인단	-11.578
▁잠자리	-11.578
▁부의장	-11.5781
▁플로리다에서	-11.5782
▁난관	-11.5782
▁판매가	-11.5783
▁옮겼다	-11.5784
▁사진기자	-11.5784
▁알아야	-11.5785
▁애리조나주	-11.5785
▁리마	-11.5785
▁그만두	-11.5785
▁않을까	-11.5786
▁이라크인들	-11.5786
▁아담스	-11.5786
▁찰리	-11.5787
▁야드	-11.5787
▁반대해	-11.5788
▁콜린스	-11.5789
▁북극해	-11.5789
▁플루	-11.579
▁싶다면	-11.5791
▁문학	-11.5794
▁가져야	-11.5794
▁험	-11.5795
▁안았다	-11.5796
▁명씩	-11.5796
▁거울	-11.5798
▁바라지	-11.5798
▁모리	-11.5799
▁원형	-11.5799
팀이	-11.58
▁상표	-11.58
▁위권	-11.5802
▁말도	-11.5802
▁변하지	-11.5804
▁가혹한	-11.5805
▁센터에	-11.5805
▁운동화	-11.5806
▁사용하여	-11.5807
▁준결승전에서	-11.5807
▁kill	-11.5807
▁취하기	-11.581
▁지냈다	-11.581
▁스티븐스	-11.5811
▁농구	-11.5811
▁소비자들에게	-11.5811
▁수사팀	-11.5811
▁흔들리	-11.5813
▁스프레이	-11.5813
▁바탕으로	-11.5817
▁살아있	-11.5817
▁부패혐의	-11.582
▁벗어나기	-11.5821
▁쿠폰	-11.5823
▁계약서	-11.5828
▁조사관들	-11.5828
▁확정됐다	-11.5829
▁음식점	-11.583
▁under	-11.5835
▁고생	-11.5836
▁삼바	-11.5837
▁바꾸기	-11.5838
▁랩	-11.5838
회의에서	-11.5839
▁클라인	-11.5841
▁깨고	-11.5843
▁조직이	-11.5844
▁선서	-11.5844
▁떠나기	-11.5844
성과	-11.585
▁컴퓨터에	-11.585
▁축하하기	-11.5851
▁레비	-11.5851
▁버드	-11.5852
▁가루	-11.5853
▁이해하고	-11.5854
▁이야기는	-11.5856
▁그외	-11.5856
▁대미	-11.5859
▁카라치에서	-11.5859
▁사령부	-11.586
▁주도하	-11.586
▁큐	-11.586
▁결정적	-11.5861
▁사용된다	-11.5861
ag	-11.5861
▁무하마	-11.5863
▁중심부에서	-11.5864
▁주말까지	-11.5866
프레드	-11.5869
▁지에	-11.5869
▁통제하는	-11.587
모리	-11.5876
▁경제학	-11.5876
▁표기	-11.5877
▁승인한	-11.5878
▁적었다	-11.5882
▁os	-11.5884
▁공약으로	-11.5885
어요	-11.5888
▁불만이	-11.5889
▁존재하	-11.5891
▁생산성	-11.5891
▁브레	-11.5891
원들이	-11.5896
시가	-11.5898
▁빌라	-11.59
▁철회할	-11.5902
▁밀리	-11.5904
▁다양성	-11.5904
▁장군이	-11.5907
▁체포됐	-11.5909
▁회의적	-11.591
▁고기	-11.5915
▁주시	-11.5917
▁농장에서	-11.5917
▁과거사	-11.5918
▁자식	-11.5922
▁친선경기	-11.5925
ther	-11.5925
pp	-11.5927
호를	-11.5927
▁거주자	-11.5928
▁물자	-11.5932
▁일일	-11.5932
▁소행	-11.5933
▁라만	-11.5936
▁act	-11.5938
▁신뢰도	-11.5943
▁관중들	-11.5945
▁상점들	-11.5945
▁까	-11.595
▁pi	-11.5953
▁합류했다	-11.5958
것이	-11.5959
▁타계했다	-11.596
▁생명에	-11.5961
▁우주국	-11.5965
리드	-11.5966
▁한국으로	-11.5966
▁취하는	-11.5968
▁베니스	-11.5969
▁부위에	-11.5971
▁way	-11.5973
▁장애인	-11.5975
▁우승했다	-11.5978
▁사무실에	-11.5978
▁지장	-11.5979
우주	-11.5982
코르	-11.5984
▁넘었다	-11.5986
▁붕괴되	-11.5987
▁브라	-11.5987
ling	-11.5987
위원장은	-11.5989
▁미끄러	-11.5989
▁누구에게	-11.5992
▁거래에서	-11.5996
ge	-11.5996
▁이해하는	-11.5999
▁공범	-11.6
▁압력에	-11.6
▁사회에서	-11.6004
▁손실이	-11.6004
▁중심부에	-11.6004
후보	-11.6011
▁폭도	-11.6011
▁블로거	-11.6014
해왔으며	-11.6014
▁분리된	-11.6015
▁살아있다	-11.6017
▁come	-11.6018
▁다나	-11.6019
리가	-11.6021
▁주식시장에서	-11.6022
▁감소하고	-11.6023
▁차장	-11.6025
▁예루살렘에서	-11.6025
▁일생	-11.6026
▁흥분한	-11.6032
▁들리	-11.6034
▁계약이	-11.604
파인	-11.6041
▁물리	-11.6041
▁상황으로	-11.6042
▁파티에	-11.6044
▁지원이	-11.6045
▁자백	-11.6047
▁중단해야	-11.6049
▁파장	-11.6056
▁남을	-11.6059
▁이탈리아에서	-11.6061
▁자백했다	-11.6061
▁혁신적	-11.6062
지며	-11.6066
아나	-11.6066
교회	-11.6067
▁파르	-11.6067
▁시작된다	-11.6067
▁협력해	-11.6074
uni	-11.6075
▁다할	-11.6076
▁마련하고	-11.6076
▁호스	-11.6077
▁기가	-11.6079
▁아사	-11.6081
▁요청으로	-11.6081
▁여론이	-11.6081
화씨	-11.6083
▁처럼	-11.6083
▁거점	-11.6084
▁차량에서	-11.6086
▁퇴원	-11.6087
nt	-11.6087
▁희	-11.6089
▁출연할	-11.6092
▁제한된	-11.6092
▁보이기	-11.6093
노스	-11.6096
▁세계에	-11.61
▁정상들이	-11.6102
▁다르지	-11.6103
▁나인	-11.6104
▁신자들	-11.6104
▁집권한	-11.6105
니에	-11.6105
워드	-11.6107
▁스페인에서	-11.611
▁오르고	-11.6111
▁의뢰	-11.6112
우며	-11.6113
▁환자에게	-11.6116
▁내역	-11.6117
안이	-11.6123
벨트	-11.6124
▁되는데	-11.6127
▁해변에	-11.6135
▁개별	-11.6143
▁평양에	-11.6146
▁공산	-11.615
▁몰리	-11.6154
▁기자와	-11.6155
▁기존에	-11.6158
▁이들에	-11.6158
▁흔적이	-11.6158
▁아프간군	-11.6158
▁상대적	-11.616
▁감소한	-11.6164
▁발사됐다	-11.6166
▁재개했다	-11.6169
과학	-11.6176
▁결정하는	-11.6176
▁곤경에	-11.618
벽	-11.6181
▁갖지	-11.6185
켜	-11.6185
금치	-11.619
▁일조	-11.6195
닥	-11.6195
▁화면에	-11.6197
▁일전	-11.6197
▁어린이가	-11.6197
▁기지에	-11.62
휴	-11.6203
▁cur	-11.6206
▁증가에	-11.6206
ting	-11.6206
▁지휘자	-11.6206
mas	-11.621
뒤	-11.6211
능력	-11.6213
▁사자	-11.6217
ze	-11.6218
번호	-11.6219
신청	-11.6221
▁사임한	-11.6222
▁모두를	-11.6223
▁국민과	-11.6224
공항	-11.6226
▁당사자들	-11.6226
ard	-11.6229
▁곡물	-11.623
▁투항	-11.6236
hi	-11.6236
시로	-11.6237
▁오르지	-11.624
▁패했다	-11.624
▁수신	-11.6241
▁경선에	-11.6242
▁nation	-11.6247
호선	-11.6248
었음	-11.6254
▁공로	-11.6255
eic	-11.6255
▁대항하는	-11.6258
▁조사에서는	-11.6261
▁냉동	-11.6261
▁비난이	-11.6263
▁몰아넣	-11.6268
▁영아	-11.6273
▁작품이	-11.6276
▁프리메라리가	-11.6277
▁쇼에서	-11.6278
▁정했다	-11.628
▁수개월	-11.6284
▁석유를	-11.6285
▁worker	-11.6288
▁오프	-11.6291
ore	-11.6291
▁요청에	-11.63
▁영원	-11.63
▁봤을	-11.6301
▁루스	-11.6302
하였고	-11.6308
▁요가	-11.6309
▁살기	-11.631
▁분리주의	-11.631
혔	-11.6312
연대	-11.6315
▁철수시키	-11.6316
▁인체	-11.6316
▁메디컬	-11.6321
▁경우에는	-11.6322
▁불렀	-11.6326
▁딸들	-11.6328
▁주차장	-11.6328
▁양호	-11.6332
▁어려워	-11.6333
▁전해진	-11.6333
레이크	-11.6334
▁미시건	-11.6337
▁유효	-11.6337
였	-11.6339
▁살아가	-11.6339
▁준결승	-11.6341
▁중동평화	-11.6341
▁신청했다	-11.6344
▁그룹이	-11.6346
쾌	-11.6346
▁force	-11.6346
▁화성에	-11.6347
깃	-11.6347
▁점에	-11.6348
▁왕조	-11.6348
▁투탕카멘	-11.6348
▁우익	-11.6348
밭	-11.6349
툰	-11.6349
employ	-11.6349
▁church	-11.6349
▁demand	-11.6349
▁eads	-11.6349
▁earth	-11.6349
▁iwc	-11.6349
▁kbs	-11.6349
▁program	-11.6349
▁unhcr	-11.6349
▁고르바초프	-11.6349
▁굉장히	-11.6349
▁구소련	-11.6349
▁뇌졸중	-11.6349
▁더글라스	-11.6349
▁듣게	-11.6349
▁메릴린치	-11.6349
▁미확인	-11.6349
▁바나프샤	-11.6349
▁볼티모어	-11.6349
▁블래터	-11.6349
▁샀다	-11.6349
▁솔직히	-11.6349
▁스필버그	-11.6349
▁시에라리온	-11.6349
▁식품의약국	-11.6349
▁신시내티	-11.6349
▁아디다스	-11.6349
▁암스테르담	-11.6349
▁여중생	-11.6349
▁예방접종	-11.6349
▁옳은	-11.6349
▁위태롭게	-11.6349
▁인신매매	-11.6349
▁자페타	-11.6349
▁정보통신부	-11.6349
▁정찰위성	-11.6349
▁조류독감	-11.6349
▁준이치로	-11.6349
▁트러스트	-11.6349
▁트리폴리	-11.6349
▁포유류	-11.6349
▁햇빛	-11.6349
▁확립	-11.6349
▁흥정	-11.6349
▁흩어져	-11.6349
띤	-11.6349
퐁	-11.6349
▁irna	-11.6349
▁언젠가	-11.6349
▁에스트라다	-11.6349
▁존엄성	-11.6349
▁타디치	-11.6349
▁메이도프	-11.6349
▁영업이익	-11.6349
▁버나드	-11.6349
▁대성당	-11.6349
▁카펫	-11.6349
▁놀이공원	-11.6349
▁경수로	-11.6349
▁버크헤드	-11.6349
▁사진작가	-11.6349
▁스틸러스	-11.6349
▁체험	-11.6349
▁쿼터백	-11.6349
▁헤드폰	-11.6349
▁thai	-11.6349
▁특혜	-11.6349
▁패트로스	-11.6349
▁senate	-11.6349
▁통합민주당	-11.6349
▁검정색	-11.6349
▁정착촌	-11.6349
▁낭독	-11.6349
▁빈민층	-11.6349
▁슬픈	-11.6349
▁출혈	-11.6349
▁씨앗	-11.6349
▁침착하	-11.6349
▁클릭	-11.6349
▁journal	-11.6349
▁북아일랜드	-11.6349
▁작가조합	-11.6349
▁당뇨병	-11.6349
▁헬렌	-11.6349
▁gdp	-11.6349
▁식별	-11.6349
▁블랙홀	-11.6349
▁계승	-11.6349
▁출처	-11.635
▁tsa	-11.635
▁휴전협정	-11.635
▁총파업	-11.635
▁민주노동당	-11.635
▁리옹	-11.635
▁organization	-11.635
▁키팅	-11.635
▁항의시위	-11.635
▁마스터즈	-11.635
▁다이어트	-11.635
▁사이언스	-11.635
▁유대교	-11.635
▁몰락	-11.635
▁볼드윈	-11.635
▁피켓	-11.6351
▁연립	-11.6351
▁부활절	-11.6351
▁야채	-11.6351
▁조세프	-11.6351
▁용감	-11.6351
▁프린트	-11.6351
▁다저스	-11.6351
▁야망	-11.6352
▁올라왔다	-11.6352
▁내륙	-11.6352
▁최신작	-11.6352
▁통신망	-11.6352
▁축복	-11.6352
▁상무부	-11.6352
▁엔론	-11.6352
▁운용	-11.6352
▁종목	-11.6352
▁돌렸다	-11.6353
▁제휴	-11.6353
▁검역	-11.6353
▁상환	-11.6353
▁탄원서	-11.6353
mb	-11.6353
▁머무르	-11.6353
▁무효화	-11.6353
▁흠	-11.6354
▁로리언	-11.6354
▁평화롭	-11.6354
▁mtv	-11.6354
▁청산	-11.6354
▁소년병	-11.6354
▁환경단체	-11.6354
▁바다위	-11.6354
▁고아원	-11.6354
▁오델	-11.6354
▁할렘	-11.6354
▁폴락	-11.6355
▁견제	-11.6355
▁경찰국장	-11.6355
▁최적	-11.6355
▁작위	-11.6355
▁오찬	-11.6355
▁동점	-11.6356
▁귀중	-11.6356
▁관점	-11.6357
▁살인사건	-11.6357
▁밀크	-11.6357
▁악수	-11.6358
▁않았었다	-11.6358
▁타워	-11.6358
▁소포	-11.6358
▁공석	-11.6359
▁질식	-11.6359
▁강탈	-11.6359
▁넘긴	-11.6359
▁부양	-11.6359
▁구두	-11.6359
▁입히	-11.636
▁나토군이	-11.636
▁aids	-11.636
▁절정	-11.636
▁황소	-11.6361
▁art	-11.6361
▁esta	-11.6361
▁항공모함	-11.6362
▁예고	-11.6362
▁결선	-11.6362
▁차이점	-11.6362
▁파란	-11.6363
▁칠	-11.6363
▁비정부	-11.6363
▁배출량	-11.6364
▁정문	-11.6364
▁휴전선	-11.6364
▁쿠즈	-11.6364
▁실명	-11.6364
▁years	-11.6365
▁영하	-11.6365
▁어조	-11.6365
▁도망쳤다	-11.6366
▁주의보	-11.6366
▁발령했다	-11.6366
▁원석	-11.6366
▁체력	-11.6367
▁다량	-11.6367
▁흔들며	-11.6367
▁의장직	-11.6368
▁류	-11.6369
▁관용	-11.6369
▁베일	-11.637
▁마루	-11.637
▁배아줄기세포	-11.637
▁기자실	-11.6371
▁지상군	-11.6372
▁틸리	-11.6372
▁몰랐다	-11.6372
▁물리학자	-11.6372
▁재계	-11.6373
대비	-11.6373
잡이	-11.6373
▁국영언론	-11.6374
▁마신	-11.6374
▁보내졌다	-11.6374
▁캐시	-11.6374
▁천원	-11.6374
▁놈	-11.6374
▁저지르	-11.6375
▁부친	-11.6376
▁소치	-11.6377
파르	-11.638
▁내외	-11.638
▁진술서	-11.638
▁가이드	-11.6382
▁실업자	-11.6382
▁중요하게	-11.6384
▁찾아야	-11.6384
▁십자가	-11.6385
차로	-11.6385
▁뻔	-11.6387
▁셈	-11.6388
▁극도로	-11.6388
▁석상	-11.6391
▁구조물	-11.6391
드미	-11.6393
▁공동체	-11.6394
▁관계로	-11.6394
▁왔었다	-11.6394
▁총리실	-11.6395
▁거래소	-11.6396
▁노동조합	-11.6396
▁꾸	-11.6397
▁보건장관	-11.6398
▁희생된	-11.6398
▁장르	-11.6398
▁헌법상	-11.6399
▁뷰	-11.6405
▁부탁했다	-11.6405
▁고객들에게	-11.6406
키는	-11.6406
▁불법적으로	-11.6406
ight	-11.6407
▁기지에서	-11.6408
▁정찰기	-11.641
▁수염	-11.6411
▁반대파	-11.6412
▁분쟁에	-11.6412
▁딱	-11.6414
▁신문이	-11.6414
▁지역구	-11.6416
▁미렌	-11.6417
▁이슬람교도	-11.6417
▁수상은	-11.6417
논	-11.6418
▁유학	-11.6419
▁유지될	-11.6423
▁취업	-11.6423
▁집어	-11.6423
▁건물들이	-11.6424
▁기본적으로	-11.6425
▁수출국	-11.6426
▁집계됐다	-11.6427
▁급락했다	-11.6428
▁조니	-11.6428
글판	-11.6429
▁마샤	-11.643
ian	-11.643
▁교수들	-11.6431
▁작동되	-11.6431
▁대법원에	-11.6433
▁부모님	-11.6434
▁에너지부	-11.6434
▁대구	-11.6436
▁후속	-11.6436
▁후회	-11.6437
ash	-11.6438
▁무서	-11.6441
▁지금이	-11.6441
▁지역과	-11.6444
▁천장	-11.6447
▁세울	-11.6447
▁영화계	-11.6447
▁사업체	-11.6448
▁숨어있	-11.6448
▁뒷받침	-11.6448
▁끝이	-11.6454
▁브랜	-11.6455
▁촬영했다	-11.6455
▁회사측	-11.6455
▁장군과	-11.6457
▁광고에	-11.6458
▁보내며	-11.6458
꾼	-11.6458
라트	-11.6462
▁일축	-11.6462
▁보석으로	-11.6464
▁태워	-11.6464
▁맞이했다	-11.6464
▁확산되는	-11.6465
▁계획이었다	-11.6466
▁위력	-11.647
선에	-11.6471
▁자진	-11.6471
▁사망률	-11.6473
▁중단시키	-11.6475
▁개제	-11.6476
▁수지	-11.6476
▁워싱턴주	-11.6478
전쟁	-11.6478
▁승리해야	-11.648
▁목장	-11.6481
▁볼트	-11.6486
▁중국에서는	-11.6486
▁터지	-11.6487
▁되도록	-11.6489
▁교장	-11.6492
▁ask	-11.6494
▁비슷하다	-11.6495
▁해안지역	-11.6497
▁지도자들에게	-11.6497
▁죄수	-11.6498
시켰으며	-11.6498
▁없다면	-11.6499
▁자카르타에서	-11.6503
▁대응하기	-11.6504
▁향상시키	-11.6506
▁맺어	-11.6506
▁신중한	-11.6506
▁장관으로	-11.6511
▁묵인	-11.6511
▁외무장관이	-11.6515
▁당사자	-11.6515
▁리자	-11.6516
▁납부	-11.6516
▁강의	-11.6517
워졌다	-11.6517
▁보자	-11.6519
▁일으키고	-11.6521
▁월경	-11.6522
행해진	-11.6523
▁선정한	-11.6524
▁극복하	-11.6524
▁벨리	-11.6525
▁크루	-11.6527
▁다가오는	-11.6527
▁공적	-11.6528
▁생물학자	-11.6534
▁수학	-11.6541
▁벌이며	-11.6541
베르트	-11.6541
▁도드	-11.655
ld	-11.655
스탄	-11.6551
▁갇혀있	-11.6553
▁콜로	-11.6554
▁장착한	-11.6555
▁대표로	-11.6557
▁한동안	-11.6557
전화	-11.6559
▁죽음으로	-11.6565
▁사르	-11.6565
▁됐지만	-11.6567
▁하늘에서	-11.6568
▁전후	-11.6571
안은	-11.6572
▁장의	-11.6575
▁초까지	-11.6577
▁지도부와	-11.6579
▁흥미로	-11.6579
니까	-11.6581
▁변했다	-11.6582
▁오가	-11.6583
▁수단이	-11.6583
▁옹호하	-11.6587
▁인용했다	-11.6587
▁실험이	-11.6587
▁대사와	-11.6591
▁주도했다	-11.6594
▁운동에	-11.6604
▁전염	-11.6604
▁제공되	-11.6605
▁전화기	-11.6605
▁롱	-11.6606
▁브라질에서	-11.6607
▁밝혀지	-11.6609
▁있었	-11.6609
▁패배한	-11.661
물라	-11.6613
▁억명	-11.6614
▁문화원	-11.6614
▁정권에	-11.6615
▁어스	-11.6615
▁여러분이	-11.6615
▁의미한다고	-11.6618
▁모아이	-11.6622
코스	-11.6624
▁멕시코에서	-11.6625
▁별도	-11.6626
▁수니파와	-11.663
▁치료에	-11.6635
▁초기에	-11.6638
▁잠들	-11.6639
▁올라와	-11.6639
▁경매에서	-11.6642
▁pm	-11.6644
ga	-11.6644
글리	-11.6645
▁베드	-11.6646
▁아들에게	-11.6648
ner	-11.6649
▁경쟁자들	-11.665
▁대중들	-11.6651
▁투하	-11.6655
▁임명됐다	-11.6655
▁사유	-11.6656
▁반군들	-11.6659
▁타마	-11.6663
▁대만에	-11.6679
▁거래에	-11.6682
▁개발했다	-11.6684
▁하사	-11.6685
▁찾았	-11.6685
▁이민자	-11.6687
▁대행	-11.6691
▁실시하고	-11.6697
▁도와	-11.6697
▁나뉘어	-11.6701
▁신생아	-11.6705
▁타운	-11.6706
▁회원국들은	-11.6707
▁아나	-11.6711
▁미국인이	-11.6718
▁강타했다	-11.6719
▁다행	-11.6721
노동자당	-11.6721
▁전념	-11.6722
▁유튜브에	-11.6722
▁당선이	-11.6724
▁유가족들	-11.673
▁교수와	-11.6732
사르	-11.6736
▁토론회에	-11.6739
▁투옥	-11.674
▁jon	-11.6747
▁날로	-11.6751
▁보안군이	-11.6754
im	-11.6755
▁메인	-11.6756
▁정당한	-11.6756
▁애인	-11.6758
지역으로	-11.6758
나라	-11.6759
▁gu	-11.676
▁납북	-11.6762
▁베니	-11.677
▁개통	-11.6772
▁급증했다	-11.6772
▁카페인	-11.6773
▁정당은	-11.6773
▁타계	-11.6778
▁공통	-11.6781
▁다가오	-11.6783
달러	-11.6788
십	-11.6788
▁우려했다	-11.6789
학생	-11.6792
▁현안	-11.6793
▁z	-11.6795
▁케냐에서	-11.6796
▁휘말	-11.6796
▁바커	-11.6798
대에서	-11.6798
▁캘리포니아에	-11.68
농	-11.6801
생산	-11.6803
단체인	-11.6803
ney	-11.6805
▁말하	-11.6815
ee	-11.6815
▁생기는	-11.6816
▁도와주	-11.6818
▁모델이	-11.682
▁어려움에	-11.682
▁국세청	-11.6824
▁입장에	-11.6824
이래	-11.6824
nois	-11.6824
로서는	-11.6826
몽	-11.6826
rs	-11.6831
▁시작하고	-11.6831
프로그램	-11.6833
▁등에서	-11.6833
검찰	-11.6834
공화국	-11.6835
time	-11.6835
시리즈	-11.6836
드립니다	-11.6837
▁인도인	-11.6837
프랑스	-11.6842
아래	-11.6848
상품	-11.685
▁죽었	-11.685
되도록	-11.685
▁공원에	-11.6852
▁유명인사들	-11.6853
▁기뻐	-11.6854
▁파견한	-11.6855
▁프랑스인	-11.6857
▁기여한	-11.6859
▁사람이다	-11.6859
▁라벨	-11.6862
▁지원자들	-11.6862
▁지불했다	-11.6862
▁주최하	-11.6864
▁반사	-11.6864
▁종사하	-11.687
▁베트남전	-11.687
▁멀	-11.6872
▁조각들	-11.6873
▁토의	-11.6873
여성	-11.6875
▁게임이	-11.6876
병력	-11.6879
▁원장	-11.688
▁폭도들	-11.688
red	-11.6884
▁이들과	-11.689
범죄	-11.6891
▁섬에서	-11.6897
▁밝혔	-11.6898
▁연구조사	-11.6903
바스	-11.6903
▁굽	-11.6904
▁그간	-11.6906
▁약속했다고	-11.6909
▁가량이	-11.6909
▁청년들	-11.691
▁실망했다	-11.6911
▁구매자	-11.6912
▁생중계	-11.6913
코트	-11.6914
▁통근	-11.6914
▁유타	-11.6916
▁자료에	-11.6918
▁풀어주	-11.6918
ong	-11.6919
▁갖춰	-11.6922
▁스타디움	-11.6922
▁타임즈와	-11.6923
▁가즈니주	-11.6925
▁부각	-11.6925
▁분노한	-11.6927
▁달링	-11.6928
▁하원의	-11.6937
그너	-11.6939
aw	-11.6941
▁관리하고	-11.6941
ek	-11.6944
▁거뒀	-11.6945
▁장갑	-11.6948
ea	-11.695
▁주거	-11.6953
▁싱가포르의	-11.6953
▁원했다	-11.6955
▁선보이	-11.6957
▁착륙했다	-11.6958
wid	-11.6961
▁플레이오프	-11.6961
▁우주비행	-11.6962
▁겁	-11.6967
▁면역	-11.6967
▁그래미	-11.6967
▁불량	-11.6968
▁들지	-11.6968
▁충고	-11.6971
▁붙이	-11.6971
▁불러일으	-11.6972
▁성사	-11.6973
▁민영	-11.6973
엽	-11.6973
▁핑크	-11.6973
▁수마트라	-11.6973
▁햇볕	-11.6973
룽	-11.6973
톡	-11.6974
▁장례	-11.6974
▁academy	-11.6974
▁africa	-11.6974
▁capital	-11.6974
▁conference	-11.6974
▁country	-11.6974
▁institute	-11.6974
▁second	-11.6974
▁갤론	-11.6974
▁건강검진	-11.6974
▁걷기	-11.6974
▁깨닫	-11.6974
▁나미비아	-11.6974
▁나폴리타노	-11.6974
▁남동생	-11.6974
▁내보냈다	-11.6974
▁니제르	-11.6974
▁대검찰청	-11.6974
▁디카프리오	-11.6974
▁떠올랐다	-11.6974
▁래드클리프	-11.6974
▁리투아니아	-11.6974
▁말씀	-11.6974
▁매몰된	-11.6974
▁멜버른	-11.6974
▁모레스모	-11.6974
▁물러났다	-11.6974
▁바랐다	-11.6974
▁밸리	-11.6974
▁부동층	-11.6974
▁불러일으켰다	-11.6974
▁블록버스터	-11.6974
▁뽑는	-11.6974
▁사이언톨로지	-11.6974
▁알츠하이머	-11.6974
▁알카티리	-11.6974
▁옵션	-11.6974
▁잃는	-11.6974
▁전자메일	-11.6974
▁츠방기라이	-11.6974
▁퀘벡	-11.6974
▁트레일러	-11.6974
▁퍼붓	-11.6974
▁프랑크푸르트	-11.6974
▁플레이스테이션	-11.6974
▁혹등고래	-11.6974
▁흡입	-11.6974
▁스콜스	-11.6974
▁카르발라	-11.6974
▁christ	-11.6974
▁구속영장	-11.6974
▁리브니	-11.6974
▁사무차장	-11.6974
▁인수제안	-11.6974
▁메케인	-11.6974
▁산악지대	-11.6974
▁불가사의	-11.6974
▁중질유	-11.6974
▁산시성	-11.6974
▁train	-11.6974
▁남겨두고	-11.6974
▁bomb	-11.6974
▁때때로	-11.6974
▁추억	-11.6974
▁화학물질	-11.6974
▁철폐	-11.6974
▁sex	-11.6974
▁엘리엇	-11.6974
▁부총재	-11.6974
▁수수료	-11.6974
▁벗겨	-11.6974
▁있으므로	-11.6974
▁wall	-11.6974
▁압델	-11.6974
▁깨달았다	-11.6974
▁오웬	-11.6974
▁국가안보회의	-11.6974
▁입후보	-11.6974
▁봉투	-11.6974
▁교훈	-11.6974
▁노던록	-11.6974
▁도둑	-11.6974
▁그레그	-11.6975
▁레빈슨	-11.6975
▁마피아	-11.6975
▁국가평의회	-11.6975
▁list	-11.6975
▁불륜	-11.6975
▁찾으려	-11.6975
▁멜론	-11.6975
▁슬림	-11.6975
▁파키스탄인민당	-11.6975
▁생애	-11.6975
▁별칭	-11.6975
▁필름	-11.6975
▁정몽	-11.6975
▁이스마일	-11.6975
▁우주여행	-11.6975
▁찾아냈다	-11.6975
▁직무	-11.6975
▁축구선수	-11.6975
▁놀라움	-11.6975
▁대슐	-11.6976
▁차량폭탄	-11.6976
▁대리모	-11.6976
▁abn	-11.6976
▁학계	-11.6976
▁알라위	-11.6976
▁생생	-11.6976
▁killed	-11.6976
▁증파	-11.6977
▁코웰	-11.6977
▁단결	-11.6977
▁있었는데	-11.6977
▁신기록	-11.6977
▁프로스트	-11.6977
▁예상됩니다	-11.6977
▁레빈	-11.6977
▁공공연	-11.6977
▁centr	-11.6977
▁범죄행위	-11.6977
▁정치인들이	-11.6978
▁집값	-11.6978
▁증대	-11.6978
▁흔들었다	-11.6978
▁누구인지	-11.6979
▁티모	-11.6979
▁게시물	-11.6979
▁팻	-11.6979
▁청원서	-11.6979
▁불법행위	-11.6979
▁언니	-11.6979
▁허브	-11.6979
▁홀더	-11.6979
▁기울여야	-11.6979
▁로빈슨	-11.6979
▁정규	-11.6979
▁호박	-11.698
▁자폭	-11.698
▁글로	-11.698
▁출입국	-11.698
▁우편물	-11.698
▁신랑	-11.698
▁자동차산업	-11.698
▁포탄	-11.698
▁아델	-11.698
▁신년	-11.6981
▁사립	-11.6981
▁생계	-11.6981
▁왕관	-11.6982
▁미세	-11.6983
▁지명되기	-11.6983
▁루터	-11.6983
▁깨진	-11.6984
▁팀장	-11.6984
▁법무상	-11.6984
▁메인주	-11.6984
▁호건	-11.6984
▁제왕	-11.6984
▁모방	-11.6985
▁발판	-11.6985
▁있냐	-11.6985
▁경미	-11.6986
▁변명	-11.6986
▁threaten	-11.6986
▁풀려나	-11.6987
▁해골	-11.6987
▁불균형	-11.6988
▁찾아온	-11.6988
▁팬더	-11.6989
▁부주의	-11.6989
▁브라이언트	-11.699
▁놓여있다	-11.699
▁팬이	-11.699
▁설명할	-11.699
▁경찰서로	-11.6991
▁건축물	-11.6991
▁점심	-11.6992
▁지지한	-11.6992
▁거액	-11.6992
▁there	-11.6994
▁신차	-11.6994
▁유실	-11.6995
▁분석한	-11.6995
▁강조하며	-11.6995
▁watch	-11.6997
▁특성	-11.6997
▁trial	-11.6999
▁sp	-11.6999
▁부분적으로	-11.7
▁생산업체	-11.7
▁자위대	-11.7
▁알기	-11.7004
▁인권문제	-11.7005
▁정세	-11.7005
▁times	-11.7005
▁크라우	-11.7005
▁낮추는	-11.7005
▁서두르	-11.7006
▁인터내셔널	-11.7006
▁과오	-11.7006
▁지방정부	-11.7006
▁states	-11.7007
▁주연상	-11.7007
▁퍼센트로	-11.7007
▁궁전	-11.7008
▁주립대학	-11.7009
▁사망할	-11.7011
▁당내	-11.7012
▁관통	-11.7012
▁편리	-11.7013
▁킴	-11.7016
▁천정	-11.7017
▁유로화	-11.7017
가족	-11.7018
▁친부	-11.7019
▁위함	-11.702
▁대피시켰다	-11.7021
▁사우	-11.7022
▁요리사	-11.7022
▁좋아지	-11.7023
기와	-11.7024
시키지	-11.7024
▁벗기	-11.7024
▁외국인들이	-11.7025
▁국회의장	-11.7025
▁emi	-11.7026
▁오바	-11.7026
▁군사정부	-11.7028
▁east	-11.7029
▁태우	-11.703
▁순교자	-11.703
▁박탈당	-11.703
▁시신들	-11.7031
ii	-11.7032
▁늘었다	-11.7033
dy	-11.7033
▁비판하는	-11.7033
▁받아들이기	-11.7034
▁선호하	-11.7035
▁등장한다	-11.7035
▁합쳐	-11.7035
▁새우	-11.7037
▁테크	-11.7037
▁불명	-11.7042
▁부대변인	-11.7042
▁감사원	-11.7043
▁컬	-11.7044
▁정면	-11.7045
▁뉴욕과	-11.7047
▁우위	-11.7048
▁관람객들	-11.705
▁분개	-11.705
▁세우는	-11.7052
▁양식	-11.7052
▁유발할	-11.7057
▁동의안	-11.7058
ile	-11.7059
▁의사회	-11.706
▁ho	-11.7062
▁죽어가	-11.7062
▁대대	-11.7062
▁촉	-11.7063
▁웬	-11.7064
▁밝혀져	-11.7066
▁주일간	-11.7066
▁교대	-11.7066
▁개막식에	-11.7067
▁빠졌	-11.7067
위기	-11.7068
▁중단시켰다	-11.7068
▁사이트에서	-11.7069
▁rate	-11.707
▁영국이	-11.7071
▁수술이	-11.7072
▁테러리스트들이	-11.7072
▁웃는	-11.7073
▁대사관에	-11.7075
▁발견됐	-11.7075
▁반대하며	-11.7083
▁실적이	-11.7083
▁계기로	-11.7087
▁상임	-11.7087
▁지구와	-11.7088
▁로게	-11.7088
▁고르	-11.7089
▁피해여성	-11.7089
▁주장했으며	-11.7091
▁애플사	-11.7093
▁명중	-11.7093
▁대금	-11.7102
문제에	-11.7103
▁혼	-11.7105
▁결승에	-11.7107
▁컨	-11.7108
▁베티	-11.7114
▁가로	-11.7116
▁주시하	-11.7117
▁남북간	-11.7118
▁키트	-11.7119
▁묘사한	-11.712
▁직원들에게	-11.7124
▁켜	-11.7125
▁펼쳐지	-11.7129
▁종업원	-11.713
▁투표했다	-11.7131
▁해당한다	-11.7132
▁결렬	-11.7132
▁그들과	-11.7135
정부가	-11.7135
▁남동부에서	-11.7135
▁축구팬들	-11.714
▁자리잡	-11.7141
라프	-11.7143
▁목록에서	-11.7144
▁표현한	-11.7147
▁죽인	-11.7148
▁올라갔	-11.7149
▁소식으로	-11.7151
▁하나였다	-11.7156
▁이루어졌	-11.7156
▁주변국들	-11.7156
하였는데	-11.7158
▁부장은	-11.716
▁영국으로부터	-11.7161
▁억달러에	-11.7161
▁도와주는	-11.7162
▁레고	-11.7162
▁연구실	-11.7167
▁앉아있	-11.7172
▁소방대원들	-11.7175
▁돌아보	-11.7177
내기	-11.7179
▁발표되었다	-11.7182
티브	-11.7183
▁유사하다	-11.7184
▁성명에	-11.7186
▁스타인	-11.7191
▁에드로	-11.7193
됐음	-11.7194
▁신씨	-11.7195
▁케인	-11.7197
ical	-11.7197
▁올랐고	-11.7204
▁민간인이	-11.7204
▁한국어	-11.7216
▁때와	-11.7216
▁위헌	-11.7217
▁축출된	-11.7218
저스	-11.7218
▁카바	-11.7219
▁인부	-11.7221
단지	-11.7225
▁유지해	-11.7227
▁영화들	-11.7232
퍼트	-11.7234
오르	-11.7239
▁희망하	-11.724
▁떠나는	-11.724
상은	-11.7245
▁대리	-11.7252
▁주마	-11.7254
강한	-11.7255
▁창립	-11.7258
▁폐쇄하기	-11.7261
ns	-11.7262
▁대체로	-11.7262
▁확산됐다	-11.7265
▁탐험가	-11.7265
ler	-11.7266
▁지나면	-11.7267
할때	-11.7267
▁건에	-11.7271
▁말해주	-11.7275
▁전신	-11.7281
▁알려왔	-11.7281
▁이름과	-11.7283
▁폐쇄됐다	-11.7285
▁심슨이	-11.7293
▁알려졌	-11.7293
▁봉인	-11.7295
▁나도	-11.7295
▁상승하고	-11.7298
▁반응은	-11.7299
▁압박했다	-11.731
실에서	-11.7311
▁전국에	-11.7311
기남	-11.7312
▁추산되	-11.7314
▁어디	-11.7317
▁고등	-11.7317
키야	-11.7321
▁양이	-11.7323
▁주인공이	-11.7324
▁인정한다	-11.7326
시스	-11.733
▁삼아	-11.733
▁연결된	-11.7331
▁슬로	-11.7332
▁대비하고	-11.7336
▁전경	-11.7337
▁출발한	-11.7338
▁돌아가고	-11.734
▁늘리	-11.7343
▁정보통	-11.7345
▁운동이	-11.7347
키스	-11.7347
▁참석한다	-11.7349
트너	-11.7355
▁터키와	-11.736
▁택	-11.7361
▁익	-11.7364
▁아마디는	-11.7365
▁두지	-11.7365
▁던졌	-11.7371
▁모이	-11.7374
▁만부	-11.7384
▁헤르	-11.7385
▁편으로	-11.7388
▁움직	-11.7389
▁법이	-11.7389
▁나누어	-11.7398
▁주지사에	-11.74
▁해왔	-11.74
▁기술로	-11.7401
▁여행할	-11.7404
▁제압하	-11.7405
리나	-11.7407
▁en	-11.7407
▁인종차별	-11.7414
▁지원국	-11.742
▁시도할	-11.7425
▁대상자	-11.7427
나스	-11.7428
▁줄어든	-11.7432
▁월드컵에서	-11.7434
▁돌아간	-11.7436
정치	-11.7436
▁만화가	-11.7437
▁서기	-11.744
▁일어	-11.7441
▁국회의사당	-11.7441
나갔다	-11.7443
▁음악가	-11.7444
▁남성에게	-11.7444
▁딸에게	-11.7445
▁관리하는	-11.7446
부장관	-11.7453
▁그만	-11.7454
립된	-11.7462
▁보안에	-11.7465
시키며	-11.7466
▁무시했다	-11.7468
▁민주당원	-11.7469
색의	-11.7469
▁회원국이	-11.747
▁조율	-11.7477
▁유세에	-11.7479
▁사라졌	-11.748
▁떨어졌	-11.7481
▁기업인	-11.7481
▁제출된	-11.7484
되게	-11.7484
▁층에	-11.7489
▁이어가	-11.7497
폭탄	-11.7497
▁의미로	-11.7498
▁protest	-11.7498
ous	-11.7498
컨	-11.7498
▁안된	-11.7498
지스	-11.7499
▁인도주의	-11.7499
▁존재한다	-11.7502
혁명	-11.7504
▁페이지에	-11.7505
헤드	-11.7505
테니스	-11.7506
▁잃었	-11.7506
대책	-11.7507
분쟁	-11.7508
모양	-11.7509
▁dai	-11.7513
km	-11.7514
fc	-11.7516
시절	-11.7519
▁원정	-11.7522
▁불고	-11.7522
▁관해서	-11.7524
▁출항	-11.7524
▁체포한	-11.7526
▁관계없	-11.7528
▁유럽으로	-11.7528
▁마을이	-11.7531
하원	-11.7535
▁매리	-11.7537
▁것이나	-11.7538
▁적대	-11.7539
▁로마에서	-11.754
▁수수	-11.7542
▁출동했다	-11.7547
▁가속	-11.7547
총리는	-11.7549
▁이외에	-11.7551
▁결혼식에	-11.7551
ai	-11.7553
▁공직	-11.7559
▁대개	-11.7561
티아	-11.7561
자산	-11.7561
▁라왈핀디	-11.7562
▁설문조사	-11.7565
▁양육	-11.7566
▁버몬트	-11.7566
▁도망	-11.7566
카니	-11.7566
▁같아	-11.7567
평했다	-11.7572
▁사망하기	-11.7574
▁흐르	-11.7575
▁리스	-11.7577
▁살레	-11.7577
▁ph	-11.758
▁궁지에	-11.7584
▁가혹	-11.7591
▁순례	-11.7592
효	-11.7593
▁나오기	-11.7595
모를	-11.7597
▁투자에	-11.7597
▁뒤진	-11.7598
▁마자	-11.7598
▁stop	-11.7599
▁입찰	-11.76
로프	-11.7603
▁그루	-11.7604
투스	-11.7604
나요	-11.7605
▁너	-11.7609
▁생산되	-11.7609
▁비싸	-11.7611
▁inc	-11.7613
텍	-11.7613
▁개혁안	-11.7614
▁속해	-11.7615
▁시몬	-11.7617
▁방송인	-11.7617
▁저질렀	-11.7621
마트	-11.7621
▁주머니	-11.7622
▁배우들	-11.7624
▁침체에	-11.7626
▁잠겨	-11.7627
▁xp	-11.7627
▁종말	-11.7627
▁연구소에서	-11.7628
am	-11.763
▁fr	-11.763
▁다짐	-11.7631
▁투명성	-11.7631
▁마텔	-11.7632
▁죽는	-11.7634
▁표하고	-11.7636
▁일대	-11.7636
홉	-11.7638
▁디스커버리	-11.7638
▁도미니	-11.7639
▁콜롬	-11.7639
왓	-11.7639
▁당부	-11.764
궈	-11.764
▁rock	-11.764
▁오피니언	-11.764
▁alliance	-11.764
▁buy	-11.764
▁depart	-11.764
▁hyun	-11.764
▁iucn	-11.764
▁major	-11.764
▁politic	-11.764
▁record	-11.764
▁국제영화제	-11.764
▁다비덴코	-11.764
▁닫고	-11.764
▁대배심	-11.764
▁댓글	-11.764
▁루고보이	-11.764
▁만토바니	-11.764
▁먹지	-11.764
▁무기징역	-11.764
▁미식축구	-11.764
▁벗어났다	-11.764
▁볼리비아	-11.764
▁부드러운	-11.764
▁비정상적	-11.764
▁세컨드라이프	-11.764
▁슈퍼마켓	-11.764
▁스타워즈	-11.764
▁안타깝게	-11.764
▁어소시에이션	-11.764
▁유투브	-11.764
▁잉그리드	-11.764
▁전두환	-11.764
▁출퇴근	-11.764
▁칼데론	-11.764
▁캠브리지	-11.764
▁크라이튼	-11.764
▁키프로스	-11.764
▁타임스퀘어	-11.764
▁티크리트	-11.764
▁프랑수아	-11.764
▁하르툼	-11.764
▁해밀턴	-11.764
▁federal	-11.764
▁problem	-11.764
▁냉장고	-11.764
▁빈센트	-11.764
▁여기저기	-11.764
▁재경부	-11.764
▁파딜라	-11.764
▁패터슨	-11.764
▁모으고	-11.764
▁보너스	-11.764
▁즐긴다	-11.764
▁cac	-11.764
▁돌려보내	-11.764
▁바이에른	-11.764
▁유연한	-11.764
▁invest	-11.764
▁시트콤	-11.764
▁애틀랜틱	-11.764
▁국가안보보좌관	-11.764
▁갑작스럽	-11.764
▁제레미	-11.764
▁무언가	-11.764
▁뛰어넘	-11.764
▁작별	-11.764
▁아스카리	-11.764
▁어쩌	-11.764
▁georg	-11.764
▁전비법안	-11.764
▁dax	-11.7641
▁구제금융법안	-11.7641
▁소비에트	-11.7641
▁joint	-11.7641
▁마지드	-11.7641
▁알렉	-11.7641
▁선거인단	-11.7641
▁세르게이	-11.7641
▁남태평양	-11.7641
▁발렌시아	-11.7641
▁thre	-11.7641
▁겨누	-11.7641
▁산업자원부	-11.7641
▁용도로	-11.7641
▁어둠	-11.7641
▁서유럽	-11.7641
▁just	-11.7641
▁얼룩말	-11.7641
▁슈렉	-11.7641
▁peta	-11.7641
▁베이징올림픽	-11.7641
▁포털	-11.7641
▁은하계	-11.7641
▁십먼	-11.7641
▁압류	-11.7641
도날드	-11.7641
▁종지부	-11.7641
▁스마트	-11.7641
▁건강보험	-11.7641
▁수감생활	-11.7641
▁order	-11.7641
▁군사행동	-11.7641
▁피난처	-11.7641
▁우발적	-11.7641
▁북극광	-11.7641
▁봉급	-11.7642
▁테러리즘	-11.7642
▁머독	-11.7642
▁페드로	-11.7642
▁층짜리	-11.7642
▁디즈니랜드	-11.7642
▁교각	-11.7642
▁근절	-11.7642
▁애견	-11.7642
▁콜롬보	-11.7642
▁날카로	-11.7642
▁ahead	-11.7642
▁비밀요원	-11.7642
▁약물검사	-11.7642
▁편견	-11.7642
▁경합	-11.7642
▁부정행위	-11.7642
▁말리부	-11.7642
▁기관총	-11.7642
▁아메바	-11.7642
▁업종	-11.7642
▁휴회	-11.7643
▁푸른	-11.7643
▁디젤	-11.7643
▁계급	-11.7643
▁비웃	-11.7643
▁드럼	-11.7643
▁선례	-11.7643
▁무례	-11.7643
▁축구스타	-11.7643
▁하렐	-11.7643
▁케이티	-11.7643
▁스노우	-11.7643
▁자치권	-11.7643
▁iraqi	-11.7644
▁상향	-11.7644
▁가디언	-11.7644
▁meeting	-11.7644
▁듀크	-11.7644
▁소도시	-11.7644
▁형편	-11.7644
▁암살사건	-11.7644
▁폭발사고	-11.7644
▁루시디	-11.7644
▁실천	-11.7644
▁사망원인	-11.7645
▁부시대통령	-11.7645
▁발머	-11.7645
▁돌아다니는	-11.7645
▁모기	-11.7645
▁난입	-11.7645
▁아프리카연합	-11.7645
▁미생물	-11.7645
▁반테러	-11.7645
▁단편	-11.7646
▁보스톤	-11.7646
▁에베레스트산	-11.7646
▁비무장지대	-11.7646
▁설전	-11.7646
▁주택시장	-11.7646
▁평온	-11.7646
▁투자은행	-11.7647
▁속편	-11.7647
▁결말	-11.7647
sh	-11.7647
▁무레이	-11.7647
▁애완용	-11.7647
▁today	-11.7647
▁설비	-11.7647
▁대국민	-11.7647
▁요한슨	-11.7648
▁야유	-11.7648
▁해산시키기	-11.7648
▁버몬트주	-11.7648
▁대기권	-11.7648
▁천여	-11.765
▁로지스	-11.765
▁플래시	-11.765
▁변함없	-11.765
▁불확실성	-11.765
be	-11.7651
스쿨	-11.7651
▁은둔	-11.7651
▁난방	-11.7651
▁연합정부	-11.7651
▁과연	-11.7652
▁음료수	-11.7652
▁김양	-11.7652
▁담요	-11.7652
▁들어설	-11.7652
▁놀란	-11.7652
▁위독	-11.7653
▁요크	-11.7653
문서	-11.7653
우리	-11.7653
▁유영	-11.7653
▁조엘	-11.7653
▁역설했다	-11.7654
▁소모	-11.7654
▁레노	-11.7654
▁싶었다	-11.7655
▁투표자	-11.7655
▁일기장	-11.7655
▁종교단체	-11.7655
▁헝	-11.7655
▁알라스카	-11.7656
▁왕비	-11.7656
▁번복	-11.7656
▁상업용	-11.7656
▁과속	-11.7657
▁수호	-11.7657
▁소방당국	-11.7658
▁메모	-11.7659
▁서점	-11.7659
▁경찰들	-11.7659
▁용납하지	-11.766
몬드	-11.7661
▁공금	-11.7662
▁골드만	-11.7663
▁로빈	-11.7663
▁리츠	-11.7664
▁동등한	-11.7664
▁부르며	-11.7665
▁등장했다	-11.7665
▁커뮤니케이션	-11.7665
▁홍석현	-11.7665
▁도서관	-11.7667
▁토레스	-11.7668
▁정치국	-11.7668
▁오버	-11.7668
▁경계선	-11.7669
▁매직	-11.7669
▁환경부	-11.7669
▁단체로	-11.767
▁펼쳐진	-11.767
▁국세청장	-11.7671
▁시도로	-11.7671
▁근본주의자들	-11.7671
▁요구했었다	-11.7671
▁총력	-11.7671
▁낫다	-11.7671
▁설사	-11.7672
▁결장	-11.7673
▁군사위원회	-11.7673
▁국어	-11.7674
▁함대	-11.7674
▁냈	-11.7674
▁money	-11.7675
▁고의적으로	-11.7676
▁심각성	-11.7676
▁자랑하는	-11.7678
▁꺼리	-11.7679
▁동부지역	-11.768
▁기미	-11.768
▁토미	-11.7681
▁하락하고	-11.7681
▁엄청나	-11.7682
▁구성원들	-11.7683
▁끝내기	-11.7684
▁싶어하지	-11.7684
▁이루기	-11.7684
▁뉴햄프셔주	-11.7685
▁이윤	-11.7685
▁교리	-11.7686
▁야스	-11.7686
▁해역에서	-11.7687
▁간직	-11.7687
▁반기	-11.7688
실에	-11.7688
▁주의회	-11.7689
▁보험회사	-11.7689
▁기울이지	-11.7689
관리국	-11.769
iz	-11.769
▁합의안	-11.769
▁프로그램들	-11.7692
▁소실됐다	-11.7692
▁용량	-11.7693
▁거머쥐었	-11.7693
▁기자단	-11.7694
▁분단	-11.7694
▁성범죄자	-11.7694
▁의약	-11.7695
정권	-11.7695
▁원내	-11.7695
▁방영되	-11.7696
▁원인에	-11.7697
▁공항이	-11.7697
▁꼬	-11.7697
▁출발했다	-11.7698
ble	-11.7702
▁공작	-11.7702
▁역설	-11.7702
▁전반전	-11.7703
▁알바로	-11.7703
ness	-11.7704
▁불안해	-11.7705
▁속력	-11.7707
▁보물	-11.7709
▁수혈	-11.7711
▁맹	-11.7711
▁헨	-11.7711
▁끝나면	-11.7713
ham	-11.7713
▁실감	-11.7717
▁환경적	-11.7718
▁요금을	-11.7719
속에	-11.7719
▁구리	-11.7721
▁지도자와	-11.7721
▁환영의	-11.7722
▁등반	-11.7722
▁저서	-11.7725
▁line	-11.7728
로윈	-11.7731
▁마련한	-11.7732
지수	-11.7733
▁가문	-11.7733
▁외화	-11.7734
▁간주되	-11.7734
▁잠재	-11.7736
▁auto	-11.7737
▁성대	-11.7738
받지	-11.7739
▁koreans	-11.7739
▁안정성	-11.774
▁크레인	-11.7741
▁서울과	-11.7742
▁용지	-11.7744
▁덤	-11.7746
▁전세계로	-11.7747
▁벤치	-11.7747
▁엑	-11.775
▁직원인	-11.7756
▁가장자리	-11.7757
▁메르	-11.7757
▁무엇보다도	-11.7757
랙	-11.7758
▁아샤	-11.776
▁유서	-11.776
ng	-11.7762
▁돌고	-11.7763
ber	-11.7764
▁모욕적	-11.7765
▁빠	-11.7765
▁잘라	-11.7766
▁시켰다	-11.7766
▁청장	-11.7767
▁pe	-11.7769
▁사형이	-11.7769
▁펼치는	-11.7772
▁의논	-11.7776
▁지불하는	-11.7776
▁씩	-11.7777
▁고심	-11.7782
▁거기에	-11.7782
▁전과	-11.7782
티스	-11.7786
▁홀리	-11.7791
▁이겨	-11.7792
▁회복할	-11.7794
담당자	-11.7795
▁부모에게	-11.7795
▁됐을	-11.7797
▁건강상	-11.7799
illi	-11.7799
▁발표했으며	-11.78
▁해결하고	-11.78
▁기숙사에서	-11.7802
▁대학에	-11.7806
▁지원자	-11.7806
▁앞서서	-11.781
▁오도	-11.781
▁김만	-11.781
▁접어	-11.7812
▁심리학자	-11.7814
▁제조업체들	-11.7814
▁피난민	-11.7815
ver	-11.7816
▁고용한	-11.7818
▁gra	-11.7821
▁사용이	-11.7821
▁선출됐다	-11.7823
▁잡았	-11.7823
▁견디	-11.7828
ino	-11.7829
▁경제팀	-11.7831
▁날아가	-11.7832
▁상하이에서	-11.7832
▁부르고	-11.7835
▁출전했다	-11.7835
▁타인	-11.7835
▁선수들에게	-11.7837
▁적용할	-11.7838
▁제출해야	-11.7838
▁여자친구와	-11.7839
▁알바	-11.784
▁유나이티드와	-11.7841
▁발자국	-11.7843
▁쥐들	-11.7843
▁팔린	-11.7845
▁초고속	-11.7847
▁탈북자들	-11.7848
fi	-11.7848
▁놓았	-11.785
▁하드	-11.785
▁도하	-11.7852
▁멘	-11.7854
▁관장	-11.7854
▁개최국	-11.7855
▁활동가들	-11.7855
▁초소	-11.7856
▁얀	-11.7856
▁반면에	-11.7858
▁나일	-11.7864
▁버렸	-11.7871
틱	-11.7871
▁나쁘	-11.7871
▁표현할	-11.7873
▁통제하고	-11.7874
셰르	-11.7874
▁소송에	-11.7874
▁발견되	-11.7878
▁주위에	-11.7887
▁사라져	-11.7888
카트	-11.7889
▁레스토랑에서	-11.7889
▁거절한	-11.789
▁피해자들이	-11.7893
▁카메라에	-11.7896
▁발전기	-11.7901
▁납세자들	-11.7902
▁보좌관들은	-11.7903
▁수소	-11.7907
▁제시하지	-11.7908
▁안전성	-11.791
랜스	-11.791
▁구하는	-11.791
▁블리	-11.7914
▁정책으로	-11.7916
▁빛이	-11.7917
▁부패와	-11.7918
▁ko	-11.7922
▁일쯤	-11.7924
▁친구들이	-11.7924
원들은	-11.7926
▁자비	-11.7926
보다도	-11.7927
타그	-11.7927
▁노던	-11.7928
▁점령한	-11.7931
▁마티	-11.7932
▁무장단체에	-11.7933
▁아스	-11.7933
▁유로에	-11.7936
org	-11.7938
▁시위대들	-11.794
임이	-11.7941
▁이때	-11.7941
블러	-11.7941
▁사스	-11.7943
▁핵폐기	-11.7943
▁김씨는	-11.7946
▁인도적	-11.7949
▁이하로	-11.7951
▁밀고	-11.7952
▁사드르는	-11.7953
oo	-11.7954
▁졸	-11.7955
▁give	-11.7956
▁금리인하	-11.7956
▁군대에	-11.796
▁각료들	-11.7966
▁전장에	-11.7968
▁재기	-11.797
▁다음에	-11.7972
▁비난한다	-11.7972
▁상징인	-11.7974
▁후반에	-11.7974
▁나라에	-11.7976
▁장악했다	-11.7978
▁사육사들	-11.7983
▁더위	-11.7983
▁표지	-11.7984
▁정책과	-11.7985
▁세력에	-11.7985
▁조장하	-11.7986
▁대학이	-11.7986
상황이	-11.7989
▁실패로	-11.7989
▁스페인과	-11.799
▁치료하는	-11.799
▁유출된	-11.7995
▁mc	-11.7995
▁발견하고	-11.7998
▁약화시키	-11.8001
▁진척	-11.8001
레즈	-11.8002
▁늘어난	-11.8002
물인	-11.8005
nel	-11.8007
▁구성에	-11.8008
▁우려된다	-11.801
▁바가	-11.8014
▁제소	-11.8014
▁친미	-11.8019
▁휴대폰으로	-11.8021
스턴	-11.8022
▁생각되는	-11.8027
▁범인들	-11.8029
▁털어	-11.8029
▁기업체	-11.803
▁기자들은	-11.8031
▁전세	-11.8034
▁올라가는	-11.8034
▁한계	-11.8035
▁제마	-11.8037
▁도발	-11.8038
▁hel	-11.8038
봤	-11.804
▁고국	-11.804
▁시차	-11.804
▁사나	-11.8041
▁포도	-11.8045
ut	-11.8048
▁조차	-11.805
▁경이	-11.805
▁한국군이	-11.8051
▁일보	-11.8054
▁본부에서	-11.8055
▁인류학	-11.8056
ke	-11.8057
▁시한이	-11.8058
▁제지	-11.8065
센터에서	-11.8068
▁벌금형	-11.8069
▁중국으로	-11.8069
톨	-11.8069
었었다	-11.807
▁vote	-11.8071
▁막지	-11.8077
▁스테이	-11.8078
▁보라	-11.808
▁경찰들은	-11.808
▁참여하기	-11.8087
▁짝	-11.809
▁요인들	-11.8093
▁san	-11.8093
▁보리	-11.8093
▁열정적	-11.8094
▁다스	-11.8095
도르	-11.8097
▁가방에	-11.8101
▁남한과	-11.8107
▁도중에	-11.8108
▁국민은	-11.811
po	-11.8112
▁매장에서	-11.8113
▁두려워하	-11.8113
▁자행한	-11.8117
▁스캔들에	-11.8121
▁이반	-11.8124
수에	-11.8125
▁전사자	-11.8127
▁무너	-11.8129
▁쳤다	-11.8131
▁생물학	-11.8133
▁확신하	-11.8133
▁연기에	-11.8135
▁계획안	-11.8137
▁가치는	-11.8138
▁수니	-11.8142
퍼스	-11.8144
▁인물들	-11.8146
가량	-11.8151
잡지	-11.8153
▁폭력과	-11.8161
▁인지	-11.8164
ism	-11.8166
▁구매자들	-11.8167
했거나	-11.8173
▁연주자	-11.8174
라에서	-11.8175
▁침대에	-11.8175
▁영국인들	-11.8176
▁기차를	-11.8176
▁설치했다	-11.8185
별로	-11.8186
▁은행에서	-11.8188
▁투자할	-11.8191
납	-11.8193
▁힘들어	-11.8195
▁늘리는	-11.8195
▁벗어나지	-11.8198
▁작품에	-11.8202
론자들	-11.8204
▁오전에	-11.8208
▁강조하는	-11.8209
▁확보하고	-11.8209
금융	-11.8212
책임자	-11.8214
쥐	-11.8216
▁정하지	-11.8217
▁역사에서	-11.822
장애	-11.822
업무	-11.8221
러시아	-11.8222
▁추진해	-11.8224
대결	-11.8224
▁보수주의	-11.8225
▁개회	-11.8227
수단	-11.8227
재정	-11.8228
모건	-11.8228
▁어린이와	-11.8232
내려	-11.8233
노동	-11.8234
▁보고됐다	-11.8235
▁대장	-11.824
▁제거했다	-11.8249
▁대표팀에	-11.825
방위	-11.8252
▁분자	-11.8256
▁살아가는	-11.8256
▁생겼	-11.8257
▁평양을	-11.8261
중단	-11.8262
▁피랍됐	-11.8265
▁작성했다	-11.8266
▁파는	-11.8266
▁그리스에서	-11.8269
▁영구적	-11.8269
왔으며	-11.8269
▁클레이코트	-11.8274
▁구사하	-11.8277
▁누출	-11.8278
▁나타낸	-11.8283
▁미성년	-11.8283
▁역할이	-11.8286
di	-11.8287
▁뉴스와	-11.8288
▁회피	-11.829
왔지만	-11.8292
▁od	-11.8295
▁방문하기	-11.8299
▁인권단체들	-11.83
▁구성했다	-11.8301
▁조사해	-11.8307
▁사무국	-11.831
▁ga	-11.831
▁위협할	-11.8312
▁높았	-11.8312
▁무차별	-11.8316
▁내용과	-11.8317
▁놀랍	-11.8319
자키	-11.8322
▁국경에	-11.8327
있지	-11.8327
▁아파트에	-11.8328
▁불행	-11.8329
▁개국에서	-11.833
데르	-11.8331
▁주택가	-11.8332
▁저격	-11.8336
▁스탠	-11.8337
광장	-11.8338
예프	-11.8341
▁발로	-11.8342
▁스토	-11.8343
바락	-11.8343
▁매릴랜드	-11.8343
▁참모총장	-11.8345
▁곤란	-11.8345
▁fund	-11.8347
▁섞	-11.8349
▁india	-11.835
▁공급하기	-11.835
랍	-11.835
혜	-11.835
▁아이다호	-11.8351
▁조직에	-11.8352
슬라브	-11.8352
삭	-11.8352
▁프란시스	-11.8353
▁동북	-11.8354
▁상속	-11.8354
▁lead	-11.8354
▁다녀	-11.8354
▁경기부양	-11.8354
▁low	-11.8354
▁솔로몬	-11.8354
▁campaign	-11.8355
▁microsoft	-11.8355
▁관습	-11.8355
▁듀프레	-11.8355
▁사우스다코타	-11.8355
▁스머프	-11.8355
▁스프린트	-11.8355
▁시베리아	-11.8355
▁울프위츠	-11.8355
▁카메룬	-11.8355
팡	-11.8355
프로농구	-11.8355
▁council	-11.8355
▁crisis	-11.8355
▁envoy	-11.8355
▁great	-11.8355
▁illegal	-11.8355
▁john	-11.8355
▁kkk	-11.8355
▁number	-11.8355
▁safe	-11.8355
▁sncf	-11.8355
▁unveil	-11.8355
▁고혈압	-11.8355
▁공청회	-11.8355
▁굉장한	-11.8355
▁네브라스카	-11.8355
▁뉴욕타임즈	-11.8355
▁다녔다	-11.8355
▁다빈치	-11.8355
▁대선예비후보	-11.8355
▁드림라이너	-11.8355
▁따돌렸다	-11.8355
▁레오나르도	-11.8355
▁마르세유	-11.8355
▁만파운드	-11.8355
▁머물렀다	-11.8355
▁바예스테로스	-11.8355
▁박스오피스	-11.8355
▁발렌타인	-11.8355
▁산티아고	-11.8355
▁섰다	-11.8355
▁스테로이드	-11.8355
▁시니오라	-11.8355
▁아세안	-11.8355
▁아쿠아리움	-11.8355
▁알레르기	-11.8355
▁애국전선	-11.8355
▁에메랄드	-11.8355
▁오마이뉴스	-11.8355
▁와코비아	-11.8355
▁외할머니	-11.8355
▁우체국	-11.8355
▁인공심장	-11.8355
▁자와히리	-11.8355
▁조기총선	-11.8355
▁최연소	-11.8355
▁카스파로프	-11.8355
▁카제미	-11.8355
▁컨소시엄	-11.8355
▁폐렴	-11.8355
▁폴란스키	-11.8355
▁현충일	-11.8355
▁홀로코스트	-11.8355
▁히말라야	-11.8355
릅니다	-11.8355
뭘	-11.8355
▁europe	-11.8355
▁omx	-11.8355
▁rbs	-11.8355
▁공동기자회견에	-11.8355
▁델라웨어	-11.8355
▁목걸이	-11.8355
▁빔보	-11.8355
▁에버튼	-11.8355
▁현기증	-11.8355
▁알메이다	-11.8355
▁엘비스	-11.8355
▁오피스	-11.8355
▁허덕이	-11.8355
▁김일성	-11.8355
▁etc	-11.8355
▁불도저	-11.8355
▁삼성전자	-11.8355
▁stock	-11.8355
▁공상과학	-11.8355
▁메탄가스	-11.8355
▁아침식사	-11.8355
▁어둡	-11.8355
▁트레이드	-11.8355
▁펠릭스	-11.8355
▁메세지	-11.8355
▁부녀자	-11.8355
▁세비르	-11.8355
▁현명한	-11.8355
▁마샬	-11.8355
▁임상실험	-11.8355
어느때보다	-11.8355
▁민주변화	-11.8355
▁불상사	-11.8355
▁분리독립	-11.8355
▁클리닉	-11.8355
▁쓰러진	-11.8355
▁클랩튼	-11.8355
▁슬램	-11.8355
▁트레이시	-11.8355
▁디아즈	-11.8355
▁스프링스틴	-11.8355
▁맛봤다	-11.8355
▁크로포드	-11.8355
▁결론지었다	-11.8355
▁민주변화운동	-11.8355
▁히잡	-11.8355
▁가오리	-11.8355
▁대기오염	-11.8355
▁비디오테이프	-11.8355
▁월경작전	-11.8355
▁행정명령	-11.8355
▁버핏	-11.8355
▁재가동	-11.8355
▁엔터프라이즈	-11.8355
▁적임자	-11.8355
▁모토로라	-11.8355
▁헐값	-11.8355
▁종합병원	-11.8355
▁출몰	-11.8355
▁히트곡	-11.8355
▁완패	-11.8355
▁퇴출	-11.8355
▁골드버그	-11.8355
▁빠져나갔다	-11.8355
▁용암	-11.8355
▁강제진압	-11.8355
▁검시	-11.8355
▁육류	-11.8355
▁홍보담당자	-11.8355
▁블랙베리	-11.8355
▁스릴러	-11.8355
▁사기꾼	-11.8355
▁빛나는	-11.8355
▁데이비스컵	-11.8356
▁아름다움	-11.8356
▁폭염	-11.8356
▁라말라	-11.8356
▁감기약	-11.8356
▁분화구	-11.8356
▁수세기	-11.8356
▁쥐스틴	-11.8356
▁놀이기구	-11.8356
▁리프트	-11.8356
▁겸손	-11.8356
▁비겁	-11.8356
▁유니티	-11.8356
▁선거운동본부	-11.8356
▁숙박비	-11.8356
했어야	-11.8356
▁노골적	-11.8356
▁출근	-11.8356
▁night	-11.8356
▁army	-11.8356
▁패션쇼	-11.8356
▁무척	-11.8357
▁베이커	-11.8357
▁tam	-11.8357
▁남아시아	-11.8357
▁뉴먼	-11.8357
▁주모자	-11.8358
▁sola	-11.8358
▁검은색	-11.8358
▁추도식	-11.8358
▁특권	-11.8358
▁잃었으며	-11.8358
▁라디오뉴스	-11.8358
phone	-11.8358
▁담합	-11.8358
▁올리버	-11.8359
▁자궁	-11.8359
▁빅토	-11.8359
▁아이콘	-11.8359
▁구슬	-11.8359
▁떠다니	-11.8359
▁화산재	-11.8359
▁생체	-11.8359
▁즉석	-11.8359
▁채굴	-11.836
▁축구협회	-11.836
▁독려	-11.836
▁신랄	-11.836
▁wta	-11.836
▁처방전	-11.836
▁진학	-11.836
▁성폭행범	-11.836
▁유명해졌다	-11.836
▁소득세	-11.836
▁회생	-11.836
▁모빌	-11.8361
▁교신	-11.8361
▁과열	-11.8361
▁모스크	-11.8361
▁수상작	-11.8361
▁행보	-11.8361
▁constitutional	-11.8361
▁떨어지면서	-11.8361
▁정치활동	-11.8362
▁표출	-11.8362
▁청원	-11.8363
▁장시간	-11.8363
▁양빈	-11.8363
▁west	-11.8363
▁통치권	-11.8363
▁칭하며	-11.8364
less	-11.8364
▁변종	-11.8364
▁친교	-11.8364
▁동조	-11.8364
▁버리는	-11.8365
▁파탄	-11.8365
▁감형	-11.8365
▁간격	-11.8365
▁아예	-11.8365
▁응용	-11.8365
▁에릭슨	-11.8365
▁시립	-11.8366
▁석권	-11.8366
▁usb	-11.8366
▁돌발	-11.8366
▁축적	-11.8366
▁터졌다	-11.8367
▁농성	-11.8367
▁재연	-11.8367
▁칼리드	-11.8367
▁악명	-11.8367
▁완강	-11.8368
▁카본	-11.8368
▁공단	-11.8369
▁경고문	-11.8369
▁nations	-11.8369
지수는	-11.8369
대사관	-11.837
▁입혔다	-11.837
▁옥수수	-11.8371
▁소중	-11.8372
▁달아나	-11.8372
▁저조	-11.8372
▁그라이브	-11.8373
▁별명	-11.8373
▁올라간다	-11.8373
▁거칠	-11.8374
▁인도양	-11.8374
▁없어질	-11.8374
▁담았다	-11.8374
▁모친	-11.8375
▁성교	-11.8375
▁세월	-11.8375
▁텐	-11.8375
▁의향	-11.8375
▁탐지기	-11.8375
▁혼자서	-11.8376
▁페니	-11.8376
툴라	-11.8376
▁인출	-11.8376
▁피력	-11.8377
▁사형제도	-11.8377
▁추위	-11.8377
▁사본	-11.8377
▁도출	-11.8378
▁극단적인	-11.8378
▁임시정부	-11.8378
르트	-11.8379
▁성취	-11.8379
▁아론	-11.8379
▁유형	-11.838
▁나빠지	-11.838
▁건전	-11.838
▁먹었다	-11.838
▁랜	-11.8381
▁믿어지	-11.8381
▁연비	-11.8382
▁페어	-11.8383
▁기법	-11.8383
▁쓰러졌다	-11.8383
▁폭탄테러와	-11.8384
▁보수주의자들	-11.8384
▁제거하는	-11.8384
▁아래서	-11.8385
▁위스콘신주	-11.8386
▁스토리	-11.8387
▁불타	-11.8387
▁girls	-11.8388
▁만들어낸	-11.8388
▁여론조사에따르면	-11.839
▁폰다	-11.839
▁미대사	-11.839
▁월터스	-11.839
▁오노	-11.8391
▁입성	-11.8391
▁그렇지만	-11.8391
▁달려있다	-11.8391
▁부수	-11.8391
▁손가락	-11.8392
▁맘	-11.8392
▁평의회	-11.8392
▁옮기는	-11.8392
▁쥬	-11.8392
지출	-11.8393
▁제한하	-11.8393
▁무시한	-11.8393
자격	-11.8393
▁계약에	-11.8394
▁sw	-11.8394
▁국가대표팀	-11.8394
▁푸드	-11.8395
▁atp	-11.8395
▁일원으로	-11.8395
▁이민국	-11.8396
▁최소화	-11.8396
▁시작하자	-11.8397
▁말하지만	-11.8397
▁자고	-11.8397
▁옐로	-11.8399
▁저지대	-11.8401
▁중학교	-11.8402
▁산업지수	-11.8402
▁계절	-11.8402
▁환호하	-11.8403
▁실시간	-11.8405
▁페러	-11.8405
▁시에나	-11.8406
nsc	-11.8407
▁시위대의	-11.8408
▁언급하면서	-11.8409
▁명상	-11.8409
▁국정원장	-11.8413
▁사죄	-11.8413
▁촉구하며	-11.8413
▁선진	-11.8414
▁중단하겠다	-11.8415
▁강행할	-11.8415
란다	-11.8416
▁무성	-11.8416
▁원정경기에서	-11.8416
▁상태이며	-11.8417
▁중국어	-11.8417
▁정당성	-11.842
▁증명서	-11.842
▁받아들여지	-11.8421
슬러	-11.8421
아웃	-11.8422
▁sen	-11.8422
계약	-11.8423
▁녹스	-11.8424
▁정교한	-11.8424
▁로키	-11.8425
▁피랍됐다	-11.8425
▁매진	-11.8426
▁발사해	-11.8427
▁나타낸다	-11.8427
▁맞서기	-11.8428
▁군용	-11.8429
▁소비량	-11.843
▁빗	-11.8431
▁인간이	-11.8432
▁거미	-11.8432
▁얻어야	-11.8433
▁잡히	-11.8433
▁하락했으며	-11.8434
▁아프간인	-11.8435
ok	-11.8437
▁마시지	-11.8438
▁보여주었다	-11.8439
▁반해	-11.844
▁동부지역에서	-11.8442
▁코드	-11.8442
▁스타들	-11.8442
▁상승했으며	-11.8442
▁취소하	-11.8443
▁안치	-11.8443
▁멜로	-11.8446
▁쓰인	-11.8447
▁납치됐	-11.8447
▁들어간다	-11.8448
▁입게	-11.8449
▁보도됐다	-11.8449
▁가파	-11.845
▁모가디슈에서	-11.8451
▁이송됐으	-11.8451
▁구멍이	-11.8451
▁만족할	-11.8451
▁낭	-11.8452
▁회복되	-11.8452
▁부인하며	-11.8453
▁생사	-11.8454
▁통과시킨	-11.8454
▁노력해야	-11.8454
슈아	-11.8454
▁보장받	-11.8457
▁확보하기	-11.8457
▁제외됐다	-11.846
▁이루어지지	-11.846
▁응급실	-11.8461
▁싸우고	-11.8461
하더라도	-11.8462
▁올림픽위원회	-11.8462
▁거주지역	-11.8465
▁질병이	-11.8465
▁채용	-11.8467
▁흐	-11.8467
▁개종	-11.8469
▁가설	-11.8472
▁끌어내	-11.8476
▁적기	-11.8476
▁안된다고	-11.8477
▁흙	-11.8477
▁보고에따르면	-11.8478
▁사퇴했다	-11.8479
▁조언했다	-11.8479
▁프라하	-11.848
▁mp	-11.8481
▁은행과	-11.8481
▁헌	-11.8482
coming	-11.8485
▁봐야	-11.8485
▁사지	-11.8486
▁장례식이	-11.8487
▁취지	-11.8489
▁가든	-11.8489
▁자살했다고	-11.849
화가	-11.8491
▁선포하고	-11.8493
▁구급차	-11.8493
▁보안국	-11.8494
▁무효	-11.8496
our	-11.8496
군에	-11.8497
트릭	-11.8497
▁resign	-11.8498
▁안면	-11.8498
▁말했고	-11.8499
▁정신병	-11.85
▁여가	-11.85
▁낙관	-11.8503
▁철로	-11.8504
군요	-11.8507
▁메이어	-11.8509
▁신고서	-11.851
오차	-11.8513
▁샤리	-11.852
▁온라인에서	-11.852
▁매치	-11.8522
▁뉴욕시장	-11.8523
▁모술에서	-11.8529
일간	-11.8531
▁받아들이는	-11.8531
받았다고	-11.8531
▁변기	-11.8532
▁트로	-11.8535
마드	-11.8535
▁전달하는	-11.8537
▁끝나고	-11.8537
▁충분하다	-11.8539
▁즐기고	-11.854
▁미안	-11.854
▁점유	-11.8541
▁고소했다	-11.8541
▁중도	-11.8543
인해	-11.8544
▁아타	-11.8547
▁날씨에	-11.8549
▁사랑한다	-11.8551
▁디지	-11.8551
▁발견하게	-11.8552
▁bid	-11.8552
ust	-11.8553
▁의문사	-11.8554
▁el	-11.8555
▁인선	-11.8556
▁참고	-11.8557
▁벤와	-11.8559
▁고려해야	-11.856
▁살았다	-11.8563
▁뜨	-11.8564
▁들어있	-11.8566
▁던지고	-11.8569
dom	-11.8569
▁호프	-11.8572
ncy	-11.8574
▁일부분	-11.858
▁감독관	-11.8581
▁돌아가기	-11.8582
▁도서	-11.8583
▁구역에서	-11.8584
▁바꾸고	-11.8584
줘야	-11.8584
▁연안에서	-11.8585
▁일부로	-11.8585
▁낮다	-11.8588
▁폭력사태에	-11.8589
해발	-11.8594
▁나누고	-11.8595
▁크로	-11.8596
▁절차에	-11.8598
▁월급	-11.8599
▁갑작스러	-11.8602
▁주범	-11.8603
▁상인들	-11.8606
▁자동차업체	-11.8606
▁열악	-11.8607
▁필리	-11.8608
▁재확인	-11.861
▁차트	-11.8611
▁거론되	-11.8616
▁주민들과	-11.8617
▁분파	-11.8617
클라	-11.8619
▁안될	-11.8622
머니	-11.8622
▁경영자들	-11.8622
▁알카에다에	-11.8623
▁잉	-11.8624
▁좌	-11.8626
▁개헌안에	-11.8626
▁해결책이	-11.8627
▁논쟁에	-11.8628
▁충	-11.863
▁형법	-11.863
▁인하했다	-11.8633
▁남자들이	-11.8634
yo	-11.864
▁다가가	-11.8641
▁저녁에	-11.8646
▁보안이	-11.865
▁취임식에	-11.865
▁사장이	-11.8653
▁islami	-11.8656
바오	-11.8657
▁도시와	-11.8665
▁자유롭고	-11.8666
▁마음에	-11.8668
▁기대에	-11.8673
부인	-11.8675
▁대표단과	-11.8681
▁지상에서	-11.8682
▁태도에	-11.8682
▁주간지	-11.8684
▁서부에서	-11.8685
▁배치되어	-11.8686
▁요청하고	-11.8687
▁도슨	-11.8689
▁친지들	-11.869
▁웅	-11.8695
▁펠	-11.8701
▁포착했다	-11.8706
▁기소장	-11.8711
▁디나	-11.8713
▁ri	-11.8714
▁말이다	-11.8715
ite	-11.8715
▁봉쇄했다	-11.8716
▁구조했다	-11.8716
▁로렌	-11.8718
해주기	-11.8719
▁부정했다	-11.8721
▁영국항공	-11.8725
ger	-11.8727
▁피하고	-11.873
▁상징하	-11.873
▁시즌에	-11.8733
▁웨스	-11.8739
▁수행하기	-11.8741
▁다쳤	-11.8742
▁추적하	-11.8745
정지	-11.8746
▁일본측	-11.8746
▁비디오에	-11.8751
▁논의한	-11.8751
▁원만	-11.8753
▁노스캐롤라이나에서	-11.8756
드윈	-11.8757
▁여행하는	-11.8757
▁감정이	-11.8763
▁고통스러	-11.8766
▁구입했다	-11.8767
▁기록해	-11.8768
▁부과했다	-11.8768
▁배치했다	-11.8769
주민들	-11.8773
▁뉴스에	-11.8778
▁위성이	-11.8778
▁ke	-11.8781
▁연행했다	-11.8782
▁고층	-11.8785
▁치뤄	-11.8787
▁mi	-11.8787
▁소실	-11.8788
▁이토	-11.8789
▁호전	-11.8794
▁조장	-11.8802
▁보수적	-11.8802
▁금전적	-11.8803
▁포로로	-11.8808
▁일이며	-11.8811
▁강화하	-11.8813
▁제작됐다	-11.8815
변화	-11.8815
▁받으면	-11.8817
▁심기	-11.8819
▁압력이	-11.882
▁어부들	-11.8823
▁노르	-11.8826
▁웰	-11.8827
▁정당인	-11.8831
▁확정했다	-11.8833
▁절대적	-11.8834
ue	-11.8837
▁대피하	-11.8837
▁배치된	-11.8841
▁생산국	-11.8843
▁맡을	-11.8843
죄	-11.8844
▁시내에	-11.8847
▁묻혀	-11.885
▁기록된	-11.8851
▁짜리	-11.8854
▁판매한	-11.8856
▁표준시	-11.8857
이스트	-11.886
▁호주에	-11.8861
▁나쁘지	-11.8863
▁팔기	-11.8864
▁내놓을	-11.8864
▁주행	-11.8865
▁청구했다	-11.8865
▁무장괴한들	-11.8868
side	-11.887
▁근로자들은	-11.8871
▁대표적	-11.8879
리언	-11.8879
실적	-11.8881
▁알리지	-11.8882
▁후보간	-11.8886
▁비트	-11.8886
np	-11.8886
▁위주	-11.8888
▁사업이	-11.8893
▁전달하기	-11.8893
파로	-11.8897
▁뉴질랜드에서	-11.8898
▁붕괴됐다	-11.8899
▁비난에	-11.89
지아	-11.8903
▁중독자	-11.8911
▁sho	-11.8911
▁가린	-11.8914
▁안전하다	-11.892
▁도쿄의	-11.8921
었기	-11.8922
▁생각한	-11.8922
▁마련하는	-11.8922
▁자동차회사	-11.8925
▁고아	-11.8933
참	-11.8933
▁피지	-11.8933
▁농민들이	-11.8934
▁서적	-11.8935
▁후원자	-11.8937
▁보장하	-11.8938
▁돼야	-11.8942
▁청소년들이	-11.8943
▁아지	-11.8943
▁주에서는	-11.8944
▁밝히는	-11.8944
▁ch	-11.8945
▁구가	-11.8948
▁투입되	-11.8951
▁통과시키	-11.8952
▁주인은	-11.8956
외교	-11.8956
▁실용적	-11.8959
▁여명에	-11.8962
▁붙어	-11.8963
▁집단이	-11.8964
▁잡지에	-11.8965
tive	-11.8966
접	-11.8969
▁경기장에	-11.897
추어	-11.8971
▁보니	-11.8974
▁켄트	-11.8975
낸다	-11.8975
▁온난화에	-11.8975
▁끌려	-11.8975
꾸	-11.8977
폴	-11.898
ague	-11.8981
무장혁명군	-11.8981
▁무력화	-11.8981
틸	-11.8982
큐	-11.8983
켄	-11.8984
▁간주하	-11.8984
페이스	-11.8984
탐	-11.8985
▁독립선언	-11.8985
평균	-11.8986
빅	-11.8986
포인트	-11.8987
오바마	-11.8987
잘	-11.8987
미사일	-11.899
여행	-11.899
나이트	-11.8991
게이트	-11.8991
공연	-11.8991
▁얼굴이	-11.8992
조각	-11.8992
지휘	-11.8994
▁때에는	-11.8994
워터	-11.8994
공유	-11.8994
등록	-11.8995
예산	-11.8995
▁이루는	-11.8995
ali	-11.8996
보낼	-11.8996
▁나간다	-11.8997
다닐	-11.8998
세워	-11.8998
▁강전	-11.8999
▁피를	-11.9002
▁접어들	-11.9004
▁그려	-11.9007
르면	-11.9007
▁정해	-11.9007
▁자재	-11.9008
▁전보다	-11.9009
▁알레	-11.9009
▁에르	-11.9009
▁터뜨	-11.9012
▁마우	-11.9014
▁슈퍼대의원들	-11.9015
수익	-11.9016
▁보내야	-11.902
으로서는	-11.9022
▁사회자	-11.9023
수준	-11.9023
▁타자	-11.9025
▁것인데	-11.9029
불안	-11.904
▁추측되	-11.904
▁그렇다	-11.9041
▁지적한	-11.9042
▁공간이	-11.9042
신형	-11.9047
▁앙카라	-11.9048
▁거행	-11.905
▁생각에	-11.9051
▁전반적	-11.9051
rry	-11.9054
▁적의	-11.9054
▁br	-11.9058
▁교통이	-11.9059
▁대상에	-11.9066
▁힘들었	-11.9069
▁준결승전	-11.9069
▁격렬	-11.9073
▁프레이	-11.9074
▁그레	-11.908
▁변호사들이	-11.908
▁쫓아	-11.9081
▁좋았	-11.9083
▁sup	-11.9085
▁확보하는	-11.9085
▁corp	-11.9085
렘	-11.9086
▁알래스카주	-11.9087
공원	-11.9093
▁콘서트에	-11.9095
▁윌리암	-11.9096
겠	-11.9096
▁실험에서	-11.9098
▁주주	-11.9098
▁회사와	-11.9098
▁무관	-11.9099
▁앞섰	-11.9102
레오	-11.9104
운영	-11.9107
▁떨어뜨	-11.9108
▁클레	-11.9108
▁보행	-11.911
보라	-11.911
▁늘려	-11.9111
극장	-11.9111
▁return	-11.9112
▁구입하는	-11.9113
▁price	-11.9113
▁쫓겨	-11.9114
▁복사	-11.9115
▁벌어	-11.9115
▁희미	-11.9118
▁트래	-11.9118
타이거	-11.9119
획	-11.9119
뒀	-11.912
▁에어웨이	-11.912
륜	-11.912
셉	-11.9121
▁타이타닉	-11.9121
▁있으면	-11.9122
했었지만	-11.9122
콕	-11.9123
ween	-11.9123
▁좁혀	-11.9123
▁비무장	-11.9124
▁democrat	-11.9124
▁road	-11.9124
▁children	-11.9124
▁credit	-11.9124
▁french	-11.9124
▁investigation	-11.9124
▁push	-11.9124
▁radio	-11.9124
▁toward	-11.9124
▁가깝다	-11.9124
▁광저우	-11.9124
▁끊이	-11.9124
▁끌었다	-11.9124
▁나뭇가지	-11.9124
▁댕기열	-11.9124
▁데이터베이스	-11.9124
▁도마뱀	-11.9124
▁듣기	-11.9124
▁롤러코스터	-11.9124
▁루프트한자	-11.9124
▁마들렌	-11.9124
▁만배럴	-11.9124
▁맨하탄	-11.9124
▁무사콸라	-11.9124
▁무작위	-11.9124
▁묶인	-11.9124
▁밀워키	-11.9124
▁브래들리	-11.9124
▁사파테로	-11.9124
▁선글라스	-11.9124
▁선덜랜드	-11.9124
▁세계경제포럼	-11.9124
▁스폰서	-11.9124
▁심사숙고	-11.9124
▁쌓아	-11.9124
▁아틀레티코	-11.9124
▁애국심	-11.9124
▁여우주연상	-11.9124
▁융통성	-11.9124
▁이뤘다	-11.9124
▁이슬라미야	-11.9124
▁인수합병	-11.9124
▁족자카르타	-11.9124
▁차이나데일리	-11.9124
▁천안문	-11.9124
▁츠요시	-11.9124
▁캄푸쉬	-11.9124
▁캐시미르	-11.9124
▁코리아타임즈	-11.9124
▁코뿔소	-11.9124
▁콴타스	-11.9124
▁클리브랜드	-11.9124
▁통합러시아당	-11.9124
▁트랜스포머	-11.9124
▁트럼프	-11.9124
▁파라마운트	-11.9124
▁프리미엄	-11.9124
▁학습	-11.9124
뎀	-11.9124
싹	-11.9124
쥔	-11.9124
퀘	-11.9124
▁flu	-11.9124
▁강렬한	-11.9124
▁레예스	-11.9124
▁묶어	-11.9124
▁복부비만	-11.9124
▁상여금	-11.9124
▁스펙터	-11.9124
▁쓰러지	-11.9124
▁어리석은	-11.9124
▁나르기스	-11.9124
▁배기가스	-11.9124
▁의사소통	-11.9124
▁카밀라	-11.9124
▁트레이너	-11.9124
▁고프섬	-11.9124
▁끼치지	-11.9124
▁스트립	-11.9124
▁유니폼	-11.9124
▁짐바브웨아프리카민족	-11.9124
▁헬멧	-11.9124
▁안테나	-11.9124
▁왓슨	-11.9124
▁파르베즈	-11.9124
▁백만장자	-11.9124
▁보궐선거	-11.9124
▁ucla	-11.9124
▁붐비는	-11.9124
▁need	-11.9124
▁sars	-11.9124
▁만수르	-11.9124
▁의정서	-11.9124
▁grand	-11.9124
▁refugees	-11.9124
▁에볼라	-11.9124
▁냉소적	-11.9124
▁선두주자	-11.9124
▁징수	-11.9124
▁클라우디	-11.9124
▁이스트우드	-11.9124
▁서부텍사스산	-11.9124
▁에어컨	-11.9124
▁트루먼	-11.9124
▁컨트리	-11.9124
됨으로써	-11.9124
▁발리우드	-11.9124
▁internet	-11.9124
▁동아시아	-11.9124
▁로하스	-11.9124
▁혈압	-11.9124
▁착각	-11.9124
▁악몽	-11.9124
▁내보내	-11.9124
▁다이빙	-11.9124
▁흥미롭	-11.9124
▁nhk	-11.9124
▁노란색	-11.9124
▁주일미군	-11.9124
▁집주인	-11.9124
▁곤봉	-11.9124
▁유럽중앙은행	-11.9124
▁좌초	-11.9124
▁해역	-11.9124
▁압축	-11.9124
▁경범죄	-11.9125
▁gold	-11.9125
▁hill	-11.9125
▁리스본	-11.9125
▁클래식	-11.9125
▁billion	-11.9125
▁항목	-11.9125
▁과격단체	-11.9125
▁혈통	-11.9125
▁독살	-11.9125
▁출품	-11.9125
▁스몰	-11.9125
▁권좌	-11.9125
▁음란	-11.9125
▁차량폭탄테러	-11.9125
▁성폭력	-11.9125
▁구덩이	-11.9125
▁부흥	-11.9125
▁추락사고	-11.9125
▁무능	-11.9125
▁전자제품	-11.9125
▁글로브	-11.9125
▁라마디	-11.9126
▁물고문	-11.9126
▁foundation	-11.9126
▁관절	-11.9126
▁카우치	-11.9126
▁소멸	-11.9126
▁타깃	-11.9126
▁왕립	-11.9126
▁클로버	-11.9126
▁dur	-11.9126
▁세계무역센터	-11.9126
▁휘두르	-11.9126
▁안겨	-11.9126
▁mls	-11.9126
▁정복	-11.9127
▁소변	-11.9127
▁중요하지	-11.9127
▁브랜슨	-11.9127
▁미시시피강	-11.9127
▁충성	-11.9127
▁특유	-11.9127
테드	-11.9127
▁지켜볼	-11.9127
▁되었	-11.9127
▁출구	-11.9127
▁신변	-11.9128
▁한계선	-11.9128
▁뉴스가	-11.9128
▁낙타	-11.9128
▁언더파	-11.9128
▁대선결과	-11.9128
▁기네스	-11.9128
▁없었으나	-11.9128
▁욕실	-11.9128
▁도망치	-11.9128
▁도킹	-11.9128
▁선거결과	-11.9128
▁오존	-11.9129
▁가리키	-11.9129
▁평화회담	-11.9129
▁붉은색	-11.9129
▁테너	-11.9129
▁떠올리	-11.9129
▁적합하지	-11.9129
▁목재	-11.9129
▁올라있다	-11.9129
▁휩쓸려	-11.9129
▁교도관	-11.9129
▁파열	-11.9129
▁그랜트	-11.9129
▁prosecutors	-11.9129
▁영공	-11.913
▁자금지원	-11.913
▁멈	-11.913
▁official	-11.913
▁쿡	-11.913
▁북방한계선	-11.913
▁샹	-11.913
[...]
