[PAD]	0
[UNK]	0
[BOS]	0
[EOS]	0
[SEP]	0
[CLS]	0
[MASK]	0
▁1	-0
▁이	-1
으로	-2
에서	-3
▁있	-4
▁2	-5
▁그	-6
▁대	-7
▁사	-8
이다	-9
었다	-10
▁지	-11
▁수	-12
▁19	-13
▁가	-14
▁시	-15
▁20	-16
▁기	-17
▁전	-18
▁아	-19
▁하	-20
▁있다	-21
▁다	-22
▁제	-23
했다	-24
하였	-25
▁일	-26
▁한	-27
▁중	-28
▁정	-29
▁주	-30
하는	-31
▁것	-32
▁자	-33
▁공	-34
▁인	-35
되었다	-36
▁경	-37
▁위	-38
▁유	-39
▁보	-40
하고	-41
▁3	-42
▁등	-43
▁부	-44
하였다	-45
▁조	-46
하여	-47
▁미	-48
▁동	-49
▁선	-50
▁나	-51
으며	-52
▁모	-53
▁연	-54
▁영	-55
▁의	-56
▁오	-57
▁마	-58
에는	-59
▁발	-60
▁소	-61
한다	-62
▁고	-63
▁개	-64
▁201	-65
▁구	-66
▁세	-67
▁도	-68
▁상	-69
▁비	-70
▁스	-71
▁국	-72
▁서	-73
▁후	-74
▁여	-75
▁200	-76
▁때	-77
▁4	-78
▁성	-79
▁해	-80
▁관	-81
▁있는	-82
▁신	-83
▁프	-84
▁대한	-85
부터	-86
▁5	-87
▁방	-88
▁또	-89
지만	-90
▁(	-91
▁역	-92
되어	-93
▁않	-94
▁만	-95
▁"	-96
▁장	-97
▁바	-98
까지	-99
▁무	-100
▁남	-101
▁통	-102
▁현	-103
▁교	-104
▁같	-105
에게	-106
▁내	-107
학교	-108
▁문	-109
▁출	-110
▁거	-111
▁포	-112
▁결	-113
된다	-114
▁《	-115
적인	-116
이라	-117
▁6	-118
▁우	-119
적으로	-120
▁불	-121
▁원	-122
▁최	-123
▁10	-124
▁진	-125
▁생	-126
▁작	-127
▁어	-128
▁당	-129
국의	-130
▁노	-131
▁강	-132
▁알	-133
▁반	-134
▁7	-135
▁8	-136
▁계	-137
▁따	-138
▁파	-139
▁분	-140
▁없	-141
▁받	-142
▁말	-143
면서	-144
들이	-145
or	-146
되었	-147
▁사용	-148
▁'	-149
▁두	-150
▁실	-151
에서는	-152
▁리	-153
들은	-154
▁명	-155
▁함	-156
▁단	-157
▁이후	-158
00	-159
하기	-160
▁예	-161
년에	-162
),	-163
▁한다	-164
▁안	-165
하게	-166
▁재	-167
▁9	-168
▁일본	-169
▁차	-170
▁설	-171
▁배	-172
▁에	-173
er	-174
▁199	-175
▁다음	-176
았다	-177
▁특	-178
▁요	-179
였다	-180
▁18	-181
▁데	-182
▁종	-183
으나	-184
▁초	-185
▁군	-186
▁로	-187
▁독	-188
▁12	-189
()	-190
la	-191
▁추	-192
▁김	-193
▁많	-194
▁그는	-195
▁~	-196
▁대한민	-197
▁되었다	-198
리아	-199
▁카	-200
▁활	-201
▁감	-202
▁라	-203
이며	-204
는데	-205
▁입	-206
on	-207
▁건	-208
스트	-209
▁타	-210
▁다른	-211
▁형	-212
▁더	-213
▁지역	-214
▁S	-215
▁참	-216
▁운	-217
▁매	-218
▁같은	-219
▁태	-220
▁및	-221
▁그리	-222
▁양	-223
▁위해	-224
▁평	-225
▁음	-226
▁11	-227
in	-228
▁행	-229
▁산	-230
주의	-231
▁적	-232
▁본	-233
▁)	-234
들어	-235
▁미국	-236
▁열	-237
▁과	-238
▁왕	-239
들의	-240
▁올	-241
▁승	-242
▁때문	-243
▁북	-244
▁크	-245
▁시작	-246
▁번	-247
기도	-248
an	-249
▁프로	-250
▁코	-251
들을	-252
▁피	-253
▁호	-254
▁총	-255
레이	-256
▁C	-257
라는	-258
▁목	-259
되는	-260
▁화	-261
▁그러	-262
▁회	-263
▁베	-264
▁따라	-265
▁임	-266
▁각	-267
▁198	-268
▁또한	-269
하며	-270
▁변	-271
▁사람	-272
▁함께	-273
▁A	-274
▁표	-275
▁외	-276
▁속	-277
▁처	-278
▁f	-279
라고	-280
▁경우	-281
▁물	-282
▁달	-283
▁M	-284
이나	-285
▁위치	-286
▁현재	-287
▁약	-288
시아	-289
▁자신	-290
▁민	-291
▁직	-292
▁이름	-293
mu	-294
하지	-295
▁새	-296
▁간	-297
▁학	-298
▁선수	-299
▁그의	-300
▁게	-301
▁F	-302
19	-303
▁드	-304
하다	-305
▁집	-306
▁기록	-307
▁영화	-308
▁당시	-309
되고	-310
▁한국	-311
▁for	-312
에도	-313
▁저	-314
▁항	-315
▁가장	-316
▁하나	-317
▁세계	-318
▁때문에	-319
en	-320
▁사이	-321
기에	-322
▁그러나	-323
mula	-324
▁존	-325
기를	-326
▁메	-327
▁점	-328
▁체	-329
ar	-330
▁박	-331
▁뒤	-332
▁것을	-333
▁확	-334
▁15	-335
▁또는	-336
▁formula	-337
▁했다	-338
▁조선	-339
▁있으며	-340
스의	-341
▁것으로	-342
▁197	-343
▁된다	-344
▁국가	-345
▁있었다	-346
이라고	-347
▁의해	-348
▁T	-349
▁것이	-350
▁레	-351
▁16	-352
▁복	-353
▁청	-354
▁축	-355
▁토	-356
▁못	-357
▁투	-358
▁천	-359
▁광	-360
리는	-361
▁필	-362
지는	-363
▁그리고	-364
▁브	-365
일에	-366
▁통해	-367
▁활동	-368
졌다	-369
▁법	-370
▁합	-371
▁프랑	-372
▁철	-373
▁17	-374
▁야	-375
al	-376
▁판	-377
등학교	-378
▁196	-379
▁근	-380
▁창	-381
▁증	-382
▁편	-383
▁삼	-384
했고	-385
▁디	-386
▁금	-387
▁B	-388
▁치	-389
▁살	-390
ti	-391
▁많은	-392
▁것이다	-393
▁언	-394
리를	-395
▁들어	-396
▁첫	-397
이라는	-398
▁돌	-399
▁버	-400
▁심	-401
▁높	-402
▁대한민국	-403
▁아니	-404
▁다음과	-405
▁‘	-406
하였고	-407
▁쓰	-408
(,	-409
▁D	-410
랜드	-411
▁하는	-412
▁뜻	-413
하면서	-414
▁경기	-415
스는	-416
20	-417
▁충	-418
▁다시	-419
▁황	-420
es	-421
▁플	-422
는다	-423
▁서울	-424
▁포함	-425
▁대해	-426
▁있었	-427
▁가지	-428
▁할	-429
이었다	-430
▁194	-431
▁I	-432
▁P	-433
▁여러	-434
▁애	-435
▁완	-436
▁네	-437
▁트	-438
▁K	-439
▁대한민국의	-440
대로	-441
▁14	-442
▁되	-443
사를	-444
▁병	-445
▁페	-446
로서	-447
km	-448
▁백	-449
▁독일	-450
이고	-451
▁큰	-452
상을	-453
▁죽	-454
개의	-455
이는	-456
▁하였다	-457
되었고	-458
▁모두	-459
▁루	-460
▁패	-461
▁용	-462
▁연구	-463
보다	-464
▁순	-465
▁팀	-466
▁도시	-467
▁클	-468
▁권	-469
▁13	-470
▁사회	-471
▁195	-472
장을	-473
▁채	-474
위를	-475
▁은	-476
▁모든	-477
▁L	-478
▁히	-479
▁취	-480
▁처음	-481
▁알려	-482
성을	-483
니아	-484
he	-485
지를	-486
▁규	-487
▁이루	-488
▁친	-489
▁시즌	-490
▁일부	-491
▁중국	-492
이었	-493
▁인구	-494
▁등이	-495
▁제작	-496
라이	-497
▁대표	-498
▁전쟁	-499
▁등의	-500
대의	-501
▁이용	-502
ic	-503
회의	-504
▁감독	-505
▁정부	-506
▁식	-507
▁축구	-508
▁손	-509
리에	-510
자가	-511
is	-512
▁아이	-513
▁위한	-514
▁존재	-515
년부터	-516
▁끝	-517
▁구성	-518
▁있어	-519
도의	-520
▁R	-521
부분	-522
했으며	-523
▁허	-524
▁정치	-525
▁즉	-526
▁이상	-527
도로	-528
▁영국	-529
▁G	-530
▁프랑스	-531
나라	-532
▁-	-533
력을	-534
▁이어	-535
▁테	-536
거나	-537
▁것은	-538
▁중심	-539
이자	-540
년에는	-541
▁일반	-542
▁문제	-543
▁자신의	-544
▁길	-545
▁같다	-546
▁맡	-547
▁나타	-548
시에	-549
▁월	-550
▁러	-551
▁가능	-552
▁온	-553
▁작품	-554
▁앞	-555
▁논	-556
▁뉴	-557
▁환	-558
▁N	-559
000	-560
▁게임	-561
기의	-562
▁개발	-563
▁걸	-564
▁맞	-565
▁리그	-566
▁곳	-567
▁이러	-568
▁동안	-569
▁갖	-570
▁193	-571
▁발견	-572
▁이러한	-573
▁기준	-574
▁캐	-575
▁접	-576
▁준	-577
리스	-578
▁H	-579
▁별	-580
▁새로	-581
▁하지만	-582
▁U	-583
▁주장	-584
▁30	-585
▁등을	-586
▁이는	-587
at	-588
년대	-589
▁면	-590
▁위치한	-591
▁발표	-592
▁향	-593
▁E	-594
▁밀	-595
통령	-596
하면	-597
▁국제	-598
le	-599
▁되어	-600
되었으며	-601
▁〈	-602
▁방송	-603
도록	-604
로부터	-605
▁농	-606
들과	-607
위원	-608
났다	-609
▁협	-610
(1	-611
▁지방	-612
시키	-613
▁볼	-614
로는	-615
▁잘	-616
re	-617
자의	-618
▁검	-619
▁의미	-620
기는	-621
▁2010	-622
▁섬	-623
▁이를	-624
▁대부분	-625
서는	-626
군의	-627
it	-628
▁사건	-629
▁전투	-630
ou	-631
리가	-632
기가	-633
다는	-634
▁공격	-635
에서도	-636
▁하고	-637
▁번째	-638
란드	-639
▁밝	-640
▁담	-641
월에	-642
▁폭	-643
사가	-644
▁육	-645
▁귀	-646
▁대회	-647
리카	-648
하였으며	-649
▁문화	-650
다고	-651
▁홍	-652
▁음악	-653
▁영향	-654
▁대학	-655
▁대통령	-656
▁막	-657
어진	-658
정을	-659
▁얻	-660
이트	-661
리그	-662
세기	-663
했던	-664
▁W	-665
년까지	-666
스를	-667
▁최초	-668
명의	-669
쪽으로	-670
▁참여	-671
▁미국의	-672
▁프로그	-673
▁석	-674
▁키	-675
▁극	-676
성이	-677
들에게	-678
▁설립	-679
▁날	-680
▁우승	-681
▁진행	-682
자를	-683
▁설치	-684
인의	-685
▁줄	-686
▁결과	-687
▁이에	-688
자는	-689
▁효	-690
▁특히	-691
▁앨	-692
와의	-693
도를	-694
▁발생	-695
10	-696
▁관계	-697
▁관련	-698
▁역사	-699
▁<	-700
▁일어	-701
el	-702
▁곡	-703
▁배우	-704
▁된	-705
림픽	-706
▁2008	-707
▁책	-708
▁그녀	-709
디오	-710
▁절	-711
▁“	-712
▁봉	-713
▁25	-714
▁유럽	-715
▁사망	-716
▁발매	-717
리의	-718
▁만들어	-719
▁다양	-720
자로	-721
대를	-722
렸다	-723
가지	-724
▁암	-725
▁같이	-726
▁러시아	-727
▁이전	-728
▁생각	-729
이스	-730
▁독립	-731
▁형태	-732
▁부분	-733
(19	-734
▁갈	-735
므로	-736
요한	-737
▁태어	-738
▁시간	-739
om	-740
▁사실	-741
▁폐	-742
▁글	-743
▁인해	-744
▁교육	-745
스터	-746
▁블	-747
▁헤	-748
st	-749
▁주로	-750
ol	-751
▁새로운	-752
▁소속	-753
▁질	-754
▁자유	-755
▁이것	-756
▁받아	-757
▁경제	-758
▁측	-759
▁2007	-760
▁좋	-761
▁수도	-762
▁지원	-763
▁2011	-764
▁받았다	-765
▁이탈	-766
▁있고	-767
스가	-768
▁2009	-769
르는	-770
▁기술	-771
▁올림픽	-772
라마	-773
▁2012	-774
▁중앙	-775
식을	-776
▁와	-777
▁계속	-778
과의	-779
▁침	-780
▁출신	-781
화국	-782
▁프로그램	-783
▁엔	-784
▁머	-785
▁t	-786
▁등장	-787
▁송	-788
번째	-789
▁지정	-790
▁잡	-791
▁로마	-792
▁커	-793
▁상태	-794
▁참가	-795
▁범	-796
▁구조	-797
▁있던	-798
도는	-799
▁누	-800
-1	-801
ch	-802
▁192	-803
▁데뷔	-804
▁탄	-805
▁벌	-806
▁골	-807
학자	-808
▁2014	-809
▁결정	-810
▁매우	-811
▁성공	-812
다가	-813
사의	-814
▁선거	-815
▁탈	-816
부의	-817
▁운영	-818
▁난	-819
리즈	-820
인이	-821
이지	-822
대학교	-823
am	-824
▁않았다	-825
프트	-826
▁아버	-827
▁혼	-828
으로서	-829
▁넘	-830
▁아들	-831
이션	-832
▁가지고	-833
르크	-834
▁J	-835
▁이탈리아	-836
▁2013	-837
전을	-838
▁21	-839
,000	-840
▁니	-841
▁타이	-842
드는	-843
▁몇	-844
비아	-845
▁일본의	-846
▁고려	-847
▁윤	-848
기로	-849
▁돌아	-850
▁없다	-851
명을	-852
▁급	-853
▁아니라	-854
▁슈	-855
하기도	-856
▁O	-857
▁들	-858
▁찾	-859
대에	-860
처럼	-861
tion	-862
▁터	-863
에서의	-864
ing	-865
▁차지	-866
해서	-867
▁결국	-868
▁만들	-869
장이	-870
▁100	-871
도가	-872
했지만	-873
▁24	-874
▁생산	-875
▁없는	-876
왔다	-877
▁한편	-878
되지	-879
▁운동	-880
▁악	-881
▁싱	-882
▁2015	-883
us	-884
et	-885
▁해당	-886
▁최고	-887
▁행정	-888
▁떨	-889
▁0	-890
▁조직	-891
il	-892
▁2006	-893
▁출연	-894
남도	-895
ro	-896
▁않고	-897
우스	-898
하자	-899
운데	-900
▁아래	-901
▁22	-902
▁23	-903
FA	-904
▁케	-905
사는	-906
▁앨범	-907
▁전체	-908
▁계획	-909
권을	-910
▁업	-911
▁좌	-912
▁많이	-913
간의	-914
▁이유	-915
▁내용	-916
▁2016	-917
▁2018	-918
부에	-919
▁쿠	-920
원을	-921
냈다	-922
▁가리	-923
명이	-924
▁라이	-925
▁폴	-926
화를	-927
▁음반	-928
스타	-929
▁여성	-930
▁둘	-931
▁유명	-932
▁따르	-933
군은	-934
수를	-935
▁방법	-936
선의	-937
일부터	-938
수의	-939
▁힘	-940
")	-941
▁가운데	-942
▁주요	-943
스크	-944
스템	-945
초등학교	-946
으로써	-947
원의	-948
▁떠	-949
▁하여	-950
▁후보	-951
▁빠	-952
of	-953
▁팔	-954
▁대학교	-955
▁역할	-956
▁제공	-957
▁데이	-958
▁남아	-959
as	-960
▁국민	-961
음을	-962
▁스타	-963
장으로	-964
어로	-965
장은	-966
▁2017	-967
▁다양한	-968
▁묘	-969
▁월드	-970
▁28	-971
진다	-972
▁몸	-973
▁26	-974
사로	-975
지의	-976
나는	-977
▁이루어	-978
▁않는다	-979
▁거의	-980
▁콘	-981
였던	-982
▁표현	-983
대학	-984
▁각각	-985
▁컴	-986
자인	-987
▁드라마	-988
하던	-989
▁인터	-990
▁잠	-991
리고	-992
민주	-993
▁27	-994
▁모습	-995
했으나	-996
▁헌	-997
이의	-998
인민	-999
인다	-1000
지가	-1001
▁스페	-1002
운동	-1003
▁수상	-1004
("	-1005
전에	-1006
스와	-1007
수가	-1008
▁연결	-1009
▁칼	-1010
머니	-1011
ra	-1012
BS	-1013
▁졸	-1014
하려	-1015
▁붙	-1016
de	-1017
▁191	-1018
▁마지	-1019
됐다	-1020
▁이름을	-1021
▁이미	-1022
으로는	-1023
▁V	-1024
▁격	-1025
▁공식	-1026
▁190	-1027
_1	-1028
▁경상	-1029
▁,	-1030
문화	-1031
▁출전	-1032
원이	-1033
▁알려져	-1034
▁얼	-1035
▁임명	-1036
▁필요	-1037
▁2005	-1038
▁시리즈	-1039
스로	-1040
성의	-1041
▁따라서	-1042
▁열린	-1043
가는	-1044
▁높은	-1045
으로부터	-1046
대표	-1047
위원회	-1048
점을	-1049
▁작은	-1050
▁마이	-1051
▁몰	-1052
력이	-1053
▁마지막	-1054
▁지구	-1055
▁영향을	-1056
▁시스템	-1057
▁뛰	-1058
제로	-1059
▁인정	-1060
▁공개	-1061
▁직접	-1062
▁과정	-1063
▁정보	-1064
▁능	-1065
시켰	-1066
지에	-1067
▁2000	-1068
대한	-1069
▁빌	-1070
▁따르면	-1071
▁of	-1072
었고	-1073
).	-1074
어를	-1075
▁대신	-1076
▁기원	-1077
▁이야	-1078
시의	-1079
상의	-1080
200	-1081
▁보고	-1082
이가	-1083
▁2004	-1084
▁개최	-1085
지고	-1086
▁진출	-1087
▁추가	-1088
▁대전	-1089
▁기능	-1090
북도	-1091
▁항공	-1092
▁센	-1093
▁자연	-1094
▁활약	-1095
있다	-1096
제를	-1097
▁않은	-1098
해야	-1099
▁엘	-1100
▁풍	-1101
▁그리스	-1102
▁평가	-1103
》(	-1104
군이	-1105
▁c	-1106
▁민주	-1107
▁시대	-1108
▁되는	-1109
▁쇼	-1110
▁29	-1111
▁그룹	-1112
▁정도	-1113
▁있는데	-1114
▁상황	-1115
▁홈	-1116
▁정의	-1117
▁오스트	-1118
▁녹	-1119
▁생활	-1120
▁유지	-1121
▁브라	-1122
▁눈	-1123
▁바이	-1124
▁그가	-1125
갔다	-1126
▁건물	-1127
▁졸업	-1128
▁말한다	-1129
이드	-1130
선을	-1131
사에	-1132
▁후에	-1133
ed	-1134
▁변경	-1135
▁비롯	-1136
▁먹	-1137
▁인도	-1138
▁인구는	-1139
▁철도	-1140
▁서로	-1141
▁노래	-1142
▁역시	-1143
수로	-1144
▁발전	-1145
▁크게	-1146
▁퍼	-1147
▁보여	-1148
▁핵	-1149
위에	-1150
▁아르	-1151
▁관한	-1152
▁제국	-1153
▁지금	-1154
▁않았	-1155
▁프리	-1156
▁압	-1157
▁중요한	-1158
ac	-1159
르트	-1160
▁여자	-1161
▁레이	-1162
▁응	-1163
인을	-1164
▁결혼	-1165
전에서	-1166
들에	-1167
▁건설	-1168
적은	-1169
▁뿐	-1170
▁인물	-1171
▁거쳐	-1172
▁울	-1173
▁그것	-1174
세의	-1175
지로	-1176
▁학교	-1177
▁뜻은	-1178
인은	-1179
▁사업	-1180
▁하였	-1181
ri	-1182
▁부산	-1183
부를	-1184
일까지	-1185
▁분류	-1186
▁m	-1187
원은	-1188
▁낮	-1189
계를	-1190
▁[	-1191
▁FC	-1192
▁관리	-1193
니다	-1194
치는	-1195
▁나라	-1196
▁2019	-1197
어는	-1198
50	-1199
식으로	-1200
▁경기도	-1201
▁상대	-1202
▁혹	-1203
▁이론	-1204
특별	-1205
▁일으	-1206
▁공동	-1207
킨다	-1208
▁반대	-1209
▁플레이	-1210
▁요구	-1211
▁가진	-1212
▁형성	-1213
▁희	-1214
▁딸	-1215
문을	-1216
전히	-1217
▁티	-1218
광역	-1219
임을	-1220
▁밴	-1221
▁만든	-1222
▁원래	-1223
▁연합	-1224
원으로	-1225
치를	-1226
▁놓	-1227
트로	-1228
부는	-1229
▁모델	-1230
▁기업	-1231
되면서	-1232
▁31	-1233
▁중화	-1234
▁시절	-1235
▁2002	-1236
▁않는	-1237
레스	-1238
수는	-1239
른다	-1240
▁동시에	-1241
▁색	-1242
▁군사	-1243
제가	-1244
▁이르	-1245
▁사이에	-1246
▁느	-1247
리오	-1248
▁실시	-1249
▁시작했다	-1250
▁지하	-1251
▁기본	-1252
▁워	-1253
운드	-1254
군을	-1255
하였으나	-1256
▁겸	-1257
장의	-1258
인민공	-1259
ent	-1260
▁싱글	-1261
▁2003	-1262
대는	-1263
▁어떤	-1264
상이	-1265
▁지역의	-1266
▁비판	-1267
▁승강	-1268
▁아닌	-1269
이었던	-1270
▁제외	-1271
▁노동	-1272
▁:	-1273
역이다	-1274
대가	-1275
프리카	-1276
회를	-1277
▁계약	-1278
▁긴	-1279
▁잉	-1280
제의	-1281
▁역할을	-1282
▁운행	-1283
정한	-1284
▁현대	-1285
▁학생	-1286
하는데	-1287
상으로	-1288
▁자동	-1289
▁50	-1290
▁싸	-1291
▁민족	-1292
▁명칭	-1293
▁지도	-1294
▁소련	-1295
▁야구	-1296
이기도	-1297
▁189	-1298
▁전통	-1299
▁처음으로	-1300
▁여기	-1301
주는	-1302
▁최초의	-1303
and	-1304
장에	-1305
▁전라	-1306
체의	-1307
명은	-1308
▁콜	-1309
▁판매	-1310
나다	-1311
▁보통	-1312
▁공간	-1313
▁휴	-1314
▁영화이다	-1315
스탄	-1316
▁이동	-1317
▁이때	-1318
▁망	-1319
되며	-1320
린다	-1321
있는	-1322
▁특징	-1323
▁수행	-1324
▁의한	-1325
▁있을	-1326
▁나오	-1327
12	-1328
▁「	-1329
▁기준으로	-1330
이를	-1331
18	-1332
▁기반	-1333
▁기간	-1334
▁넓	-1335
▁도입	-1336
▁달리	-1337
▁되고	-1338
단의	-1339
▁그래	-1340
▁초기	-1341
▁특별	-1342
자와	-1343
▁견	-1344
▁교황	-1345
호로	-1346
▁비슷	-1347
▁전문	-1348
▁옮	-1349
▁도쿄	-1350
소를	-1351
un	-1352
키는	-1353
▁서비	-1354
▁푸	-1355
▁개인	-1356
카이	-1357
▁있다고	-1358
▁인간	-1359
과는	-1360
▁하며	-1361
▁마을	-1362
▁위하여	-1363
적을	-1364
▁기존	-1365
▁종교	-1366
ig	-1367
연구	-1368
BC	-1369
.5	-1370
격을	-1371
서를	-1372
성은	-1373
▁다이	-1374
▁퇴	-1375
관은	-1376
▁웨	-1377
시마	-1378
▁바로	-1379
장에서	-1380
▁개의	-1381
▁혹은	-1382
)·	-1383
▁엄	-1384
ur	-1385
▁지나	-1386
▁혁	-1387
호를	-1388
체를	-1389
15	-1390
▁역임	-1391
독교	-1392
▁궁	-1393
▁월드컵	-1394
중에	-1395
▁애니	-1396
▁슬	-1397
▁벨	-1398
▁탑	-1399
가와	-1400
물을	-1401
▁과학	-1402
▁모양	-1403
▁훈	-1404
▁빈	-1405
시간	-1406
▁s	-1407
▁출시	-1408
os	-1409
▁1990	-1410
▁목록	-1411
▁기타	-1412
um	-1413
▁정책	-1414
▁어머니	-1415
."	-1416
▁사랑	-1417
▁유일	-1418
▁태양	-1419
고등학교	-1420
혔다	-1421
동안	-1422
▁지배	-1423
무를	-1424
트를	-1425
명이다	-1426
퓨터	-1427
▁이끌	-1428
▁아버지	-1429
▁국내	-1430
30	-1431
▁일반적으로	-1432
드로	-1433
했는데	-1434
드의	-1435
▁전국	-1436
▁될	-1437
텔레	-1438
▁경기에서	-1439
하지만	-1440
▁연방	-1441
▁경찰	-1442
▁기관	-1443
광역시	-1444
▁과거	-1445
od	-1446
리로	-1447
▁언어	-1448
▁소설	-1449
▁지휘	-1450
▁주변	-1451
16	-1452
▁공연	-1453
▁맥	-1454
리와	-1455
ation	-1456
도에	-1457
화가	-1458
▁동일	-1459
▁기원전	-1460
기관	-1461
ot	-1462
▁샤	-1463
▁p	-1464
▁중심으로	-1465
트의	-1466
▁부르	-1467
마다	-1468
피언	-1469
학과	-1470
방송	-1471
▁이적	-1472
쪽에	-1473
시켰다	-1474
▁40	-1475
▁산업	-1476
ad	-1477
▁2001	-1478
드를	-1479
▁이것은	-1480
▁보내	-1481
▁그를	-1482
▁받은	-1483
스코	-1484
▁적용	-1485
▁탐	-1486
▁가수	-1487
▁비교	-1488
▁FI	-1489
의를	-1490
▁흔	-1491
구의	-1492
▁먼	-1493
군에	-1494
▁1,	-1495
▁곧	-1496
호는	-1497
▁획	-1498
▁뮤	-1499
메이션	-1500
▁풀	-1501
위로	-1502
▁속하는	-1503
경기	-1504
▁받았	-1505
▁추정	-1506
▁밖	-1507
▁작업	-1508
▁지정되었다	-1509
▁있다는	-1510
▁확인	-1511
▁분야	-1512
▁클럽	-1513
▁충청	-1514
▁가까	-1515
쳤다	-1516
▁담당	-1517
▁떨어	-1518
id	-1519
ter	-1520
▁선정	-1521
▁받고	-1522
▁방영	-1523
▁the	-1524
▁찾아	-1525
▁건축	-1526
류의	-1527
▁컴퓨터	-1528
▁없이	-1529
동에	-1530
▁되었고	-1531
체가	-1532
리지	-1533
ve	-1534
▁노선	-1535
▁숙	-1536
▁착	-1537
▁국가대표	-1538
▁옥	-1539
당의	-1540
▁방향	-1541
▁챔	-1542
▁때문이다	-1543
▁기독교	-1544
년의	-1545
▁규모	-1546
▁열차	-1547
▁작곡	-1548
▁피해	-1549
어가	-1550
▁자기	-1551
트는	-1552
▁통합	-1553
▁득	-1554
사와	-1555
▁환경	-1556
-2	-1557
▁지지	-1558
비전	-1559
▁낙	-1560
▁염	-1561
▁차량	-1562
▁증가	-1563
▁배우이다	-1564
14	-1565
정에	-1566
단을	-1567
세는	-1568
야마	-1569
▁어느	-1570
▁두고	-1571
▁실패	-1572
스에	-1573
ow	-1574
▁설명	-1575
하거나	-1576
op	-1577
▁가족	-1578
▁대부분의	-1579
▁그녀는	-1580
글랜드	-1581
어의	-1582
60	-1583
조의	-1584
크로	-1585
▁우주	-1586
▁멤	-1587
인으로	-1588
▁개념	-1589
▁넣	-1590
르게	-1591
▁너	-1592
▁기념	-1593
▁늘	-1594
▁올라	-1595
▁활동을	-1596
종의	-1597
▁태어났다	-1598
▁갑	-1599
▁뉴욕	-1600
▁이런	-1601
11	-1602
▁윌	-1603
▁상당	-1604
▁챔피언	-1605
▁오늘	-1606
부가	-1607
▁최대	-1608
▁자신이	-1609
▁이와	-1610
중학교	-1611
나무	-1612
▁수록	-1613
▁이상의	-1614
▁보호	-1615
제는	-1616
ec	-1617
.2	-1618
회는	-1619
▁캐나다	-1620
인이다	-1621
동을	-1622
▁있지만	-1623
시켜	-1624
▁애니메이션	-1625
▁걸쳐	-1626
학적	-1627
이로	-1628
▁이름은	-1629
▁서울특별	-1630
▁TV	-1631
트남	-1632
▁1980	-1633
▁FIFA	-1634
일에는	-1635
▁데이터	-1636
▁사상	-1637
면에	-1638
▁사고	-1639
▁(19	-1640
▁하나이다	-1641
▁어린	-1642
원에	-1643
▁대체	-1644
교육	-1645
▁다음을	-1646
계의	-1647
▁없었다	-1648
▁1999	-1649
관을	-1650
▁있어서	-1651
렇게	-1652
움을	-1653
▁수는	-1654
▁등에	-1655
으면	-1656
▁대하여	-1657
적이	-1658
cm	-1659
▁멤버	-1660
▁·	-1661
em	-1662
세가	-1663
▁스페인	-1664
겼다	-1665
▁1998	-1666
식의	-1667
▁최초로	-1668
▁예정	-1669
▁최근	-1670
스카	-1671
이란	-1672
▁등으로	-1673
구에	-1674
▁있었던	-1675
치가	-1676
▁하다	-1677
13	-1678
▁뛰어	-1679
메리카	-1680
▁흐	-1681
▁나가	-1682
▁획득	-1683
▁위원	-1684
했다고	-1685
성과	-1686
일을	-1687
17	-1688
기와	-1689
▁땅	-1690
ag	-1691
▁선출	-1692
▁자료	-1693
80	-1694
심을	-1695
자들은	-1696
.)	-1697
ir	-1698
▁더욱	-1699
▁불가	-1700
▁공화국	-1701
드리	-1702
▁잉글랜드	-1703
식은	-1704
▁윈	-1705
▁텔레	-1706
▁개봉	-1707
▁선택	-1708
▁최종	-1709
▁내려	-1710
단은	-1711
▁구간	-1712
_2	-1713
식이	-1714
성에	-1715
했을	-1716
▁지역에	-1717
세를	-1718
지역	-1719
▁베이	-1720
▁인천	-1721
oc	-1722
▁맺	-1723
어서	-1724
▁부족	-1725
▁흑	-1726
▁솔	-1727
▁잔	-1728
ia	-1729
▁조사	-1730
▁조건	-1731
인민공화국	-1732
▁보인다	-1733
▁시민	-1734
널리	-1735
▁평균	-1736
▁d	-1737
▁정당	-1738
▁선언	-1739
학을	-1740
트리	-1741
40	-1742
▁물리	-1743
▁변화	-1744
▁앤	-1745
▁b	-1746
▁런	-1747
▁조지	-1748
시키는	-1749
되었으나	-1750
.0	-1751
▁연주	-1752
▁자리	-1753
▁명령	-1754
th	-1755
▁대구	-1756
▁선발	-1757
프로	-1758
▁어려	-1759
▁흥	-1760
▁1997	-1761
한다는	-1762
▁공산	-1763
덜란드	-1764
ver	-1765
개월	-1766
》,	-1767
시대	-1768
▁동물	-1769
▁연속	-1770
▁에너	-1771
▁도로	-1772
▁서울특별시	-1773
난다	-1774
렀다	-1775
▁결승	-1776
▁가리킨다	-1777
▁점령	-1778
▁칭	-1779
정부	-1780
▁있게	-1781
함으로써	-1782
▁이름으로	-1783
소가	-1784
▁불구	-1785
▁효과	-1786
라도	-1787
만을	-1788
▁작가	-1789
▁1995	-1790
▁반응	-1791
▁전기	-1792
호선	-1793
▁표준	-1794
명으로	-1795
▁Y	-1796
▁움	-1797
▁이들은	-1798
▁옛	-1799
▁관할	-1800
포츠	-1801
▁잃	-1802
년간	-1803
▁거주	-1804
▁좋은	-1805
▁국립	-1806
▁X	-1807
자들이	-1808
하도록	-1809
▁예를	-1810
▁헌법	-1811
내는	-1812
만이	-1813
▁언급	-1814
▁몽	-1815
▁교통	-1816
상에	-1817
이지만	-1818
ce	-1819
▁이유로	-1820
▁1996	-1821
회에서	-1822
▁팬	-1823
▁이해	-1824
▁아시아	-1825
▁선수이다	-1826
▁컨	-1827
구를	-1828
▁현재는	-1829
이에	-1830
▁고대	-1831
▁유사	-1832
▁후반	-1833
▁덕	-1834
▁마르	-1835
▁덴	-1836
쪽으로는	-1837
▁국가대표팀	-1838
▁그들의	-1839
▁승리	-1840
상은	-1841
▁전에	-1842
]]	-1843
▁징	-1844
▁네덜란드	-1845
웠다	-1846
▁익	-1847
비를	-1848
▁액	-1849
▁소유	-1850
▁주의	-1851
역을	-1852
▁출판	-1853
▁베트남	-1854
▁왜	-1855
인데	-1856
▁전자	-1857
▁조약	-1858
▁단체	-1859
▁목표	-1860
▁메이	-1861
▁정규	-1862
▁폴란드	-1863
스턴	-1864
▁사무	-1865
레일	-1866
▁겨	-1867
▁km	-1868
▁북한	-1869
었으며	-1870
진을	-1871
▁것이라고	-1872
nd	-1873
mm	-1874
▁휘	-1875
학의	-1876
모토	-1877
▁면적은	-1878
▁예술	-1879
으므로	-1880
▁공립	-1881
일랜드	-1882
▁명의	-1883
▁세포	-1884
▁지속	-1885
▁이곳	-1886
▁입단	-1887
▁하나의	-1888
▁맡았다	-1889
▁주민	-1890
주에	-1891
▁188	-1892
과에	-1893
▁현재의	-1894
▁1994	-1895
랐다	-1896
▁시설	-1897
▁구분	-1898
라의	-1899
▁모습을	-1900
월에는	-1901
▁쌍	-1902
▁깊	-1903
▁밤	-1904
▁이듬	-1905
▁밝혔다	-1906
▁국회의	-1907
▁하지	-1908
▁버전	-1909
▁정신	-1910
▁영국의	-1911
정이	-1912
▁하나로	-1913
▁1970	-1914
민주주의	-1915
▁정확	-1916
▁드러	-1917
▁우리	-1918
▁불구하고	-1919
▁돈	-1920
▁사용하는	-1921
▁대중	-1922
▁아직	-1923
베이	-1924
되기	-1925
▁지상	-1926
▁말했다	-1927
▁끌	-1928
▁실험	-1929
▁소프트	-1930
▁실제	-1931
▁오늘날	-1932
▁소비	-1933
ay	-1934
▁강화	-1935
지지	-1936
▁그런	-1937
▁1992	-1938
▁분리	-1939
▁쓴	-1940
70	-1941
계에	-1942
▁씨	-1943
라스	-1944
지방	-1945
자리	-1946
..	-1947
▁포르	-1948
▁제한	-1949
▁유래	-1950
사카	-1951
▁[[	-1952
▁그림	-1953
원에서	-1954
▁세워	-1955
▁거두	-1956
▁이듬해	-1957
▁육군	-1958
▁사이의	-1959
나이	-1960
▁믿	-1961
단에	-1962
▁크리스	-1963
스키	-1964
관이	-1965
치고	-1966
주시	-1967
▁핀	-1968
직을	-1969
지와	-1970
▁페르	-1971
금을	-1972
▁가문	-1973
▁웹	-1974
메달	-1975
소의	-1976
버스	-1977
▁알려진	-1978
단이	-1979
▁은퇴	-1980
▁불리	-1981
▁언론	-1982
시코	-1983
▁고등학교	-1984
회에	-1985
▁통과	-1986
부르크	-1987
거리	-1988
월부터	-1989
스테	-1990
▁비해	-1991
▁찬	-1992
The	-1993
▁분석	-1994
가의	-1995
골을	-1996
▁위에	-1997
▁널리	-1998
im	-1999
▁남자	-2000
▁포함한	-2001
회가	-2002
형을	-2003
▁그들은	-2004
▁의미한다	-2005
들로	-2006
▁제품	-2007
▁물질	-2008
톨릭	-2009
▁방문	-2010
베르	-2011
▁나온	-2012
▁발달	-2013
▁헬	-2014
▁칸	-2015
▁펼	-2016
▁움직	-2017
▁회사	-2018
▁등과	-2019
장과	-2020
정의	-2021
▁중에	-2022
ul	-2023
바이	-2024
)'	-2025
▁경험	-2026
로의	-2027
▁1991	-2028
철도	-2029
▁차례	-2030
▁이사	-2031
▁결합	-2032
스티	-2033
▁못했다	-2034
▁완전히	-2035
▁제조	-2036
체는	-2037
▁홀	-2038
법을	-2039
▁비행	-2040
▁설계	-2041
▁크로	-2042
▁바탕	-2043
불어	-2044
하의	-2045
▁자치	-2046
▁친구	-2047
▁프로젝	-2048
르고	-2049
▁것에	-2050
드가	-2051
루스	-2052
이어	-2053
▁여겨	-2054
▁1993	-2055
-0	-2056
▁전해	-2057
▁꽃	-2058
▁괴	-2059
▁사람이	-2060
▁연기	-2061
▁요청	-2062
▁갖고	-2063
▁부여	-2064
te	-2065
▁배치	-2066
▁더불어	-2067
들도	-2068
아의	-2069
▁통일	-2070
▁멸	-2071
▁자주	-2072
▁때까지	-2073
▁소재	-2074
당은	-2075
▁1960	-2076
▁마음	-2077
▁스웨	-2078
러스	-2079
선에	-2080
▁정도로	-2081
점이	-2082
▁알렉	-2083
▁독일의	-2084
사업	-2085
▁수준	-2086
▁프랑스의	-2087
▁비롯한	-2088
▁주연	-2089
일본	-2090
▁빛	-2091
시는	-2092
▁런던	-2093
EFA	-2094
▁브라질	-2095
산을	-2096
▁맨	-2097
▁멀	-2098
▁깨	-2099
소는	-2100
▁제안	-2101
▁나머	-2102
▁오른	-2103
▁중요	-2104
▁그대로	-2105
찬가지	-2106
TV	-2107
▁영토	-2108
▁목적으로	-2109
▁마찬가지	-2110
▁1988	-2111
▁초등학교	-2112
▁오래	-2113
▁파괴	-2114
▁요시	-2115
로를	-2116
▁쉽	-2117
▁바뀌	-2118
릭터	-2119
▁유전	-2120
트가	-2121
▁아프리카	-2122
▁감독의	-2123
▁스스로	-2124
▁이로	-2125
위가	-2126
부로	-2127
▁주인	-2128
경을	-2129
▁텔레비전	-2130
스토	-2131
▁않아	-2132
웨어	-2133
▁인터넷	-2134
▁만나	-2135
▁유명한	-2136
▁60	-2137
위는	-2138
▁확장	-2139
지에서	-2140
기술	-2141
우는	-2142
▁있도록	-2143
▁외국	-2144
▁패배	-2145
관으로	-2146
》()	-2147
▁성장	-2148
.3	-2149
▁이들	-2150
▁식민	-2151
인과	-2152
정은	-2153
▁추진	-2154
▁밝혀	-2155
선거	-2156
가를	-2157
▁오스트리아	-2158
었던	-2159
▁의하여	-2160
▁많다	-2161
▁치료	-2162
ap	-2163
",	-2164
▁스웨덴	-2165
문에	-2166
위의	-2167
▁존재한다	-2168
▁사라	-2169
선이	-2170
▁달러	-2171
▁UEFA	-2172
▁하이	-2173
물의	-2174
▁지난	-2175
▁우승을	-2176
▁아마	-2177
주를	-2178
▁남부	-2179
▁기여	-2180
▁사람들이	-2181
▁칠	-2182
▁가르	-2183
받았다	-2184
▁복귀	-2185
되기도	-2186
일의	-2187
지게	-2188
감을	-2189
르의	-2190
▁불교	-2191
아가	-2192
▁경우가	-2193
▁경쟁	-2194
▁1989	-2195
종이다	-2196
▁혈	-2197
없이	-2198
▁스포츠	-2199
영화	-2200
▁과정에서	-2201
신을	-2202
▁강력	-2203
▁근처	-2204
▁법률	-2205
▁습	-2206
▁몬	-2207
▁짧	-2208
▁되었	-2209
▁먼저	-2210
▁일어나	-2211
▁하계	-2212
▁캐릭터	-2213
▁공항	-2214
▁해석	-2215
▁왕국	-2216
회사	-2217
▁있으나	-2218
▁이외	-2219
▁초대	-2220
라인	-2221
멕시코	-2222
NA	-2223
▁주도	-2224
▁것이었다	-2225
많은	-2226
▁영어	-2227
▁접근	-2228
48	-2229
▁수용	-2230
▁가톨릭	-2231
▁광주	-2232
규모	-2233
▁폐지	-2234
력은	-2235
▁집합	-2236
▁일제	-2237
▁밴드	-2238
▁서식	-2239
▁들어가	-2240
▁관측	-2241
▁불리는	-2242
▁품	-2243
▁선수로	-2244
이기	-2245
카와	-2246
하라	-2247
스에서	-2248
레일리아	-2249
▁KBS	-2250
▁가능하다	-2251
▁단순	-2252
군과	-2253
도와	-2254
▁알고	-2255
조는	-2256
▁그녀의	-2257
▁잇	-2258
▁작용	-2259
▁제작된	-2260
▁개혁	-2261
▁특정	-2262
▁촉	-2263
li	-2264
구는	-2265
행을	-2266
▁스위	-2267
정보	-2268
▁않다	-2269
25	-2270
오는	-2271
▁가져	-2272
디어	-2273
▁구성되어	-2274
▁기초	-2275
형의	-2276
▁필리	-2277
화국의	-2278
▁이야기	-2279
▁도착	-2280
▁십	-2281
▁인민	-2282
▁노르	-2283
▁때는	-2284
▁결성	-2285
하다가	-2286
▁여기서	-2287
과학	-2288
▁교수	-2289
하이	-2290
▁제국의	-2291
소년	-2292
▁비슷한	-2293
자이다	-2294
og	-2295
▁70	-2296
주로	-2297
▁여객	-2298
▁성립	-2299
▁술	-2300
▁St	-2301
졌고	-2302
▁/	-2303
▁강원	-2304
▁자동차	-2305
▁조각	-2306
량이	-2307
간다	-2308
▁186	-2309
▁해결	-2310
▁궤	-2311
▁조선민주주의	-2312
▁선수권	-2313
▁수많은	-2314
수한	-2315
전의	-2316
▁거부	-2317
▁록	-2318
▁떨어진	-2319
▁스테	-2320
하였는데	-2321
▁아카	-2322
크의	-2323
▁해안	-2324
▁경영	-2325
_3	-2326
▁앙	-2327
웨이	-2328
▁사용한다	-2329
▁디자인	-2330
▁파견	-2331
▁기록했다	-2332
▁상대로	-2333
▁삼성	-2334
▁반란	-2335
속도로	-2336
고를	-2337
▁아무	-2338
시를	-2339
▁지역에서	-2340
▁라디오	-2341
▁바꾸	-2342
▁지냈다	-2343
했다는	-2344
▁행동	-2345
선은	-2346
▁상호	-2347
▁생성	-2348
▁의하면	-2349
▁보다	-2350
ab	-2351
▁동맹	-2352
▁『	-2353
▁다르	-2354
▁발행	-2355
▁겪	-2356
▁중간	-2357
▁아시	-2358
▁히로	-2359
▁여름	-2360
▁미국에서	-2361
▁북쪽	-2362
▁그린	-2363
▁이루어진	-2364
▁살아	-2365
▁놀	-2366
전이	-2367
▁외교	-2368
어나	-2369
▁187	-2370
▁의원	-2371
▁대표적인	-2372
▁을	-2373
▁남쪽	-2374
▁황제	-2375
▁프레	-2376
90	-2377
▁제시	-2378
▁부정	-2379
▁당선	-2380
센터	-2381
구가	-2382
하기로	-2383
▁나무	-2384
▁대해서	-2385
▁승강장	-2386
▁훈련	-2387
▁슈퍼	-2388
▁지하철	-2389
함을	-2390
▁공작	-2391
▁임시	-2392
▁분포	-2393
자에	-2394
▁타이틀	-2395
▁다만	-2396
▁시행	-2397
▁만에	-2398
▁2020	-2399
촬영	-2400
▁논란	-2401
량을	-2402
▁것과	-2403
▁마찬가지로	-2404
▁오스트레일리아	-2405
▁1945	-2406
(200	-2407
▁형태로	-2408
▁이렇게	-2409
▁투표	-2410
▁근거	-2411
▁위해서	-2412
▁엔진	-2413
미터	-2414
▁in	-2415
부에서	-2416
▁방어	-2417
▁이주	-2418
▁상징	-2419
▁처리	-2420
트워	-2421
관의	-2422
ard	-2423
▁흡	-2424
▁캠	-2425
▁중에서	-2426
▁빅	-2427
와는	-2428
인트	-2429
▁번역	-2430
▁위험	-2431
아시아	-2432
▁계열	-2433
▁대응	-2434
▁시작하였다	-2435
낸다	-2436
▁교회	-2437
▁일을	-2438
▁1950	-2439
▁끝에	-2440
(20	-2441
▁윌리	-2442
만의	-2443
▁스트	-2444
전은	-2445
왕의	-2446
▁1986	-2447
나가	-2448
▁출생	-2449
▁등록	-2450
▁유니	-2451
았고	-2452
▁부른다	-2453
▁멕시코	-2454
▁1987	-2455
▁디지	-2456
▁년	-2457
지션	-2458
▁표시	-2459
▁벽	-2460
▁개통	-2461
▁야마	-2462
였고	-2463
한다고	-2464
▁시도	-2465
▁n	-2466
▁재판	-2467
업을	-2468
▁제주	-2469
교회	-2470
면을	-2471
시즌	-2472
으면서	-2473
▁붕	-2474
▁꾸	-2475
▁체포	-2476
성으로	-2477
▁준비	-2478
▁사용된다	-2479
▁값	-2480
평양	-2481
▁곳에	-2482
▁즉위	-2483
▁몇몇	-2484
▁있었고	-2485
▁뇌	-2486
▁통치	-2487
조선	-2488
▁있기	-2489
크라	-2490
▁규정	-2491
▁?	-2492
▁삶	-2493
화된	-2494
.1	-2495
.4	-2496
사에서	-2497
▁한국의	-2498
▁아일랜드	-2499
사회	-2500
▁이름이	-2501
▁숨	-2502
21	-2503
▁적이	-2504
▁사용할	-2505
▁곤	-2506
점으로	-2507
▁좋아	-2508
▁시험	-2509
조를	-2510
년을	-2511
요일	-2512
▁회의	-2513
어졌다	-2514
23	-2515
▁활용	-2516
▁쌓	-2517
▁체결	-2518
▁동생	-2519
▁바다	-2520
▁보유	-2521
리에서	-2522
문화재	-2523
▁중단	-2524
24	-2525
▁따른	-2526
▁캘	-2527
디아	-2528
▁제기	-2529
▁대해서는	-2530
▁벤	-2531
화의	-2532
오카	-2533
.6	-2534
86	-2535
ut	-2536
▁그렇	-2537
학생	-2538
ie	-2539
▁있지	-2540
▁낳	-2541
대와	-2542
▁본래	-2543
▁1984	-2544
▁보존	-2545
▁다카	-2546
▁미사	-2547
▁안정	-2548
▁다루	-2549
▁종합	-2550
▁나타나	-2551
인들이	-2552
▁조성	-2553
▁가정	-2554
▁직후	-2555
▁귀족	-2556
▁80	-2557
▁유로	-2558
▁경상북도	-2559
▁윈도	-2560
나의	-2561
연합	-2562
▁카를	-2563
▁관련된	-2564
▁종류	-2565
▁밑	-2566
물이	-2567
▁나머지	-2568
부와	-2569
국이	-2570
당이	-2571
해졌다	-2572
▁얼마	-2573
▁시기	-2574
▁지적	-2575
량은	-2576
▁표기	-2577
▁경상남도	-2578
▁계승	-2579
수이다	-2580
ine	-2581
가이다	-2582
도시	-2583
▁살해	-2584
▁주인공	-2585
▁촬영	-2586
ht	-2587
▁것도	-2588
▁오브	-2589
▁못하고	-2590
35	-2591
▁완성	-2592
.7	-2593
▁보수	-2594
▁센터	-2595
가로	-2596
습니다	-2597
▁하루	-2598
▁1985	-2599
▁팀의	-2600
▁문학	-2601
▁엘리	-2602
▁서비스	-2603
▁and	-2604
▁못한	-2605
▁떠나	-2606
▁혁명	-2607
였으며	-2608
▁옮겨	-2609
▁사진	-2610
▁내각	-2611
리포	-2612
로가	-2613
니는	-2614
▁동쪽	-2615
▁오후	-2616
ion	-2617
▁수비	-2618
력의	-2619
나라의	-2620
트에서	-2621
러운	-2622
▁대사	-2623
▁둔	-2624
▁강한	-2625
되자	-2626
ess	-2627
하에	-2628
▁천황	-2629
▁가능한	-2630
▁금지	-2631
▁대륙	-2632
▁혐	-2633
역으로	-2634
▁유일한	-2635
▁이루어져	-2636
▁위치하고	-2637
▁싶	-2638
인지	-2639
시키고	-2640
전한	-2641
권의	-2642
선에서	-2643
롭게	-2644
▁홍콩	-2645
자들의	-2646
소에	-2647
내고	-2648
▁묘사	-2649
시킨	-2650
▁이스	-2651
▁취임	-2652
안을	-2653
소로	-2654
주교	-2655
▁윌리엄	-2656
▁안에	-2657
▁류	-2658
▁달성	-2659
▁왼	-2660
체로	-2661
려고	-2662
▁유대	-2663
nt	-2664
서로	-2665
▁비디오	-2666
▁젊	-2667
▁디지털	-2668
▁바르	-2669
국은	-2670
▁해외	-2671
▁스코	-2672
▁의견	-2673
계가	-2674
▁종료	-2675
▁포르투	-2676
티아	-2677
學校	-2678
▁충돌	-2679
▁정부는	-2680
▁르	-2681
▁베르	-2682
▁물론	-2683
▁이용하여	-2684
력으로	-2685
▁벗	-2686
▁스튜	-2687
▁친일	-2688
89	-2689
▁각종	-2690
▁일어난	-2691
▁소개	-2692
▁인근	-2693
▁중의	-2694
▁경우에는	-2695
▁이집	-2696
▁지명	-2697
br	-2698
ak	-2699
민족	-2700
치의	-2701
피아	-2702
▁전달	-2703
▁근무	-2704
▁사이에서	-2705
▁필요한	-2706
▁간의	-2707
▁아내	-2708
▁35	-2709
▁위치해	-2710
▁승격	-2711
▁문제가	-2712
▁오사카	-2713
세에	-2714
▁주목	-2715
▁관광	-2716
헝가	-2717
▁억	-2718
▁2,	-2719
▁경기를	-2720
▁가까운	-2721
당을	-2722
▁발사	-2723
▁지역을	-2724
월까지	-2725
로로	-2726
▁빨	-2727
치로	-2728
▁낮은	-2729
▁읽	-2730
▁참여하였다	-2731
▁말을	-2732
▁도시로	-2733
▁32	-2734
▁제거	-2735
임스	-2736
▁베네	-2737
ity	-2738
)"	-2739
▁죄	-2740
▁아니다	-2741
▁나누	-2742
▁파이	-2743
▁관계를	-2744
▁위의	-2745
▁전환	-2746
▁듣	-2747
▁이슬	-2748
분을	-2749
적으로는	-2750
조가	-2751
92	-2752
▁1982	-2753
▁합류	-2754
45	-2755
분에	-2756
▁만들었다	-2757
▁남북	-2758
▁둘러	-2759
▁가입	-2760
▁뒤에	-2761
▁알렉산	-2762
▁문제를	-2763
량의	-2764
▁만들어진	-2765
▁폰	-2766
▁썼	-2767
단으로	-2768
▁굴	-2769
작용	-2770
▁중국의	-2771
▁미술	-2772
▁해군	-2773
▁서쪽	-2774
기업	-2775
▁빼	-2776
▁이래	-2777
승을	-2778
워드	-2779
▁명예	-2780
고로	-2781
▁만화	-2782
라우	-2783
▁에이	-2784
▁되었으며	-2785
▁평화	-2786
▁후쿠	-2787
ph	-2788
▁제도	-2789
▁수가	-2790
▁꼬	-2791
▁출신의	-2792
▁주는	-2793
준다	-2794
니스	-2795
▁불린다	-2796
▁건너	-2797
▁구조를	-2798
▁즐	-2799
▁Ch	-2800
',	-2801
▁북부	-2802
.(	-2803
▁갖추	-2804
물관	-2805
그룹	-2806
▁뮤직	-2807
라고도	-2808
▁1983	-2809
▁바탕으로	-2810
▁네트워	-2811
▁미래	-2812
▁정식	-2813
지도	-2814
▁그려	-2815
▁반면	-2816
▁계산	-2817
▁실제로	-2818
석을	-2819
▁옆	-2820
론을	-2821
▁실행	-2822
▁멜	-2823
▁신라	-2824
▁전반	-2825
상과	-2826
▁전시	-2827
▁전략	-2828
되었던	-2829
▁펜	-2830
▁종목	-2831
종이	-2832
▁최고의	-2833
▁너무	-2834
▁마련	-2835
▁정치적	-2836
▁기존의	-2837
▁제목	-2838
인들은	-2839
▁만약	-2840
만에	-2841
일은	-2842
문학	-2843
▁전라남도	-2844
메이	-2845
▁w	-2846
▁부문	-2847
계는	-2848
▁주었다	-2849
신의	-2850
▁오르	-2851
▁In	-2852
권이	-2853
85	-2854
▁사실을	-2855
▁납	-2856
프는	-2857
▁재직	-2858
▁MBC	-2859
▁그해	-2860
▁비밀	-2861
ist	-2862
시가	-2863
▁기록을	-2864
▁저항	-2865
산으로	-2866
버트	-2867
▁스토	-2868
▁집중	-2869
▁신문	-2870
▁강조	-2871
이던	-2872
ge	-2873
▁The	-2874
▁통하여	-2875
▁사람은	-2876
▁가는	-2877
▁인식	-2878
산의	-2879
▁부모	-2880
▁넘어	-2881
리어	-2882
미널	-2883
▁맹	-2884
▁배경	-2885
▁생물	-2886
▁연장	-2887
ber	-2888
▁기후	-2889
산업	-2890
"(	-2891
즈의	-2892
사이	-2893
먼트	-2894
상에서	-2895
▁작성	-2896
-3	-2897
ne	-2898
생활	-2899
관리	-2900
▁아키	-2901
메달을	-2902
▁상업	-2903
▁던	-2904
▁사령	-2905
이라고도	-2906
▁정착	-2907
▁마이크로	-2908
점에서	-2909
▁불러	-2910
▁성격	-2911
비가	-2912
크는	-2913
했기	-2914
▁무렵	-2915
▁II	-2916
▁인한	-2917
로스	-2918
년대에	-2919
CA	-2920
차를	-2921
▁적극	-2922
▁기능을	-2923
▁끼	-2924
▁제외한	-2925
▁하기	-2926
라노	-2927
▁보여주	-2928
▁영역	-2929
질을	-2930
세포	-2931
est	-2932
▁허용	-2933
▁혜	-2934
▁객	-2935
단체	-2936
▁공급	-2937
보다는	-2938
▁아우	-2939
졌으며	-2940
해를	-2941
▁올랐다	-2942
은행	-2943
교의	-2944
공항	-2945
두고	-2946
시대의	-2947
장이다	-2948
로운	-2949
▁로스	-2950
▁내부	-2951
▁확대	-2952
▁셀	-2953
▁뿐만	-2954
에게는	-2955
▁유형	-2956
▁왔다	-2957
법원	-2958
▁대회에서	-2959
파의	-2960
▁이후에	-2961
전쟁	-2962
47	-2963
▁최소	-2964
▁입학	-2965
▁사용하여	-2966
▁사회주의	-2967
all	-2968
▁일반적인	-2969
▁나중에	-2970
▁일이	-2971
ran	-2972
▁의사	-2973
▁오스	-2974
▁사람을	-2975
밖에	-2976
)》	-2977
계에서	-2978
프가	-2979
▁항상	-2980
▁헨	-2981
▁포지션	-2982
22	-2983
▁받아들	-2984
▁정부의	-2985
▁생활을	-2986
▁이슬람	-2987
▁1979	-2988
리포니아	-2989
▁여전히	-2990
▁지진	-2991
▁뒷	-2992
▁족	-2993
▁터키	-2994
▁만드는	-2995
.8	-2996
▁부근	-2997
적이고	-2998
가가	-2999
물로	-3000
▁1981	-3001
▁국방	-3002
▁보면	-3003
▁인디	-3004
▁관찰	-3005
▁전투에서	-3006
르타	-3007
▁이번	-3008
▁제정	-3009
▁케이	-3010
▁그래서	-3011
래프트	-3012
되었는데	-3013
qu	-3014
.9	-3015
▁시대의	-3016
▁판단	-3017
세이	-3018
▁출발	-3019
▁보도	-3020
▁동료	-3021
▁동부	-3022
▁연극	-3023
▁1972	-3024
년과	-3025
▁원자	-3026
▁확보	-3027
▁핀란드	-3028
호가	-3029
과를	-3030
▁위협	-3031
▁있었지만	-3032
개발	-3033
기고	-3034
▁편집	-3035
▁채널	-3036
▁매년	-3037
원과	-3038
주가	-3039
▁사용되는	-3040
한국	-3041
ers	-3042
▁a	-3043
▁덴마	-3044
▁보이	-3045
▁붕괴	-3046
▁선의	-3047
▁가리키는	-3048
ub	-3049
▁바람	-3050
▁쉽게	-3051
▁포르투갈	-3052
▁국왕	-3053
▁뒤를	-3054
면의	-3055
▁등은	-3056
시오	-3057
다이	-3058
▁경우도	-3059
27	-3060
▁정리	-3061
사령	-3062
▁de	-3063
까지의	-3064
▁채택	-3065
로도	-3066
서관	-3067
▁마리아	-3068
았으며	-3069
▁문서	-3070
26	-3071
끄는	-3072
▁젊은	-3073
력에	-3074
▁충분	-3075
▁90	-3076
▁동계	-3077
▁교체	-3078
▁전개	-3079
36	-3080
▁마사	-3081
동차	-3082
▁흰	-3083
▁높이	-3084
실을	-3085
▁이승	-3086
경제	-3087
▁방식	-3088
▁시의	-3089
시로	-3090
▁범죄	-3091
▁시작되었다	-3092
▁1973	-3093
▁합병	-3094
▁500	-3095
▁세운	-3096
▁유리	-3097
▁남동	-3098
대전	-3099
tic	-3100
▁승리를	-3101
▁끊	-3102
▁모스크	-3103
▁일종이다	-3104
ST	-3105
▁남편	-3106
▁외에도	-3107
▁말이다	-3108
▁공격을	-3109
▁겨울	-3110
▁다섯	-3111
▁감소	-3112
art	-3113
▁하자	-3114
▁점차	-3115
37	-3116
▁아나	-3117
▁장기	-3118
ell	-3119
▁척	-3120
세기에	-3121
▁시기에	-3122
46	-3123
구려	-3124
▁없어	-3125
▁득점	-3126
모리	-3127
화에	-3128
▁떨어져	-3129
FC	-3130
라운드	-3131
▁계약을	-3132
▁자리를	-3133
▁밖에	-3134
력과	-3135
비는	-3136
▁탑재	-3137
▁측정	-3138
트라	-3139
▁귀국	-3140
당에	-3141
드와	-3142
▁강력한	-3143
로서의	-3144
87	-3145
▁옹	-3146
배우	-3147
▁등에서	-3148
▁전사	-3149
▁의해서	-3150
▁중학교	-3151
▁사람들은	-3152
▁울산	-3153
리기	-3154
▁사용한	-3155
▁서부	-3156
▁블랙	-3157
▁k	-3158
음악	-3159
▁구축	-3160
▁그곳	-3161
의로	-3162
▁녹음	-3163
▁잠시	-3164
하려는	-3165
▁강원도	-3166
▁민간	-3167
▁수학	-3168
대에서	-3169
테인	-3170
▁본관은	-3171
▁얼굴	-3172
▁수립	-3173
▁관심을	-3174
▁냉	-3175
데미	-3176
▁갖춘	-3177
▁하게	-3178
▁성우	-3179
▁책임	-3180
까지는	-3181
▁세르	-3182
▁설립된	-3183
▁에드	-3184
자치	-3185
▁하면서	-3186
계로	-3187
▁당시의	-3188
▁헝가	-3189
문이	-3190
▁캘리포니아	-3191
▁안전	-3192
▁정보를	-3193
▁통신	-3194
▁충청남도	-3195
▁해체	-3196
▁필리핀	-3197
당한	-3198
▁구역	-3199
▁주장했다	-3200
▁변호	-3201
협회	-3202
▁시청	-3203
▁흘	-3204
▁인수	-3205
▁평양	-3206
▁g	-3207
95	-3208
▁파일	-3209
▁증거	-3210
설을	-3211
▁춘	-3212
▁마쓰	-3213
▁45	-3214
▁신경	-3215
▁1974	-3216
▁185	-3217
라엘	-3218
일보	-3219
붉은	-3220
▁알아	-3221
▁불과	-3222
▁자체	-3223
▁화학	-3224
▁침공	-3225
▁해방	-3226
▁균	-3227
구로	-3228
▁만족	-3229
uc	-3230
스케	-3231
▁왔	-3232
해의	-3233
▁집단	-3234
정으로	-3235
▁구단	-3236
▁잎	-3237
받아	-3238
트에	-3239
▁레코	-3240
되었지만	-3241
면에서	-3242
▁v	-3243
▁주연으로	-3244
▁길이	-3245
▁예선	-3246
▁간주	-3247
98	-3248
▁종종	-3249
틀랜드	-3250
▁사후	-3251
▁발표했다	-3252
▁나뉘	-3253
▁게이	-3254
▁소프트웨어	-3255
다운	-3256
▁경향	-3257
▁요리	-3258
▁라이브	-3259
네시아	-3260
▁건강	-3261
▁델	-3262
일러	-3263
▁여행	-3264
▁시내	-3265
▁대립	-3266
▁쇠	-3267
용으로	-3268
▁나폴	-3269
우리	-3270
▁샌	-3271
▁기획	-3272
민국	-3273
개를	-3274
사키	-3275
▁좀	-3276
무원	-3277
티브	-3278
▁이끄는	-3279
ice	-3280
▁텍	-3281
▁쪽	-3282
▁이란	-3283
▁개봉한	-3284
▁쓰인다	-3285
▁인간의	-3286
하나	-3287
하다고	-3288
▁임명되었다	-3289
약을	-3290
레이션	-3291
리스트	-3292
▁에스	-3293
▁무역	-3294
▁편입	-3295
▁죽은	-3296
▁음력	-3297
같은	-3298
▁1976	-3299
▁봄	-3300
▁찰	-3301
▁회원	-3302
▁태평양	-3303
었는데	-3304
▁정상	-3305
▁힘을	-3306
류를	-3307
▁컬	-3308
▁나오는	-3309
티나	-3310
▁자신을	-3311
학년	-3312
▁짓	-3313
▁폭발	-3314
▁태어난	-3315
▁때에는	-3316
▁제임스	-3317
▁받는	-3318
▁방식으로	-3319
our	-3320
▁엑	-3321
▁인사	-3322
자들을	-3323
▁1978	-3324
▁회복	-3325
자에게	-3326
▁개편	-3327
▁비교적	-3328
▁대형	-3329
▁인기를	-3330
▁수입	-3331
▁한다는	-3332
se	-3333
▁장애	-3334
명한	-3335
75	-3336
▁대상	-3337
후의	-3338
▁설치되어	-3339
▁속에	-3340
▁뛰어난	-3341
▁연맹	-3342
하고자	-3343
키아	-3344
▁기계	-3345
▁라틴	-3346
리학	-3347
▁사례	-3348
▁둥	-3349
▁공공	-3350
▁조정	-3351
박쥐	-3352
▁자본	-3353
▁수정	-3354
▁국회의원	-3355
적이다	-3356
▁아름	-3357
점에	-3358
...	-3359
었으나	-3360
▁1920	-3361
▁조선민주주의인민공화국	-3362
▁&	-3363
▁특수	-3364
▁1971	-3365
▁신설	-3366
▁남성	-3367
▁노력	-3368
▁후손	-3369
▁어떻	-3370
다른	-3371
▁했지만	-3372
▁블루	-3373
라비아	-3374
▁메이저	-3375
신이	-3376
▁루이	-3377
▁에피	-3378
초등학교는	-3379
음이의	-3380
▁숲	-3381
족의	-3382
▁고양	-3383
▁전차	-3384
65	-3385
'(	-3386
데스	-3387
32	-3388
▁이것이	-3389
▁저장	-3390
ip	-3391
▁보이는	-3392
▁형식	-3393
▁위치한다	-3394
종은	-3395
▁사람의	-3396
▁대규모	-3397
화는	-3398
▁고구려	-3399
▁1968	-3400
▁1963	-3401
▁1975	-3402
▁몽골	-3403
▁180	-3404
▁초등학교이다	-3405
▁함수	-3406
▁불가능	-3407
▁카메	-3408
▁피아	-3409
▁복잡	-3410
니어	-3411
포르	-3412
▁네트워크	-3413
▁프로듀	-3414
▁발견된다	-3415
▁농업	-3416
av	-3417
룬다	-3418
▁이스라엘	-3419
어져	-3420
▁내에서	-3421
형이	-3422
▁e	-3423
▁않을	-3424
로나	-3425
여자	-3426
▁부터	-3427
▁1930	-3428
정책	-3429
▁파리	-3430
▁털	-3431
동의	-3432
▁한다고	-3433
▁원칙	-3434
▁문화재	-3435
▁사실상	-3436
료로	-3437
▁우선	-3438
▁초반	-3439
▁흔히	-3440
▁고전	-3441
리트	-3442
▁내용을	-3443
▁시대에	-3444
▁편성	-3445
▁홈런	-3446
▁식물	-3447
▁본격	-3448
소에서	-3449
▁1940	-3450
▁감염	-3451
▁링	-3452
이었고	-3453
▁아르헨	-3454
유럽	-3455
차례	-3456
43	-3457
▁꿈	-3458
싱턴	-3459
▁있었으며	-3460
▁콩	-3461
▁발매되었다	-3462
군으로	-3463
▁과정을	-3464
49	-3465
▁조금	-3466
▁부인	-3467
종으로	-3468
▁1969	-3469
▁스튜디오	-3470
▁외에	-3471
국을	-3472
▁쉬	-3473
▁기억	-3474
▁구성된	-3475
▁인하여	-3476
▁근대	-3477
ik	-3478
오프	-3479
▁나카	-3480
▁북서	-3481
,5	-3482
▁트리	-3483
▁300	-3484
▁지역은	-3485
구역	-3486
▁속에서	-3487
터테인	-3488
▁팀은	-3489
▁나서	-3490
▁전혀	-3491
셔널	-3492
▁이전에	-3493
▁어떻게	-3494
미디	-3495
▁모스크바	-3496
제에	-3497
▁원작	-3498
시와	-3499
▁참석	-3500
료를	-3501
품을	-3502
▁아주	-3503
▁도움을	-3504
▁형태의	-3505
▁유명하다	-3506
▁통한	-3507
▁윈도우	-3508
▁있었으나	-3509
예술	-3510
▁열대	-3511
▁구체	-3512
▁아랍	-3513
▁오리	-3514
▁행사	-3515
크라이나	-3516
려는	-3517
▁죽음	-3518
▁잭	-3519
지기	-3520
분의	-3521
▁대상으로	-3522
아버	-3523
▁잘못	-3524
▁증명	-3525
for	-3526
▁세이	-3527
▁암살	-3528
▁중화인민공화국	-3529
▁설정	-3530
▁사회적	-3531
▁섭	-3532
▁물러	-3533
76	-3534
▁때에	-3535
▁하는데	-3536
▁사용되었다	-3537
전으로	-3538
지면서	-3539
28	-3540
▁탄생	-3541
▁본선	-3542
▁확정	-3543
▁플로	-3544
드에서	-3545
라크	-3546
▁사는	-3547
대회	-3548
었지만	-3549
▁1948	-3550
▁Z	-3551
▁정도의	-3552
▁비난	-3553
법의	-3554
서에	-3555
▁캄	-3556
▁숫	-3557
▁카운	-3558
세계	-3559
공업	-3560
인들의	-3561
▁등장하는	-3562
어와	-3563
▁공부	-3564
▁했고	-3565
▁시장	-3566
▁창설	-3567
년이	-3568
▁짧은	-3569
동음이의	-3570
권에	-3571
▁되면서	-3572
어도	-3573
▁개선	-3574
▁박사	-3575
▁현실	-3576
▁철도역이다	-3577
▁보급	-3578
받은	-3579
▁묻	-3580
▁하였고	-3581
▁기사	-3582
▁한때	-3583
권은	-3584
▁뜻이	-3585
라가	-3586
법에	-3587
인에	-3588
▁머리	-3589
▁옷	-3590
타이	-3591
ob	-3592
▁항복	-3593
경찰	-3594
하려고	-3595
▁은행	-3596
트와	-3597
리노	-3598
▁아카데미	-3599
▁수여	-3600
▁되지	-3601
▁비용	-3602
▁그에	-3603
▁선고	-3604
▁장착	-3605
▁했으나	-3606
▁브랜드	-3607
▁뿌	-3608
▁태어나	-3609
▁중반	-3610
시킬	-3611
형은	-3612
제국	-3613
아이	-3614
▁띠	-3615
▁재정	-3616
기원	-3617
▁오히	-3618
해진	-3619
▁스피	-3620
▁시각	-3621
중앙	-3622
도르	-3623
바르	-3624
유의	-3625
▁가격	-3626
▁에너지	-3627
프의	-3628
SA	-3629
▁유도	-3630
▁핵심	-3631
▁비율	-3632
▁데이비	-3633
42	-3634
▁1977	-3635
▁내에	-3636
▁1964	-3637
았던	-3638
▁토론	-3639
겠다고	-3640
이었으나	-3641
96	-3642
▁문자	-3643
▁업무	-3644
▁전역	-3645
▁추정된다	-3646
ry	-3647
테르	-3648
▁검은	-3649
▁답	-3650
▁천문	-3651
88	-3652
경에	-3653
▁애플	-3654
▁적은	-3655
▁출마	-3656
▁스파	-3657
수와	-3658
점은	-3659
▁36	-3660
보드	-3661
▁북동	-3662
▁뜻을	-3663
▁타고	-3664
도에서	-3665
▁세웠다	-3666
▁세우	-3667
ong	-3668
▁1946	-3669
▁추측	-3670
마스	-3671
▁현재까지	-3672
▁단백	-3673
▁주교	-3674
▁있었는데	-3675
▁우크라이나	-3676
▁가로	-3677
▁동일한	-3678
▁오전	-3679
함에	-3680
▁맡고	-3681
▁클래	-3682
▁셰	-3683
자기	-3684
▁개정	-3685
▁시티	-3686
▁33	-3687
▁글로	-3688
▁협력	-3689
▁태풍	-3690
▁투입	-3691
BO	-3692
▁역사상	-3693
▁얻었다	-3694
문의	-3695
▁없고	-3696
▁교토	-3697
산은	-3698
자이	-3699
▁버스	-3700
▁유엔	-3701
▁덮	-3702
체에	-3703
▁오랜	-3704
▁포지션은	-3705
▁형제	-3706
▁제작에	-3707
▁1962	-3708
93	-3709
다면	-3710
슈타	-3711
▁오픈	-3712
▁아시안	-3713
ud	-3714
▁일본에서	-3715
어들	-3716
97	-3717
슨은	-3718
브리	-3719
세대	-3720
간에	-3721
▁붉은	-3722
를린	-3723
▁넓은	-3724
로드	-3725
41	-3726
지원	-3727
▁h	-3728
스럽	-3729
▁듯	-3730
▁LG	-3731
▁신앙	-3732
▁하늘	-3733
으로도	-3734
▁훨	-3735
▁확실	-3736
▁오히려	-3737
▁이끌고	-3738
▁뽑	-3739
▁노예	-3740
▁보였다	-3741
시설	-3742
▁앞서	-3743
▁=	-3744
▁구별	-3745
▁권한	-3746
▁단일	-3747
ly	-3748
여서	-3749
ea	-3750
▁대항	-3751
마이	-3752
▁공유	-3753
▁고향	-3754
당했다	-3755
▁펠	-3756
안에	-3757
▁수원	-3758
▁지닌	-3759
하마	-3760
▁공포	-3761
▁에서	-3762
▁1967	-3763
▁산맥	-3764
법은	-3765
▁예상	-3766
ss	-3767
소프트	-3768
▁훨씬	-3769
경의	-3770
▁첨	-3771
▁활발	-3772
국에	-3773
무라	-3774
▁뜻한다	-3775
▁했으며	-3776
축구	-3777
▁그에게	-3778
▁무장	-3779
▁나이	-3780
▁고정	-3781
▁멸망	-3782
등을	-3783
▁베이징	-3784
번의	-3785
▁기반으로	-3786
▁투수	-3787
리게	-3788
▁북아	-3789
▁요새	-3790
▁만큼	-3791
ang	-3792
OS	-3793
▁듀	-3794
2,	-3795
▁생겨	-3796
ni	-3797
up	-3798
▁창립	-3799
가에	-3800
▁지낸	-3801
▁남서	-3802
▁이후에는	-3803
▁CD	-3804
▁저지	-3805
서가	-3806
항공	-3807
면이	-3808
색을	-3809
의의	-3810
▁150	-3811
스리그	-3812
▁방출	-3813
83	-3814
▁1949	-3815
▁절대	-3816
하다는	-3817
교통	-3818
일이	-3819
▁기자	-3820
▁마침	-3821
▁마드리	-3822
▁요한	-3823
받고	-3824
▁세계에서	-3825
▁이탈리아의	-3826
호의	-3827
▁자는	-3828
▁수출	-3829
94	-3830
에르	-3831
▁낭	-3832
▁정부가	-3833
▁무기	-3834
▁됐다	-3835
경기에	-3836
▁플랫	-3837
▁사용하고	-3838
▁건립	-3839
▁점에서	-3840
▁짐	-3841
▁끝나	-3842
▁목적	-3843
동이	-3844
▁거절	-3845
신은	-3846
▁심각	-3847
▁SBS	-3848
구와	-3849
▁발표한	-3850
나와	-3851
▁마리	-3852
Ch	-3853
▁전설	-3854
-19	-3855
▁제출	-3856
▁관할한다	-3857
생의	-3858
▁광고	-3859
▁1965	-3860
▁세종	-3861
▁가능성이	-3862
▁스코틀랜드	-3863
▁발생한	-3864
▁워싱턴	-3865
▁계급	-3866
▁나와	-3867
▁삭	-3868
▁통해서	-3869
▁시간이	-3870
▁튀	-3871
▁지금의	-3872
.”	-3873
노동	-3874
▁만주	-3875
▁살고	-3876
▁어렵	-3877
▁솔로	-3878
년에서	-3879
▁약간	-3880
▁역대	-3881
▁작전	-3882
▁다니	-3883
▁도움	-3884
▁원정	-3885
▁인공	-3886
사건	-3887
▁전용	-3888
기에는	-3889
▁경기에	-3890
버그	-3891
▁판결	-3892
서의	-3893
▁반복	-3894
▁정복	-3895
▁를	-3896
니의	-3897
▁팀이	-3898
▁차지했다	-3899
음에도	-3900
수에	-3901
더라도	-3902
▁관심	-3903
▁다음은	-3904
판을	-3905
▁이중	-3906
▁러시아의	-3907
▁시작한	-3908
로그	-3909
사인	-3910
_5	-3911
언을	-3912
이었으며	-3913
▁찍	-3914
드에	-3915
▁취급	-3916
▁길이는	-3917
▁그것은	-3918
▁1966	-3919
저우	-3920
화로	-3921
▁강의	-3922
▁융	-3923
▁차이가	-3924
▁금융	-3925
▁보는	-3926
▁프란	-3927
▁전후	-3928
차로	-3929
▁간단	-3930
▁국가의	-3931
▁서양	-3932
▁스크	-3933
▁1961	-3934
▁결과를	-3935
▁출입	-3936
▁계획을	-3937
▁인터뷰	-3938
▁지원을	-3939
관에	-3940
▁전쟁이	-3941
쿠라	-3942
▁프로그램이다	-3943
▁헤이	-3944
리케	-3945
▁거대한	-3946
▁머물	-3947
조에	-3948
▁역을	-3949
▁해당하는	-3950
▁이른	-3951
▁위해서는	-3952
▁욕	-3953
▁부활	-3954
▁린	-3955
만큼	-3956
▁되면	-3957
지인	-3958
ue	-3959
▁뉴스	-3960
테네	-3961
▁은하	-3962
▁주식	-3963
▁이르는	-3964
에게서	-3965
▁행성	-3966
비의	-3967
▁카이	-3968
▁에피소	-3969
▁숭	-3970
▁아침	-3971
타를	-3972
▁오토	-3973
씨는	-3974
추어	-3975
▁청나라	-3976
)’	-3977
인민공화국의	-3978
나이티	-3979
▁건국	-3980
▁합의	-3981
자들	-3982
▁오래된	-3983
렸고	-3984
▁율	-3985
▁이야기를	-3986
▁병사	-3987
아서	-3988
면은	-3989
▁장악	-3990
ain	-3991
지이다	-3992
▁400	-3993
▁주어	-3994
차원	-3995
▁조합	-3996
▁전쟁을	-3997
▁그런데	-3998
케이	-3999
ich	-4000
익을	-4001
일로	-4002
▁전라북도	-4003
ate	-4004
▁해서	-4005
▁이용해	-4006
였으나	-4007
▁고등	-4008
마의	-4009
▁포함되어	-4010
전문	-4011
프리	-4012
▁원주	-4013
▁말레이	-4014
체육	-4015
▁장식	-4016
▁처음에는	-4017
▁얻어	-4018
▁높이는	-4019
▁아메리카	-4020
▁상당히	-4021
현재	-4022
▁한번	-4023
▁이유는	-4024
▁주고	-4025
즈는	-4026
▁생명	-4027
44	-4028
▁공산주의	-4029
병을	-4030
술을	-4031
▁대비	-4032
당과	-4033
▁지식	-4034
스러운	-4035
▁건조	-4036
▁삼각	-4037
지며	-4038
▁트레이	-4039
소와	-4040
▁경성	-4041
리아의	-4042
▁앞두고	-4043
▁유나이티	-4044
산이	-4045
▁강제	-4046
분이	-4047
▁취득	-4048
▁이용한	-4049
▁독자	-4050
국민	-4051
▁비록	-4052
▁신인	-4053
▁하드	-4054
시티	-4055
▁공개된	-4056
▁코미디	-4057
의회	-4058
▁투자	-4059
▁개시	-4060
▁연재	-4061
▁그것을	-4062
▁속한다	-4063
▁금속	-4064
세와	-4065
▁점을	-4066
▁대성	-4067
▁철학	-4068
▁때부터	-4069
보를	-4070
▁플랫폼	-4071
▁활동하였다	-4072
▁모리	-4073
형으로	-4074
▁하면	-4075
▁붙여	-4076
▁논쟁	-4077
▁사망하였다	-4078
▁도달	-4079
▁이것을	-4080
▁운용	-4081
령을	-4082
▁대표팀	-4083
안의	-4084
▁양성	-4085
▁팀을	-4086
류가	-4087
▁의료	-4088
물은	-4089
▁번째로	-4090
▁후에는	-4091
ount	-4092
▁롤	-4093
▁히데	-4094
▁소비에	-4095
▁거리	-4096
▁슬로	-4097
▁의회	-4098
▁반발	-4099
▁두었다	-4100
〉,	-4101
▁경계	-4102
▁혼란	-4103
수록	-4104
▁좁	-4105
▁롯	-4106
▁소수	-4107
기원전	-4108
▁기록하였다	-4109
▁전주	-4110
▁약속	-4111
▁일으켰	-4112
33	-4113
통신	-4114
▁영입	-4115
▁받지	-4116
▁장치	-4117
문은	-4118
ER	-4119
▁때의	-4120
▁도중	-4121
▁자격	-4122
▁타이완	-4123
91	-4124
▁힐	-4125
▁보아	-4126
▁알게	-4127
▁육상	-4128
▁랭	-4129
음이	-4130
(15	-4131
▁진화	-4132
기압	-4133
▁아파	-4134
개가	-4135
행위	-4136
▁백작	-4137
▁방향으로	-4138
▁김영	-4139
▁대수	-4140
▁보냈다	-4141
▁통제	-4142
히는	-4143
▁대공	-4144
▁빠른	-4145
▁방법을	-4146
▁써	-4147
▁박정	-4148
▁벨기에	-4149
▁시작하여	-4150
주와	-4151
▁반영	-4152
▁식민지	-4153
SS	-4154
드시	-4155
조사	-4156
선으로	-4157
▁38	-4158
▁청년	-4159
▁단백질	-4160
▁청소년	-4161
생을	-4162
▁이제	-4163
▁시즌을	-4164
▁사단	-4165
▁도망	-4166
니아의	-4167
67	-4168
▁체계	-4169
조합	-4170
지자	-4171
▁흡수	-4172
▁베를린	-4173
조판	-4174
▁온라인	-4175
▁이민	-4176
▁빠져	-4177
ant	-4178
▁시작으로	-4179
플레이	-4180
본을	-4181
▁는	-4182
▁호텔	-4183
▁곳에서	-4184
▁넘는	-4185
▁강점	-4186
세로	-4187
▁상륙	-4188
국에서	-4189
▁꼭	-4190
에만	-4191
리즘	-4192
해도	-4193
▁채용	-4194
이와	-4195
나미	-4196
ng	-4197
ast	-4198
▁합격	-4199
▁에어	-4200
▁포위	-4201
▁사건을	-4202
석이	-4203
▁무엇	-4204
▁포기	-4205
▁미드	-4206
▁시간을	-4207
프레	-4208
▁에도	-4209
▁발표하였다	-4210
▁없다고	-4211
▁부임	-4212
▁각각의	-4213
ew	-4214
▁생긴	-4215
▁소장	-4216
▁아들이	-4217
▁규칙	-4218
▁종류의	-4219
▁사망했다	-4220
네스	-4221
▁지붕	-4222
비치	-4223
▁엔터테인	-4224
29	-4225
▁벼	-4226
31	-4227
훗날	-4228
▁그러한	-4229
▁작품을	-4230
▁선보	-4231
▁잇는	-4232
▁후지	-4233
▁고속	-4234
▁벡	-4235
▁대략	-4236
시킨다	-4237
38	-4238
ys	-4239
▁공식적으로	-4240
▁1944	-4241
▁l	-4242
▁공을	-4243
▁보낸	-4244
법이	-4245
연맹	-4246
▁승진	-4247
▁탈출	-4248
▁받게	-4249
▁부상	-4250
공사	-4251
화와	-4252
▁55	-4253
▁1958	-4254
▁경우는	-4255
▁겐	-4256
▁기록한	-4257
▁프리미	-4258
ON	-4259
▁역임했다	-4260
교를	-4261
▁카운티	-4262
▁출연하였고	-4263
▁로버트	-4264
oh	-4265
▁지니	-4266
▁마이클	-4267
물이다	-4268
▁동남	-4269
▁명이	-4270
▁다르다	-4271
▁1941	-4272
▁플라	-4273
BA	-4274
데이	-4275
▁1956	-4276
▁프로젝트	-4277
▁Q	-4278
▁요코	-4279
만은	-4280
모를	-4281
▁말았다	-4282
▁앞에	-4283
▁진입	-4284
부인	-4285
▁달라	-4286
님의	-4287
보는	-4288
ov	-4289
씨의	-4290
▁이들의	-4291
▁사용되고	-4292
▁이하	-4293
▁거래	-4294
▁수사	-4295
증을	-4296
▁Re	-4297
마트	-4298
▁경주	-4299
▁높아	-4300
end	-4301
▁응용	-4302
실은	-4303
▁프로세	-4304
▁37	-4305
▁구속	-4306
▁수상했다	-4307
▁인도네시아	-4308
▁것처럼	-4309
▁보조	-4310
66	-4311
▁않았고	-4312
▁층	-4313
▁노부	-4314
▁신성	-4315
▁논란이	-4316
하였지만	-4317
고속도로	-4318
▁렌	-4319
▁니콜	-4320
▁동의	-4321
▁보컬	-4322
▁전공	-4323
▁이전의	-4324
국제	-4325
겠다	-4326
▁방사	-4327
단과	-4328
▁갈라	-4329
▁미니	-4330
▁지키	-4331
▁했던	-4332
▁맛	-4333
▁등급	-4334
▁왼쪽	-4335
▁PC	-4336
▁나는	-4337
▁가서	-4338
▁자살	-4339
▁총독	-4340
베르크	-4341
리우	-4342
▁수송	-4343
ight	-4344
▁1947	-4345
▁쫓	-4346
▁국경	-4347
▁개최된	-4348
기간	-4349
왕이	-4350
율을	-4351
▁동작	-4352
▁아들로	-4353
번째로	-4354
천시	-4355
▁장관	-4356
▁하나는	-4357
▁이뤄	-4358
▁챔피언스리그	-4359
▁공통	-4360
되면	-4361
등이	-4362
▁선수가	-4363
▁세인트	-4364
ok	-4365
바라	-4366
▁탈락	-4367
▁법칙	-4368
▁베이스	-4369
▁국도	-4370
▁주둔	-4371
▁장군	-4372
상태	-4373
크를	-4374
▁지방의	-4375
정치	-4376
▁해에	-4377
▁내의	-4378
▁유사한	-4379
▁명명	-4380
들이다	-4381
▁나치	-4382
▁임진	-4383
▁FA	-4384
▁논의	-4385
▁발견된	-4386
차가	-4387
페이	-4388
▁변환	-4389
▁한반	-4390
국가	-4391
▁불법	-4392
▁운전	-4393
%,	-4394
미야	-4395
▁집행	-4396
▁죽었다	-4397
▁어떠	-4398
▁킹	-4399
▁쓰는	-4400
ff	-4401
▁최다	-4402
▁돌아가	-4403
▁방영된	-4404
치아	-4405
▁보장	-4406
▁콘서	-4407
▁기술을	-4408
▁시에	-4409
게임	-4410
티노	-4411
ill	-4412
▁예측	-4413
kg	-4414
▁반드시	-4415
▁중이다	-4416
▁1919	-4417
▁셋	-4418
▁검찰	-4419
▁늦	-4420
세한	-4421
▁운동을	-4422
▁그레	-4423
▁미디어	-4424
▁수집	-4425
산에	-4426
▁라인	-4427
▁존재하는	-4428
누스	-4429
▁동원	-4430
▁변경되었다	-4431
▁특별한	-4432
▁학문	-4433
동으로	-4434
산시	-4435
ort	-4436
▁국무	-4437
재를	-4438
▁끝난	-4439
식에	-4440
▁후속	-4441
▁SK	-4442
시스	-4443
▁총리	-4444
▁진압	-4445
▁탁	-4446
▁전철	-4447
▁역이다	-4448
▁작품이다	-4449
▁레드	-4450
▁켄	-4451
▁맡아	-4452
▁공화	-4453
▁제대로	-4454
자료	-4455
▁피해를	-4456
▁여기에	-4457
▁경기는	-4458
르가	-4459
패를	-4460
기에서	-4461
▁오른쪽	-4462
▁지냈	-4463
ens	-4464
▁요소	-4465
▁나타내는	-4466
▁올리	-4467
프랑	-4468
▁분쟁	-4469
▁꺾	-4470
▁맞이	-4471
▁군대를	-4472
▁리더	-4473
▁출신으로	-4474
▁쥐	-4475
틀러	-4476
▁지어	-4477
▁1954	-4478
▁형태를	-4479
석은	-4480
ian	-4481
로마	-4482
이므로	-4483
라를	-4484
▁배출	-4485
▁지급	-4486
▁열렸다	-4487
키스탄	-4488
AR	-4489
▁출간	-4490
▁소녀	-4491
▁하였으나	-4492
▁대학교에서	-4493
▁웨스트	-4494
▁둘째	-4495
▁것이며	-4496
없는	-4497
▁고용	-4498
▁중세	-4499
미를	-4500
▁깊은	-4501
▁무덤	-4502
▁댄	-4503
메리	-4504
종을	-4505
적의	-4506
통을	-4507
▁들어서	-4508
▁소비에트	-4509
▁덧	-4510
▁생존	-4511
▁독특	-4512
바로	-4513
▁남은	-4514
▁되자	-4515
▁사건이	-4516
▁세력	-4517
▁킬	-4518
▁의존	-4519
▁1959	-4520
명에	-4521
▁오페	-4522
▁그와	-4523
▁체코	-4524
39	-4525
▁목소	-4526
▁헨리	-4527
▁1939	-4528
▁이성	-4529
▁주관	-4530
▁마지막으로	-4531
▁성인	-4532
68	-4533
▁롯데	-4534
▁파악	-4535
▁세르비아	-4536
뿐만	-4537
지컬	-4538
▁사법	-4539
리우스	-4540
▁서비스를	-4541
▁평가를	-4542
▁양자	-4543
났으며	-4544
▁이룬다	-4545
AT	-4546
▁서버	-4547
▁컵	-4548
▁상승	-4549
▁목표로	-4550
▁1952	-4551
▁홋	-4552
▁저작	-4553
▁창단	-4554
▁이후로	-4555
▁진보	-4556
▁중화민국	-4557
▁제어	-4558
터를	-4559
▁문헌	-4560
▁승인	-4561
▁선교	-4562
▁합성	-4563
▁전파	-4564
면으로	-4565
국으로	-4566
▁복합	-4567
리나	-4568
▁제외하고	-4569
▁능력을	-4570
▁알려졌다	-4571
▁가을	-4572
카이도	-4573
▁계기로	-4574
64	-4575
▁트랙	-4576
▁해산	-4577
▁독립운동	-4578
▁않으며	-4579
▁이집트	-4580
▁다수의	-4581
▁빠르게	-4582
▁받았고	-4583
▁래	-4584
▁대기	-4585
▁아미	-4586
ae	-4587
섰다	-4588
▁개발한	-4589
▁사태	-4590
▁좌우	-4591
▁기대	-4592
▁반도	-4593
항을	-4594
▁모여	-4595
▁개신	-4596
▁빼앗	-4597
▁코드	-4598
▁회전	-4599
▁천연	-4600
▁국제공항	-4601
등의	-4602
▁둘러싸	-4603
io	-4604
터는	-4605
▁정확한	-4606
원이다	-4607
▁75	-4608
▁늘어	-4609
마르	-4610
▁엄청	-4611
프를	-4612
▁농민	-4613
겠다는	-4614
▁틀	-4615
▁일찍	-4616
▁어떠한	-4617
▁콘스탄	-4618
▁완전	-4619
▁마케	-4620
▁까	-4621
▁사립	-4622
77	-4623
▁글을	-4624
▁트로	-4625
▁항성	-4626
▁완공	-4627
조직	-4628
▁김일	-4629
▁연출	-4630
▁활동했다	-4631
▁한국에서	-4632
34	-4633
▁자이	-4634
미는	-4635
대장	-4636
▁위반	-4637
기까지	-4638
주의를	-4639
▁썼다	-4640
▁발매된	-4641
리히	-4642
으니	-4643
▁차트	-4644
▁흉	-4645
방을	-4646
▁갖는	-4647
▁되며	-4648
▁풍부	-4649
▁외부	-4650
▁하였으며	-4651
▁묶	-4652
론의	-4653
▁정책을	-4654
▁가졌다	-4655
▁급제	-4656
▁소년	-4657
▁올려	-4658
▁원년	-4659
2)	-4660
▁포함하고	-4661
▁관료	-4662
▁아버지는	-4663
▁지상역이다	-4664
▁창조	-4665
▁베스트	-4666
구에서	-4667
▁김정	-4668
▁여객철도	-4669
성군	-4670
▁교환	-4671
▁왕국의	-4672
▁나뉜	-4673
개로	-4674
▁1955	-4675
선수	-4676
▁모양의	-4677
토리	-4678
▁덴마크	-4679
▁대부분은	-4680
전과	-4681
▁미군	-4682
▁아사	-4683
▁효율	-4684
▁포도	-4685
▁공군	-4686
▁실질	-4687
마을	-4688
▁영화는	-4689
▁브리	-4690
▁인접	-4691
주에서	-4692
▁새겨	-4693
부터는	-4694
▁받을	-4695
고는	-4696
천군	-4697
▁군주	-4698
▁스티	-4699
▁포함한다	-4700
인도	-4701
라와	-4702
▁일정	-4703
했었다	-4704
▁1000	-4705
1,	-4706
▁신뢰	-4707
▁자녀	-4708
▁성능	-4709
▁스위스	-4710
락을	-4711
▁흘러	-4712
리다	-4713
ure	-4714
▁to	-4715
▁대개	-4716
▁충청북도	-4717
기념	-4718
▁도쿠	-4719
ont	-4720
▁학술	-4721
▁일부는	-4722
곡을	-4723
재판	-4724
one	-4725
▁불안	-4726
▁검사	-4727
▁향상	-4728
▁잡아	-4729
▁1942	-4730
▁특이	-4731
▁지내	-4732
▁파라	-4733
▁연구를	-4734
현의	-4735
▁플레이오프	-4736
▁훗날	-4737
▁밀도는	-4738
요시	-4739
▁보관	-4740
▁우려	-4741
▁미야	-4742
▁인기	-4743
▁조작	-4744
▁작품은	-4745
ld	-4746
▁예정이다	-4747
▁뜻하는	-4748
분류	-4749
타르	-4750
▁카르	-4751
▁분할	-4752
▁점점	-4753
▁지은	-4754
-5	-4755
IA	-4756
▁해양	-4757
▁기록이	-4758
터리	-4759
▁갤	-4760
▁오스만	-4761
ct	-4762
머스	-4763
▁반대로	-4764
man	-4765
퍼드	-4766
▁출장	-4767
민주당	-4768
주었다	-4769
▁1953	-4770
▁부산광역시	-4771
우주	-4772
사우	-4773
연히	-4774
▁당시에는	-4775
▁보안	-4776
리적	-4777
▁받는다	-4778
▁사운드	-4779
질랜드	-4780
제와	-4781
화되어	-4782
이센	-4783
장인	-4784
▁차별	-4785
▁삽	-4786
▁한정	-4787
▁불렀다	-4788
미의	-4789
▁형사	-4790
▁단독	-4791
▁의미를	-4792
으로서의	-4793
▁국회	-4794
동은	-4795
▁간행	-4796
▁쓸	-4797
건을	-4798
▁브루	-4799
▁마치	-4800
났고	-4801
St	-4802
선과	-4803
▁전통적인	-4804
99	-4805
▁현역	-4806
▁1943	-4807
▁일치	-4808
▁1957	-4809
81	-4810
사관	-4811
▁뜻으로	-4812
▁갔다	-4813
▁띄	-4814
▁프로그램을	-4815
조로	-4816
▁노벨	-4817
▁모아	-4818
▁부르는	-4819
▁3,	-4820
ment	-4821
▁그들이	-4822
오스	-4823
금의	-4824
▁있음을	-4825
▁신청	-4826
▁동성	-4827
▁방법으로	-4828
▁명확	-4829
되었을	-4830
▁크고	-4831
▁나이로	-4832
▁마침내	-4833
▁하나인	-4834
▁160	-4835
름을	-4836
▁쓰이는	-4837
▁내용은	-4838
개혁	-4839
책을	-4840
▁조별	-4841
her	-4842
▁연산	-4843
▁이시	-4844
▁없다는	-4845
▁활동하고	-4846
▁처형	-4847
라이언	-4848
▁유형문화재	-4849
▁관계가	-4850
▁주장하였다	-4851
▁출범	-4852
▁올랐	-4853
▁오랫	-4854
▁함락	-4855
▁득표	-4856
▁대통령이	-4857
▁대한민국에서는	-4858
▁횡	-4859
▁민주당	-4860
▁테이	-4861
▁분열	-4862
▁쓰고	-4863
▁성을	-4864
▁시즌에	-4865
▁개막	-4866
▁제작한	-4867
▁문제로	-4868
▁것이라	-4869
▁스미	-4870
▁향해	-4871
경이	-4872
▁느끼	-4873
▁.	-4874
▁택	-4875
▁기둥	-4876
야구	-4877
임이	-4878
ord	-4879
하였던	-4880
▁역으로	-4881
무부	-4882
계획	-4883
▁당초	-4884
▁자신들의	-4885
84	-4886
▁메시	-4887
▁없으며	-4888
▁후보로	-4889
복을	-4890
하였다고	-4891
▁헤르	-4892
시험	-4893
▁꼽	-4894
▁그때	-4895
▁그레이	-4896
투스	-4897
▁KBO	-4898
▁예비	-4899
▁구현	-4900
▁학습	-4901
▁메인	-4902
질이	-4903
공화국	-4904
▁나타난다	-4905
▁34	-4906
▁감독을	-4907
망을	-4908
▁말에	-4909
무늬	-4910
EC	-4911
▁조절	-4912
▁골을	-4913
▁학위를	-4914
▁오랫동안	-4915
산화	-4916
▁나왔다	-4917
▁합쳐	-4918
▁동아	-4919
▁준우	-4920
브라	-4921
▁것이라는	-4922
▁공업	-4923
미가	-4924
▁마이크로소프트	-4925
사스	-4926
▁등장한다	-4927
▁터미널	-4928
▁졸업하고	-4929
토의	-4930
▁바라	-4931
해가	-4932
▁명칭은	-4933
▁대표하는	-4934
▁상품	-4935
▁이름의	-4936
일과	-4937
~19	-4938
▁가지는	-4939
디션	-4940
총독	-4941
사무	-4942
▁쳐	-4943
▁만들어졌다	-4944
▁테러	-4945
▁펼쳐	-4946
▁잉글랜드의	-4947
iv	-4948
▁보병	-4949
▁수영	-4950
▁역사적	-4951
▁로켓	-4952
되었다가	-4953
▁챔피언십	-4954
ll	-4955
▁니시	-4956
자로서	-4957
▁이루어졌다	-4958
▁위성	-4959
▁지금까지	-4960
▁포함하여	-4961
▁무게	-4962
▁트랜	-4963
그라	-4964
주의의	-4965
학에서	-4966
▁시카	-4967
시키기	-4968
▁조선의	-4969
온은	-4970
▁시리아	-4971
▁닥	-4972
왜란	-4973
▁번의	-4974
▁연관	-4975
▁추천	-4976
였지만	-4977
▁뉴질랜드	-4978
▁성적	-4979
▁이후의	-4980
▁경우에	-4981
▁교육을	-4982
▁편찬	-4983
▁다다	-4984
신으로	-4985
▁완료	-4986
▁아르헨티나	-4987
▁음식	-4988
▁선정되었다	-4989
▁바깥	-4990
진의	-4991
▁적절	-4992
보살	-4993
거운	-4994
▁작업을	-4995
▁성향	-4996
▁발굴	-4997
방의	-4998
▁연대	-4999
판이	-5000
▁극장	-5001
▁피아노	-5002
▁그렇게	-5003
82	-5004
고의	-5005
텐츠	-5006
▁분위	-5007
사랑	-5008
▁일본에	-5009
▁프로그래	-5010
▁팝	-5011
▁후기	-5012
▁직업	-5013
에이	-5014
▁저서	-5015
니가	-5016
▁언제	-5017
▁재배	-5018
▁페르시아	-5019
pe	-5020
sh	-5021
▁무너	-5022
▁훌	-5023
▁실현	-5024
▁켈	-5025
▁군이다	-5026
평가	-5027
▁알파	-5028
행정	-5029
▁레오	-5030
▁데이비드	-5031
▁누구	-5032
진이	-5033
▁목록이다	-5034
▁군의	-5035
▁의무	-5036
▁시작된	-5037
▁고유	-5038
이었지만	-5039
▁명을	-5040
▁발견되었다	-5041
▁출시되었다	-5042
▁평안	-5043
크가	-5044
▁이르러	-5045
▁주지	-5046
자유	-5047
ith	-5048
▁톰	-5049
(),	-5050
▁섞	-5051
고등	-5052
▁역은	-5053
▁1936	-5054
▁삼국	-5055
▁주전	-5056
if	-5057
루가	-5058
▁앉	-5059
▁아스	-5060
▁영상	-5061
▁단위	-5062
들로부터	-5063
▁주어진	-5064
▁고문	-5065
▁규모의	-5066
해져	-5067
▁안에서	-5068
▁가스	-5069
내에	-5070
▁임진왜란	-5071
서울	-5072
▁활성	-5073
▁시작한다	-5074
사이트	-5075
▁음악을	-5076
▁무시	-5077
터가	-5078
▁가담	-5079
▁부하	-5080
▁제일	-5081
▁Com	-5082
-20	-5083
▁왕조	-5084
▁예수	-5085
치에	-5086
▁발발	-5087
▁감독으로	-5088
▁어린이	-5089
ore	-5090
▁도와	-5091
▁바뀌었다	-5092
▁부대	-5093
체스터	-5094
▁거두었다	-5095
▁침략	-5096
▁받아들여	-5097
▁유일하게	-5098
▁소송	-5099
각을	-5100
▁녹색	-5101
▁잡지	-5102
VD	-5103
ust	-5104
▁중인	-5105
▁지켜	-5106
▁이루고	-5107
▁취소	-5108
시리즈	-5109
▁행위	-5110
화한	-5111
▁신호	-5112
앤젤	-5113
양의	-5114
레옹	-5115
들목	-5116
▁승객	-5117
사단	-5118
▁가치가	-5119
소송	-5120
▁망명	-5121
▁해당한다	-5122
▁릴	-5123
▁속한	-5124
▁사람들의	-5125
▁정차	-5126
▁DNA	-5127
▁일어났다	-5128
▁놓고	-5129
▁등판	-5130
▁침입	-5131
라며	-5132
ove	-5133
▁스페인의	-5134
▁유행	-5135
ind	-5136
▁조선시대	-5137
치게	-5138
▁가나	-5139
▁라고	-5140
▁방정	-5141
클레	-5142
▁저술	-5143
씨가	-5144
▁나들목	-5145
▁혼합	-5146
소설	-5147
▁통산	-5148
뮤니	-5149
▁참전	-5150
▁제공한다	-5151
안은	-5152
비스	-5153
61	-5154
드라마	-5155
▁박물관	-5156
▁활약을	-5157
▁공헌	-5158
▁차이	-5159
▁정비	-5160
▁입장을	-5161
화되었다	-5162
▁많아	-5163
▁길을	-5164
▁올렸다	-5165
▁1938	-5166
▁창원	-5167
▁독특한	-5168
▁기울	-5169
▁정지	-5170
▁주택	-5171
▁뚜	-5172
▁확률	-5173
▁뮤지컬	-5174
▁일부를	-5175
▁프리미어	-5176
▁연결하는	-5177
▁다르게	-5178
▁스카	-5179
▁희생	-5180
우수	-5181
▁크로아	-5182
▁중에는	-5183
▁군인	-5184
▁확립	-5185
▁1910	-5186
▁거듭	-5187
▁감독이	-5188
74	-5189
▁유기	-5190
▁화물	-5191
▁얻은	-5192
파는	-5193
▁데뷔하였다	-5194
네이	-5195
▁샤를	-5196
▁새롭게	-5197
▁마무	-5198
▁정기	-5199
▁지시	-5200
리그의	-5201
▁도시이다	-5202
78	-5203
▁부분을	-5204
▁곽	-5205
▁장교	-5206
▁제이	-5207
▁부상을	-5208
▁갔	-5209
▁뜨	-5210
▁정치인이다	-5211
타는	-5212
▁치러	-5213
▁상당한	-5214
명과	-5215
▁스탠	-5216
▁않게	-5217
▁질병	-5218
표를	-5219
▁편이다	-5220
론은	-5221
▁아테네	-5222
▁자리잡	-5223
▁상위	-5224
▁성적을	-5225
동과	-5226
자들에게	-5227
ee	-5228
대중	-5229
▁개입	-5230
▁의혹	-5231
령이	-5232
▁처벌	-5233
▁(20	-5234
경은	-5235
생물	-5236
진은	-5237
▁근본	-5238
▁다스	-5239
▁주최	-5240
▁이들을	-5241
▁선거에서	-5242
▁콤	-5243
드라	-5244
▁나뉜다	-5245
▁Th	-5246
스럽게	-5247
▁Count	-5248
▁사냥	-5249
▁대리	-5250
어이다	-5251
▁상태로	-5252
▁이기	-5253
관계	-5254
고기	-5255
년경	-5256
ary	-5257
▁한나라	-5258
▁사용된	-5259
우의	-5260
양을	-5261
▁크기	-5262
▁혐의로	-5263
실의	-5264
에른	-5265
▁도모	-5266
▁하위	-5267
▁전형	-5268
▁소방	-5269
▁120	-5270
▁장남	-5271
▁설치된	-5272
▁소속으로	-5273
▁추구	-5274
▁캔	-5275
▁원소	-5276
▁개신교	-5277
▁로스앤젤	-5278
공원	-5279
63	-5280
▁아라	-5281
▁페이	-5282
▁사임	-5283
입니다	-5284
▁나폴레옹	-5285
▁단편	-5286
함과	-5287
체와	-5288
▁앞에서	-5289
하지는	-5290
▁박정희	-5291
▁나타내	-5292
▁미드필	-5293
▁들고	-5294
▁벌어	-5295
▁그래픽	-5296
▁어려운	-5297
▁곡을	-5298
▁어깨	-5299
▁한국어	-5300
▁리처	-5301
▁총선	-5302
▁안동	-5303
대부	-5304
▁변화를	-5305
▁준다	-5306
vers	-5307
ational	-5308
격한	-5309
터의	-5310
▁지역으로	-5311
에서만	-5312
▁1951	-5313
▁도요	-5314
되는데	-5315
▁프로이센	-5316
▁법정	-5317
▁받았으며	-5318
(2	-5319
▁샘	-5320
▁영업	-5321
▁따로	-5322
▁빅토	-5323
론이	-5324
가타	-5325
▁특정한	-5326
▁1937	-5327
쿠스	-5328
▁일으키	-5329
▁철수	-5330
▁멀리	-5331
▁분명	-5332
▁어디	-5333
▁접촉	-5334
▁다수	-5335
▁선생	-5336
▁플래	-5337
▁조종	-5338
레인	-5339
▁맡은	-5340
▁시나	-5341
▁엠	-5342
▁공연을	-5343
▁만들고	-5344
▁인구가	-5345
차전	-5346
▁고속도로	-5347
▁설립되었다	-5348
▁다음의	-5349
어야	-5350
들에서	-5351
▁계통	-5352
▁인종	-5353
석의	-5354
▁서울대학교	-5355
▁Ar	-5356
▁헝가리	-5357
▁상황에서	-5358
슬러	-5359
기록	-5360
고가	-5361
사람	-5362
영은	-5363
▁인쇄	-5364
하므로	-5365
▁1914	-5366
▁묵	-5367
▁작품으로	-5368
▁자극	-5369
층의	-5370
차는	-5371
토니	-5372
▁상대적으로	-5373
▁시인	-5374
▁기회를	-5375
▁절반	-5376
왕은	-5377
▁밝히	-5378
▁경제적	-5379
▁지위를	-5380
▁미드필더	-5381
69	-5382
▁1935	-5383
동생	-5384
영의	-5385
▁곡은	-5386
▁체제	-5387
▁아이돌	-5388
▁한글	-5389
재로	-5390
▁미사일	-5391
-4	-5392
ock	-5393
색의	-5394
▁단지	-5395
▁빙	-5396
72	-5397
▁단계	-5398
▁저녁	-5399
▁제공하는	-5400
▁대부분이	-5401
▁돕	-5402
ory	-5403
▁듣고	-5404
▁진주	-5405
71	-5406
▁팽	-5407
류는	-5408
▁카드	-5409
스트로	-5410
▁개칭	-5411
▁네이	-5412
▁넓이는	-5413
▁다소	-5414
MA	-5415
▁프라	-5416
▁현상	-5417
▁1918	-5418
포를	-5419
▁다운	-5420
▁신학	-5421
▁임대	-5422
▁중부	-5423
▁퀸	-5424
▁인디언	-5425
장군	-5426
주고	-5427
▁가진다	-5428
▁징역	-5429
▁사업을	-5430
파를	-5431
▁후계	-5432
▁아티	-5433
감독	-5434
per	-5435
자키	-5436
함이	-5437
▁보았다	-5438
▁바이에른	-5439
55	-5440
▁국민의	-5441
▁액션	-5442
▁사우	-5443
▁황금	-5444
▁시위	-5445
▁하에	-5446
루는	-5447
▁드라이	-5448
미니	-5449
▁해야	-5450
ect	-5451
▁곳으로	-5452
▁+	-5453
▁세력을	-5454
▁일컫	-5455
평균	-5456
▁프린	-5457
▁가문의	-5458
▁나누어	-5459
▁세계의	-5460
▁유한	-5461
▁재건	-5462
▁존재하지	-5463
▁개설	-5464
▁닛	-5465
79	-5466
식과	-5467
아르	-5468
▁병합	-5469
안이	-5470
▁내렸다	-5471
었기	-5472
▁지금은	-5473
보고	-5474
▁보유하고	-5475
사전	-5476
▁이혼	-5477
▁탈퇴	-5478
▁해도	-5479
▁스마트	-5480
드레	-5481
▁못하였다	-5482
▁초기의	-5483
▁참여했다	-5484
▁말레이시아	-5485
▁픽	-5486
▁심지	-5487
▁알바	-5488
역의	-5489
주의적	-5490
▁심각한	-5491
동맹	-5492
▁광복	-5493
스포	-5494
혁명	-5495
▁통상	-5496
▁개조	-5497
▁나아가	-5498
켓몬	-5499
100	-5500
62	-5501
▁닌	-5502
▁라는	-5503
부장	-5504
구치	-5505
별로	-5506
▁변형	-5507
문제	-5508
타운	-5509
되었다고	-5510
▁이름이다	-5511
치지	-5512
▁유럽의	-5513
▁운영하고	-5514
▁다케	-5515
▁설득	-5516
▁발탁	-5517
▁1932	-5518
▁필요가	-5519
▁금메달을	-5520
자동차	-5521
로와	-5522
▁공사	-5523
▁궤도	-5524
▁승려	-5525
▁반란을	-5526
▁영웅	-5527
▁찰스	-5528
▁겹	-5529
시에서	-5530
르기	-5531
타카	-5532
▁돈을	-5533
▁루마	-5534
▁상하이	-5535
▁사람들을	-5536
▁조선총독	-5537
▁가게	-5538
공산	-5539
▁마르크	-5540
▁De	-5541
73	-5542
연을	-5543
▁조지아	-5544
▁폐쇄	-5545
▁자리에	-5546
▁나고	-5547
▁노래를	-5548
▁갖추고	-5549
▁프로토	-5550
▁연예	-5551
린은	-5552
ond	-5553
▁기상	-5554
▁기다	-5555
▁두려	-5556
▁작곡가	-5557
▁필요하다	-5558
▁않지만	-5559
▁돌아와	-5560
▁해상	-5561
▁소련의	-5562
▁돼	-5563
▁가치	-5564
▁와이	-5565
부대	-5566
▁맞아	-5567
▁민법	-5568
▁사실이	-5569
▁후원	-5570
이상	-5571
▁효과를	-5572
▁WW	-5573
▁리버	-5574
메리칸	-5575
▁벗어나	-5576
▁지도자	-5577
▁벌어진	-5578
▁나타나는	-5579
슨의	-5580
족이	-5581
베르트	-5582
▁동해	-5583
▁County	-5584
▁김성	-5585
한의	-5586
▁엄청난	-5587
▁조카	-5588
신문	-5589
▁임의의	-5590
법으로	-5591
색으로	-5592
▁이로써	-5593
▁이른다	-5594
에선	-5595
▁통계	-5596
▁기록은	-5597
▁전직	-5598
ug	-5599
▁내용이	-5600
강의	-5601
▁있었기	-5602
▁깃	-5603
루를	-5604
▁골든	-5605
▁진행되었다	-5606
▁출연하였다	-5607
▁히틀러	-5608
▁행동을	-5609
▁굳	-5610
▁민중	-5611
▁바닥	-5612
▁속해	-5613
점의	-5614
▁대체로	-5615
▁전까지	-5616
▁일정한	-5617
▁마크	-5618
▁투쟁	-5619
▁비롯하여	-5620
년도	-5621
야의	-5622
▁몰아	-5623
▁선전	-5624
▁행렬	-5625
▁웅	-5626
부사	-5627
▁점이	-5628
▁인권	-5629
▁연구에	-5630
▁브라운	-5631
▁일어나는	-5632
▁인지	-5633
▁시리즈의	-5634
▁일시	-5635
▁남쪽으로	-5636
역이	-5637
▁가와	-5638
▁오직	-5639
▁떠났다	-5640
▁도시의	-5641
▁되는데	-5642
’(	-5643
▁참조	-5644
▁호는	-5645
▁번호는	-5646
트릭	-5647
▁장비	-5648
▁포항	-5649
례를	-5650
보호	-5651
▁그로	-5652
▁매일	-5653
▁쓰여	-5654
▁못하는	-5655
▁이전에는	-5656
계약	-5657
▁동안에	-5658
▁1933	-5659
▁나타낸다	-5660
▁만다	-5661
▁왕이	-5662
▁김종	-5663
▁곳이다	-5664
▁미국과	-5665
나카	-5666
▁성공을	-5667
▁시스템을	-5668
▁발생하는	-5669
▁관여	-5670
BM	-5671
▁뮌	-5672
iz	-5673
▁전부	-5674
▁나온다	-5675
▁노출	-5676
학자이다	-5677
었을	-5678
▁부담	-5679
▁사마	-5680
피스	-5681
▁분노	-5682
▁얻을	-5683
▁적합	-5684
eg	-5685
▁Pro	-5686
▁여겨진다	-5687
▁소멸	-5688
과정	-5689
▁로드	-5690
듯이	-5691
▁접한다	-5692
독립	-5693
ide	-5694
▁IS	-5695
▁프랑크	-5696
▁있었다고	-5697
티오	-5698
동물	-5699
남도의	-5700
▁1924	-5701
▁싱가	-5702
▁선임	-5703
IN	-5704
▁스키	-5705
▁연고	-5706
▁전력	-5707
박물관	-5708
▁내셔널	-5709
격으로	-5710
▁1900	-5711
▁프리드리	-5712
▁춤	-5713
파가	-5714
련의	-5715
백만	-5716
▁1.	-5717
▁섬의	-5718
▁속의	-5719
▁홍보	-5720
▁안드로	-5721
▁사용하였다	-5722
▁여러가지	-5723
타로	-5724
▁부분이	-5725
▁의심	-5726
▁지니고	-5727
질의	-5728
페르	-5729
▁코르	-5730
▁오프	-5731
▁정교	-5732
▁사망한	-5733
직에	-5734
중국	-5735
▁추기	-5736
▁대통령의	-5737
▁자전	-5738
▁수상하였다	-5739
ark	-5740
▁높다	-5741
▁1928	-5742
유가	-5743
▁1934	-5744
▁정권	-5745
▁협회	-5746
▁남겼다	-5747
▁시상	-5748
▁메이지	-5749
느냐	-5750
▁상을	-5751
▁AFC	-5752
산군	-5753
▁학살	-5754
▁NH	-5755
▁집권	-5756
▁여섯	-5757
▁세상을	-5758
▁65	-5759
▁문을	-5760
▁긍	-5761
▁전송	-5762
▁완전한	-5763
mer	-5764
▁역사를	-5765
▁불렸다	-5766
▁노르웨이	-5767
▁특징이다	-5768
원군	-5769
▁말하는	-5770
▁아이디	-5771
또는	-5772
▁개체	-5773
▁벡터	-5774
인들을	-5775
sp	-5776
com	-5777
▁공화국의	-5778
▁이후에도	-5779
▁책임을	-5780
▁그리하여	-5781
▁구입	-5782
(16	-5783
ack	-5784
▁전면	-5785
속에	-5786
었다고	-5787
▁아들인	-5788
▁관련이	-5789
Pa	-5790
▁전신	-5791
▁사퇴	-5792
▁노스	-5793
했다가	-5794
▁북쪽으로	-5795
▁지지를	-5796
오의	-5797
▁부친	-5798
▁위로	-5799
▁커뮤니	-5800
마는	-5801
▁논문	-5802
▁유학	-5803
우가	-5804
▁끌어	-5805
▁끝내	-5806
▁종사	-5807
▁라이트	-5808
▁명령을	-5809
▁복원	-5810
▁재개	-5811
▁천주교	-5812
ood	-5813
▁AT	-5814
▁향토	-5815
▁명나라	-5816
코스	-5817
▁올림픽에	-5818
▁세웠	-5819
가시	-5820
당시	-5821
비디오	-5822
년부터는	-5823
▁아름다운	-5824
▁이르렀다	-5825
▁크다	-5826
▁클레	-5827
▁표면	-5828
▁무한	-5829
▁탐사	-5830
▁다음날	-5831
▁다리	-5832
▁눈에	-5833
▁지구의	-5834
▁가이	-5835
▁파르	-5836
▁세계적으로	-5837
▁어머니는	-5838
▁드래프트	-5839
▁빚	-5840
▁텍사스	-5841
▁느낌	-5842
▁일부가	-5843
ric	-5844
▁밀려	-5845
▁장수	-5846
▁교향	-5847
▁선박	-5848
▁임금	-5849
》(19	-5850
▁없을	-5851
활동을	-5852
eb	-5853
공의	-5854
▁동북	-5855
디움	-5856
타의	-5857
▁유효	-5858
▁잠수	-5859
만으로	-5860
연대	-5861
행성	-5862
▁부진	-5863
▁왕의	-5864
▁즉시	-5865
▁힙	-5866
▁순간	-5867
다란	-5868
▁가수이다	-5869
▁대한민국에서	-5870
IC	-5871
▁중학교이다	-5872
▁공중	-5873
▁비상	-5874
마를	-5875
베스	-5876
루의	-5877
▁돌려	-5878
▁인용	-5879
미르	-5880
▁연습	-5881
▁위치를	-5882
▁내세	-5883
▁데에	-5884
키가	-5885
▁i	-5886
▁의학	-5887
인에게	-5888
▁주장한다	-5889
▁루이스	-5890
▁39	-5891
▁재학	-5892
▁만든다	-5893
▁블라	-5894
AM	-5895
▁후쿠오카	-5896
ass	-5897
▁똑	-5898
▁대통령은	-5899
▁닫	-5900
▁갑자기	-5901
리며	-5902
▁게임을	-5903
과대학	-5904
▁전쟁에	-5905
▁선출되었다	-5906
바일	-5907
▁이상이	-5908
▁유치	-5909
▁촌	-5910
▁고종	-5911
▁윗	-5912
되어야	-5913
▁즈	-5914
等學校	-5915
▁나타났다	-5916
▁re	-5917
▁위원회	-5918
▁타임	-5919
▁대의	-5920
▁싸우	-5921
▁부분은	-5922
▁대회에	-5923
▁운영하는	-5924
▁이른바	-5925
▁화산	-5926
▁초에	-5927
만한	-5928
▁말이	-5929
위와	-5930
▁창작	-5931
▁터널	-5932
▁st	-5933
ID	-5934
처를	-5935
▁물을	-5936
▁이명	-5937
받는	-5938
▁로봇	-5939
법인	-5940
▁의식	-5941
▁호소	-5942
포로	-5943
▁발언	-5944
▁AP	-5945
▁아래와	-5946
▁알고리즘	-5947
공신	-5948
▁양의	-5949
▁주장을	-5950
▁격파	-5951
ris	-5952
▁덧붙	-5953
비에	-5954
▁스케	-5955
키의	-5956
▁전쟁에서	-5957
ah	-5958
▁한자	-5959
▁게다가	-5960
▁발음	-5961
▁수요	-5962
비로	-5963
전자	-5964
중한	-5965
▁행정구	-5966
▁차지하고	-5967
))	-5968
▁않으면	-5969
▁근처에	-5970
▁무사	-5971
▁화성	-5972
▁기소	-5973
▁임무	-5974
▁천안	-5975
하시	-5976
▁분해	-5977
▁파트	-5978
▁기록되어	-5979
▁참가했다	-5980
▁하기도	-5981
▁완벽	-5982
▁이들이	-5983
물에	-5984
▁42	-5985
▁48	-5986
실이	-5987
▁십자	-5988
▁유배	-5989
▁들어갔다	-5990
▁상태에서	-5991
강에	-5992
▁짜	-5993
영을	-5994
▁내놓	-5995
▁사용했다	-5996
라에	-5997
lan	-5998
▁갖는다	-5999
즈가	-6000
▁상속	-6001
▁한일	-6002
▁IC	-6003
리안	-6004
타마	-6005
▁이끌었다	-6006
aw	-6007
▁시카고	-6008
미술	-6009
▁에르	-6010
3,	-6011
달러	-6012
▁들면	-6013
▁이루는	-6014
▁맞서	-6015
학자들은	-6016
▁You	-6017
▁보여준다	-6018
▁첼	-6019
▁만한	-6020
▁연결되어	-6021
▁올림픽에서	-6022
▁발간	-6023
▁화려	-6024
▁따서	-6025
OR	-6026
아나	-6027
▁남아있	-6028
▁원주민	-6029
land	-6030
▁도서관	-6031
▁전쟁의	-6032
▁달려	-6033
분으로	-6034
▁1931	-6035
▁상황을	-6036
▁연간	-6037
▁사용자	-6038
▁프로듀서	-6039
해군	-6040
비트	-6041
ire	-6042
▁동양	-6043
▁나왔	-6044
▁해리	-6045
베리아	-6046
호에	-6047
age	-6048
▁측면	-6049
tern	-6050
크래프트	-6051
▁개국	-6052
게는	-6053
어버	-6054
oy	-6055
▁되돌	-6056
▁초기에	-6057
로써	-6058
목을	-6059
▁Sh	-6060
▁가슴	-6061
▁책을	-6062
하여야	-6063
▁추가로	-6064
IS	-6065
데르	-6066
▁미국은	-6067
이닝	-6068
▁보스	-6069
▁비례	-6070
평을	-6071
▁특성	-6072
▁역임하였다	-6073
▁패션	-6074
▁역에서	-6075
ence	-6076
아는	-6077
▁수리	-6078
공을	-6079
▁없게	-6080
AN	-6081
▁분기	-6082
▁살인	-6083
▁후임	-6084
▁언덕	-6085
▁분야에서	-6086
▁회장	-6087
▁방식을	-6088
▁열차가	-6089
시장	-6090
양이	-6091
▁서술	-6092
렸으며	-6093
ib	-6094
관광	-6095
▁해발	-6096
▁상대식	-6097
▁방지	-6098
▁권력을	-6099
▁쿠데	-6100
▁희망	-6101
▁남아프리카	-6102
조참	-6103
▁방해	-6104
▁성남	-6105
="	-6106
▁작동	-6107
▁당시에	-6108
▁싸움	-6109
▁히로시마	-6110
▁복잡한	-6111
▁테스트	-6112
▁기병	-6113
▁꾸준	-6114
▁자이언	-6115
종합	-6116
▁칠레	-6117
▁기록하며	-6118
▁루트	-6119
▁에드워드	-6120
▁농구	-6121
ial	-6122
▁크리	-6123
왕후	-6124
▁태국	-6125
)>	-6126
▁밝혀졌다	-6127
▁비트	-6128
▁태양의	-6129
1)	-6130
▁장소	-6131
▁소식을	-6132
가락	-6133
역은	-6134
▁단어	-6135
ck	-6136
가인	-6137
사이다	-6138
이치	-6139
▁정체	-6140
▁보물	-6141
되지만	-6142
▁개찰	-6143
되게	-6144
천만	-6145
▁겉	-6146
▁히트	-6147
▁최대의	-6148
▁서쪽으로	-6149
▁이라크	-6150
▁일으켜	-6151
▁주에	-6152
▁그것이	-6153
파이	-6154
▁CP	-6155
▁DVD	-6156
▁신체	-6157
▁직전	-6158
월의	-6159
▁미쓰	-6160
▁티베	-6161
▁1929	-6162
▁입고	-6163
단이다	-6164
▁수석	-6165
▁확산	-6166
▁1925	-6167
▁동쪽으로	-6168
▁양쪽	-6169
▁주간	-6170
판은	-6171
▁핑	-6172
조차	-6173
주군	-6174
▁동방	-6175
▁사전	-6176
▁상실	-6177
▁함경	-6178
▁지속적으로	-6179
펙트	-6180
환으로	-6181
▁문제에	-6182
▁구매	-6183
▁단순한	-6184
▁타이거	-6185
In	-6186
▁마무리	-6187
▁프리드리히	-6188
▁조선시대의	-6189
슬링	-6190
▁이다	-6191
역에서	-6192
▁전투를	-6193
▁가깝	-6194
▁한성	-6195
▁대상이	-6196
범위	-6197
왕을	-6198
유를	-6199
▁복무	-6200
▁참가한	-6201
▁받아들이	-6202
▁빌보드	-6203
▁게임이다	-6204
름이	-6205
방향	-6206
▁뮌헨	-6207
▁상관	-6208
▁오페라	-6209
▁조건을	-6210
▁입단하였다	-6211
았으나	-6212
▁더블	-6213
▁수의	-6214
▁디스크	-6215
▁암컷	-6216
▁하여금	-6217
▁그곳에서	-6218
▁탄핵	-6219
▁파워	-6220
폴리스	-6221
▁170	-6222
▁힌	-6223
▁출전하여	-6224
▁코치	-6225
▁1923	-6226
▁Me	-6227
▁외국인	-6228
거래	-6229
▁큐	-6230
는지	-6231
정과	-6232
▁투어	-6233
린의	-6234
▁주기	-6235
시스코	-6236
▁도덕	-6237
▁시드	-6238
▁그들을	-6239
▁중추	-6240
▁명칭을	-6241
레나	-6242
우를	-6243
▁1921	-6244
▁폭탄	-6245
감이	-6246
발을	-6247
▁랜	-6248
주의자	-6249
▁우수	-6250
▁후인	-6251
▁권력	-6252
▁로마의	-6253
▁사우스	-6254
그램	-6255
▁재임	-6256
모가	-6257
▁화합	-6258
▁문제는	-6259
렬한	-6260
▁배포	-6261
▁형식으로	-6262
친다	-6263
amp	-6264
▁위에서	-6265
▁스프	-6266
▁시사	-6267
▁SS	-6268
본부	-6269
▁심리	-6270
▁지향	-6271
파로	-6272
▁프랭	-6273
학교를	-6274
,0	-6275
▁선포	-6276
서와	-6277
▁영화의	-6278
▁왕조의	-6279
▁화장	-6280
로서는	-6281
▁고위	-6282
▁항의	-6283
▁검토	-6284
▁능력	-6285
▁앵	-6286
관과	-6287
ath	-6288
▁특징을	-6289
니스탄	-6290
▁멘	-6291
목에	-6292
▁벼슬	-6293
중인	-6294
▁뛰고	-6295
▁츠	-6296
▁현지	-6297
▁방법은	-6298
조건	-6299
▁포함하는	-6300
▁강릉	-6301
▁HD	-6302
▁긍정	-6303
▁이온	-6304
▁뻗	-6305
리언	-6306
▁수소	-6307
▁신화	-6308
▁미리	-6309
中學校	-6310
▁쾌	-6311
▁가까이	-6312
▁업무를	-6313
특별자치	-6314
▁사건으로	-6315
▁올스타	-6316
▁화이트	-6317
▁1922	-6318
▁등장인	-6319
▁홋카이도	-6320
▁일은	-6321
▁참여한	-6322
▁했는데	-6323
래곤	-6324
▁사건은	-6325
교는	-6326
▁의미하는	-6327
▁레알	-6328
▁곱	-6329
▁암호	-6330
▁구글	-6331
공간	-6332
형에	-6333
▁독립을	-6334
츠의	-6335
▁WWE	-6336
▁아버지의	-6337
마가	-6338
환을	-6339
▁캠퍼	-6340
▁노선을	-6341
▁개별	-6342
▁기본적으로	-6343
▁걸친	-6344
▁최우수	-6345
▁있으므로	-6346
클리	-6347
▁보건	-6348
▁브레	-6349
▁계속해서	-6350
56	-6351
▁64	-6352
서양	-6353
iss	-6354
투아	-6355
▁로스앤젤레스	-6356
AC	-6357
▁문신	-6358
▁별도의	-6359
▁개방	-6360
▁직원	-6361
▁대표로	-6362
▁본격적으로	-6363
▁번주	-6364
▁분자	-6365
▁나라의	-6366
▁성직	-6367
▁개념을	-6368
제도	-6369
▁추방	-6370
기인	-6371
기구	-6372
열을	-6373
PS	-6374
같이	-6375
▁모토	-6376
▁캐나다의	-6377
키퍼	-6378
▁체육	-6379
됨에	-6380
ost	-6381
▁토지	-6382
▁몸을	-6383
_4	-6384
▁피터	-6385
대신	-6386
▁개명	-6387
▁이웃	-6388
▁좋지	-6389
코의	-6390
▁대량	-6391
▁청주	-6392
ear	-6393
통합	-6394
▁밝은	-6395
▁리처드	-6396
호와	-6397
노스	-6398
▁넷	-6399
▁아래에	-6400
인조	-6401
하기를	-6402
▁조선민주주의인민공화국의	-6403
▁서서	-6404
스팅	-6405
즈를	-6406
▁재능	-6407
▁충분히	-6408
▁인천광역시	-6409
▁교류	-6410
▁원인이	-6411
▁신도	-6412
무네	-6413
▁손을	-6414
▁이적하였다	-6415
▁수십	-6416
odice	-6417
▁강남	-6418
▁연료	-6419
▁순위	-6420
▁입장	-6421
▁크레	-6422
▁포트	-6423
▁단순히	-6424
▁1926	-6425
▁사람들에게	-6426
▁그렇다면	-6427
▁배경으로	-6428
▁되기	-6429
▁거느	-6430
▁질량	-6431
론에	-6432
▁쌀	-6433
층에	-6434
▁속도	-6435
였는데	-6436
▁앞으로	-6437
▁이재	-6438
Hz	-6439
니즘	-6440
테이	-6441
▁폴리	-6442
▁전문가	-6443
▁오키	-6444
▁넣어	-6445
▁구성하는	-6446
▁위상	-6447
스트라	-6448
지마	-6449
▁경기가	-6450
59	-6451
▁서구	-6452
▁환승	-6453
▁디스	-6454
▁웨일	-6455
▁게임의	-6456
라면	-6457
인인	-6458
▁유고	-6459
▁사랑을	-6460
now	-6461
54	-6462
▁스탈	-6463
▁틈	-6464
▁교회의	-6465
▁권리를	-6466
▁사람들	-6467
▁스트리	-6468
▁그녀가	-6469
▁롱	-6470
율이	-6471
▁임무를	-6472
보이	-6473
중이다	-6474
▁말로	-6475
▁북아메리카	-6476
가능	-6477
▁필수	-6478
▁토론토	-6479
▁최근에는	-6480
▁출신이다	-6481
▁도전	-6482
족은	-6483
▁주력	-6484
▁보이지	-6485
▁탄압	-6486
▁현존	-6487
son	-6488
다의	-6489
▁공주	-6490
▁열매	-6491
환경	-6492
▁수술	-6493
▁강등	-6494
▁멈	-6495
▁이외의	-6496
58	-6497
슬로	-6498
(17	-6499
▁앤드	-6500
▁참고	-6501
▁영국에서	-6502
tive	-6503
▁청구	-6504
▁보여주는	-6505
사기	-6506
-10	-6507
▁소프트웨	-6508
orld	-6509
▁오카	-6510
▁토착	-6511
대문	-6512
▁제도를	-6513
▁골키퍼	-6514
▁돌아온	-6515
▁1927	-6516
▁보험	-6517
▁가상	-6518
▁철거	-6519
▁집에	-6520
기지	-6521
▁멀티	-6522
▁사찰	-6523
▁요코하마	-6524
▁개척	-6525
II	-6526
지면	-6527
▁거짓	-6528
▁진학	-6529
▁도쿠가와	-6530
▁프로그래밍	-6531
▁타격	-6532
재가	-6533
▁드물	-6534
▁유통	-6535
씨를	-6536
되거나	-6537
’,	-6538
장애	-6539
ame	-6540
▁상태를	-6541
실로	-6542
▁자원	-6543
민의	-6544
▁본질	-6545
▁아오	-6546
▁이벤	-6547
▁산화	-6548
▁출연했다	-6549
차의	-6550
비히	-6551
▁세부	-6552
olog	-6553
▁이외에도	-6554
▁1912	-6555
에서부터	-6556
▁일으켰다	-6557
▁달하는	-6558
역에	-6559
▁동일본	-6560
▁열리는	-6561
▁일종의	-6562
▁1907	-6563
▁마음을	-6564
▁맨체스터	-6565
▁유나이티드	-6566
▁전화	-6567
▁세계대전	-6568
다시	-6569
▁입력	-6570
▁특별히	-6571
▁밥	-6572
▁자랑	-6573
▁이용할	-6574
▁지중	-6575
▁미국으로	-6576
베리	-6577
me	-6578
등급	-6579
▁아버지가	-6580
▁하느	-6581
53	-6582
rom	-6583
▁작사	-6584
▁파크	-6585
▁이상을	-6586
▁1908	-6587
▁부르기도	-6588
▁크로아티아	-6589
마뱀	-6590
▁소집	-6591
▁마주	-6592
▁쓰러	-6593
▁이어지는	-6594
▁약칭	-6595
즈니	-6596
슬라	-6597
▁용인	-6598
▁콜롬	-6599
▁그리스의	-6600
▁성공했다	-6601
▁글로벌	-6602
▁대장	-6603
로지	-6604
학은	-6605
57	-6606
▁기도	-6607
▁원시	-6608
▁제후	-6609
하기에	-6610
▁반응을	-6611
▁주장하는	-6612
▁가설	-6613
▁공장	-6614
군에게	-6615
▁영화제	-6616
OM	-6617
▁오다	-6618
더스	-6619
▁힙합	-6620
▁모바일	-6621
▁고급	-6622
▁하나가	-6623
▁덩	-6624
▁병원	-6625
▁정부에	-6626
▁할아버	-6627
재위	-6628
▁전동차	-6629
▁–	-6630
▁?)	-6631
▁수컷	-6632
▁낸	-6633
▁고객	-6634
▁줄어들	-6635
인가	-6636
▁삶을	-6637
수도	-6638
▁결의	-6639
▁부속	-6640
▁텐	-6641
▁시가	-6642
카가	-6643
안전	-6644
▁영구	-6645
▁포함되었다	-6646
▁시조	-6647
▁성경	-6648
▁1917	-6649
▁대법	-6650
▁스타디움	-6651
▁(200	-6652
,6	-6653
▁엑스	-6654
▁스티븐	-6655
강을	-6656
▁구멍	-6657
▁연평균	-6658
▁핫	-6659
무장	-6660
브로	-6661
▁46	-6662
▁가난	-6663
▁노동자	-6664
▁원래는	-6665
▁기구	-6666
▁복음	-6667
용의	-6668
치오	-6669
▁대다	-6670
▁시작했고	-6671
,7	-6672
▁44	-6673
▁자금	-6674
▁재생	-6675
당으로	-6676
베이스	-6677
▁소리	-6678
▁백제	-6679
목으로	-6680
▁메달	-6681
▁지불	-6682
▁그러므로	-6683
결승	-6684
▁Sp	-6685
▁붙어	-6686
너스	-6687
보험	-6688
▁개인의	-6689
▁사회의	-6690
▁역사가	-6691
▁사도	-6692
▁일련의	-6693
▁가마	-6694
▁담고	-6695
▁차단	-6696
▁음반이다	-6697
▁추산으로	-6698
SP	-6699
▁바둑	-6700
▁진격	-6701
▁란	-6702
▁비판을	-6703
▁웃	-6704
▁Al	-6705
▁의정부	-6706
▁남극	-6707
▁개량	-6708
▁유력	-6709
▁1905	-6710
힌다	-6711
▁흑인	-6712
▁대부분을	-6713
▁입은	-6714
▁방송을	-6715
▁소속의	-6716
▁비잔	-6717
▁중성	-6718
▁지칭	-6719
▁나뉘어	-6720
▁정식으로	-6721
▁포함된다	-6722
nivers	-6723
▁구성된다	-6724
▁커다란	-6725
근혜	-6726
▁강을	-6727
▁지리	-6728
▁죽음을	-6729
▁불가리아	-6730
▁엔터테인먼트	-6731
▁장르	-6732
▁나고야	-6733
치기	-6734
▁상주	-6735
▁갖게	-6736
▁검색	-6737
년까지는	-6738
▁덜	-6739
계와	-6740
▁주된	-6741
관에서	-6742
▁광범위	-6743
▁실천	-6744
▁알레	-6745
침을	-6746
운동을	-6747
▁변호사	-6748
와이	-6749
후에	-6750
▁부동	-6751
▁혼자	-6752
름은	-6753
▁논리	-6754
▁매주	-6755
▁무대	-6756
▁오는	-6757
ex	-6758
▁이익	-6759
원숭	-6760
▁석유	-6761
▁|	-6762
▁사막	-6763
▁편의	-6764
현은	-6765
▁이어서	-6766
▁멸종	-6767
지니아	-6768
크스	-6769
▁순환	-6770
하를	-6771
▁집필	-6772
▁위치에	-6773
▁r	-6774
▁풋	-6775
파와	-6776
중을	-6777
▁일단	-6778
▁감독은	-6779
로에	-6780
ohn	-6781
▁권리	-6782
▁뚜렷	-6783
▁수호	-6784
용을	-6785
(18	-6786
▁전작	-6787
▁47	-6788
▁다이묘	-6789
▁초기에는	-6790
▁경남	-6791
▁대화	-6792
ma	-6793
▁남녀	-6794
연구소	-6795
▁인상	-6796
▁코파	-6797
▁여성의	-6798
▁140	-6799
▁입법	-6800
▁재위	-6801
▁교차	-6802
▁부르고	-6803
▁루마니아	-6804
코는	-6805
문이다	-6806
▁발표된	-6807
▁보편	-6808
▁클라	-6809
▁사람이다	-6810
판에	-6811
▁백성	-6812
▁초청	-6813
리티	-6814
▁명단	-6815
▁혈액	-6816
보통	-6817
▁관객	-6818
▁자라	-6819
살이	-6820
스피	-6821
▁하인	-6822
▁보스턴	-6823
▁마감	-6824
▁바르셀	-6825
▁후에도	-6826
▁사건의	-6827
▁블록	-6828
▁안내	-6829
▁대학교의	-6830
이면	-6831
▁쿠바	-6832
▁가속	-6833
호선의	-6834
▁위키	-6835
시스템	-6836
청년	-6837
▁끝으로	-6838
TA	-6839
▁생태	-6840
▁마드리드	-6841
여래	-6842
작으로	-6843
대상	-6844
▁정수	-6845
▁탓	-6846
▁강요	-6847
보다도	-6848
▁당나라	-6849
▁사가	-6850
▁훌륭	-6851
▁공원	-6852
▁놓여	-6853
속의	-6854
▁화가	-6855
▁본다	-6856
▁1906	-6857
코프	-6858
▁정확히	-6859
ann	-6860
집을	-6861
▁물려	-6862
중의	-6863
▁되기도	-6864
▁살아남	-6865
▁적극적으로	-6866
▁그려져	-6867
▁대학의	-6868
▁갈색	-6869
▁본명은	-6870
▁집안	-6871
해에	-6872
▁신의	-6873
구조	-6874
▁대대	-6875
▁칼리	-6876
▁600	-6877
▁짝	-6878
산과	-6879
▁홈런을	-6880
▁상호작용	-6881
령의	-6882
항은	-6883
▁적도	-6884
오로	-6885
정도	-6886
▁말해	-6887
▁경향이	-6888
미아	-6889
▁맺고	-6890
▁열었다	-6891
▁비공	-6892
▁인기가	-6893
MS	-6894
▁도쿄도	-6895
▁목숨	-6896
▁영토를	-6897
한다면	-6898
프라	-6899
▁이은	-6900
▁일상	-6901
▁프라이	-6902
▁선조	-6903
▁일원	-6904
▁하던	-6905
▁대동	-6906
▁좁은	-6907
▁구성원	-6908
▁북미	-6909
▁카라	-6910
▁영향으로	-6911
내의	-6912
ula	-6913
▁막기	-6914
▁보냈	-6915
▁연안	-6916
까지도	-6917
대사	-6918
▁후퇴	-6919
▁엘리자	-6920
▁데이터를	-6921
▁모터	-6922
▁성의	-6923
▁어두	-6924
▁팔레	-6925
▁codice	-6926
▁국정	-6927
츠는	-6928
▁많았다	-6929
마에	-6930
드리아	-6931
▁이념	-6932
학에	-6933
▁해협	-6934
우라	-6935
▁인도의	-6936
▁대칭	-6937
▁미국에	-6938
ey	-6939
▁()	-6940
▁꼬리	-6941
▁주재	-6942
▁세리에	-6943
▁후보가	-6944
▁명칭으로	-6945
발전	-6946
경기에서	-6947
머리	-6948
▁허락	-6949
▁공산당	-6950
▁x	-6951
카의	-6952
튜브	-6953
▁소화	-6954
▁43	-6955
▁반대하는	-6956
계열	-6957
이게	-6958
▁가고	-6959
식에서	-6960
편의	-6961
프란	-6962
▁상하	-6963
▁크루	-6964
▁발표되었다	-6965
ile	-6966
51	-6967
>,	-6968
면과	-6969
▁식품	-6970
▁이즈	-6971
▁정통	-6972
▁첫째	-6973
체이다	-6974
▁김대중	-6975
▁명으로	-6976
▁주변의	-6977
체인	-6978
▁산하	-6979
▁오버	-6980
▁발휘	-6981
ED	-6982
ton	-6983
▁방언	-6984
▁새끼	-6985
▁섬에	-6986
▁발전을	-6987
▁웹사이트	-6988
▁41	-6989
▁대결	-6990
▁승부	-6991
▁콘스탄티노	-6992
▁골드	-6993
▁축소	-6994
▁닮	-6995
▁수를	-6996
▁나타난	-6997
향을	-6998
▁유적	-6999
▁군대	-7000
▁그만	-7001
▁우에	-7002
▁보이고	-7003
그래	-7004
토미	-7005
심이	-7006
폴리	-7007
▁강하게	-7008
▁싱어	-7009
▁드라마이다	-7010
yst	-7011
▁싱가포르	-7012
▁스웨덴의	-7013
▁800	-7014
▁전형적인	-7015
러는	-7016
배를	-7017
▁사다	-7018
▁새벽	-7019
▁이끌어	-7020
도니아	-7021
▁남아메리카	-7022
나마	-7023
▁뜻이다	-7024
▁상태가	-7025
말로	-7026
▁영화를	-7027
▁개장	-7028
▁윤치	-7029
co	-7030
▁늑	-7031
▁건물은	-7032
▁센트	-7033
▁집을	-7034
국과	-7035
모델	-7036
▁자매	-7037
▁혼인	-7038
국인	-7039
본은	-7040
SL	-7041
▁감시	-7042
▁대변	-7043
▁베네치아	-7044
▁유전자	-7045
나르	-7046
▁공기	-7047
▁스크린	-7048
당하고	-7049
자이자	-7050
하라는	-7051
▁메모리	-7052
▁모임	-7053
지구	-7054
ern	-7055
▁아동	-7056
▁착용	-7057
▁잡고	-7058
▁소스	-7059
▁1,000	-7060
lu	-7061
예를	-7062
오고	-7063
행이	-7064
래의	-7065
▁포스트	-7066
졌으나	-7067
▁가끔	-7068
▁올라가	-7069
▁일본은	-7070
▁다큐	-7071
권과	-7072
담을	-7073
▁철저	-7074
았지만	-7075
이라며	-7076
▁작품의	-7077
▁농촌	-7078
▁처음에	-7079
제르	-7080
▁죽자	-7081
▁주목을	-7082
.'	-7083
▁로렌	-7084
▁접속	-7085
▁코믹	-7086
▁톱	-7087
받침	-7088
상이다	-7089
▁가치를	-7090
▁이론을	-7091
학회	-7092
ite	-7093
▁부드	-7094
▁크라	-7095
▁또다른	-7096
ork	-7097
ep	-7098
▁군사를	-7099
카드	-7100
지방법원	-7101
▁참가하였다	-7102
보로	-7103
▁관해	-7104
▁거리에	-7105
▁행위를	-7106
▁마틴	-7107
절을	-7108
▁종이	-7109
▁데뷔했다	-7110
▁사이트	-7111
모의	-7112
▁모습이	-7113
▁와서	-7114
▁기반을	-7115
▁발매한	-7116
▁되었는데	-7117
리브	-7118
arl	-7119
au	-7120
보기	-7121
▁불렀	-7122
ive	-7123
▁서명	-7124
▁랩	-7125
▁토벌	-7126
inc	-7127
▁않기	-7128
란색	-7129
버드	-7130
▁OS	-7131
▁구원	-7132
▁퀘	-7133
▁단선	-7134
고리	-7135
크와	-7136
▁삽입	-7137
았는데	-7138
▁JR	-7139
rou	-7140
관계를	-7141
▁전체를	-7142
의가	-7143
500	-7144
▁북극	-7145
하에서	-7146
▁사건에	-7147
오리	-7148
ala	-7149
▁선호	-7150
다이라	-7151
시대에	-7152
▁뮤직비디오	-7153
▁감옥	-7154
▁상황에	-7155
▁운항	-7156
▁맺었다	-7157
플로	-7158
▁힘들	-7159
▁이미지	-7160
▁멜로	-7161
▁에피소드	-7162
게이	-7163
▁동반	-7164
▁인구의	-7165
투표	-7166
▁허가	-7167
▁커버	-7168
하면서도	-7169
▁아티스트	-7170
미사	-7171
▁소득	-7172
▁리이다	-7173
▁현상을	-7174
각형	-7175
▁문재	-7176
▁양산	-7177
▁종로	-7178
브레	-7179
삼국	-7180
▁부탁	-7181
▁말라	-7182
▁입사	-7183
ical	-7184
▁회사의	-7185
▁증언	-7186
슨이	-7187
▁이정	-7188
▁원인	-7189
모는	-7190
청은	-7191
▁발레	-7192
▁재료	-7193
▁의견을	-7194
니와	-7195
▁규슈	-7196
페이지	-7197
▁플로리다	-7198
▁2.	-7199
▁도서	-7200
▁압도	-7201
▁공개되었다	-7202
▁자가	-7203
▁올해의	-7204
릭스	-7205
▁부상으로	-7206
바키아	-7207
▁영향력을	-7208
▁콘서트	-7209
▁아메리칸	-7210
▁무릎	-7211
▁정도이다	-7212
▁la	-7213
▁삼았다	-7214
▁에너지를	-7215
▁중에서도	-7216
▁끈	-7217
▁콜롬비아	-7218
▁비틀	-7219
갔고	-7220
마루	-7221
▁1/	-7222
▁수준의	-7223
▁지었다	-7224
▁목포	-7225
▁약탈	-7226
</	-7227
호쿠	-7228
▁땅을	-7229
▁손에	-7230
▁폭력	-7231
▁쏘	-7232
▁호흡	-7233
▁핸	-7234
▁전한	-7235
▁본선에	-7236
▁성격을	-7237
▁전북	-7238
▁Sch	-7239
청의	-7240
▁베어	-7241
▁도시는	-7242
▁콘텐츠	-7243
실에서	-7244
▁심지어	-7245
DP	-7246
▁~)	-7247
▁대원	-7248
▁세력이	-7249
▁세워진	-7250
문과	-7251
타가	-7252
▁코너	-7253
▁만들기	-7254
됐고	-7255
are	-7256
ox	-7257
곡은	-7258
천의	-7259
ies	-7260
▁노무	-7261
▁영혼	-7262
▁중시	-7263
▁예전	-7264
▁행복	-7265
시스트	-7266
▁알렉산더	-7267
▁압축	-7268
▁정치인	-7269
바다	-7270
old	-7271
▁고안	-7272
▁관계에	-7273
▁명시	-7274
▁아무런	-7275
▁꺼	-7276
ung	-7277
▁특허	-7278
▁박근혜	-7279
건설	-7280
물과	-7281
▁극복	-7282
▁1904	-7283
IT	-7284
▁당사	-7285
▁운송	-7286
▁않았지만	-7287
▁랑	-7288
교도	-7289
되던	-7290
밀한	-7291
▁알리	-7292
우스는	-7293
▁설립한	-7294
이라면	-7295
함은	-7296
▁해설	-7297
▁실내	-7298
▁용어는	-7299
▁원하는	-7300
▁음반은	-7301
주년	-7302
ool	-7303
▁몸무	-7304
프가니스탄	-7305
▁든	-7306
북도의	-7307
군에서	-7308
▁미나	-7309
필드	-7310
▁마그	-7311
▁메탈	-7312
▁재산	-7313
나게	-7314
판의	-7315
훈련	-7316
▁카자	-7317
▁판타	-7318
페이스	-7319
int	-7320
▁곳은	-7321
▁구로	-7322
▁레지	-7323
bert	-7324
▁앨범을	-7325
▁근육	-7326
▁생애	-7327
▁수직	-7328
령으로	-7329
▁닉	-7330
▁지대	-7331
ons	-7332
▁단행	-7333
▁남겨	-7334
▁동경	-7335
▁받으며	-7336
▁일본인	-7337
▁순서	-7338
조판서	-7339
▁위대한	-7340
▁일으킨	-7341
치와	-7342
▁예로	-7343
법과	-7344
족을	-7345
트랙	-7346
▁안양	-7347
▁대해서도	-7348
앨범	-7349
프와	-7350
연의	-7351
▁억제	-7352
세기의	-7353
▁없지만	-7354
▁관계는	-7355
▁미국인	-7356
율은	-7357
▁감사	-7358
▁포유	-7359
훼손	-7360
▁비롯해	-7361
꼬리	-7362
▁신고	-7363
▁자체가	-7364
▁방송된	-7365
▁인물로	-7366
▁모양으로	-7367
레는	-7368
▁그라	-7369
▁외계	-7370
▁AC	-7371
▁망원	-7372
▁An	-7373
▁국토	-7374
비와	-7375
▁포함된	-7376
▁했	-7377
▁담은	-7378
라이터	-7379
▁초상	-7380
전에서는	-7381
▁리그에서	-7382
▁싫	-7383
사상	-7384
▁본토	-7385
▁곤충	-7386
▁주변에	-7387
▁인터뷰에서	-7388
▁며	-7389
▁교사	-7390
▁레벨	-7391
52	-7392
▁영원	-7393
▁일곱	-7394
▁의미가	-7395
▁소요	-7396
▁차지하였다	-7397
ET	-7398
당에서	-7399
도서관	-7400
▁세계를	-7401
우고	-7402
▁기하	-7403
▁운동에	-7404
▁110	-7405
▁서일본	-7406
나고	-7407
기이다	-7408
적이며	-7409
▁자신은	-7410
▁행정구역이다	-7411
▁빌딩	-7412
▁아래의	-7413
▁오이	-7414
▁거리를	-7415
ps	-7416
▁맞추	-7417
▁지원하는	-7418
드르	-7419
쳤고	-7420
▁예외	-7421
▁가야	-7422
▁이종	-7423
OC	-7424
▁내가	-7425
▁섬식	-7426
▁적응	-7427
▁상태에	-7428
란다	-7429
▁있다가	-7430
마저	-7431
▁생기	-7432
▁유용	-7433
▁나이에	-7434
▁세우고	-7435
▁뼈	-7436
일리	-7437
▁준결승	-7438
▁이어져	-7439
▁레인	-7440
▁성과	-7441
▁기능이	-7442
che	-7443
▁타워	-7444
▁황제의	-7445
▁대선	-7446
▁등도	-7447
▁유대인	-7448
▁있어야	-7449
석으로	-7450
▁동성애	-7451
▁셔	-7452
▁경유	-7453
▁수백	-7454
▁시게	-7455
▁유발	-7456
▁오늘날의	-7457
▁이행	-7458
▁무산	-7459
▁오케	-7460
▁유키	-7461
비행	-7462
TC	-7463
▁세월	-7464
▁다루는	-7465
▁크기가	-7466
%)	-7467
기능	-7468
▁서울시	-7469
아웃	-7470
▁바이러스	-7471
▁르네	-7472
차에	-7473
▁KT	-7474
▁실제로는	-7475
리코	-7476
▁상의	-7477
주의와	-7478
▁교수로	-7479
▁소규모	-7480
▁갈등	-7481
▁전술	-7482
▁주제	-7483
▁모험	-7484
▁창당	-7485
현을	-7486
▁겨우	-7487
▁영양	-7488
▁그녀를	-7489
▁지역이	-7490
애나	-7491
▁김해	-7492
▁몸길	-7493
▁성질	-7494
였다고	-7495
▁파울	-7496
▁주니어	-7497
티스	-7498
▁필립	-7499
▁보르	-7500
▁필라	-7501
▁불리며	-7502
▁공간을	-7503
▁보이며	-7504
▁밀라노	-7505
(3	-7506
마쓰	-7507
▁맞춰	-7508
▁소형	-7509
▁현급	-7510
▁이하의	-7511
▁대한제국	-7512
▁공무원	-7513
▁크기는	-7514
▁이날	-7515
▁콜로	-7516
▁없었고	-7517
총리	-7518
▁성과를	-7519
▁그럼	-7520
▁클리	-7521
▁토너	-7522
든지	-7523
▁기부	-7524
에게도	-7525
자였던	-7526
▁역의	-7527
▁1896	-7528
ci	-7529
우에	-7530
카르	-7531
▁넘겨	-7532
어에서	-7533
▁꾸준히	-7534
▁차지한다	-7535
비시	-7536
VP	-7537
티움	-7538
▁데려	-7539
▁전남	-7540
▁창간	-7541
주의는	-7542
▁도중에	-7543
▁수밖에	-7544
▁사람으로	-7545
레이드	-7546
어에	-7547
▁이용하는	-7548
▁("	-7549
▁가시	-7550
▁그들	-7551
▁독재	-7552
▁도메	-7553
로미터	-7554
▁주식회사	-7555
▁대구광역시	-7556
▁넥	-7557
▁우리가	-7558
▁준우승	-7559
▁책은	-7560
▁탑승	-7561
▁빅토리아	-7562
▁수록되어	-7563
▁펑	-7564
성도	-7565
▁내는	-7566
▁곧바로	-7567
ML	-7568
ev	-7569
소수	-7570
▁발명	-7571
▁배열	-7572
▁수감	-7573
▁옵	-7574
▁게르	-7575
▁쇠퇴	-7576
▁하사	-7577
▁공룡	-7578
▁사제	-7579
집합	-7580
▁별로	-7581
▁석사	-7582
해지고	-7583
▁기본적인	-7584
▁천체	-7585
Al	-7586
▁강수	-7587
▁요금	-7588
▁주요한	-7589
즈와	-7590
▁무관	-7591
▁사로	-7592
▁아들이다	-7593
▁사촌	-7594
▁아울	-7595
▁구사	-7596
개국	-7597
▁지나지	-7598
▁휴대	-7599
▁돌아왔다	-7600
건의	-7601
트롤	-7602
▁먹는다	-7603
▁적어도	-7604
▁걷	-7605
▁동굴	-7606
▁살펴	-7607
▁심장	-7608
▁음성	-7609
▁잠재	-7610
▁찬성	-7611
▁전해진다	-7612
▁까지	-7613
▁부처	-7614
▁야스	-7615
▁돔	-7616
▁코로나	-7617
▁레이블	-7618
▁이어졌다	-7619
▁고리	-7620
▁무리	-7621
▁호남	-7622
▁비정	-7623
▁예방	-7624
단에서	-7625
학과를	-7626
우스의	-7627
▁살았다	-7628
▁우리는	-7629
되었다는	-7630
이었는데	-7631
Th	-7632
▁촉진	-7633
▁하다가	-7634
유한	-7635
▁거둔	-7636
▁들여	-7637
▁마법	-7638
▁마치고	-7639
▁조기	-7640
▁사이를	-7641
▁이었다	-7642
유산	-7643
▁보기	-7644
▁덕분에	-7645
▁소리를	-7646
▁옮겼다	-7647
▁y	-7648
병원	-7649
보병	-7650
▁계곡	-7651
▁일대	-7652
▁다큐멘	-7653
▁이르기까지	-7654
_10	-7655
▁실수	-7656
슬라비아	-7657
▁중국에서	-7658
(6	-7659
▁시모	-7660
▁얻게	-7661
▁역사는	-7662
률을	-7663
소리	-7664
▁거대	-7665
▁죽고	-7666
▁레이다	-7667
▁졸업한	-7668
▁아프가니스탄	-7669
▁명성을	-7670
▁람	-7671
루미	-7672
작은	-7673
ace	-7674
문으로	-7675
▁파키스탄	-7676
끼리	-7677
▁못하게	-7678
▁체험	-7679
위원회가	-7680
▁요미	-7681
▁타입	-7682
▁지방에	-7683
자나	-7684
진흥	-7685
▁석방	-7686
▁우라	-7687
▁문화재자료	-7688
점과	-7689
▁셋째	-7690
AP	-7691
디는	-7692
▁병력을	-7693
▁남양	-7694
▁라이벌	-7695
▁결승전에서	-7696
린이	-7697
카미	-7698
▁삭제	-7699
▁익스	-7700
중이	-7701
ick	-7702
▁지바	-7703
생활을	-7704
▁레코드	-7705
류에	-7706
졌던	-7707
▁방위	-7708
▁중지	-7709
▁태조	-7710
작가	-7711
▁감각	-7712
ase	-7713
▁US	-7714
▁130	-7715
,3	-7716
▁한반도	-7717
률이	-7718
▁국가가	-7719
▁일어난다	-7720
▁개성	-7721
▁한국인	-7722
카는	-7723
▁장례	-7724
▁패러	-7725
졌는데	-7726
▁없었던	-7727
▁접하고	-7728
나를	-7729
현재의	-7730
▁반면에	-7731
ach	-7732
▁고고	-7733
졌지만	-7734
▁봉해졌다	-7735
토는	-7736
▁수반	-7737
▁테마	-7738
An	-7739
▁딴	-7740
기획	-7741
▁되찾	-7742
▁심사	-7743
▁1911	-7744
▁지역에서는	-7745
공학	-7746
음의	-7747
▁곳을	-7748
▁기용	-7749
▁매장	-7750
자들과	-7751
노의	-7752
▁현대의	-7753
▁폐지되었다	-7754
▁매니	-7755
▁붙잡	-7756
▁스톤	-7757
▁예산	-7758
▁안토니	-7759
▁서기	-7760
▁추락	-7761
▁BBC	-7762
▁브라질의	-7763
영이	-7764
▁경전	-7765
▁시절에	-7766
▁차지하는	-7767
▁뱀	-7768
타임	-7769
▁포켓몬	-7770
▁하우스	-7771
데스리가	-7772
민족행위	-7773
▁첩	-7774
und	-7775
▁바람에	-7776
▁웨이	-7777
▁학사	-7778
▁고시	-7779
▁광역	-7780
▁무인	-7781
▁이세	-7782
▁다음으로	-7783
▁급격	-7784
▁돌파	-7785
▁삼아	-7786
▁상황이	-7787
치며	-7788
▁결심	-7789
▁추대	-7790
▁변화가	-7791
▁의미로	-7792
▁정권을	-7793
식물	-7794
탄을	-7795
▁이수	-7796
▁아르메	-7797
▁페이스	-7798
▁EP	-7799
광역시의	-7800
▁쿼	-7801
▁배급	-7802
▁옛날	-7803
▁전의	-7804
▁코스	-7805
az	-7806
▁젠	-7807
▁참모	-7808
니스트	-7809
▁명칭이	-7810
▁호주	-7811
▁발생한다	-7812
역과	-7813
▁서북	-7814
▁주거	-7815
▁국경을	-7816
▁카메라	-7817
대원	-7818
보면	-7819
▁놀라	-7820
사이드	-7821
▁사용하지	-7822
▁읍	-7823
▁도움이	-7824
▁방법이	-7825
▁공정	-7826
▁색깔	-7827
▁오리지	-7828
기서	-7829
▁물이	-7830
▁신분	-7831
▁모습으로	-7832
▁타이틀을	-7833
▁고등학교이다	-7834
실한	-7835
▁동영	-7836
▁사형	-7837
▁유아	-7838
메르	-7839
▁의도	-7840
▁띤	-7841
▁금강	-7842
▁모노	-7843
▁양식	-7844
▁최상	-7845
병으로	-7846
오와	-7847
졌을	-7848
▁의거	-7849
지기도	-7850
▁on	-7851
▁지내고	-7852
att	-7853
▁흙	-7854
중심	-7855
▁감정	-7856
▁클라우	-7857
수산	-7858
황후	-7859
▁과도	-7860
▁파생	-7861
리케이션	-7862
▁유입	-7863
▁영국과	-7864
센트	-7865
▁매각	-7866
▁박쥐	-7867
▁뚫	-7868
▁밖으로	-7869
ign	-7870
▁거친	-7871
▁쓴다	-7872
▁결과로	-7873
▁리그의	-7874
▁약간의	-7875
▁대회이다	-7876
문관	-7877
▁54	-7878
▁클로	-7879
▁흰색	-7880
▁권한을	-7881
▁도시를	-7882
▁크기의	-7883
사지	-7884
▁등장한	-7885
▁이루어진다	-7886
▁49	-7887
▁걸려	-7888
▁시를	-7889
▁평론	-7890
▁않았던	-7891
▁낱	-7892
화학	-7893
▁영광	-7894
▁지정되어	-7895
▁서방	-7896
▁서쪽으로는	-7897
고에	-7898
▁항구	-7899
년만에	-7900
▁되었다고	-7901
▁풍부한	-7902
류로	-7903
카스	-7904
▁고가	-7905
▁말은	-7906
▁테크	-7907
▁총선에서	-7908
▁계층	-7909
프스	-7910
안군	-7911
▁대단	-7912
▁선형	-7913
▁명단에	-7914
▁부분에	-7915
실에	-7916
고자	-7917
르바	-7918
습을	-7919
▁시달	-7920
▁갱	-7921
▁올린	-7922
자이너	-7923
高等學校	-7924
▁남쪽으로는	-7925
▁딜	-7926
피를	-7927
▁각본	-7928
▁블라디	-7929
▁사양	-7930
▁계기가	-7931
▁필요로	-7932
▁바이러	-7933
니에	-7934
즈키	-7935
데이트	-7936
▁스승	-7937
▁동쪽으로는	-7938
▁퍼져	-7939
-15	-7940
▁획득했다	-7941
터와	-7942
펙트럼	-7943
▁SF	-7944
▁자세	-7945
▁NHK	-7946
▁생각을	-7947
▁지원한다	-7948
▁칙	-7949
▁타원	-7950
▁전체적으로	-7951
▁56	-7952
▁설치되었다	-7953
ron	-7954
나라는	-7955
▁비로	-7956
▁작전을	-7957
▁당선되었다	-7958
▁시간에	-7959
▁않았으며	-7960
▁때문이었다	-7961
▁만난	-7962
▁먹는	-7963
▁습격	-7964
▁역이	-7965
▁유닛	-7966
▁유성	-7967
▁빵	-7968
▁현의	-7969
▁섹	-7970
들인	-7971
전투	-7972
ier	-7973
▁발렌	-7974
▁순수	-7975
▁두려워	-7976
▁들었다	-7977
오가	-7978
▁모래	-7979
신과	-7980
▁납치	-7981
▁미분	-7982
▁전승	-7983
▁다룬	-7984
▁리눅	-7985
▁그리스도	-7986
긴다	-7987
▁세계에	-7988
▁것이고	-7989
▁51	-7990
▁동시	-7991
▁테오	-7992
▁규모가	-7993
▁왕위	-7994
▁못한다	-7995
▁제공하고	-7996
▁획득하였다	-7997
청이	-7998
▁1909	-7999
류와	-8000
올린	-8001
우옌	-8002
프랑스	-8003
타나	-8004
▁출현	-8005
▁정부를	-8006
루살	-8007
▁하노	-8008
▁해병	-8009
▁뿐이다	-8010
▁졸업했다	-8011
마리	-8012
교가	-8013
▁중동	-8014
▁방향을	-8015
▁싱어송	-8016
▁상영	-8017
▁향년	-8018
▁고통	-8019
▁이곳에	-8020
ES	-8021
▁대회는	-8022
▁레닌	-8023
▁파티	-8024
▁흐르는	-8025
▁He	-8026
복지	-8027
▁간섭	-8028
▁독점	-8029
▁패턴	-8030
미국	-8031
편을	-8032
▁당해	-8033
▁가쓰	-8034
▁내용의	-8035
타와	-8036
▁파트너	-8037
롤라	-8038
▁유인	-8039
▁입증	-8040
CD	-8041
히로	-8042
▁뒤로	-8043
나라를	-8044
▁아니고	-8045
▁합동	-8046
주의에	-8047
▁말하며	-8048
노는	-8049
루살렘	-8050
활동	-8051
돌프	-8052
디스	-8053
▁아이스	-8054
▁딱	-8055
▁분산	-8056
▁연락	-8057
▁입대	-8058
▁Mar	-8059
스테이션	-8060
▁유고슬라비아	-8061
▁사유	-8062
▁지표	-8063
▁탐험	-8064
테스	-8065
▁과거에	-8066
▁공동으로	-8067
▁집에서	-8068
▁동아시아	-8069
▁되었으나	-8070
러리	-8071
▁방면	-8072
▁들어간	-8073
▁프랑스는	-8074
▁발족	-8075
▁실업	-8076
▁탄소	-8077
▁개발을	-8078
▁종교적	-8079
▁빗	-8080
연한	-8081
▁중립	-8082
▁화폐	-8083
성에서	-8084
▁메트로	-8085
▁후기의	-8086
▁유럽에서	-8087
▁주와	-8088
▁북쪽으로는	-8089
전기	-8090
▁대학에서	-8091
▁세계적인	-8092
스톤	-8093
▁SC	-8094
▁대지	-8095
▁법적	-8096
▁심한	-8097
대학원	-8098
▁게시	-8099
▁닌텐	-8100
▁선두	-8101
팀이	-8102
파에	-8103
▁입었다	-8104
▁자료를	-8105
닉스	-8106
▁모로	-8107
▁범주	-8108
▁점성	-8109
▁카페	-8110
▁구간은	-8111
▁스토리	-8112
▁두드	-8113
▁소위	-8114
▁아나운	-8115
▁효과가	-8116
▁마시	-8117
▁아직도	-8118
▁자바	-8119
럼비아	-8120
면서도	-8121
▁모듈	-8122
화하는	-8123
▁차트에서	-8124
플러	-8125
ina	-8126
▁회색	-8127
▁그랜드	-8128
▁스마트폰	-8129
가수	-8130
▁이명박	-8131
AS	-8132
▁굽	-8133
▁밀접	-8134
▁아웃	-8135
▁관하여	-8136
▁시호는	-8137
다니	-8138
실록	-8139
800	-8140
▁일본어	-8141
▁마카	-8142
▁오리지널	-8143
회로	-8144
도사	-8145
▁우익	-8146
▁!	-8147
▁시대에는	-8148
▁아틀	-8149
▁적절한	-8150
▁클래식	-8151
법인이다	-8152
▁주도는	-8153
이사	-8154
▁빨간	-8155
▁으로	-8156
▁가능성을	-8157
▁겸임	-8158
▁우루	-8159
리크	-8160
▁싱어송라이터	-8161
ance	-8162
▁때마다	-8163
▁토마스	-8164
▁사과	-8165
▁타율	-8166
▁특성을	-8167
▁이곳에서	-8168
둥이	-8169
직에서	-8170
▁크로스	-8171
▁탱	-8172
브를	-8173
▁관심이	-8174
령은	-8175
▁툴	-8176
▁냈다	-8177
권으로	-8178
노미야	-8179
하였을	-8180
▁모양을	-8181
▁스펙트럼	-8182
프란시스코	-8183
족과	-8184
▁프리미어리그	-8185
토시	-8186
▁눈을	-8187
▁동치	-8188
IV	-8189
령에	-8190
▁선거에	-8191
구리	-8192
▁초래	-8193
▁빨리	-8194
▁산악	-8195
▁리드	-8196
▁변신	-8197
▁장갑	-8198
▁존재를	-8199
▁추가되었다	-8200
클럽	-8201
통일	-8202
▁52	-8203
▁하나님	-8204
ous	-8205
▁모델로	-8206
ai	-8207
▁긴급	-8208
▁다녔	-8209
▁주말	-8210
▁플레	-8211
▁황태	-8212
▁우수한	-8213
▁보살	-8214
부문	-8215
미디어	-8216
▁사령관	-8217
하겠다고	-8218
hy	-8219
▁간에	-8220
▁폭격	-8221
토스	-8222
▁정류	-8223
▁들어와	-8224
방에	-8225
토가	-8226
지사	-8227
포스	-8228
▁깊이	-8229
현이	-8230
▁전두	-8231
▁사진을	-8232
▁확인할	-8233
번호	-8234
▁벌였다	-8235
▁작품이	-8236
▁밸	-8237
되었기	-8238
▁기록하고	-8239
▁못했고	-8240
▁별도로	-8241
▁원자력	-8242
자연	-8243
▁선제	-8244
▁있으면	-8245
▁활동에	-8246
IP	-8247
급의	-8248
iki	-8249
▁내지	-8250
▁막아	-8251
▁노선이	-8252
▁문화를	-8253
▁앨범은	-8254
▁이야기가	-8255
고속	-8256
으려	-8257
후보	-8258
ica	-8259
▁신사	-8260
▁250	-8261
▁아니었다	-8262
▁마쓰다이라	-8263
▁아케	-8264
▁공식적인	-8265
초의	-8266
▁적색	-8267
▁버리고	-8268
▁센트럴	-8269
▁호환	-8270
~3	-8271
▁재단	-8272
▁직무	-8273
▁브레이	-8274
▁뷰	-8275
▁어릴	-8276
▁옆에	-8277
▁전망	-8278
▁전향	-8279
▁참가하여	-8280
야는	-8281
▁오염	-8282
▁인증	-8283
▁전임	-8284
▁오디션	-8285
▁그랑	-8286
▁기재	-8287
▁운반	-8288
▁원형	-8289
▁추적	-8290
▁중심지	-8291
▁락	-8292
주인	-8293
히고	-8294
▁성균	-8295
림을	-8296
▁유물	-8297
칸센	-8298
▁마라	-8299
▁고립	-8300
▁벗어	-8301
▁라이프	-8302
▁목숨을	-8303
▁그럼에도	-8304
▁가득	-8305
▁모르	-8306
▁잃고	-8307
▁펄	-8308
▁날개	-8309
▁도구	-8310
▁압박	-8311
된다는	-8312
▁대회를	-8313
론과	-8314
ish	-8315
▁아울러	-8316
▁료	-8317
제품	-8318
▁동서	-8319
▁데리고	-8320
우치	-8321
▁라운드	-8322
곡이	-8323
▁김동	-8324
▁반사	-8325
▁동맹을	-8326
▁한국에서는	-8327
단계	-8328
▁서독	-8329
▁경기장	-8330
▁일본이	-8331
▁간단한	-8332
▁측은	-8333
▁업데이트	-8334
뱅크	-8335
▁설이	-8336
▁드래곤	-8337
▁마스터	-8338
▁케이블	-8339
고한	-8340
▁인조	-8341
▁점은	-8342
▁혁신	-8343
▁1915	-8344
▁내륙	-8345
▁모음	-8346
하르트	-8347
▁과학자	-8348
▁구간이	-8349
▁아마추어	-8350
▁활약하고	-8351
ree	-8352
▁1913	-8353
▁소속되어	-8354
리타	-8355
▁브라우	-8356
▁네덜란드의	-8357
▁없기	-8358
▁사항	-8359
▁자유를	-8360
▁일환으로	-8361
▁수익	-8362
▁지연	-8363
▁이외에	-8364
▁유지하고	-8365
▁적을	-8366
▁1895	-8367
임은	-8368
▁랭킹	-8369
▁발효	-8370
▁포맷	-8371
▁활동이	-8372
▁빛을	-8373
▁앨런	-8374
▁이승만	-8375
▁최근에	-8376
▁열차는	-8377
도서	-8378
▁95	-8379
▁막을	-8380
▁계획이	-8381
▁분야의	-8382
클라	-8383
▁여왕	-8384
▁인류	-8385
▁전원	-8386
▁관광객	-8387
4)	-8388
등에	-8389
이즈	-8390
tor	-8391
▁은퇴한	-8392
▁불리기도	-8393
3)	-8394
NS	-8395
▁인근에	-8396
▁했다고	-8397
▁면역	-8398
▁일로	-8399
▁경계를	-8400
▁인간이	-8401
▁램	-8402
석에	-8403
해는	-8404
▁계획은	-8405
▁토머스	-8406
지대	-8407
▁좌익	-8408
판으로	-8409
▁활동한	-8410
▁일본에서는	-8411
스티벌	-8412
▁버지니아	-8413
▁고교	-8414
▁플루	-8415
▁낳았다	-8416
▁미국이	-8417
▁형성된	-8418
(5	-8419
)」	-8420
▁AM	-8421
▁안드로이드	-8422
tu	-8423
금융	-8424
리자	-8425
▁나라를	-8426
▁자전거	-8427
▁왕립	-8428
악의	-8429
▁리듬	-8430
▁제네	-8431
_6	-8432
▁흩	-8433
▁가해	-8434
합니다	-8435
▁예루살렘	-8436
▁피난	-8437
▁관련하여	-8438
▁애플리케이션	-8439
▁4,	-8440
▁문화의	-8441
과도	-8442
편이	-8443
▁결과가	-8444
▁당했다	-8445
▁조선총독부	-8446
▁경북	-8447
▁구상	-8448
▁용어	-8449
▁주파	-8450
▁청동	-8451
▁수도권	-8452
▁남한	-8453
▁보좌	-8454
▁성벽	-8455
▁수천	-8456
▁준공	-8457
고려	-8458
액을	-8459
res	-8460
자였다	-8461
▁잊	-8462
누리	-8463
작을	-8464
▁디자이너	-8465
재의	-8466
▁없애	-8467
▁친선	-8468
▁결과는	-8469
▁라이온	-8470
▁지역이다	-8471
▁가요	-8472
▁등이다	-8473
군사	-8474
▁가공	-8475
년으로	-8476
하라고	-8477
ram	-8478
산에서	-8479
등한	-8480
▁근로	-8481
▁달아	-8482
▁재즈	-8483
▁지질	-8484
편성	-8485
▁인물이다	-8486
마자	-8487
쪽의	-8488
▁많고	-8489
▁학교를	-8490
ola	-8491
체에서	-8492
▁원래의	-8493
▁상태이다	-8494
▁홀로	-8495
▁요구하는	-8496
▁주장이	-8497
▁연계	-8498
방이	-8499
▁벨라	-8500
▁임신	-8501
▁경험을	-8502
▁스타크래프트	-8503
공동	-8504
▁브로	-8505
하가	-8506
▁MVP	-8507
금은	-8508
등록	-8509
병이	-8510
유키	-8511
▁이지	-8512
기관이다	-8513
▁독자적인	-8514
▁나선	-8515
▁꺾고	-8516
▁승차	-8517
위에서	-8518
▁쪽으로	-8519
AD	-8520
▁뤼	-8521
관찰	-8522
출을	-8523
홈런	-8524
▁성공적으로	-8525
▁애국	-8526
▁히어로	-8527
▁역전	-8528
▁이복	-8529
▁중력	-8530
▁※	-8531
▁가미	-8532
▁때도	-8533
변을	-8534
환의	-8535
Mar	-8536
▁무선	-8537
▁자손	-8538
▁Man	-8539
▁목록은	-8540
▁데뷔전을	-8541
▁우리나라	-8542
▁열어	-8543
▁행정구역	-8544
▁FM	-8545
▁러브	-8546
▁메가	-8547
▁정원	-8548
▁게임은	-8549
이후	-8550
▁돌아오	-8551
▁샌프란시스코	-8552
▁피렌	-8553
▁위기에	-8554
▁담당하는	-8555
▁댄스	-8556
▁본선의	-8557
▁제도의	-8558
시절	-8559
▁용산	-8560
▁극단	-8561
▁스페셜	-8562
▁싱글이다	-8563
▁값을	-8564
▁배제	-8565
위원회는	-8566
IM	-8567
바나	-8568
▁고베	-8569
▁커뮤니티	-8570
토를	-8571
말을	-8572
▁가질	-8573
▁대로	-8574
▁시마	-8575
▁찾을	-8576
▁아들을	-8577
▁결과적으로	-8578
▁바르셀로나	-8579
너는	-8580
률은	-8581
양군	-8582
▁지어진	-8583
▁차이를	-8584
niversity	-8585
가루	-8586
iel	-8587
▁여의	-8588
▁해제	-8589
그로	-8590
년은	-8591
▁쏟	-8592
▁얇	-8593
▁튜	-8594
▁못해	-8595
▁영화로	-8596
▁비잔티움	-8597
▁비스	-8598
▁끝났다	-8599
간을	-8600
▁서남	-8601
들과의	-8602
▁된다는	-8603
▁엔진을	-8604
▁전체의	-8605
▁스프링	-8606
하니	-8607
▁곳곳	-8608
시켰고	-8609
▁일본군	-8610
검찰	-8611
▁뒤인	-8612
▁후의	-8613
해진다	-8614
▁활약하였다	-8615
Ar	-8616
음에	-8617
▁발전에	-8618
▁항공기	-8619
▁자리에서	-8620
왔고	-8621
▁복수	-8622
▁태어났으며	-8623
널드	-8624
로동	-8625
▁예능	-8626
▁계열의	-8627
▁신칸센	-8628
PC	-8629
▁졸업하였다	-8630
라이더	-8631
▁아우구	-8632
▁얼마나	-8633
▁곁	-8634
발의	-8635
▁그동안	-8636
▁지배를	-8637
▁장편	-8638
▁대신에	-8639
▁휩	-8640
▁Be	-8641
▁가라	-8642
▁700	-8643
▁말하고	-8644
▁하천	-8645
▁연고로	-8646
ystem	-8647
▁깔	-8648
분은	-8649
▁한양	-8650
▁대학원	-8651
▁가지게	-8652
▁티베트	-8653
불교	-8654
:00	-8655
▁에릭	-8656
▁영주	-8657
▁원산	-8658
▁현존하는	-8659
있고	-8660
▁중이던	-8661
▁목적은	-8662
▁옹호	-8663
▁첫번째	-8664
ke	-8665
▁무늬	-8666
▁사직	-8667
중에서	-8668
함으로	-8669
반의	-8670
클린	-8671
▁이순	-8672
▁이치	-8673
▁이익을	-8674
▁정의할	-8675
▁친일반	-8676
▁훈련을	-8677
▁한신	-8678
석과	-8679
▁내장	-8680
수엘	-8681
▁기호	-8682
▁동기	-8683
▁힘이	-8684
▁조약을	-8685
▁최신	-8686
속으로	-8687
▁짙	-8688
스컵	-8689
▁대답	-8690
▁에스파	-8691
석탑	-8692
▁미시	-8693
▁지목	-8694
▁북쪽에	-8695
▁무신	-8696
▁사장	-8697
바시	-8698
조와	-8699
테쓰	-8700
현악	-8701
▁어드	-8702
▁Col	-8703
▁운동의	-8704
▁Love	-8705
▁크리스티	-8706
▁디젤	-8707
▁맞게	-8708
▁트라	-8709
▁여동생	-8710
아프리카	-8711
▁위치하며	-8712
▁청와	-8713
▁축제	-8714
EN	-8715
런스	-8716
▁메모	-8717
▁착공	-8718
▁찾는	-8719
TS	-8720
리온	-8721
▁스틸	-8722
▁유니버	-8723
형과	-8724
▁교구	-8725
▁말할	-8726
▁무료	-8727
▁연설	-8728
▁통칭	-8729
▁트위	-8730
▁호수	-8731
▁두번째	-8732
성한	-8733
▁53	-8734
▁인텔	-8735
▁크림	-8736
▁않도록	-8737
명인	-8738
편에	-8739
▁간접	-8740
▁1500	-8741
formula	-8742
업이	-8743
▁모집	-8744
▁온도	-8745
▁주에서	-8746
본이	-8747
▁미네	-8748
▁책봉	-8749
▁결정을	-8750
▁퓨	-8751
▁막부	-8752
▁발생했다	-8753
▁빌헬	-8754
▁1916	-8755
▁상무	-8756
▁충격	-8757
▁모순	-8758
▁트럼	-8759
▁사로잡	-8760
▁페이지	-8761
▁바티	-8762
▁국가에서	-8763
보가	-8764
▁바꾸었다	-8765
▁최종적으로	-8766
▁입문	-8767
▁나이트	-8768
▁라틴어	-8769
보의	-8770
션을	-8771
▁남아있다	-8772
사추	-8773
▁가면	-8774
▁역과	-8775
▁능력이	-8776
민이	-8777
▁달의	-8778
▁결승전	-8779
▁퀴	-8780
업에	-8781
▁당한	-8782
소한	-8783
▁DJ	-8784
▁여덟	-8785
▁웰	-8786
〉(	-8787
ley	-8788
스테르	-8789
illi	-8790
▁사용해	-8791
▁노르웨	-8792
▁메르	-8793
▁정벌	-8794
▁길이가	-8795
▁중화인민공화국의	-8796
경으로	-8797
▁주제로	-8798
▁박영	-8799
▁성씨	-8800
▁이원	-8801
▁제휴	-8802
▁조용	-8803
▁근거로	-8804
▁지역과	-8805
건은	-8806
400	-8807
▁개념은	-8808
org	-8809
▁마산	-8810
▁군대가	-8811
▁당의	-8812
▁퍼시	-8813
▁친일반민족행위	-8814
범죄	-8815
▁공략	-8816
식이다	-8817
▁의원이	-8818
▁주어졌다	-8819
인명	-8820
ale	-8821
▁이르고	-8822
▁결정했다	-8823
▁베이스볼	-8824
▁대만	-8825
▁메디	-8826
▁전투는	-8827
▁덴마크의	-8828
▁생각했다	-8829
리시	-8830
조정	-8831
▁곳이	-8832
▁번뇌	-8833
▁사격	-8834
▁언어로	-8835
결을	-8836
렸던	-8837
청을	-8838
▁과학적	-8839
▁구조의	-8840
▁편지를	-8841
▁분포한다	-8842
-6	-8843
▁꾀	-8844
▁머무	-8845
됐으며	-8846
▁막대한	-8847
▁머리를	-8848
▁있다면	-8849
▁공전	-8850
▁동지	-8851
▁법학	-8852
ress	-8853
인들에게	-8854
물질	-8855
▁적대	-8856
,500	-8857
▁이적했다	-8858
▁제목으로	-8859
반을	-8860
하러	-8861
▁험	-8862
ose	-8863
▁예언	-8864
▁전통적으로	-8865
바의	-8866
▁떠난	-8867
▁페루	-8868
랑이	-8869
▁간다	-8870
▁맞는	-8871
▁서서히	-8872
팩트	-8873
▁구마	-8874
▁다루고	-8875
▁마케도니아	-8876
▁발생하였다	-8877
용이	-8878
▁신장	-8879
▁올림	-8880
글로	-8881
▁반환	-8882
ound	-8883
▁뒤에는	-8884
▁사이클	-8885
▁충분한	-8886
▁판타지	-8887
:1	-8888
lo	-8889
▁부장	-8890
▁이자	-8891
▁결혼을	-8892
고도	-8893
-16	-8894
▁메리	-8895
▁내부의	-8896
▁방영되었다	-8897
▁보잉	-8898
곡으로	-8899
▁전투가	-8900
니를	-8901
▁야기	-8902
▁콩고	-8903
▁군대는	-8904
져서	-8905
▁도심	-8906
▁평생	-8907
▁스트라이	-8908
▁원작으로	-8909
▁직접적인	-8910
레오	-8911
▁항일	-8912
경기를	-8913
▁경력을	-8914
▁문화적	-8915
▁시스템은	-8916
규칙	-8917
산성	-8918
▁al	-8919
▁아리	-8920
▁방식의	-8921
▁구름	-8922
▁호르	-8923
▁중앙에	-8924
▁맡았으며	-8925
니치	-8926
▁귀환	-8927
▁이토	-8928
▁불만을	-8929
▁가능하며	-8930
▁아르메니아	-8931
온다	-8932
▁다음이	-8933
때로	-8934
아를	-8935
투쟁	-8936
▁라트	-8937
▁황후	-8938
▁해군의	-8939
다리	-8940
▁이영	-8941
▁기온은	-8942
▁좋아하는	-8943
▁프로토콜	-8944
있으며	-8945
▁없으나	-8946
▁응우옌	-8947
▁발라	-8948
ism	-8949
▁추증	-8950
▁기여했다	-8951
받지	-8952
세츠	-8953
▁약한	-8954
▁연애	-8955
▁캡	-8956
▁고조	-8957
▁숙종	-8958
▁연루	-8959
▁착수	-8960
▁프랜	-8961
▁코리아	-8962
만원	-8963
재는	-8964
▁미나미	-8965
색이	-8966
▁교과	-8967
▁하나를	-8968
▁후반에	-8969
▁칩	-8970
금이	-8971
라미	-8972
형태	-8973
ium	-8974
▁아베	-8975
▁원로	-8976
▁진술	-8977
▁자격을	-8978
ome	-8979
▁57	-8980
▁나열	-8981
▁손자	-8982
분야	-8983
▁장면	-8984
▁특수한	-8985
조약	-8986
▁건의	-8987
▁법원	-8988
▁차남	-8989
▁아파트	-8990
▁82	-8991
▁경고	-8992
▁백인	-8993
사우루스	-8994
▁대우	-8995
▁성질을	-8996
▁사람에게	-8997
▁론	-8998
▁정도가	-8999
▁포함해	-9000
//	-9001
▁갤럭	-9002
▁말한	-9003
▁않는다는	-9004
▁기타리스트	-9005
였기	-9006
▁법무	-9007
▁프로그램의	-9008
▁Con	-9009
▁연구소	-9010
▁잘못된	-9011
▁후보에	-9012
투아니아	-9013
▁본격적인	-9014
커스	-9015
▁성은	-9016
▁호칭	-9017
▁국가를	-9018
니까	-9019
론적	-9020
오르	-9021
▁각기	-9022
▁연구하는	-9023
▁굉	-9024
슬림	-9025
포트	-9026
▁스카이	-9027
파크	-9028
지붕	-9029
스트는	-9030
▁보여주고	-9031
▁사무실은	-9032
▁사이에는	-9033
글라	-9034
▁한국방송	-9035
AL	-9036
▁SM	-9037
▁대주교	-9038
세스	-9039
시피	-9040
▁Ex	-9041
▁일렉	-9042
내에서	-9043
▁강점기	-9044
▁전투에	-9045
▁서울에서	-9046
▁일원으로	-9047
란을	-9048
▁훌륭한	-9049
▁오스트레일리아의	-9050
▁굵	-9051
▁반지	-9052
▁연구는	-9053
▁화려한	-9054
▁브라이언	-9055
cy	-9056
민당	-9057
▁물리학	-9058
▁이처럼	-9059
_7	-9060
역사	-9061
oci	-9062
ix	-9063
▁중구	-9064
▁CPU	-9065
터로	-9066
▁밀양	-9067
▁한강	-9068
▁어렵다	-9069
▁자유롭게	-9070
▁시작했으며	-9071
▁급행	-9072
▁보인	-9073
▁마르크스	-9074
측의	-9075
▁가즈	-9076
▁부른	-9077
▁사용자가	-9078
그리	-9079
▁연구가	-9080
대교	-9081
독일	-9082
▁99	-9083
란의	-9084
여객	-9085
켰다	-9086
▁받기도	-9087
▁일찍이	-9088
년대부터	-9089
yn	-9090
그는	-9091
용은	-9092
티는	-9093
▁컸	-9094
소스	-9095
▁퇴각	-9096
▁합계	-9097
▁가능하게	-9098
▁구체적인	-9099
▁남긴	-9100
▁특급	-9101
▁포인	-9102
플라	-9103
▁목조	-9104
▁이글	-9105
▁아니며	-9106
ft	-9107
▁개업	-9108
▁적의	-9109
스포츠	-9110
▁디즈니	-9111
▁리메이	-9112
▁미치는	-9113
▁→	-9114
▁곰	-9115
▁88	-9116
▁끝이	-9117
▁복구	-9118
▁지중해	-9119
▁천황의	-9120
▁따르는	-9121
▁형태가	-9122
▁젖	-9123
▁공용	-9124
▁죽을	-9125
▁김영삼	-9126
▁늘어나	-9127
▁운행하는	-9128
▁협상	-9129
▁감독이다	-9130
▁폐기	-9131
▁향을	-9132
상으로는	-9133
▁크리스토	-9134
트르	-9135
▁5,	-9136
버스터	-9137
▁알바니아	-9138
란트	-9139
▁몰락	-9140
▁종전	-9141
▁트윈	-9142
▁두드러	-9143
▁언어를	-9144
▁김태	-9145
▁전성	-9146
▁선수단	-9147
▁유튜브	-9148
▁제국이	-9149
▁체제를	-9150
▁하와이	-9151
▁프로그램은	-9152
HO	-9153
▁마찰	-9154
▁바위	-9155
▁교향곡	-9156
▁목적을	-9157
▁어두운	-9158
겼고	-9159
밀리	-9160
바야	-9161
▁에스토	-9162
▁World	-9163
▁°	-9164
▁목격	-9165
▁상임	-9166
▁실용	-9167
▁커피	-9168
▁선수이자	-9169
▁탕	-9170
▁친척	-9171
▁사상을	-9172
미와	-9173
음은	-9174
장한	-9175
▁게재	-9176
▁대조	-9177
▁치렀다	-9178
ax	-9179
▁재발	-9180
▁전염	-9181
▁서식한다	-9182
▁오렌	-9183
▁거슬러	-9184
▁비슷하다	-9185
▁펴	-9186
과이	-9187
▁요소를	-9188
▁플라스	-9189
▁진영	-9190
▁노선은	-9191
▁모델이다	-9192
▁발견되는	-9193
음력	-9194
▁Te	-9195
▁피고	-9196
된다고	-9197
▁속도를	-9198
실과	-9199
우드	-9200
▁아가	-9201
▁아트	-9202
▁의장	-9203
▁순천	-9204
▁기술이	-9205
▁토대로	-9206
▁역사적으로	-9207
건이	-9208
블로	-9209
억원	-9210
▁무려	-9211
▁시작해	-9212
▁한동안	-9213
▁UN	-9214
▁군을	-9215
▁베타	-9216
▁비가	-9217
▁세로	-9218
▁승리로	-9219
▁근접	-9220
▁찾아가	-9221
▁엔터테인먼	-9222
고종	-9223
▁고성	-9224
▁로빈	-9225
▁명문	-9226
▁모시	-9227
▁양도	-9228
▁과학기술	-9229
▁개최되었다	-9230
산맥	-9231
▁무효	-9232
▁살던	-9233
교회의	-9234
▁남쪽에	-9235
▁또다시	-9236
▁다큐멘터리	-9237
수아	-9238
증이	-9239
▁기생	-9240
▁다가	-9241
▁출력	-9242
안으로	-9243
▁현상이	-9244
디의	-9245
좌상	-9246
ple	-9247
▁맡게	-9248
▁무력	-9249
▁문재인	-9250
▁흥행	-9251
사령부	-9252
▁떼	-9253
▁취약	-9254
중에는	-9255
▁김용	-9256
▁풋볼	-9257
리스토	-9258
▁자식	-9259
▁시기의	-9260
▁실시된	-9261
▁밖의	-9262
▁주문	-9263
렸을	-9264
▁Le	-9265
신라	-9266
▁58	-9267
▁마친	-9268
▁서경	-9269
▁피에	-9270
▁세워졌다	-9271
내기	-9272
회와	-9273
▁분광	-9274
▁안의	-9275
자리에	-9276
카타	-9277
-17	-9278
▁병력	-9279
▁항해	-9280
톤의	-9281
▁내내	-9282
▁초창	-9283
즈니스	-9284
▁연방의	-9285
▁아르헨티	-9286
▁포인트	-9287
목의	-9288
▁교섭	-9289
▁제약	-9290
▁근처의	-9291
▁폴란드의	-9292
▁권유	-9293
▁부흥	-9294
▁사용을	-9295
▁슐	-9296
▁이인	-9297
▁북한의	-9298
▁특유의	-9299
▁무대에	-9300
▁부통령	-9301
▁음악가	-9302
▁필라델	-9303
▁땅에	-9304
▁미하	-9305
▁지지하는	-9306
▁강이	-9307
▁에우	-9308
▁채로	-9309
▁해임	-9310
sk	-9311
▁대전광역시	-9312
극장	-9313
▁구미	-9314
▁융합	-9315
▁박물	-9316
▁사고로	-9317
▁신라의	-9318
▁줄여서	-9319
▁오세	-9320
▁좋다	-9321
▁해적	-9322
▁화면	-9323
▁조사를	-9324
경영	-9325
▁유신	-9326
▁풀려	-9327
▁앱	-9328
▁의병	-9329
▁활성화	-9330
▁발견했다	-9331
민은	-9332
인간	-9333
▁임명되어	-9334
아와	-9335
▁실험을	-9336
▁손상	-9337
▁그림을	-9338
▁때때로	-9339
▁프레임	-9340
▁플레이어	-9341
▁폼	-9342
▁MC	-9343
▁건너가	-9344
▁방식은	-9345
▁소재로	-9346
일간	-9347
▁부르며	-9348
▁일부로	-9349
▁사용하며	-9350
▁얘	-9351
▁곡으로	-9352
▁그룹의	-9353
▁면에서	-9354
▁소관의	-9355
▁수록된	-9356
▁왕위를	-9357
▁배정	-9358
▁서브	-9359
▁한화	-9360
▁관계로	-9361
▁시간은	-9362
-7	-9363
▁《》	-9364
▁쿠르	-9365
▁학자	-9366
▁시대를	-9367
▁전부터	-9368
ction	-9369
row	-9370
▁명예의	-9371
▁베네수엘	-9372
▁홈페이지	-9373
▁타운	-9374
▁펜실	-9375
▁루트비히	-9376
▁껍	-9377
▁가사	-9378
▁급진	-9379
▁야생	-9380
수수	-9381
팀은	-9382
▁사실은	-9383
▁출전했다	-9384
▁동독	-9385
▁프랑스에서	-9386
▁스릴	-9387
▁그러자	-9388
▁발견한	-9389
적이었다	-9390
▁악화	-9391
▁시스템의	-9392
nowiki	-9393
수사	-9394
츠와	-9395
해방	-9396
현에	-9397
▁의지	-9398
▁훼손	-9399
▁속도로	-9400
▁코무네	-9401
▁규정하고	-9402
▁기록에	-9403
▁후보를	-9404
▁들은	-9405
서이다	-9406
직한	-9407
▁버전은	-9408
▁형식을	-9409
▁일본으로	-9410
▁캘리포니아주	-9411
벌레	-9412
선조	-9413
▁일관	-9414
▁창건	-9415
그러	-9416
뉴스	-9417
▁마천	-9418
▁비극	-9419
▁운동이	-9420
초에	-9421
▁털이	-9422
▁개발된	-9423
▁고도	-9424
▁삼고	-9425
▁착륙	-9426
▁동남아시아	-9427
연이	-9428
▁대폭	-9429
▁모니	-9430
▁선진	-9431
치면서	-9432
▁우승에	-9433
▁5000	-9434
(-	-9435
▁쟁	-9436
▁민속	-9437
▁밴드의	-9438
▁음반을	-9439
▁카자흐	-9440
▁관통	-9441
▁거기에	-9442
해주	-9443
희는	-9444
▁구조는	-9445
▁거주하는	-9446
패로	-9447
▁와카	-9448
▁왕으로	-9449
▁생각된다	-9450
▁구체적으로	-9451
▁파운드	-9452
▁히가시	-9453
사추세츠	-9454
▁정확하게	-9455
▁브래	-9456
▁싫어	-9457
▁형식의	-9458
▁다녀	-9459
▁짓고	-9460
▁아니면	-9461
▁아이템	-9462
았을	-9463
▁주립	-9464
▁엘리자베스	-9465
na	-9466
▁안타	-9467
▁위안	-9468
▁조직의	-9469
▁성립한다	-9470
견을	-9471
▁작고	-9472
▁의원은	-9473
▁사용이	-9474
예프	-9475
▁비공식	-9476
우며	-9477
▁별의	-9478
▁부품	-9479
▁대서양	-9480
ha	-9481
카라	-9482
톨레	-9483
▁보내는	-9484
▁회의에서	-9485
ta	-9486
▁트럭	-9487
년대에는	-9488
▁돌아갔다	-9489
CC	-9490
HE	-9491
아키	-9492
▁통화	-9493
▁초점을	-9494
大夫	-9495
있던	-9496
▁기요	-9497
▁복사	-9498
▁끝나고	-9499
▁중기의	-9500
▁여론	-9501
▁무슬림	-9502
▁실패했다	-9503
가스	-9504
터에	-9505
층석탑	-9506
▁관점에서	-9507
능력	-9508
▁뜻의	-9509
▁사적	-9510
▁쿨	-9511
색은	-9512
의에	-9513
▁출토	-9514
▁지금도	-9515
미에	-9516
▁충족	-9517
▁피부	-9518
▁아서	-9519
▁측근	-9520
▁멤버로	-9521
▁출시된	-9522
아메리카	-9523
님이	-9524
▁수신	-9525
▁얻는	-9526
▁줄어	-9527
▁중심의	-9528
▁철학자	-9529
▁하였는데	-9530
강점	-9531
아리	-9532
▁바그	-9533
▁군은	-9534
▁동화	-9535
▁둘은	-9536
▁무죄	-9537
▁섬을	-9538
▁만화가	-9539
▁알려지지	-9540
~20	-9541
▁창시	-9542
반응	-9543
▁중계	-9544
형이다	-9545
▁하버드	-9546
롤라이나	-9547
코가	-9548
▁바가	-9549
▁세균	-9550
▁태종	-9551
▁언제나	-9552
▁특징은	-9553
▁항공모	-9554
▁3000	-9555
▁보충	-9556
▁삶의	-9557
▁시로	-9558
▁이오	-9559
▁힌두	-9560
▁경우를	-9561
▁영감을	-9562
▁친일인명	-9563
심한	-9564
월드	-9565
▁로맨	-9566
▁스파르타	-9567
▁오디오	-9568
장관	-9569
▁갑작	-9570
▁나가사키	-9571
▁못할	-9572
▁전에는	-9573
▁시집	-9574
▁좌파	-9575
▁사용하기	-9576
▁고분	-9577
▁공무	-9578
▁설립하였다	-9579
▁얻기	-9580
성이다	-9581
▁건물을	-9582
▁때로는	-9583
▁오키나와	-9584
▁지냈으며	-9585
디에	-9586
모로	-9587
열이	-9588
▁동구	-9589
▁후지와	-9590
,9	-9591
백을	-9592
천을	-9593
▁85	-9594
▁현장	-9595
이라도	-9596
ty	-9597
▁달린	-9598
어진다	-9599
주년을	-9600
▁생기는	-9601
한을	-9602
▁별칭	-9603
▁섭취	-9604
가에서	-9605
태평양	-9606
▁기업의	-9607
▁죽이고	-9608
진과	-9609
erv	-9610
▁MP	-9611
▁기념물	-9612
▁역임한	-9613
▁특이한	-9614
▁인정받아	-9615
▁무라	-9616
▁풀어	-9617
▁윙	-9618
시민	-9619
▁박탈	-9620
▁팽창	-9621
▁리버풀	-9622
▁전한다	-9623
▁캐스팅	-9624
▁푸른	-9625
생이	-9626
▁달러를	-9627
▁보한다	-9628
▁중심이	-9629
▁차례로	-9630
OL	-9631
헤이	-9632
▁이마	-9633
▁군사적	-9634
공이	-9635
시타	-9636
▁공채	-9637
▁들어가는	-9638
심의	-9639
▁공학	-9640
▁롬	-9641
▁오가	-9642
▁제갈	-9643
▁성공한	-9644
to	-9645
백과	-9646
페인	-9647
▁써서	-9648
▁응답	-9649
▁평소	-9650
▁어워드	-9651
▁이론은	-9652
▁점이다	-9653
자본	-9654
out	-9655
▁급속	-9656
▁진단	-9657
▁포크	-9658
▁방송국	-9659
▁시작하는	-9660
▁뿌리	-9661
▁추모	-9662
동에서	-9663
라이트	-9664
▁최저	-9665
-8	-9666
안타	-9667
▁관직	-9668
▁끊임	-9669
▁이광	-9670
▁설치류의	-9671
▁스테이지	-9672
▁믹	-9673
차별	-9674
▁수치	-9675
생으로	-9676
▁거리가	-9677
▁컨트롤	-9678
▁닿	-9679
란이	-9680
▁배를	-9681
때문에	-9682
식품	-9683
택을	-9684
▁3.	-9685
▁강경	-9686
▁원자로	-9687
OP	-9688
개는	-9689
츠키	-9690
▁제수	-9691
편으로	-9692
회장	-9693
▁석조	-9694
세에게	-9695
철도의	-9696
▁이듬해인	-9697
▁진출하였다	-9698
▁기갑	-9699
▁잃은	-9700
▁후한	-9701
▁(18	-9702
▁삿	-9703
▁정찰	-9704
▁침몰	-9705
점이다	-9706
박스	-9707
▁피어	-9708
▁조치를	-9709
▁말하였다	-9710
▁발매했다	-9711
자원	-9712
▁66	-9713
항으로	-9714
▁건물이	-9715
▁의견이	-9716
메라	-9717
▁르네상	-9718
▁시드니	-9719
▁운행을	-9720
차전에서	-9721
▁주축	-9722
금으로	-9723
▁New	-9724
▁다이아	-9725
인들	-9726
제이	-9727
▁포괄	-9728
▁도호쿠	-9729
_8	-9730
▁바꿔	-9731
▁점유	-9732
▁친정	-9733
▁중화민	-9734
▁자발	-9735
▁우연히	-9736
▁조직을	-9737
▁코치로	-9738
▁cm	-9739
▁촉구	-9740
▁두루	-9741
▁외의	-9742
▁중순	-9743
▁후일	-9744
▁있습니다	-9745
▁교외	-9746
▁스릴러	-9747
▁하거나	-9748
▁선언했다	-9749
▁학생들이	-9750
▁제외하고는	-9751
lic	-9752
▁침해	-9753
▁둘러싼	-9754
▁빌헬름	-9755
▁우리의	-9756
▁Co	-9757
▁물에	-9758
▁석탄	-9759
▁이화	-9760
받는다	-9761
▁샬	-9762
주식	-9763
igh	-9764
▁낮아	-9765
▁미얀	-9766
▁성공적인	-9767
런트	-9768
생산	-9769
숙한	-9770
▁기동	-9771
▁흐름	-9772
▁아이를	-9773
▁한국에	-9774
▁72	-9775
▁리메이크	-9776
▁합법	-9777
▁일으키는	-9778
학위를	-9779
▁리그에	-9780
▁테일러	-9781
▁플레이스테이션	-9782
고쿠	-9783
▁대외	-9784
▁수단	-9785
▁라트비아	-9786
챌린	-9787
▁평행	-9788
▁합리	-9789
연구원	-9790
▁행성의	-9791
교로	-9792
의원	-9793
▁내외	-9794
▁빌리	-9795
▁프랑스와	-9796
층은	-9797
ake	-9798
▁학부	-9799
▁진정한	-9800
▁발생할	-9801
위원회의	-9802
연속	-9803
rid	-9804
▁안티	-9805
▁창업	-9806
슬란드	-9807
▁금메달	-9808
▁보스니아	-9809
▁파리에서	-9810
▁몰려	-9811
바는	-9812
보도	-9813
▁주한	-9814
▁일했다	-9815
▁정교회	-9816
스에게	-9817
▁1894	-9818
▁mm	-9819
▁왕족	-9820
▁이리	-9821
▁조치	-9822
PG	-9823
우와	-9824
▁사르	-9825
▁죄를	-9826
시까지	-9827
▁득점을	-9828
(4	-9829
열의	-9830
tis	-9831
▁공의	-9832
▁반박	-9833
▁희극	-9834
▁기록하여	-9835
▁빛의	-9836
▁산타	-9837
▁황제가	-9838
▁독일에서	-9839
▁시나리오	-9840
▁심판	-9841
제국의	-9842
▁영역을	-9843
▁작품에	-9844
▁화제가	-9845
▁따뜻	-9846
▁할당	-9847
▁동메달을	-9848
▁디아	-9849
케이션	-9850
▁낙선	-9851
▁이스트	-9852
▁페스티벌	-9853
버러	-9854
▁감지	-9855
▁내보	-9856
▁부착	-9857
▁액체	-9858
▁1.5	-9859
▁부패	-9860
▁장의	-9861
▁치료를	-9862
▁관중	-9863
▁스핀	-9864
▁김진	-9865
▁노력을	-9866
▁트레이드	-9867
기준	-9868
▁캄보	-9869
▁남부의	-9870
▁회사는	-9871
▁셈	-9872
"("	-9873
▁대승	-9874
▁미스	-9875
▁선을	-9876
▁외야	-9877
음으로	-9878
▁들어오	-9879
▁의사를	-9880
하였다는	-9881
▁민주주의	-9882
온의	-9883
자책	-9884
▁김상	-9885
▁사헌	-9886
▁수수	-9887
▁신흥	-9888
▁전쟁은	-9889
▁되었지만	-9890
▁시작된다	-9891
▁은메달을	-9892
▁유니폼	-9893
▁일제강점	-9894
GC	-9895
▁룩	-9896
▁군수	-9897
▁보상	-9898
▁조반	-9899
_9	-9900
▁과거의	-9901
▁제작되었다	-9902
ternational	-9903
▁편리	-9904
리면서	-9905
우주연	-9906
서원	-9907
소송법	-9908
ward	-9909
만명	-9910
▁김재	-9911
▁실종	-9912
▁유소년	-9913
OV	-9914
병의	-9915
▁사육	-9916
서에서	-9917
▁스파이	-9918
▁술탄	-9919
▁여수	-9920
▁MS	-9921
▁쌓아	-9922
▁맡았고	-9923
▁연속으로	-9924
FM	-9925
바닥	-9926
▁길고	-9927
▁둥근	-9928
슈타인	-9929
▁출연한	-9930
▁럭	-9931
▁가벼	-9932
▁이미지를	-9933
온이	-9934
▁노비	-9935
▁불을	-9936
▁월간	-9937
▁이바	-9938
▁나갔다	-9939
▁독일은	-9940
스부르크	-9941
▁뿔	-9942
보에	-9943
▁기체	-9944
▁무소	-9945
▁비단	-9946
▁포로	-9947
브리지	-9948
▁제주특별자치	-9949
ata	-9950
▁th	-9951
▁약화	-9952
▁우즈	-9953
▁않았기	-9954
Sh	-9955
▁젤	-9956
위대	-9957
코드	-9958
▁느낀	-9959
▁화살	-9960
▁건물의	-9961
인치	-9962
htt	-9963
▁두산	-9964
▁신하	-9965
▁흔들	-9966
하우스	-9967
▁본사는	-9968
▁새누리	-9969
▁승강장은	-9970
▁77	-9971
▁싶어	-9972
▁연호	-9973
▁재산을	-9974
▁사료	-9975
▁pro	-9976
▁영국은	-9977
격이	-9978
작품	-9979
▁왕자	-9980
▁외곽	-9981
▁부문에	-9982
▁영화에	-9983
▁상징하는	-9984
▁조건으로	-9985
과로	-9986
행은	-9987
own	-9988
▁PD	-9989
▁된다고	-9990
▁분류된다	-9991
스러	-9992
▁Cl	-9993
▁라이선	-9994
▁제국은	-9995
▁나의	-9996
lass	-9997
▁과정은	-9998
▁식으로	-9999
곡의	-10000
량으로	-10001
▁일어날	-10002
▁정부와	-10003
▁분데스리가	-10004
▁햄	-10005
산면	-10006
오를	-10007
▁이곳은	-10008
▁전자기	-10009
▁있어서는	-10010
너의	-10011
▁양키	-10012
▁필름	-10013
트리올	-10014
▁레이저	-10015
▁몸무게는	-10016
▁바뀐	-10017
▁전진	-10018
▁향한	-10019
▁화재	-10020
▁판결을	-10021
범한	-10022
즈에	-10023
▁당대	-10024
▁네이션	-10025
▁마케팅	-10026
▁속도가	-10027
▁입단했다	-10028
람쥐	-10029
르노	-10030
▁곡의	-10031
▁끌려	-10032
▁분야에	-10033
돌이	-10034
석기	-10035
터스	-10036
베트남	-10037
▁경력	-10038
▁클린	-10039
▁집으로	-10040
▁형태는	-10041
▁분리되어	-10042
ii	-10043
▁잦	-10044
마치	-10045
모니	-10046
▁IT	-10047
▁사용될	-10048
~)	-10049
~2	-10050
▁My	-10051
▁움직이는	-10052
▁날짜	-10053
▁이틀	-10054
▁갤럭시	-10055
▁마리오	-10056
▁헐	-10057
▁안산	-10058
▁공간의	-10059
하였다가	-10060
▁꽤	-10061
oll	-10062
▁세미	-10063
▁누르고	-10064
디가	-10065
퍼스	-10066
▁레논	-10067
▁안장	-10068
▁전쟁으로	-10069
대구	-10070
▁등재	-10071
▁무용	-10072
이었다고	-10073
▁오스트리아의	-10074
▁2)	-10075
▁밝혔	-10076
▁쉬운	-10077
▁각본을	-10078
▁달러의	-10079
▁시기는	-10080
목이	-10081
무기	-10082
▁팀에	-10083
제프	-10084
▁보니	-10085
Sp	-10086
번을	-10087
▁원내	-10088
▁팩	-10089
▁모드	-10090
▁1890	-10091
카를	-10092
▁고지	-10093
라디오	-10094
▁정책에	-10095
▁진출에	-10096
에너	-10097
전도	-10098
주일	-10099
://	-10100
▁규제	-10101
▁멈추	-10102
스트의	-10103
▁위협을	-10104
▁차지한	-10105
▁카이사	-10106
▁어려움을	-10107
▁이루었다	-10108
책임	-10109
타케	-10110
(10	-10111
▁강과	-10112
▁리눅스	-10113
▁작위를	-10114
▁걱	-10115
▁ch	-10116
▁법을	-10117
▁사천	-10118
기관으로	-10119
▁참여하여	-10120
풍을	-10121
ild	-10122
▁kg	-10123
▁기지	-10124
▁리얼	-10125
▁노래는	-10126
▁비평가	-10127
▁제조업	-10128
▁조문이다	-10129
▁아벨	-10130
▁일도	-10131
▁그렇지	-10132
▁무거운	-10133
▁지방에서	-10134
▁목사	-10135
將軍	-10136
박사	-10137
▁용이	-10138
▁이슈	-10139
▁일에	-10140
▁대법원	-10141
▁어울	-10142
▁줄기	-10143
▁아이슬란드	-10144
티에	-10145
▁전례	-10146
▁채권	-10147
정부의	-10148
▁북부에	-10149
▁총선거	-10150
▁활동은	-10151
바이러스	-10152
▁쓰이고	-10153
마사	-10154
목적	-10155
카트	-10156
▁수행하는	-10157
▁경부	-10158
▁내린	-10159
▁동래	-10160
▁면적	-10161
▁소닉	-10162
▁시칠	-10163
▁아폴	-10164
▁투르크	-10165
바흐	-10166
▁객관	-10167
▁드림	-10168
▁챌린	-10169
▁일컫는	-10170
▁도움으로	-10171
▁미국에서는	-10172
▁듯한	-10173
▁신용	-10174
▁염색	-10175
▁치열	-10176
교수	-10177
함의	-10178
▁부과	-10179
▁정면	-10180
▁주를	-10181
자리를	-10182
▁아니지만	-10183
포의	-10184
문제연구	-10185
▁않았으나	-10186
▁꼴	-10187
르와	-10188
유는	-10189
ans	-10190
▁미카	-10191
▁실려	-10192
▁체계를	-10193
▁자신에게	-10194
▁국가대표팀의	-10195
네의	-10196
르를	-10197
▁리스	-10198
▁토마	-10199
▁트레	-10200
나라에	-10201
내셔널	-10202
타리오	-10203
▁멕시코의	-10204
▁자율	-10205
▁전인	-10206
▁했다는	-10207
▁엘리베이	-10208
▁엉	-10209
설이	-10210
▁관람	-10211
▁명백	-10212
슨과	-10213
자도	-10214
▁간부	-10215
▁개관	-10216
▁요르	-10217
▁지각	-10218
▁공사가	-10219
▁지점에	-10220
▁부정적인	-10221
▁프랑스어	-10222
주간	-10223
▁내야	-10224
▁찾기	-10225
▁네이버	-10226
▁민주화	-10227
▁광주광역시	-10228
▁소총	-10229
▁관리하고	-10230
ade	-10231
▁시라	-10232
래스카	-10233
화하여	-10234
▁동명의	-10235
▁설립했다	-10236
처리	-10237
▁부천	-10238
▁피에르	-10239
ology	-10240
▁59	-10241
▁관장	-10242
▁세대	-10243
▁캠프	-10244
▁모두가	-10245
▁아래로	-10246
▁전두환	-10247
▁나라에서	-10248
▁CE	-10249
▁총괄	-10250
▁하야	-10251
▁서해	-10252
▁이라는	-10253
▁대통령을	-10254
▁하나님의	-10255
▁사카	-10256
▁손해	-10257
▁시그	-10258
▁외무	-10259
▁중도	-10260
하였기	-10261
▁되었을	-10262
여성	-10263
투를	-10264
▁열고	-10265
▁지명을	-10266
▁소속이다	-10267
▁교도	-10268
▁수평	-10269
▁추상	-10270
▁탓에	-10271
▁나섰다	-10272
▁드러나	-10273
▁시설이	-10274
▁받았으나	-10275
▁IP	-10276
▁진동	-10277
▁남해	-10278
▁며칠	-10279
▁영의	-10280
▁회담	-10281
▁구조로	-10282
▁넣었다	-10283
▁하인리히	-10284
스틴	-10285
▁유출	-10286
▁작센	-10287
▁남아있는	-10288
지나	-10289
les	-10290
▁십자가	-10291
▁필라델피아	-10292
방법	-10293
▁1)	-10294
▁68	-10295
▁군에	-10296
▁단종	-10297
▁바닷	-10298
▁병행	-10299
▁칼리지	-10300
▁디스플레이	-10301
▁봐	-10302
마일	-10303
▁대처	-10304
▁백악	-10305
▁애틀	-10306
네스코	-10307
▁나타낼	-10308
▁로저	-10309
▁안쪽	-10310
▁평등	-10311
▁일어났	-10312
▁전당	-10313
▁컴파	-10314
▁1898	-10315
몬드	-10316
진에	-10317
▁몬트리올	-10318
▁비즈니스	-10319
▁꿈을	-10320
▁닛폰	-10321
▁만났다	-10322
▁주장하고	-10323
)』	-10324
렀고	-10325
▁내고	-10326
화하고	-10327
▁만나게	-10328
▁소수의	-10329
▁앨범이다	-10330
디아라비아	-10331
레의	-10332
▁장난	-10333
▁별다른	-10334
▁중심기압	-10335
▁종결	-10336
▁카탈	-10337
▁새겨져	-10338
▁일요일	-10339
▁우승하였다	-10340
▁정부로부터	-10341
▁ST	-10342
▁전선	-10343
▁선교사	-10344
▁조선인	-10345
당하였다	-10346
▁소유하고	-10347
)〉	-10348
스와의	-10349
소방	-10350
포는	-10351
▁밟	-10352
▁받기	-10353
▁영남	-10354
▁왕실	-10355
▁활발한	-10356
▁왕비	-10357
▁훔	-10358
위원장	-10359
▁디비전	-10360
▁성균관	-10361
▁방법이다	-10362
스파	-10363
orn	-10364
▁수렴	-10365
학교에	-10366
▁덧붙여	-10367
▁보여주었다	-10368
▁것인	-10369
▁Mus	-10370
▁조금씩	-10371
▁둘러싸고	-10372
▁j	-10373
선언	-10374
▁검증	-10375
▁막내	-10376
▁공동체	-10377
결합	-10378
달아	-10379
받을	-10380
▁걸어	-10381
▁송시	-10382
▁놓은	-10383
▁종의	-10384
▁형법	-10385
▁여행을	-10386
▁참가하고	-10387
▁텔	-10388
▁김씨	-10389
▁1902	-10390
▁여기에는	-10391
▁영문	-10392
학자인	-10393
▁끝까지	-10394
▁지어졌다	-10395
▁확인되었다	-10396
이었기	-10397
▁구조가	-10398
▁낼	-10399
길을	-10400
정원	-10401
▁미치	-10402
▁신비	-10403
▁리비아	-10404
▁비슷하게	-10405
턴은	-10406
▁발원	-10407
▁쓰인	-10408
▁데이터베이스	-10409
벤처	-10410
▁알제	-10411
▁모델을	-10412
▁실시간	-10413
▁담당하고	-10414
려서	-10415
세종	-10416
▁Ro	-10417
▁이반	-10418
▁아즈	-10419
▁코트	-10420
▁타카	-10421
▁옷을	-10422
▁좌표	-10423
▁폐위	-10424
▁해인	-10425
주쿠	-10426
▁비오	-10427
▁쫓겨	-10428
▁남부에	-10429
▁그리스어	-10430
경과	-10431
놓은	-10432
▁Ph	-10433
▁대회의	-10434
▁맞추어	-10435
▁전체가	-10436
▁이상으로	-10437
▁매사추세츠	-10438
)(	-10439
▁템	-10440
목은	-10441
층이	-10442
eth	-10443
▁구릉	-10444
▁극히	-10445
▁미토	-10446
▁쇼핑	-10447
▁조상	-10448
▁개혁을	-10449
▁선수들이	-10450
니시	-10451
러가	-10452
▁광산	-10453
▁하얀	-10454
▁이에야	-10455
▁1899	-10456
▁시절부터	-10457
팀인	-10458
▁계절	-10459
▁소실	-10460
UN	-10461
▁샹	-10462
미로	-10463
속을	-10464
▁Is	-10465
▁관습	-10466
▁김수	-10467
▁상수	-10468
》(20	-10469
▁98	-10470
▁나아	-10471
하려면	-10472
▁아버지와	-10473
▁고발	-10474
▁바실	-10475
▁성모	-10476
▁영조	-10477
▁차기	-10478
▁귀중한	-10479
▁University	-10480
전선	-10481
▁눈이	-10482
▁장로	-10483
▁첨가	-10484
▁힘입	-10485
마르크	-10486
원들이	-10487
▁곡이다	-10488
▁관현악	-10489
▁에스파냐	-10490
마와	-10491
▁번호	-10492
▁성당	-10493
▁가난한	-10494
▁것에서	-10495
베이니아	-10496
▁사단법인이다	-10497
공산당	-10498
▁일어나자	-10499
▁지나치게	-10500
보안	-10501
▁복지	-10502
▁유격	-10503
▁생각하고	-10504
▁고무	-10505
▁국가에	-10506
▁서쪽에	-10507
▁속으로	-10508
▁수록곡	-10509
▁시작되어	-10510
▁63	-10511
렸으나	-10512
▁기록된	-10513
▁나이가	-10514
▁대학을	-10515
▁진행된	-10516
▁참고로	-10517
하겠다는	-10518
▁바이올린	-10519
▁시즌에는	-10520
▁버튼	-10521
▁증기	-10522
▁통근	-10523
▁교수는	-10524
▁다중	-10525
하이오	-10526
원숭이	-10527
▁목표를	-10528
▁측면에서	-10529
▁경기에서는	-10530
▁거론	-10531
▁권위	-10532
▁매개	-10533
▁미주	-10534
▁요크	-10535
▁공사를	-10536
▁바꾸어	-10537
▁얻는다	-10538
▁작곡한	-10539
▁김기	-10540
Co	-10541
ts	-10542
▁건물로	-10543
▁여기에서	-10544
▁붓	-10545
▁격퇴	-10546
▁김포	-10547
▁소환	-10548
▁강제로	-10549
리그에서	-10550
lay	-10551
▁개화	-10552
이거나	-10553
▁후쿠시마	-10554
US	-10555
sc	-10556
항에	-10557
▁날아	-10558
John	-10559
▁들이	-10560
▁스콧	-10561
▁IBM	-10562
▁급격히	-10563
?"	-10564
▁얀	-10565
▁거행	-10566
▁볼리	-10567
ames	-10568
▁다리를	-10569
▁맞지	-10570
▁여신	-10571
▁ISO	-10572
▁거리는	-10573
▁길게	-10574
▁동년	-10575
▁NBA	-10576
▁출전해	-10577
▁하드웨어	-10578
▁주소	-10579
▁투구	-10580
▁톈	-10581
▁누군	-10582
비나	-10583
열차	-10584
피는	-10585
▁몬테	-10586
▁개발에	-10587
▁은퇴를	-10588
일체	-10589
▁숨겨	-10590
▁총대	-10591
▁제외하면	-10592
▁사우디아라비아	-10593
십자	-10594
▁부를	-10595
▁비서	-10596
▁한쪽	-10597
일에서	-10598
▁교차로	-10599
가고	-10600
단위	-10601
▁수업	-10602
▁전념	-10603
도마뱀	-10604
스카야	-10605
▁결혼했다	-10606
▁언더	-10607
▁임상	-10608
▁입자	-10609
▁전압	-10610
권에서	-10611
▁요미우리	-10612
▁끓	-10613
포구	-10614
▁위기	-10615
▁전세	-10616
▁지혜	-10617
▁탈환	-10618
란히	-10619
려면	-10620
▁개그	-10621
▁대학에	-10622
▁참가하는	-10623
▁일시적으로	-10624
▁식별	-10625
▁교수가	-10626
▁말기	-10627
▁봉사	-10628
▁섬유	-10629
▁에버	-10630
러시아	-10631
▁사이가	-10632
▁퍼시픽	-10633
▁문화체육	-10634
▁있었다는	-10635
자스	-10636
▁해운	-10637
▁노무현	-10638
▁부대를	-10639
▁아사히	-10640
▁범위	-10641
▁알코	-10642
케이팅	-10643
푸르트	-10644
▁과정에	-10645
레를	-10646
망이	-10647
▁링컨	-10648
▁서사	-10649
▁총재	-10650
원의원	-10651
▁생각해	-10652
▁옐	-10653
열대	-10654
짜리	-10655
▁먹고	-10656
▁분배	-10657
▁시켜	-10658
으로의	-10659
▁마쳤다	-10660
▁모델은	-10661
두는	-10662
▁민사	-10663
▁스쿨	-10664
▁해주	-10665
년동안	-10666
▁고양이	-10667
▁부대는	-10668
▁시즌의	-10669
▁앓	-10670
▁찌	-10671
왔으며	-10672
▁주차	-10673
도이다	-10674
▁다음에	-10675
▁생겼다	-10676
▁어려움	-10677
▁활약한	-10678
▁시흥	-10679
▁양식을	-10680
▁충격을	-10681
▁솟	-10682
ner	-10683
▁사기	-10684
▁평면	-10685
▁물리적	-10686
티의	-10687
▁두어	-10688
해지는	-10689
▁실질적인	-10690
황제	-10691
▁이내	-10692
시부터	-10693
▁허리케	-10694
기기	-10695
외선	-10696
질로	-10697
포가	-10698
▁선구	-10699
▁영동	-10700
▁안드레	-10701
간이	-10702
작전	-10703
조각	-10704
년간의	-10705
▁소설을	-10706
▁1901	-10707
▁그중	-10708
▁일컬	-10709
▁쓰였다	-10710
▁광범위한	-10711
▁나눌	-10712
▁라우	-10713
▁몸에	-10714
▁신속	-10715
▁연세	-10716
▁이노	-10717
▁시절에는	-10718
▁민족문제연구	-10719
.25	-10720
▁신규	-10721
▁오렌지	-10722
▁중간에	-10723
MP	-10724
가족	-10725
red	-10726
▁치명	-10727
▁하더라도	-10728
노프	-10729
타니	-10730
RE	-10731
▁갓	-10732
▁식량	-10733
▁어항	-10734
▁데뷔를	-10735
▁정치가	-10736
▁Ad	-10737
▁경사	-10738
▁무승	-10739
▁엔지	-10740
▁영어로	-10741
RA	-10742
초를	-10743
▁잎은	-10744
▁동물의	-10745
▁요소가	-10746
▁울산광역시	-10747
▁62	-10748
▁콘크	-10749
▁나이지	-10750
네는	-10751
셰비	-10752
위안	-10753
▁동쪽에	-10754
▁주제가	-10755
▁바른	-10756
▁왜냐	-10757
론에서	-10758
▁인정하지	-10759
러의	-10760
티모	-10761
▁부호	-10762
지역의	-10763
진으로	-10764
▁변경하였다	-10765
▁의뢰	-10766
▁앨범의	-10767
됨으로써	-10768
▁모방	-10769
▁주석	-10770
▁결과에	-10771
▁선수를	-10772
▁유네스코	-10773
▁진행된다	-10774
되지는	-10775
▁미스터	-10776
▁황해도	-10777
▁직선	-10778
기독교	-10779
류이다	-10780
▁있으면서	-10781
9)	-10782
-11	-10783
▁인물을	-10784
▁히데요	-10785
▁성공하였다	-10786
▁모으	-10787
▁배틀	-10788
▁전제	-10789
▁그레고	-10790
▁단위로	-10791
▁전세계	-10792
▁제품을	-10793
르지	-10794
▁에티오	-10795
결정	-10796
-12	-10797
▁채무	-10798
해왔다	-10799
▁자이언츠	-10800
(7	-10801
분석	-10802
예정	-10803
▁리가	-10804
이면서	-10805
▁계획에	-10806
▁페르디	-10807
수인	-10808
▁왕은	-10809
ener	-10810
▁사회에	-10811
▁일본을	-10812
▁대신하여	-10813
▁하나이며	-10814
여자고등학교	-10815
황을	-10816
▁경비	-10817
▁진정	-10818
년이다	-10819
▁문서는	-10820
▁배웠다	-10821
▁결정적인	-10822
일드	-10823
희의	-10824
▁아비	-10825
▁생각하는	-10826
▁개발되었다	-10827
야가	-10828
양은	-10829
▁드럼	-10830
▁시즈	-10831
▁의회는	-10832
▁지정된	-10833
▁거느리고	-10834
▁인터페이스	-10835
▁봤	-10836
지휘	-10837
300	-10838
▁진짜	-10839
▁팀인	-10840
▁고려의	-10841
▁1903	-10842
▁브라우저	-10843
▁자리잡고	-10844
TP	-10845
민을	-10846
서도	-10847
▁곡이	-10848
▁라스	-10849
▁상반	-10850
스트를	-10851
▁선수이며	-10852
쟁이	-10853
▁갈아	-10854
▁역설	-10855
▁승리한	-10856
▁탤	-10857
▁펀	-10858
▁보완	-10859
▁시내버스	-10860
▁李	-10861
연은	-10862
▁Un	-10863
▁공직	-10864
▁알렸다	-10865
▁문화방송	-10866
4,	-10867
▁갇	-10868
▁휠	-10869
정당	-10870
▁두개	-10871
▁공로로	-10872
▁신생	-10873
▁마이너	-10874
▁팔레스타	-10875
▁활동하는	-10876
▁AS	-10877
▁대관	-10878
▁학위	-10879
▁월드컵에서	-10880
공은	-10881
▁앞면	-10882
▁기간에	-10883
고래	-10884
주곡	-10885
펜하	-10886
▁제사	-10887
▁경제학	-10888
▁경험이	-10889
▁인물이	-10890
▁유언	-10891
▁정사	-10892
달라고	-10893
form	-10894
▁밑에서	-10895
▁지속적인	-10896
누엘	-10897
로니	-10898
세트	-10899
▁난이	-10900
▁육성	-10901
거리는	-10902
캐롤라이나	-10903
채를	-10904
▁딸을	-10905
▁허브	-10906
시에는	-10907
▁시즌이	-10908
작의	-10909
▁PS	-10910
▁매출	-10911
▁부사	-10912
▁얻고	-10913
▁자세한	-10914
▁칭호를	-10915
▁요구했다	-10916
DS	-10917
나우	-10918
rig	-10919
▁사원	-10920
▁사자	-10921
▁이진	-10922
과정을	-10923
▁신호를	-10924
▁마음작용	-10925
▁깨달	-10926
▁알라	-10927
▁댐	-10928
▁에이스	-10929
▁연결된	-10930
아일랜드	-10931
▁사건이다	-10932
▁중에서는	-10933
▁학교에서	-10934
시노	-10935
실험	-10936
▁질량은	-10937
▁시점에서	-10938
박한	-10939
▁3·	-10940
▁우라늄	-10941
놓고	-10942
▁존중	-10943
▁선거를	-10944
▁찾아볼	-10945
▁자본주의	-10946
▁2,000	-10947
▁돋	-10948
▁톨	-10949
▁그다	-10950
▁평택	-10951
▁해를	-10952
▁기반의	-10953
▁존재하며	-10954
매치	-10955
번에	-10956
▁이나	-10957
▁추격	-10958
▁놓았다	-10959
▁의미의	-10960
▁중요하다	-10961
▁몰래	-10962
▁어휘	-10963
▁협의	-10964
라이어	-10965
▁영향력	-10966
순위	-10967
▁빠진	-10968
▁시뮬	-10969
▁음식을	-10970
▁특징이	-10971
▁중심지는	-10972
약품	-10973
▁쇼군	-10974
▁통틀	-10975
자이며	-10976
▁한국전쟁	-10977
▁지폐	-10978
프로그램	-10979
레아	-10980
▁좌절	-10981
▁2.0	-10982
▁고려대학교	-10983
~4	-10984
▁대웅	-10985
▁돌연	-10986
▁에디	-10987
▁포획	-10988
▁자체는	-10989
▁종으로	-10990
▁친일인명사전	-10991
.<	-10992
▁오빠	-10993
▁자신과	-10994
▁거주하고	-10995
▁영화배우	-10996
▁토너먼트	-10997
주기	-10998
채널	-10999
치료	-11000
어지는	-11001
▁받침	-11002
▁부족한	-11003
▁최후의	-11004
▁법조	-11005
▁아예	-11006
▁향후	-11007
▁대상을	-11008
▁초반에	-11009
▁치러진	-11010
▁턱	-11011
유적	-11012
질은	-11013
▁부수	-11014
▁불교의	-11015
▁비판했다	-11016
▁진출했다	-11017
정신	-11018
▁굉장	-11019
▁변수	-11020
▁앉아	-11021
▁스튜어	-11022
림이	-11023
▁야당	-11024
▁업적을	-11025
▁조건이	-11026
▁임기	-11027
▁진군	-11028
시키며	-11029
▁이산화	-11030
」(	-11031
라브	-11032
▁공인	-11033
▁마오	-11034
▁문장	-11035
▁입체	-11036
▁펼쳤다	-11037
KB	-11038
▁가도	-11039
▁높고	-11040
▁종은	-11041
▁스타일	-11042
▁사라졌다	-11043
▁준우승을	-11044
MC	-11045
내어	-11046
멘트	-11047
번뇌	-11048
청에	-11049
행의	-11050
enn	-11051
▁루스	-11052
▁사사	-11053
▁현저	-11054
사태	-11055
▁애덤	-11056
▁인생	-11057
▁차가	-11058
▁회고	-11059
▁마을의	-11060
▁시호를	-11061
▁준비를	-11062
▁천문학	-11063
붙이	-11064
the	-11065
▁나눠	-11066
▁서재	-11067
▁장학	-11068
▁게이트	-11069
▁마을을	-11070
▁영상을	-11071
▁웨일스	-11072
▁회사를	-11073
학적으로	-11074
ius	-11075
▁함유	-11076
▁기록하는	-11077
무스	-11078
치현	-11079
▁밑에	-11080
▁보지	-11081
그리스	-11082
▁리투아니아	-11083
만여	-11084
▁고쳐	-11085
▁긍정적인	-11086
▁사이타마	-11087
소녀	-11088
▁지고	-11089
▁도착한	-11090
▁방식이	-11091
▁승인을	-11092
▁주장한	-11093
▁땄	-11094
풍의	-11095
ble	-11096
▁구리	-11097
갔으며	-11098
▁스피드	-11099
▁대한민국은	-11100
냈고	-11101
올로	-11102
▁느껴	-11103
▁선보였다	-11104
▁추정되는	-11105
▁출전하였다	-11106
구성	-11107
▁게오	-11108
▁관념	-11109
▁지정하여	-11110
▁펜실베이니아	-11111
터널	-11112
▁다항	-11113
▁실린	-11114
▁업그	-11115
▁재활	-11116
▁이후부터	-11117
층을	-11118
▁김경	-11119
▁중소	-11120
▁호평을	-11121
▁가나가와	-11122
▁만의	-11123
▁설탕	-11124
▁역에	-11125
▁제독	-11126
▁생각할	-11127
▁힘입어	-11128
▁생각한다	-11129
▁경상남도의	-11130
음과	-11131
▁Bo	-11132
▁낱말	-11133
▁붙은	-11134
▁시초	-11135
▁진도	-11136
▁III	-11137
ru	-11138
란은	-11139
풍속	-11140
▁야간	-11141
▁군대의	-11142
▁테이블	-11143
▁왜냐하면	-11144
▁도주	-11145
▁쇼와	-11146
▁이름인	-11147
▁배치되어	-11148
▁지적했다	-11149
턴의	-11150
해와	-11151
▁억압	-11152
▁하락	-11153
▁이래로	-11154
▁태도를	-11155
▁편입되었다	-11156
중은	-11157
하루	-11158
▁넣고	-11159
▁리치	-11160
▁위탁	-11161
▁일명	-11162
▁지점	-11163
▁되었다가	-11164
!"	-11165
ene	-11166
▁||	-11167
▁기습	-11168
▁배구	-11169
▁시작하였고	-11170
LE	-11171
tiv	-11172
▁담겨	-11173
▁번식	-11174
▁해변	-11175
▁시설을	-11176
▁문화체육관광	-11177
KBS	-11178
▁내리	-11179
▁조명	-11180
▁1884	-11181
▁스케이팅	-11182
▁들어온	-11183
▁북부의	-11184
▁최근의	-11185
▁프로레	-11186
▁서식하는	-11187
통이	-11188
▁76	-11189
▁공민	-11190
▁시계	-11191
▁이긴	-11192
▁왕위에	-11193
▁자신도	-11194
▁중추원	-11195
▁이후로는	-11196
국어	-11197
▁순수한	-11198
▁트랜스	-11199
▁일종으로	-11200
공주	-11201
▁구동	-11202
▁물고	-11203
▁원리	-11204
▁힘든	-11205
▁햇	-11206
ink	-11207
▁개교	-11208
▁정렬	-11209
▁밀접한	-11210
▁아마도	-11211
▁장치를	-11212
▁지방을	-11213
기사	-11214
▁It	-11215
▁드문	-11216
▁모형	-11217
▁시점	-11218
▁진흥	-11219
▁지식을	-11220
▁트라이	-11221
▁상태였다	-11222
▁이루어지고	-11223
hPa	-11224
▁그날	-11225
▁보전	-11226
▁상원	-11227
▁난징	-11228
▁칭찬	-11229
게이머	-11230
▁기능은	-11231
▁위기를	-11232
▁철도의	-11233
▁대통령에	-11234
구나	-11235
%),	-11236
▁산소	-11237
ream	-11238
▁도시가	-11239
▁슬로베	-11240
▁최상위	-11241
▁컬럼비아	-11242
서야	-11243
▁추출	-11244
▁소니	-11245
▁춘천	-11246
▁1897	-11247
디언	-11248
운트	-11249
▁원수	-11250
▁잭슨	-11251
▁국가로	-11252
작이	-11253
rad	-11254
▁5.	-11255
▁계몽	-11256
▁일조	-11257
▁간단히	-11258
▁기술의	-11259
▁관리하는	-11260
▁스리	-11261
▁최대한	-11262
▁시스템이	-11263
▁""	-11264
▁단단	-11265
원들은	-11266
▁논문을	-11267
▁아인	-11268
▁전도	-11269
파이어	-11270
▁사회를	-11271
▁움직임	-11272
▁조선인민	-11273
▁가톨릭교회	-11274
운영	-11275
▁깨닫	-11276
▁남원	-11277
▁담긴	-11278
▁정한	-11279
작이다	-11280
▁감정을	-11281
▁독일어	-11282
▁되돌아	-11283
rop	-11284
▁96	-11285
▁구제	-11286
▁위임	-11287
▁구간을	-11288
▁실패로	-11289
▁등장했다	-11290
▁활약했다	-11291
ise	-11292
▁이의	-11293
▁밴드는	-11294
과학기술	-11295
▁지구에서	-11296
대왕	-11297
-18	-11298
▁초등	-11299
년대의	-11300
▁와중에	-11301
▁유래한	-11302
▁사망하고	-11303
▁셸	-11304
씨와	-11305
▁오라	-11306
▁내부에	-11307
▁로즈	-11308
▁가수로	-11309
▁제사를	-11310
회담	-11311
reat	-11312
▁무기를	-11313
▁음악의	-11314
▁잃었다	-11315
▁참여하는	-11316
▁체포되어	-11317
▁학자들은	-11318
르며	-11319
체제	-11320
통의	-11321
훈장	-11322
▁그쳤다	-11323
▁기점으로	-11324
척의	-11325
▁오리콘	-11326
▁생산하는	-11327
▁오하이오	-11328
▁기름	-11329
▁밤에	-11330
베르토	-11331
▁국소	-11332
▁신한	-11333
▁환원	-11334
▁독립된	-11335
▁의회의	-11336
위원으로	-11337
▁에스토니아	-11338
MI	-11339
▁반해	-11340
리노이	-11341
▁자동으로	-11342
oul	-11343
▁is	-11344
▁산다	-11345
▁서초	-11346
▁어긋	-11347
▁장려	-11348
▁적고	-11349
화에서	-11350
▁온타리오	-11351
도어	-11352
먼은	-11353
▁Se	-11354
▁부적	-11355
▁국방부	-11356
▁그러던	-11357
▁물질을	-11358
▁조선로동	-11359
해양	-11360
oph	-11361
▁나쁜	-11362
▁시키	-11363
▁굉장히	-11364
스런	-11365
아파	-11366
que	-11367
▁권고	-11368
▁그냥	-11369
▁여름에	-11370
▁부분적으로	-11371
그레	-11372
사리	-11373
ini	-11374
▁색을	-11375
▁연기를	-11376
소득	-11377
▁복제	-11378
▁제자	-11379
사령관	-11380
임에도	-11381
▁섬으로	-11382
▁통행	-11383
바이트	-11384
▁사이드	-11385
▁의식을	-11386
대회에서	-11387
▁않았다고	-11388
▁함으로써	-11389
미쓰	-11390
서기	-11391
▁숭배	-11392
▁케네	-11393
▁비용을	-11394
▁Cent	-11395
▁하나였다	-11396
▁뜨거운	-11397
▁자치구	-11398
라톱	-11399
코쿠	-11400
▁아는	-11401
▁양주	-11402
▁RNA	-11403
▁거기서	-11404
▁밴드이다	-11405
▁존재했던	-11406
▁엽	-11407
▁증권	-11408
전문학교	-11409
▁횟	-11410
▁고수	-11411
▁군단	-11412
▁약물	-11413
▁증손	-11414
▁홈구	-11415
선이다	-11416
▁기상청	-11417
▁토요일	-11418
평화	-11419
▁임용	-11420
omys	-11421
▁키프로	-11422
▁것으로서	-11423
▁멋	-11424
봉을	-11425
영어	-11426
철의	-11427
▁냉각	-11428
▁시트	-11429
▁총칭	-11430
▁평창	-11431
▁문제의	-11432
cc	-11433
▁뉘	-11434
ult	-11435
▁최적	-11436
▁김일성	-11437
▁말기의	-11438
▁진출을	-11439
▁실패하였다	-11440
▁발을	-11441
▁제곱	-11442
▁플랑	-11443
가지의	-11444
▁다음해	-11445
준은	-11446
▁자체를	-11447
▁굿	-11448
제학	-11449
pen	-11450
▁상상	-11451
▁이벤트	-11452
▁인접한	-11453
▁일본과	-11454
▁잠수함	-11455
▁발매하였다	-11456
▁직접적으로	-11457
널티	-11458
평군	-11459
허가	-11460
▁불이	-11461
▁온천	-11462
▁올바	-11463
증으로	-11464
▁감독과	-11465
▁비난을	-11466
▁수술을	-11467
도리	-11468
땃쥐	-11469
▁표명	-11470
▁희귀	-11471
▁음반의	-11472
▁장관을	-11473
▁종로구	-11474
약성	-11475
참모	-11476
▁불리게	-11477
▁정신적	-11478
▁경우에도	-11479
▁등장인물	-11480
테르부르크	-11481
▁자연스럽게	-11482
야를	-11483
▁61	-11484
▁미노	-11485
▁분당	-11486
▁닌텐도	-11487
OD	-11488
▁Ed	-11489
▁마루	-11490
▁겪었다	-11491
▁수도인	-11492
Ph	-11493
▁호세	-11494
▁NA	-11495
▁부부	-11496
▁이경	-11497
▁쫓아	-11498
▁헤드	-11499
소이다	-11500
협의회	-11501
▁경찰은	-11502
▁아름다	-11503
~5	-11504
▁노리	-11505
▁투옥	-11506
▁For	-11507
▁참여하고	-11508
▁닭	-11509
▁67	-11510
▁미루	-11511
▁상용	-11512
▁회사가	-11513
▁않는다고	-11514
8)	-11515
커는	-11516
▁마이크	-11517
▁대한민국에	-11518
▁도입되었다	-11519
전사	-11520
▁국가는	-11521
▁나오지	-11522
▁선거구	-11523
▁소속된	-11524
모와	-11525
▁진급	-11526
인들과	-11527
클랜드	-11528
▁만나는	-11529
▁먹이를	-11530
▁도로이다	-11531
▁동아일보	-11532
▁얹	-11533
렉스	-11534
말라	-11535
학원	-11536
▁유죄	-11537
▁저택	-11538
▁개발이	-11539
▁학교에	-11540
보통학교	-11541
▁일컫는다	-11542
Re	-11543
종인	-11544
▁갈릴	-11545
▁동명	-11546
▁바티칸	-11547
▁사고가	-11548
▁용어를	-11549
▁추기경	-11550
▁조선일보	-11551
功臣	-11552
▁구출	-11553
▁이식	-11554
나갔다	-11555
▁중국어	-11556
IG	-11557
애를	-11558
▁보일	-11559
▁수습	-11560
▁한계	-11561
▁믿고	-11562
▁주류	-11563
사업을	-11564
▁등지에서	-11565
▁대피	-11566
▁부딪	-11567
▁규모로	-11568
▁우주의	-11569
▁근처에서	-11570
감과	-11571
종과	-11572
▁밀어	-11573
▁모르는	-11574
▁맏	-11575
리조	-11576
오늘	-11577
▁스톡	-11578
▁코어	-11579
쳤으며	-11580
ower	-11581
▁가리키	-11582
이하	-11583
테면	-11584
▁광장	-11585
▁후궁	-11586
▁제안을	-11587
산리	-11588
항이	-11589
▁구할	-11590
▁일러	-11591
▁폭스	-11592
▁블랙홀	-11593
아들	-11594
▁초과	-11595
▁다양하다	-11596
▁프로그램이	-11597
환이	-11598
▁봉안	-11599
▁이윤	-11600
▁인문	-11601
▁즉각	-11602
▁취재	-11603
▁외교관	-11604
▁엿	-11605
라기	-11606
림의	-11607
ere	-11608
▁넣은	-11609
▁명에	-11610
▁불어	-11611
▁예배	-11612
▁평균자책	-11613
▁골프	-11614
▁뒤집	-11615
▁초연	-11616
rans	-11617
▁스미스	-11618
▁지휘관	-11619
▁월드컵에	-11620
▁순회	-11621
▁피트	-11622
▁것인데	-11623
▁관할하는	-11624
▁복귀하였다	-11625
▁카자흐스탄	-11626
장치	-11627
▁라파	-11628
▁아랫	-11629
▁교황의	-11630
▁기록해	-11631
▁뛰어나	-11632
▁운동은	-11633
▁출전한	-11634
▁파이어	-11635
▁그룹이다	-11636
버스터미널	-11637
다르	-11638
버리	-11639
way	-11640
▁이룬	-11641
▁부동산	-11642
▁부분의	-11643
▁자금을	-11644
▁거제	-11645
▁결코	-11646
▁페어	-11647
▁승부차	-11648
▁있었을	-11649
▁장군의	-11650
▁종류가	-11651
▁환경을	-11652
▁간호	-11653
▁측의	-11654
방에서	-11655
운동에	-11656
▁여부를	-11657
▁닐	-11658
▁분화	-11659
▁제압	-11660
▁사람과	-11661
▁지구와	-11662
▁할머니	-11663
▁베트남의	-11664
▁이름에서	-11665
▁데뷔하였고	-11666
▁물건	-11667
▁협박	-11668
▁흥선	-11669
▁360	-11670
▁기리기	-11671
측에	-11672
책으로	-11673
▁규모는	-11674
부산	-11675
▁반경	-11676
▁수동	-11677
▁양호	-11678
▁깎	-11679
님을	-11680
로이	-11681
액의	-11682
▁부문에서	-11683
6)	-11684
현대	-11685
▁SP	-11686
▁발트	-11687
▁선이	-11688
▁최하	-11689
시즌을	-11690
▁전라도	-11691
▁옌	-11692
야만	-11693
_11	-11694
ash	-11695
▁성주	-11696
▁오고	-11697
▁존속	-11698
▁않으나	-11699
리라	-11700
손은	-11701
▁가지며	-11702
▁북쪽의	-11703
▁스티브	-11704
▁이유를	-11705
▁잃어버	-11706
5)	-11707
바스	-11708
상규	-11709
▁컬러	-11710
▁성격이	-11711
▁안에는	-11712
▁요청을	-11713
▁아니라고	-11714
La	-11715
강에서	-11716
▁표현을	-11717
▁선언하였다	-11718
보건	-11719
위해	-11720
▁시외	-11721
▁신임	-11722
▁에미	-11723
▁초록	-11724
▁해밀	-11725
바이잔	-11726
일이다	-11727
▁세상에	-11728
▁승격되었다	-11729
LS	-11730
▁강도	-11731
▁중국과	-11732
▁프로리그	-11733
등으로	-11734
▁과거에는	-11735
▁계속되었다	-11736
ank	-11737
▁순교	-11738
▁왕복	-11739
▁패키	-11740
검찰청	-11741
▁것보다	-11742
▁전투기	-11743
▁급제하여	-11744
녀를	-11745
더는	-11746
디나	-11747
루션	-11748
저지	-11749
▁메타	-11750
▁숫자	-11751
▁페르난	-11752
▁CF	-11753
▁가짜	-11754
▁광둥	-11755
▁커널	-11756
불교의	-11757
▁다룬다	-11758
▁블로그	-11759
▁비로소	-11760
▁강수량은	-11761
▁지휘하는	-11762
▁도는	-11763
▁떠올	-11764
▁한나라당	-11765
▁왓	-11766
▁명성	-11767
▁바꾼	-11768
▁정밀	-11769
악한	-11770
enti	-11771
▁전체에	-11772
▁직전에	-11773
각의	-11774
▁충주	-11775
▁했을	-11776
▁엄격한	-11777
▁차원에서	-11778
제르바이잔	-11779
▁알려져있다	-11780
무역	-11781
제한	-11782
▁헤라	-11783
▁버전의	-11784
▁궁극	-11785
▁시와	-11786
프라이	-11787
▁섬에서	-11788
▁이집트의	-11789
▁경신	-11790
▁연꽃	-11791
까지만	-11792
대한민국	-11793
지아	-11794
(13	-11795
▁Wh	-11796
▁매달	-11797
▁석가	-11798
▁중독	-11799
욕을	-11800
거리를	-11801
▁오프닝	-11802
▁기업이다	-11803
▁움직임을	-11804
,8	-11805
돌을	-11806
액은	-11807
▁나눈	-11808
절한	-11809
▁김현	-11810
▁닥터	-11811
▁매입	-11812
▁관직을	-11813
▁일이다	-11814
▁한성부	-11815
Le	-11816
▁신이	-11817
▁아부	-11818
▁결성된	-11819
▁속도는	-11820
▁가마쿠라	-11821
▁이어진다	-11822
▁DC	-11823
▁문명	-11824
▁바오로	-11825
▁카를로	-11826
▁서정	-11827
▁시는	-11828
▁조달	-11829
▁세계대	-11830
제작	-11831
▁제트	-11832
▁프랑크푸르트	-11833
ime	-11834
▁만남	-11835
▁시장을	-11836
▁방송되었다	-11837
▁냄	-11838
네가	-11839
칼라	-11840
▁바퀴	-11841
▁합창	-11842
국사	-11843
축을	-11844
츠가	-11845
▁상처	-11846
있었다	-11847
▁별명을	-11848
▁회사이다	-11849
▁연세대학교	-11850
종교	-11851
▁카스	-11852
루미늄	-11853
▁속하며	-11854
▁전통을	-11855
▁대회에서는	-11856
시즘	-11857
신경	-11858
▁가량	-11859
▁말의	-11860
▁모친	-11861
▁방패	-11862
▁상트	-11863
▁야쿠	-11864
렸는데	-11865
▁체코슬로	-11866
UC	-11867
항의	-11868
▁문법	-11869
군이다	-11870
▁느낌을	-11871
▁다니엘	-11872
▁여성이	-11873
▁1885	-11874
▁Comp	-11875
▁주민들이	-11876
▁토니	-11877
▁나폴리	-11878
▁휴스턴	-11879
▁붙인	-11880
▁사토	-11881
▁신념	-11882
▁책의	-11883
▁합작	-11884
▁물러났다	-11885
▁그리스도의	-11886
거는	-11887
바논	-11888
브의	-11889
▁마약	-11890
▁협약	-11891
▁민족주의	-11892
ald	-11893
▁인플	-11894
▁집계	-11895
▁편곡	-11896
방으로	-11897
▁2.5	-11898
▁시장에	-11899
▁팀으로	-11900
▁방식이다	-11901
▁콘스탄티노폴리스	-11902
~6	-11903
나리	-11904
▁말씀	-11905
▁장성	-11906
겼으며	-11907
▁도미니	-11908
▁인근의	-11909
릴라	-11910
~18	-11911
▁기아	-11912
▁쓰기	-11913
▁우울	-11914
▁유교	-11915
▁주도로	-11916
▁스스로를	-11917
▁아버지를	-11918
▁적극적인	-11919
朝鮮	-11920
도비	-11921
▁성취	-11922
▁우편	-11923
터미널	-11924
▁코스타	-11925
▁향하는	-11926
▁다운로드	-11927
▁이야기는	-11928
국장	-11929
▁En	-11930
▁재혼	-11931
▁2-1	-11932
▁이론의	-11933
▁존재가	-11934
▁어머니의	-11935
▁김규	-11936
▁던져	-11937
적이지	-11938
▁문과에	-11939
▁총대주교	-11940
하늘	-11941
▁중기	-11942
▁카롤	-11943
그라드	-11944
▁싱글로	-11945
▁애틀랜	-11946
》("	-11947
-200	-11948
▁어려워	-11949
▁원인은	-11950
▁기록했고	-11951
▁들어간다	-11952
▁캄보디아	-11953
측은	-11954
▁띠고	-11955
▁밀집	-11956
▁쏟아	-11957
▁옹립	-11958
▁점프	-11959
▁국내외	-11960
변이	-11961
(14	-11962
anc	-11963
▁레전	-11964
▁천도	-11965
▁화석	-11966
▁회계	-11967
▁장거리	-11968
▁주장은	-11969
값을	-11970
▁뻗어	-11971
▁이케	-11972
▁재무	-11973
▁남쪽의	-11974
▁수학자	-11975
▁디자인을	-11976
▁추측된다	-11977
검사	-11978
빈은	-11979
지능	-11980
▁자문	-11981
▁직결	-11982
▁채워	-11983
가들은	-11984
본으로	-11985
▁의미에서	-11986
we	-11987
방은	-11988
▁라이언	-11989
▁베네딕	-11990
고등학교를	-11991
▁4.	-11992
▁미즈	-11993
▁적합한	-11994
▁톤	-11995
▁꽃은	-11996
▁딸인	-11997
▁시범	-11998
▁정조	-11999
▁위험한	-12000
▁존재하고	-12001
나스	-12002
블리	-12003
사고	-12004
특히	-12005
레이터	-12006
▁달성했다	-12007
▁타이틀곡	-12008
▁딘	-12009
총장	-12010
▁감행	-12011
▁불편	-12012
▁지능	-12013
▁분명히	-12014
대손	-12015
어요	-12016
▁컨셉	-12017
▁민족의	-12018
▁시칠리아	-12019
버린	-12020
수용	-12021
천여	-12022
▁대거	-12023
▁유저	-12024
▁이남	-12025
▁축하	-12026
▁트루	-12027
공무원	-12028
▁관련한	-12029
▁림	-12030
파인	-12031
▁연쇄	-12032
▁공화당	-12033
▁나가는	-12034
▁본인의	-12035
▁언어의	-12036
▁정도였다	-12037
▁쇼트	-12038
▁후안	-12039
▁그래프	-12040
▁루이지	-12041
▁강점기의	-12042
미스	-12043
아래	-12044
재단	-12045
▁꼭짓	-12046
▁버려	-12047
able	-12048
▁중의원	-12049
▁최악의	-12050
구르	-12051
바타	-12052
eng	-12053
▁디오	-12054
▁마스	-12055
▁부의	-12056
버렸다	-12057
rist	-12058
▁비판이	-12059
▁소설가	-12060
▁요구를	-12061
▁테니스	-12062
에다	-12063
▁쓰지	-12064
▁조리	-12065
▁니콜라	-12066
▁물고기	-12067
7)	-12068
▁옴	-12069
▁킨	-12070
▁노태	-12071
▁띤다	-12072
▁로열	-12073
▁지주	-12074
▁폭넓	-12075
▁관리를	-12076
▁이어진	-12077
▁대학교에	-12078
덕션	-12079
번지	-12080
차와	-12081
판과	-12082
▁난다	-12083
▁비평	-12084
▁오오	-12085
▁조조	-12086
지는데	-12087
▁배우로	-12088
▁저명한	-12089
▁헌법재판	-12090
대책	-12091
크에	-12092
ana	-12093
▁가죽	-12094
▁신중	-12095
▁이가	-12096
▁존경	-12097
▁가지가	-12098
▁공격에	-12099
로부터의	-12100
감에	-12101
번은	-12102
▁글리	-12103
▁제노	-12104
▁카타	-12105
▁자회사	-12106
▁노동조합	-12107
▁더불어민주당	-12108
공격	-12109
▁공모	-12110
▁정해	-12111
커니즘	-12112
풍으로	-12113
▁수도원	-12114
▁차이는	-12115
▁어머니가	-12116
▁중앙위원회	-12117
▁개원	-12118
▁선사	-12119
▁수상한	-12120
▁투표를	-12121
▁아래에서	-12122
▁이용한다	-12123
▁맑	-12124
▁이준	-12125
▁피신	-12126
▁인정하고	-12127
▁아일랜드의	-12128
▁선종	-12129
▁장면을	-12130
▁설명했다	-12131
▁자유주의	-12132
▁진행되고	-12133
군단	-12134
일으	-12135
차량	-12136
▁고백	-12137
▁말기에	-12138
▁몬스터	-12139
▁보호를	-12140
▁아미노	-12141
▁협상을	-12142
▁블라디미르	-12143
적에	-12144
▁10%	-12145
▁지방자치	-12146
가요	-12147
▁성분	-12148
▁독일이	-12149
▁따온	-12150
▁재현	-12151
▁많으며	-12152
그의	-12153
밴드	-12154
▁안보	-12155
▁비례대표	-12156
▁승강장이	-12157
mp	-12158
▁뭉	-12159
▁일방	-12160
▁축출	-12161
▁파스	-12162
역학	-12163
푸스	-12164
▁두는	-12165
▁베니	-12166
▁기술은	-12167
▁기자회	-12168
▁맵	-12169
급을	-12170
기계	-12171
▁별은	-12172
▁불확	-12173
▁변화에	-12174
▁결정되었다	-12175
수리	-12176
▁구의	-12177
▁날에	-12178
▁법인	-12179
▁빌려	-12180
▁평일	-12181
화이다	-12182
▁시기를	-12183
▁있기도	-12184
족에	-12185
줬다	-12186
▁낭만	-12187
▁백색	-12188
▁엄격	-12189
▁호위	-12190
▁게이지	-12191
동성	-12192
▁AR	-12193
▁선물	-12194
▁적혀	-12195
▁통틀어	-12196
▁패배를	-12197
우지	-12198
LA	-12199
것을	-12200
따라	-12201
왕조	-12202
판매	-12203
ler	-12204
서비스	-12205
:0	-12206
▁옳	-12207
감한	-12208
▁디렉	-12209
▁성공회	-12210
▁줄무늬	-12211
▁환경에	-12212
▁중단되었다	-12213
my	-12214
▁존스	-12215
▁처녀	-12216
암으로	-12217
▁가까워	-12218
▁삼각형	-12219
▁정신을	-12220
▁철도가	-12221
(2011	-12222
▁*	-12223
링을	-12224
▁규격	-12225
▁농림	-12226
▁봉쇄	-12227
▁업체	-12228
▁개념이	-12229
▁버렸다	-12230
▁1860	-12231
▁팜	-12232
미노	-12233
▁최후	-12234
동이다	-12235
▁그다지	-12236
▁도카이	-12237
더니	-12238
▁노란색	-12239
▁선정한	-12240
▁태양을	-12241
▁프랑수아	-12242
▁됐	-12243
푸아	-12244
▁알코올	-12245
▁프톨레	-12246
▁임시정부	-12247
▁설명한다	-12248
▁나올	-12249
▁목을	-12250
▁생략	-12251
▁한미	-12252
▁독일과	-12253
▁용도로	-12254
▁위치하는	-12255
도바	-12256
ins	-12257
▁리우	-12258
▁본거	-12259
▁입성	-12260
▁주행	-12261
▁짙은	-12262
▁최연	-12263
▁지냈고	-12264
▁회의를	-12265
▁주민들은	-12266
▁・	-12267
매매	-12268
월한	-12269
▁당일	-12270
▁설도	-12271
▁물질의	-12272
▁프랭크	-12273
▁나머지는	-12274
!!	-12275
▁딸로	-12276
▁베드로	-12277
▁선수는	-12278
▁벌어졌다	-12279
▁불러일으	-12280
부르	-12281
▁무상	-12282
▁세자	-12283
▁어른	-12284
▁응원	-12285
▁주가	-12286
▁표방	-12287
▁대표적	-12288
▁마음이	-12289
▁무료로	-12290
▁확실히	-12291
▁부분으로	-12292
▁자격으로	-12293
▁신설되었다	-12294
타우	-12295
▁BC	-12296
▁사면	-12297
▁아홉	-12298
▁되지만	-12299
▁부유한	-12300
보르	-12301
▁엔딩	-12302
▁포르투갈의	-12303
▁산림	-12304
▁입원	-12305
▁하마	-12306
▁차량이	-12307
▁역임하고	-12308
▁지정되었다가	-12309
uk	-12310
▁오타	-12311
▁이씨	-12312
▁육군의	-12313
▁프레스	-12314
▁구분된다	-12315
▁슬로바키아	-12316
결과	-12317
께서	-12318
즈카	-12319
태후	-12320
col	-12321
▁마일	-12322
▁기사를	-12323
▁드라이버	-12324
"),	-12325
▁발현	-12326
▁벌인	-12327
▁앙리	-12328
▁선거는	-12329
▁정부에서	-12330
▁프로레슬링	-12331
열에	-12332
▁단기	-12333
▁손꼽	-12334
▁이끈	-12335
▁지형	-12336
올림픽	-12337
▁교육의	-12338
▁산하에	-12339
▁가고시마	-12340
▁연고지로	-12341
▁닦	-12342
산동	-12343
왕과	-12344
▁CC	-12345
▁HT	-12346
▁김창	-12347
▁비유	-12348
▁연금	-12349
▁협정	-12350
회의에서	-12351
시나	-12352
였을	-12353
히메	-12354
▁상류	-12355
▁척추	-12356
lect	-12357
▁게르만	-12358
▁설치한	-12359
▁평범한	-12360
▁런던에서	-12361
▁형태이다	-12362
▁에콰	-12363
▁위치는	-12364
▁이유가	-12365
GB	-12366
▁펌	-12367
빌딩	-12368
아스	-12369
환은	-12370
▁달이	-12371
▁용의	-12372
▁필사	-12373
▁CON	-12374
▁모델이	-12375
▁우승한	-12376
▁제도가	-12377
▁넬	-12378
▁승계	-12379
▁도시철도	-12380
테나	-12381
▁고체	-12382
▁때인	-12383
▁가벼운	-12384
▁문서를	-12385
▁차량은	-12386
ole	-12387
▁노트	-12388
▁북구	-12389
▁증후	-12390
경찰서	-12391
스트리	-12392
▁스탈린	-12393
▁정해진	-12394
생명	-12395
언어	-12396
▁스폰	-12397
▁탐지	-12398
▁아열대	-12399
▁황제로	-12400
▁메시지를	-12401
▁프랑스에	-12402
피의	-12403
irl	-12404
▁불상	-12405
▁해수	-12406
▁행사를	-12407
▁획득한	-12408
▁결론	-12409
▁얻지	-12410
▁연령	-12411
▁오를	-12412
▁트래	-12413
우스가	-12414
orea	-12415
▁101	-12416
▁핀란드의	-12417
코르	-12418
▁기각	-12419
▁내전	-12420
▁술을	-12421
▁용어로	-12422
▁떨어지는	-12423
▁해상에서	-12424
내가	-12425
투자	-12426
▁현재에	-12427
창을	-12428
학부	-12429
▁먹을	-12430
▁아야	-12431
▁전속	-12432
▁흔한	-12433
층으로	-12434
▁런던의	-12435
▁형성한다	-12436
▁독립운동가	-12437
Wh	-12438
파르	-12439
▁CJ	-12440
▁호의	-12441
▁유래된	-12442
▁제국을	-12443
▁제주도	-12444
갈색	-12445
▁본부	-12446
▁애칭	-12447
▁위장	-12448
▁충남	-12449
자들에	-12450
▁본사를	-12451
들에게는	-12452
▁1880	-12453
▁난민	-12454
▁빛이	-12455
교육을	-12456
▁차량을	-12457
▁피하기	-12458
▁선수들을	-12459
노가	-12460
준의	-12461
▁미터	-12462
▁불리고	-12463
▁진나라	-12464
▁개발하고	-12465
▁기독교의	-12466
▁결혼하였다	-12467
골로	-12468
▁Or	-12469
▁상장	-12470
▁미국을	-12471
▁시위를	-12472
▁코드를	-12473
▁터키의	-12474
대륙	-12475
▁삼촌	-12476
▁중종	-12477
어지고	-12478
eter	-12479
레타	-12480
▁대교	-12481
▁모서	-12482
▁안성	-12483
▁해소	-12484
강이	-12485
잡이	-12486
하자는	-12487
ject	-12488
▁밖에도	-12489
▁with	-12490
▁자유로운	-12491
▁고민	-12492
▁모용	-12493
▁아래는	-12494
▁아제르바이잔	-12495
▁섬은	-12496
▁성사	-12497
▁싶은	-12498
▁보유한	-12499
▁장군이	-12500
(2002	-12501
리야	-12502
출판	-12503
▁신부	-12504
리아는	-12505
▁일리노이	-12506
▁86	-12507
▁수련	-12508
하자면	-12509
▁일대에	-12510
▁잡았다	-12511
▁알루미늄	-12512
페테르부르크	-12513
GM	-12514
라트	-12515
저는	-12516
itt	-12517
▁봉건	-12518
▁부서	-12519
▁신시	-12520
▁쓰촨	-12521
▁양이	-12522
▁이관	-12523
▁일대를	-12524
▁중국에	-12525
문자	-12526
발이	-12527
양함	-12528
min	-12529
▁소지	-12530
▁슈팅	-12531
▁심의	-12532
▁사이버	-12533
▁시절의	-12534
▁크리스마스	-12535
월과	-12536
▁곳의	-12537
▁실전	-12538
▁주오	-12539
▁목표는	-12540
▁역사적인	-12541
▁3,000	-12542
FF	-12543
각이	-12544
금지	-12545
해주는	-12546
▁기초를	-12547
▁파일을	-12548
▁몸이	-12549
▁것임을	-12550
▁밝히고	-12551
▁어려서	-12552
▁왕국을	-12553
▁회장을	-12554
▁노르웨이의	-12555
병에	-12556
숙종	-12557
희가	-12558
▁디자	-12559
▁효고	-12560
▁달한다	-12561
▁병으로	-12562
▁내용으로	-12563
▁유지하는	-12564
(8	-12565
술의	-12566
오나	-12567
홀름	-12568
▁NC	-12569
▁담아	-12570
▁침투	-12571
▁이루며	-12572
▁후보는	-12573
▁평가된다	-12574
브는	-12575
인한	-12576
▁78	-12577
▁단어는	-12578
▁부근에	-12579
▁올랐고	-12580
▁알려지게	-12581
▁프로젝트를	-12582
풍이	-12583
▁대니	-12584
▁소금	-12585
▁버전이	-12586
▁할아버지	-12587
▁환경에서	-12588
현과	-12589
▁항소	-12590
들과는	-12591
▁광저우	-12592
▁쓰시마	-12593
▁취하고	-12594
▁헝가리의	-12595
글리	-12596
▁거울	-12597
▁적지	-12598
▁출시한	-12599
EL	-12600
길이	-12601
▁</	-12602
▁대합	-12603
▁둥글	-12604
▁브뤼	-12605
▁아기	-12606
▁이병	-12607
미즈	-12608
인구	-12609
토르	-12610
해온	-12611
▁조언	-12612
▁따른다	-12613
▁끊임없이	-12614
EP	-12615
사나	-12616
▁성종	-12617
▁토르	-12618
ater	-12619
▁갈등을	-12620
▁벼슬을	-12621
▁소행성	-12622
▁전력을	-12623
▁아버지인	-12624
▁전체적인	-12625
▁건담	-12626
▁사간	-12627
▁사범	-12628
▁기간을	-12629
▁물러나	-12630
▁타격을	-12631
▁연결된다	-12632
인터	-12633
▁네팔	-12634
▁랜드	-12635
▁1-0	-12636
협력	-12637
▁낸다	-12638
▁북위	-12639
▁소매	-12640
▁자택	-12641
》(,	-12642
uper	-12643
▁그려진	-12644
▁School	-12645
▁더글	-12646
▁잡혀	-12647
▁아나키	-12648
▁학교의	-12649
▁진행하고	-12650
노리	-12651
품이	-12652
Pro	-12653
lor	-12654
▁97	-12655
▁애비	-12656
▁여진	-12657
▁삿포로	-12658
▁엔진은	-12659
▁우즈베	-12660
▁재능을	-12661
▁존재할	-12662
아과	-12663
평론	-12664
▁69	-12665
▁리만	-12666
▁주체	-12667
▁남기고	-12668
▁기록하면서	-12669
융합	-12670
친구	-12671
▁강연	-12672
▁래퍼	-12673
▁아크	-12674
▁것들이	-12675
▁없었기	-12676
▁이론에	-12677
세기부터	-12678
▁독립적인	-12679
▁공익	-12680
▁입각	-12681
▁잡은	-12682
▁기초로	-12683
▁발견하였다	-12684
▁누르	-12685
▁배신	-12686
▁사살	-12687
▁오쿠	-12688
▁포병	-12689
스카르	-12690
▁드물게	-12691
▁제목의	-12692
▁이루어지는	-12693
▁문화체육관광부	-12694
▁축적	-12695
▁시장에서	-12696
-9	-12697
af	-12698
MHz	-12699
▁마블	-12700
▁정무	-12701
▁태평	-12702
▁문자를	-12703
▁주어진다	-12704
레가	-12705
▁Bl	-12706
▁꼭대	-12707
▁직면	-12708
▁경찰에	-12709
▁무대를	-12710
▁접하며	-12711
기게	-12712
기니	-12713
연수	-12714
컨대	-12715
▁날카	-12716
▁패한	-12717
▁지키는	-12718
보수	-12719
net	-12720
▁대치	-12721
▁여운	-12722
운동의	-12723
▁출신인	-12724
▁고구려의	-12725
▁그렇지만	-12726
▁시리즈를	-12727
미트	-12728
▁초신	-12729
▁하남	-12730
▁죽였다	-12731
▁카리브	-12732
DA	-12733
에의	-12734
주어	-12735
주자	-12736
팀의	-12737
▁누가	-12738
▁수성	-12739
▁옥스	-12740
▁인격	-12741
▁기존에	-12742
▁섬이다	-12743
▁사망하자	-12744
▁대통령으로	-12745
▁프톨레마이	-12746
▁$	-12747
▁죽이	-12748
▁피겨	-12749
▁즉위한	-12750
▁•	-12751
▁니가타	-12752
▁5,000	-12753
▁건축물이다	-12754
웠고	-12755
화물	-12756
▁보헤	-12757
▁더욱이	-12758
▁사람도	-12759
▁안으로	-12760
▁차이로	-12761
▁1871	-12762
▁통일신라	-12763
ony	-12764
▁DS	-12765
▁쌓은	-12766
▁카트	-12767
▁한스	-12768
▁마음에	-12769
▁살았던	-12770
▁페널티	-12771
셈부르크	-12772
▁지나면서	-12773
▁리틀	-12774
▁신선	-12775
▁com	-12776
▁조정에	-12777
▁시베리아	-12778
▁도입하였다	-12779
함마	-12780
▁등용	-12781
▁비주	-12782
▁구스타	-12783
▁미시간	-12784
▁계획이다	-12785
▁인터내셔널	-12786
pp	-12787
기나	-12788
방울	-12789
불을	-12790
▁대두	-12791
▁바빌	-12792
▁청원	-12793
▁출산	-12794
▁뒷받침	-12795
▁구마모토	-12796
냐는	-12797
▁담배	-12798
▁물어	-12799
▁성운	-12800
▁테레	-12801
▁경상도	-12802
▁공부를	-12803
▁뚜렷한	-12804
▁플레이어는	-12805
▁아르헨티나의	-12806
로우	-12807
어리	-12808
▁만일	-12809
▁아담	-12810
▁의석	-12811
▁즐겨	-12812
▁호조	-12813
즈에서	-12814
▁유학을	-12815
▁지역구	-12816
▁결혼하여	-12817
▁아리스토	-12818
▁처음부터	-12819
조한	-12820
▁교역	-12821
▁기단	-12822
▁높게	-12823
▁웹툰	-12824
▁자를	-12825
▁군대에	-12826
▁표면에	-12827
▁국제적인	-12828
▁주어졌다고	-12829
▁군이	-12830
▁왕세	-12831
▁우호	-12832
▁일체	-12833
▁카디	-12834
▁...	-12835
▁서유럽	-12836
▁아레나	-12837
▁정보가	-12838
▁설명하는	-12839
위인	-12840
▁ex	-12841
▁50%	-12842
▁완벽한	-12843
▁있는지	-12844
▁차량의	-12845
Ro	-12846
▁JT	-12847
▁각자	-12848
▁밝힌	-12849
으려고	-12850
▁발언을	-12851
▁올리고	-12852
나오	-12853
네시	-12854
any	-12855
▁춘추	-12856
▁게임이	-12857
▁함수의	-12858
서구	-12859
열은	-12860
철은	-12861
-21	-12862
▁On	-12863
▁맞은	-12864
▁왕을	-12865
시키지	-12866
크에서	-12867
lack	-12868
▁때에도	-12869
▁손가락	-12870
▁아무도	-12871
▁중일	-12872
▁한층	-12873
▁손으로	-12874
▁차례의	-12875
▁1800	-12876
칸의	-12877
프에	-12878
ren	-12879
▁부지	-12880
▁케임	-12881
▁아시안컵	-12882
illiam	-12883
색과	-12884
전시	-12885
▁세속	-12886
▁주위	-12887
titu	-12888
▁일으킬	-12889
▁일하는	-12890
》(200	-12891
?)	-12892
반에	-12893
▁말하면	-12894
학교에서	-12895
▁목소리를	-12896
▁만족시키는	-12897
대대	-12898
반이	-12899
통제	-12900
행에	-12901
▁대가	-12902
▁사모	-12903
▁샘플	-12904
▁이를테면	-12905
▁≪	-12906
팀을	-12907
▁응시	-12908
▁레바논	-12909
▁온도가	-12910
▁에티오피아	-12911
거를	-12912
반도	-12913
▁등극	-12914
▁만세	-12915
▁민병	-12916
▁부설	-12917
▁유년	-12918
▁창의	-12919
▁얼굴을	-12920
▁의미는	-12921
▁르네상스	-12922
▁87	-12923
▁EC	-12924
▁그랜	-12925
월에서	-12926
▁킬로미터	-12927
▁얽	-12928
폭력	-12929
▁맥스	-12930
▁음악에	-12931
기자	-12932
신학	-12933
여우	-12934
아버지	-12935
▁견해를	-12936
▁넘어가	-12937
▁바이오	-12938
▁플라스틱	-12939
▁놀이	-12940
▁모은	-12941
▁석탑	-12942
▁오노	-12943
▁기하여	-12944
마로	-12945
혹은	-12946
▁금성	-12947
▁기슭	-12948
▁페리	-12949
탈리아	-12950
▁야마토	-12951
▁정치인으로	-12952
위성	-12953
주지	-12954
oss	-12955
▁까닭	-12956
▁싸워	-12957
▁통영	-12958
▁해의	-12959
▁교육과	-12960
▁나가노	-12961
▁들어갈	-12962
▁조약에	-12963
내며	-12964
인권	-12965
▁펠리	-12966
▁Ass	-12967
▁사회에서	-12968
당해	-12969
▁부가	-12970
▁지름	-12971
▁대학생	-12972
▁쳐들어	-12973
▁스트리트	-12974
▁표현하는	-12975
준비	-12976
클로	-12977
ven	-12978
▁조르	-12979
▁종족	-12980
▁판사	-12981
면에는	-12982
▁공간이	-12983
▁당연히	-12984
▁균형	-12985
▁제프	-12986
▁뮤지션	-12987
▁질량이	-12988
▁창원시	-12989
▁시리즈에서	-12990
▁솜	-12991
왕에	-12992
▁불명	-12993
▁수확	-12994
▁중산	-12995
▁압력을	-12996
▁없어서	-12997
▁전역에	-12998
▁학문을	-12999
▁페르디난	-13000
▁랴	-13001
받게	-13002
▁년에	-13003
▁박스	-13004
▁중대	-13005
정책을	-13006
▁1889	-13007
▁가져왔다	-13008
▁정의한다	-13009
집단	-13010
천사	-13011
트륨	-13012
▁공신	-13013
▁수면	-13014
▁퀘벡	-13015
정에서	-13016
▁승무원	-13017
▁피해가	-13018
▁중요성을	-13019
거진	-13020
교에	-13021
왔던	-13022
효과	-13023
▁경로	-13024
▁단축	-13025
▁두께	-13026
▁선배	-13027
▁오바	-13028
▁경기의	-13029
▁방문한	-13030
▁새겨진	-13031
▁前	-13032
▁덤	-13033
어스	-13034
▁느꼈	-13035
▁갈수록	-13036
▁역까지	-13037
▁자료가	-13038
▁실질적으로	-13039
▁조선로동당	-13040
EG	-13041
슬리	-13042
렸다고	-13043
▁이때부터	-13044
.,	-13045
▁쇄	-13046
노부	-13047
하로	-13048
▁선과	-13049
▁프로게이머	-13050
TO	-13051
들여	-13052
맥스	-13053
▁사탕	-13054
▁세상	-13055
▁암시	-13056
것으로	-13057
▁같은해	-13058
▁고유의	-13059
▁전하는	-13060
▁결정된다	-13061
▁도요토미	-13062
▁고등학교를	-13063
강전	-13064
▁거뒀	-13065
▁중장	-13066
▁파나	-13067
선거구	-13068
▁센다이	-13069
▁특징으로	-13070
고와	-13071
할때	-13072
▁역사에	-13073
▁자신들이	-13074
지리	-13075
ail	-13076
▁81	-13077
▁용병	-13078
▁모양이	-13079
▁새로이	-13080
▁입장에서	-13081
량과	-13082
키와	-13083
한테	-13084
con	-13085
▁73	-13086
▁시골	-13087
선수권	-13088
ella	-13089
▁동생인	-13090
▁사고를	-13091
▁심리학	-13092
▁청주시	-13093
▁올림픽의	-13094
여자중학교	-13095
▁중화민국의	-13096
▁z	-13097
슈퍼	-13098
작곡	-13099
즈로	-13100
▁죽어	-13101
▁브로드	-13102
▁선생의	-13103
▁영화가	-13104
ition	-13105
▁1870	-13106
▁그들에게	-13107
▁설립되었으며	-13108
방위	-13109
▁전동	-13110
▁성능을	-13111
▁의원을	-13112
▁받았지만	-13113
ky	-13114
▁아세	-13115
▁영등	-13116
▁종속	-13117
▁향토문화	-13118
▁결정하였다	-13119
▁프로그램에	-13120
My	-13121
변에	-13122
아마	-13123
▁케냐	-13124
▁리그를	-13125
▁점령한	-13126
▁클래스	-13127
▁몫	-13128
연방	-13129
▁감안	-13130
▁맞붙	-13131
▁보게	-13132
▁이북	-13133
▁품고	-13134
▁고통을	-13135
▁바르샤	-13136
▁오피스	-13137
▁조선에	-13138
▁고려시대	-13139
▁존슨	-13140
▁중복	-13141
▁텍스트	-13142
▁볼리비아	-13143
▁철회	-13144
계약을	-13145
▁매니저	-13146
▁아미타	-13147
대학교의	-13148
▁해당된다	-13149
탄의	-13150
▁더해	-13151
▁북방	-13152
▁기회가	-13153
▁스위스의	-13154
▁운행한다	-13155
▁유사하다	-13156
MB	-13157
위기	-13158
이시	-13159
ane	-13160
▁사절	-13161
▁이차	-13162
▁담당했다	-13163
▁상트페테르부르크	-13164
OU	-13165
강과	-13166
▁소셜	-13167
▁에밀	-13168
▁재미	-13169
는지는	-13170
▁매카트	-13171
▁성장을	-13172
De	-13173
▁김홍	-13174
▁민영	-13175
▁자오	-13176
지금의	-13177
▁이곳을	-13178
▁정도를	-13179
▁중반에	-13180
▁부분에서	-13181
▁호출	-13182
▁상태의	-13183
▁그러다가	-13184
▁비밀리에	-13185
▁기저	-13186
▁루터	-13187
▁양국	-13188
심에서	-13189
▁다니는	-13190
▁주장하며	-13191
--	-13192
내지	-13193
▁Go	-13194
▁간토	-13195
▁발칸	-13196
▁오지	-13197
▁뒤에도	-13198
ement	-13199
아비	-13200
▁5·	-13201
▁메소	-13202
▁신축	-13203
주의가	-13204
▁노선의	-13205
▁산하의	-13206
▁언어는	-13207
▁나중에는	-13208
FL	-13209
▁{	-13210
모든	-13211
상도	-13212
▁대책	-13213
▁완화	-13214
▁대가로	-13215
▁레인저	-13216
▁건설되었다	-13217
▁제주특별자치도	-13218
먼드	-13219
모에	-13220
약한	-13221
▁분비	-13222
감으로	-13223
▁인상을	-13224
▁확실한	-13225
▁결정하는	-13226
▁클럽이다	-13227
):	-13228
가르	-13229
법칙	-13230
본의	-13231
▁김병	-13232
▁마츠	-13233
▁하라	-13234
▁환자	-13235
▁대도시	-13236
,4	-13237
두를	-13238
중추	-13239
▁le	-13240
▁헤비	-13241
▁룩셈부르크	-13242
선생	-13243
소타	-13244
▁강에	-13245
▁견제	-13246
▁진공	-13247
▁필드	-13248
위원을	-13249
▁비율은	-13250
▁팀에서	-13251
(2010	-13252
▁불꽃	-13253
끄러운	-13254
▁And	-13255
▁경계로	-13256
▁근무했다	-13257
브루	-13258
▁극동	-13259
▁중재	-13260
▁카우	-13261
▁컴퍼	-13262
▁하차	-13263
▁900	-13264
▁과정이	-13265
▁비율이	-13266
▁되어있다	-13267
▁드러났다	-13268
▁시대부터	-13269
우기	-13270
트루	-13271
▁세례	-13272
▁실망	-13273
▁체류	-13274
▁블루스	-13275
Un	-13276
▁문예	-13277
▁대전이	-13278
▁제국에	-13279
▁총리가	-13280
▁미시시피	-13281
▁엔지니어	-13282
▁프로듀싱	-13283
▁그레고리오	-13284
각은	-13285
벽을	-13286
uro	-13287
▁그후	-13288
▁토요	-13289
▁예수의	-13290
▁유로파	-13291
▁몸길이는	-13292
▁대한민국과	-13293
래스	-13294
효소	-13295
ife	-13296
▁그릇	-13297
▁문인	-13298
▁작용을	-13299
▁취임하였다	-13300
사용	-13301
집이	-13302
ara	-13303
ings	-13304
▁서울대	-13305
▁정리한	-13306
▁머물렀다	-13307
▁승강장을	-13308
건축	-13309
루에	-13310
영과	-13311
터키	-13312
▁물의	-13313
행위를	-13314
행으로	-13315
▁역사의	-13316
▁드래프트에서	-13317
단지	-13318
부상	-13319
이야	-13320
커의	-13321
타입	-13322
▁가환	-13323
▁견해	-13324
▁마하	-13325
▁무실	-13326
▁가족은	-13327
▁할리우	-13328
▁스타리그	-13329
▁윤보	-13330
위원회를	-13331
IL	-13332
돌은	-13333
천이	-13334
▁연상	-13335
▁짐작	-13336
문에서	-13337
▁딸이다	-13338
▁소송을	-13339
▁연합군	-13340
▁제치고	-13341
▁니콜라이	-13342
▁평안남도	-13343
)”	-13344
루와	-13345
분교	-13346
▁꽃이	-13347
▁로이	-13348
▁만성	-13349
▁점에	-13350
았다고	-13351
▁트리플	-13352
▁프랑스가	-13353
루수	-13354
학이	-13355
▁국군	-13356
▁성서	-13357
▁지장	-13358
▁서울의	-13359
▁나이지리아	-13360
개와	-13361
량에	-13362
전차	-13363
▁공손	-13364
▁깨끗	-13365
▁호응	-13366
▁언급한	-13367
▁예이다	-13368
▁출신이며	-13369
▁개종	-13370
▁거북	-13371
▁시종	-13372
▁영지	-13373
▁해마다	-13374
▁성우이다	-13375
푸르	-13376
▁배상	-13377
▁브란	-13378
▁산의	-13379
▁터뜨	-13380
전이다	-13381
▁나타낸	-13382
▁정치를	-13383
▁떨어졌다	-13384
▁시리즈는	-13385
▁추가적인	-13386
▁한국시리즈	-13387
타스	-13388
▁걸린	-13389
▁교리	-13390
▁동위	-13391
▁병역	-13392
▁사슬	-13393
▁안치	-13394
▁어뢰	-13395
▁지녔	-13396
▁설치하고	-13397
브르	-13398
▁본명	-13399
▁시공	-13400
▁오비	-13401
▁하동	-13402
▁그래미	-13403
▁글루	-13404
▁기증	-13405
▁정말	-13406
▁하트	-13407
▁예술가	-13408
▁한국은	-13409
▁틸	-13410
링은	-13411
법률	-13412
▁74	-13413
▁SN	-13414
▁구와	-13415
차이나	-13416
▁국립공	-13417
▁해결하기	-13418
▁왈	-13419
계급	-13420
.5%	-13421
fer	-13422
▁나란히	-13423
▁사례가	-13424
▁투수가	-13425
▁설치하여	-13426
두로	-13427
▁값이	-13428
▁개가	-13429
▁괴롭	-13430
▁나주	-13431
▁하우	-13432
▁한인	-13433
주머니	-13434
▁뒤이어	-13435
▁평가했다	-13436
캐슬	-13437
▁Sc	-13438
▁남구	-13439
▁산출	-13440
▁평정	-13441
▁화강	-13442
▁대회가	-13443
▁아틀레	-13444
▁전반에	-13445
▁제작을	-13446
러브	-13447
봉사	-13448
▁고령	-13449
▁정서	-13450
▁단어를	-13451
▁수비수	-13452
▁보호하기	-13453
▁땄다	-13454
▁이라	-13455
▁세워져	-13456
▁영향이	-13457
▁클라이	-13458
시인	-13459
연료	-13460
▁말미	-13461
▁연봉	-13462
▁태극	-13463
▁붙여진	-13464
▁위원장	-13465
▁크기를	-13466
▁차지하며	-13467
▁이루어지지	-13468
믹스	-13469
▁미디	-13470
▁이장	-13471
▁편지	-13472
되므로	-13473
▁공격수	-13474
▁관련해	-13475
▁포로로	-13476
▁크리스티안	-13477
테크	-13478
▁낳은	-13479
▁카나	-13480
▁태자	-13481
▁더이상	-13482
▁범위를	-13483
▁연구의	-13484
▁경기장이다	-13485
▁크리스토퍼	-13486
리얼	-13487
변의	-13488
~10	-13489
▁산란	-13490
▁편에	-13491
여명의	-13492
▁협주곡	-13493
▁공격하여	-13494
▁베네수엘라	-13495
대군	-13496
진보	-13497
▁발급	-13498
▁사당	-13499
▁레전드	-13500
적으로도	-13501
▁1883	-13502
▁타이베이	-13503
▁후임으로	-13504
▁시뮬레이션	-13505
주택	-13506
▁달걀	-13507
▁동참	-13508
▁무궁	-13509
▁이규	-13510
▁도시에	-13511
▁본인이	-13512
▁카를로스	-13513
권도	-13514
두에	-13515
▁간신	-13516
▁나섰	-13517
▁사정	-13518
▁수료	-13519
▁히타	-13520
▁중앙아시아	-13521
무로	-13522
뮤직	-13523
oth	-13524
▁극대	-13525
▁라마	-13526
▁비타	-13527
▁이천	-13528
▁자선	-13529
▁함대	-13530
▁콜로라도	-13531
▁비판하였다	-13532
양성	-13533
포드	-13534
화점	-13535
▁세션	-13536
▁물건을	-13537
▁둘러싸여	-13538
▁실시하고	-13539
▁스코틀랜드의	-13540
코와	-13541
▁89	-13542
▁돌입	-13543
▁스캔	-13544
케라톱	-13545
idae	-13546
▁국제적	-13547
▁작업에	-13548
▁친일파	-13549
▁전역에서	-13550
체고	-13551
()"	-13552
▁감리	-13553
▁추산	-13554
>(19	-13555
▁Rec	-13556
▁도입된	-13557
▁지나는	-13558
▁시즌에서	-13559
운다	-13560
▁덮여	-13561
▁뽑아	-13562
▁이소	-13563
▁헬륨	-13564
▁뉴욕의	-13565
▁부작용	-13566
▁정권의	-13567
▁불가능한	-13568
IR	-13569
▁씌	-13570
메다	-13571
쿠니	-13572
▁84	-13573
▁고래	-13574
▁하부	-13575
▁환영	-13576
▁20%	-13577
▁열린다	-13578
▁운영을	-13579
▁캠퍼스	-13580
▁게임으로	-13581
▁쉐	-13582
락이	-13583
▁기숙	-13584
▁없었	-13585
▁이산	-13586
▁충실	-13587
▁횡단	-13588
rand	-13589
▁아케이드	-13590
oo	-13591
메가	-13592
_12	-13593
▁가동	-13594
▁가오	-13595
▁교전	-13596
▁넓게	-13597
▁맥도	-13598
▁103	-13599
▁105	-13600
▁센고쿠	-13601
▁휘하의	-13602
▁이탈리아에서	-13603
▁수장	-13604
▁취항	-13605
▁플랜	-13606
▁환상	-13607
사들이	-13608
▁진행되는	-13609
▁북아프리카	-13610
올라	-13611
▁가볍	-13612
▁가옥	-13613
▁과일	-13614
호선과	-13615
▁문화가	-13616
▁제네바	-13617
▁의미하며	-13618
자금	-13619
▁김옥	-13620
▁배가	-13621
▁얼음	-13622
▁자국	-13623
나가는	-13624
▁게임에	-13625
▁세력의	-13626
▁실시한	-13627
▁원인을	-13628
▁지구를	-13629
▁지난날	-13630
▁프란체	-13631
▁여우주연	-13632
Ad	-13633
▁맺은	-13634
지역에	-13635
▁결론을	-13636
▁극장판	-13637
▁형성하고	-13638
▁붐	-13639
빈의	-13640
▁고인	-13641
▁끝날	-13642
▁네오	-13643
▁소나	-13644
▁내려가	-13645
▁드러머	-13646
▁눌	-13647
▁킥	-13648
▁서원	-13649
▁세조	-13650
▁양반	-13651
▁백제의	-13652
▁수행할	-13653
▁대학교를	-13654
▁최대풍속	-13655
브스	-13656
함수	-13657
▁가려	-13658
▁아닐	-13659
▁알을	-13660
▁방사성	-13661
▁실패한	-13662
▁전했다	-13663
▁점령하고	-13664
▁클라이언	-13665
대학교에서	-13666
았기	-13667
이한	-13668
키를	-13669
▁나비	-13670
▁상표	-13671
▁한해	-13672
▁황해	-13673
▁KIA	-13674
▁보다는	-13675
▁이란의	-13676
▁진출한	-13677
by	-13678
토모	-13679
▁돌을	-13680
▁번에	-13681
호선이	-13682
▁되었던	-13683
▁대응하는	-13684
▁사랑하는	-13685
으로부터의	-13686
,2	-13687
거의	-13688
관련	-13689
청구	-13690
▁갱신	-13691
▁병을	-13692
▁정립	-13693
▁건축가	-13694
그림	-13695
루아	-13696
▁ar	-13697
▁국장	-13698
▁송나라	-13699
▁캔자스	-13700
▁개념이다	-13701
▁복귀했다	-13702
▁올라간다	-13703
Com	-13704
▁라오	-13705
▁소모	-13706
▁악기	-13707
▁위와	-13708
▁특집	-13709
기록을	-13710
▁아름답	-13711
공파	-13712
▁과의	-13713
▁알지	-13714
▁종착	-13715
▁피츠	-13716
루스의	-13717
▁똑같은	-13718
▁무조건	-13719
▁변화는	-13720
▁사쿠라	-13721
▁주장에	-13722
▁지방도	-13723
집행	-13724
받았고	-13725
테이션	-13726
▁영국에	-13727
▁기록으로	-13728
▁포기하고	-13729
▁알렉산드로	-13730
▁제기되었다	-13731
결혼	-13732
무가	-13733
▁79	-13734
▁주사	-13735
프레스	-13736
▁아스널	-13737
▁평안북도	-13738
SC	-13739
▁밭	-13740
_15	-13741
▁작아	-13742
▁적다	-13743
▁각국의	-13744
▁있거나	-13745
되어있다	-13746
▁함부르크	-13747
막을	-13748
보니	-13749
▁폭로	-13750
▁협동	-13751
▁주위를	-13752
▁아시카가	-13753
▁정치적인	-13754
▁불가능하다	-13755
살의	-13756
업은	-13757
혹한	-13758
ave	-13759
▁걱정	-13760
▁단절	-13761
▁데스	-13762
▁모나	-13763
▁신탁	-13764
▁워터	-13765
▁원을	-13766
▁플러	-13767
▁마을에	-13768
▁저기압	-13769
노르	-13770
발로	-13771
파리	-13772
품의	-13773
▁입을	-13774
▁자의	-13775
▁피로	-13776
lude	-13777
▁350	-13778
▁산업의	-13779
▁시작하면서	-13780
▁시작하였으며	-13781
▁겁	-13782
났을	-13783
설에	-13784
▁가구	-13785
▁동행	-13786
▁잘라	-13787
▁저렴	-13788
▁정유	-13789
▁것인지	-13790
▁지구에	-13791
▁대통령과	-13792
▁임명되었고	-13793
일자	-13794
_13	-13795
▁무슨	-13796
▁서민	-13797
▁압둘	-13798
▁임관	-13799
▁조립	-13800
▁모습은	-13801
▁요새를	-13802
▁현재도	-13803
시켰으며	-13804
▁System	-13805
▁여우	-13806
▁키워	-13807
▁가지의	-13808
▁궤도를	-13809
▁열매는	-13810
▁청와대	-13811
▁통합하여	-13812
것이	-13813
마크	-13814
▁남게	-13815
▁배후	-13816
▁지옥	-13817
▁쾌속	-13818
▁퇴임	-13819
스케이	-13820
▁기준을	-13821
▁시간대	-13822
ection	-13823
▁Colle	-13824
것은	-13825
심은	-13826
▁아타	-13827
▁칼라	-13828
▁하시	-13829
▁선수들	-13830
토벤	-13831
▁검정	-13832
▁권장	-13833
▁목성	-13834
▁수에	-13835
ouse	-13836
▁건설을	-13837
형제	-13838
▁마야	-13839
▁유벤	-13840
▁사업에	-13841
▁개념으로	-13842
▁아라비아	-13843
있게	-13844
▁강동	-13845
▁선도	-13846
▁우드	-13847
▁규정에	-13848
▁기여를	-13849
▁밴드를	-13850
▁지도를	-13851
▁학생들의	-13852
be	-13853
디지	-13854
벨라	-13855
ero	-13856
▁앞장	-13857
루에서	-13858
▁조직이	-13859
▁주위에	-13860
▁수준으로	-13861
▁오사카부	-13862
협의	-13863
▁sp	-13864
▁볼로	-13865
▁재편	-13866
렸지만	-13867
▁설명할	-13868
▁안토니오	-13869
▁프로덕션	-13870
2.	-13871
승지	-13872
정리	-13873
▁권총	-13874
▁들을	-13875
▁목판	-13876
▁선비	-13877
▁원더	-13878
▁집결	-13879
▁퇴역	-13880
▁해명	-13881
▁3·1	-13882
▁뉴저지	-13883
▁정치에	-13884
히트	-13885
▁SD	-13886
▁규범	-13887
▁맞고	-13888
▁경기로	-13889
▁도마뱀	-13890
▁최소한	-13891
▁프란츠	-13892
▁연극배우	-13893
▁■	-13894
일반	-13895
▁있음	-13896
조참판	-13897
▁Cor	-13898
▁관직에	-13899
▁이르렀	-13900
▁정권이	-13901
▁부드러운	-13902
▁대표적으로	-13903
미래	-13904
전략	-13905
▁글자	-13906
▁동점	-13907
▁박헌	-13908
▁발각	-13909
▁벌금	-13910
▁사관	-13911
▁온대	-13912
▁통용	-13913
▁경향을	-13914
▁저작권	-13915
▁하에서	-13916
▁1600	-13917
▁룰	-13918
순환	-13919
행동	-13920
▁무지	-13921
▁보드	-13922
▁실력	-13923
하기는	-13924
▁교회를	-13925
▁미술관	-13926
▁선발로	-13927
▁1882	-13928
▁예선에서	-13929
모스	-13930
심히	-13931
우트	-13932
쪽은	-13933
하임	-13934
▁위헌	-13935
▁고향인	-13936
▁수익을	-13937
▁작가의	-13938
▁꿀	-13939
▁ID	-13940
▁반공	-13941
▁온갖	-13942
▁하원	-13943
▁핸드	-13944
▁소비자	-13945
▁시에서	-13946
▁외에는	-13947
▁증거가	-13948
것도	-13949
디를	-13950
sch	-13951
▁감마	-13952
▁매매	-13953
▁왜곡	-13954
▁조화	-13955
기관의	-13956
▁부대가	-13957
▁비행기	-13958
▁장군은	-13959
트로이트	-13960
ino	-13961
▁효소	-13962
▁하느님	-13963
▁캉	-13964
버는	-13965
▁71	-13966
▁곡선	-13967
▁숨어	-13968
▁팔라	-13969
▁이내에	-13970
▁투수로	-13971
▁드라이브	-13972
▁엮	-13973
사도	-13974
츠를	-13975
▁태그	-13976
▁마천루	-13977
▁쌍둥이	-13978
말에	-13979
모양	-13980
바람	-13981
추는	-13982
ger	-13983
▁대안	-13984
▁시립	-13985
▁신조	-13986
▁제퍼	-13987
법이다	-13988
▁격렬한	-13989
▁보내고	-13990
▁때문이라고	-13991
레드	-13992
집에	-13993
▁영유	-13994
▁레슬링	-13995
▁사랑의	-13996
▁음악은	-13997
▁각지에서	-13998
▁코무네다	-13999
▁가축	-14000
▁지평	-14001
▁소리가	-14002
▁거부하고	-14003
시게	-14004
씨로	-14005
▁들려	-14006
▁신정	-14007
▁잔류	-14008
▁한명	-14009
▁동안의	-14010
▁투어를	-14011
▁결정한다	-14012
▁동일하다	-14013
▁되었다는	-14014
▁제안했다	-14015
▁이스라엘의	-14016
▁金	-14017
▁빈번	-14018
▁성숙	-14019
▁처분	-14020
▁회로	-14021
▁회수	-14022
거리가	-14023
▁끌었다	-14024
▁들어올	-14025
▁모티브	-14026
▁자란다	-14027
▁흔적이	-14028
공연	-14029
▁감싸	-14030
▁그루	-14031
▁무의	-14032
▁왕국은	-14033
▁선수로서	-14034
히토	-14035
▁국어	-14036
▁조병	-14037
▁Car	-14038
▁본래의	-14039
▁붙었다	-14040
▁붙였다	-14041
▁일제의	-14042
▁나타내고	-14043
▁러시아는	-14044
▁연합군의	-14045
bo	-14046
시청	-14047
채가	-14048
▁세금	-14049
▁세네	-14050
▁튀니	-14051
▁혐의	-14052
▁30%	-14053
▁가족의	-14054
▁기간은	-14055
▁미쳤다	-14056
▁유래했다	-14057
▁페이스북	-14058
▁강희	-14059
▁러셀	-14060
▁분출	-14061
▁상세	-14062
▁유진	-14063
▁생산을	-14064
▁or	-14065
▁없던	-14066
▁마다가	-14067
▁무함마	-14068
▁주머니	-14069
▁중대한	-14070
▁쿠데타	-14071
▁했었다	-14072
▁유연	-14073
▁윤리	-14074
▁직할	-14075
▁기업인	-14076
▁나오고	-14077
▁자유형	-14078
yl	-14079
미한	-14080
코타	-14081
황이	-14082
▁때가	-14083
▁제의	-14084
당하는	-14085
▁가깝다	-14086
▁박쥐의	-14087
▁실력을	-14088
▁사용하면	-14089
벌을	-14090
▁각색	-14091
▁델라	-14092
▁형상	-14093
▁건설된	-14094
▁임명된	-14095
훈은	-14096
▁김지	-14097
▁리오	-14098
번으로	-14099
roup	-14100
▁그룹은	-14101
▁낙동	-14102
ield	-14103
~200	-14104
▁세이부	-14105
▁장비를	-14106
▁연결되는	-14107
다드	-14108
신도	-14109
퓨팅	-14110
▁가열	-14111
▁두꺼	-14112
▁연수	-14113
▁중서	-14114
▁패널	-14115
티미터	-14116
▁나라는	-14117
▁미얀마	-14118
▁아이디얼	-14119
폭탄	-14120
▁CN	-14121
▁돌로	-14122
▁공격으로	-14123
공무	-14124
뤘다	-14125
▁Ag	-14126
▁교양	-14127
▁성에	-14128
▁주자	-14129
▁포장	-14130
품으로	-14131
▁계약이	-14132
▁표현한	-14133
▁활발히	-14134
▁회사인	-14135
▁취임했다	-14136
만과	-14137
▁간선	-14138
▁공과	-14139
▁돌격	-14140
▁순조	-14141
▁지위	-14142
▁공격해	-14143
▁일렉트로	-14144
▁쾰	-14145
증의	-14146
▁GP	-14147
▁넘게	-14148
▁보성	-14149
▁성별	-14150
되도록	-14151
▁무대로	-14152
▁주목할	-14153
▁더불어민주	-14154
정사	-14155
▁검출	-14156
▁김제	-14157
▁당주	-14158
▁리뷰	-14159
▁모인	-14160
▁연못	-14161
레이크	-14162
▁데뷔한	-14163
▁파이널	-14164
▁종교개혁	-14165
반은	-14166
iti	-14167
▁공표	-14168
▁냄새	-14169
▁미션	-14170
▁좌석	-14171
▁즈음	-14172
▁차용	-14173
우리는	-14174
▁목록에	-14175
▁보여준	-14176
▁알리는	-14177
부리	-14178
페란	-14179
hel	-14180
▁치안	-14181
▁개인적인	-14182
▁시스템에	-14183
▁형성되어	-14184
▁예정이었으나	-14185
준이	-14186
▁길에	-14187
▁다비	-14188
▁불평	-14189
▁빈곤	-14190
▁판정	-14191
〉()	-14192
법에서	-14193
▁반도의	-14194
▁신화의	-14195
▁발렌시아	-14196
▁실패하고	-14197
보리	-14198
커가	-14199
한이	-14200
▁No	-14201
▁가네	-14202
▁동인	-14203
▁메릴	-14204
▁미들	-14205
▁법의	-14206
▁차원	-14207
▁탐색	-14208
포켓몬	-14209
▁꼽힌다	-14210
▁집안의	-14211
▁기본으로	-14212
아야	-14213
▁로그	-14214
▁유산	-14215
▁제니	-14216
▁국왕의	-14217
▁다녔다	-14218
▁푸에르	-14219
▁건물이다	-14220
감은	-14221
app	-14222
▁발병	-14223
▁이태	-14224
▁지수	-14225
루이스	-14226
사회의	-14227
▁가문은	-14228
▁교수를	-14229
▁평화를	-14230
엔터테인	-14231
▁연기했다	-14232
++	-14233
▁관악	-14234
▁국영	-14235
▁무성	-14236
▁줄여	-14237
안에서	-14238
▁명이다	-14239
▁자세히	-14240
▁혁명의	-14241
▁경기도의	-14242
▁노선이다	-14243
RT	-14244
air	-14245
▁돌출	-14246
▁이룩	-14247
▁질환	-14248
▁측에	-14249
레스의	-14250
▁반도체	-14251
▁시대가	-14252
▁위험을	-14253
▁재판을	-14254
▁보도했다	-14255
월호	-14256
히코	-14257
▁별이	-14258
▁살려	-14259
▁표지	-14260
ital	-14261
▁남쪽은	-14262
▁환자의	-14263
플레	-14264
▁개인이	-14265
▁볼셰비	-14266
▁서식지는	-14267
궁의	-14268
▁0.	-14269
▁씨의	-14270
▁이데	-14271
왕후의	-14272
▁강남구	-14273
▁건축물	-14274
▁경찰의	-14275
▁1892	-14276
▁분위기를	-14277
▁아니라는	-14278
▁디트로이트	-14279
교와	-14280
증은	-14281
chn	-14282
▁전날	-14283
▁진지	-14284
누스는	-14285
사단은	-14286
▁CEO	-14287
▁동영상	-14288
▁별개의	-14289
▁책이다	-14290
▁정의된다	-14291
▁학생들은	-14292
▁암흑	-14293
▁초빙	-14294
▁황족	-14295
▁리더십	-14296
▁중점을	-14297
▁게임에서	-14298
▁사용되며	-14299
)=	-14300
EA	-14301
▁우르	-14302
▁조승	-14303
▁사카이	-14304
▁인간을	-14305
▁그로부터	-14306
루시아	-14307
테스트	-14308
▁세력은	-14309
▁어렸을	-14310
▁올리는	-14311
▁치열한	-14312
▁카르타	-14313
▁세종특별자치	-14314
전인	-14315
ual	-14316
▁콜린	-14317
▁키는	-14318
▁아돌프	-14319
▁일대의	-14320
▁공격했다	-14321
▁구성되었다	-14322
▁효과적으로	-14323
He	-14324
국적	-14325
너가	-14326
도스	-14327
▁기어	-14328
▁김민	-14329
▁않자	-14330
▁패전	-14331
▁퍼포	-14332
▁위에는	-14333
▁불태	-14334
▁유권	-14335
▁창녕	-14336
▁케빈	-14337
웨이트	-14338
▁뛰었다	-14339
▁메커니즘	-14340
▁뾰	-14341
피가	-14342
ral	-14343
▁리베	-14344
▁자생	-14345
▁투르	-14346
예정자	-14347
▁Par	-14348
(2006	-14349
▁올랐으며	-14350
▁진행하는	-14351
▁등장하였다	-14352
▁은퇴하였다	-14353
나서	-14354
▁굵은	-14355
▁년간	-14356
▁스태	-14357
▁두개골	-14358
▁홍문관	-14359
▁빔	-14360
▁청소	-14361
▁슬라브	-14362
▁1848	-14363
▁진을	-14364
▁포드	-14365
ican	-14366
▁구단의	-14367
▁공개했다	-14368
신에	-14369
쿠버	-14370
해튼	-14371
▁난을	-14372
▁용암	-14373
▁충성	-14374
▁기관총	-14375
▁비하여	-14376
▁작업이	-14377
▁제도는	-14378
▁선수단은	-14379
▁커뮤니케이션	-14380
네마	-14381
▁곤란	-14382
▁상인	-14383
▁현금	-14384
노스케	-14385
▁서쪽은	-14386
▁소문이	-14387
▁시청률	-14388
▁역사와	-14389
▁작성한	-14390
▁쿤	-14391
수소	-14392
▁탄도	-14393
▁Res	-14394
▁경제의	-14395
▁높이가	-14396
▁대신해	-14397
▁장소로	-14398
▁마을에서	-14399
▁야마구치	-14400
▁인정하는	-14401
▁북아일랜드	-14402
닐라	-14403
야에	-14404
체계	-14405
_19	-14406
▁경연	-14407
▁고창	-14408
▁늑대	-14409
▁서적	-14410
▁이방	-14411
▁총장	-14412
▁허위	-14413
▁서식지	-14414
▁콤팩트	-14415
▁허가를	-14416
▁개봉되었다	-14417
슬레	-14418
콜라	-14419
▁견인	-14420
▁김원	-14421
▁믿는	-14422
▁직장	-14423
들었다	-14424
▁음악적	-14425
▁자기의	-14426
▁한민족	-14427
▁1888	-14428
▁받으면서	-14429
▁일이었다	-14430
▁프로그램으로	-14431
~1	-14432
법상	-14433
유지	-14434
▁김구	-14435
▁맞대	-14436
▁비영	-14437
▁약혼	-14438
▁유라	-14439
▁체크	-14440
▁컴백	-14441
▁현종	-14442
도르프	-14443
판에서	-14444
했음을	-14445
▁조성된	-14446
▁구해	-14447
▁복소	-14448
▁성이	-14449
▁예하	-14450
▁합친	-14451
만명의	-14452
▁서재필	-14453
▁선출된	-14454
▁일본국	-14455
▁부근에서	-14456
▁생겨났다	-14457
▁천연기념	-14458
▁가자	-14459
▁산지	-14460
▁수녀	-14461
▁숙청	-14462
▁즐길	-14463
▁방향에	-14464
▁발생하여	-14465
▁어드벤처	-14466
▁인터페이	-14467
원자	-14468
oon	-14469
▁92	-14470
개월간	-14471
▁경찰이	-14472
▁아마존	-14473
▁내용이다	-14474
병은	-14475
호텔	-14476
ott	-14477
ref	-14478
상규명	-14479
업으로	-14480
▁대표는	-14481
▁물질이	-14482
▁이해할	-14483
▁전기의	-14484
▁크라이	-14485
▁클레멘	-14486
▁포스터	-14487
▁단계에서	-14488
▁사용되지	-14489
▁일어나고	-14490
유도	-14491
형인	-14492
▁바나	-14493
▁영산	-14494
▁최진	-14495
▁김정은	-14496
▁열차의	-14497
▁중국인	-14498
▁함경남도	-14499
세르	-14500
▁창출	-14501
▁추첨	-14502
마스터	-14503
직으로	-14504
키아의	-14505
▁논란을	-14506
▁오로지	-14507
▁도시에서	-14508
HC	-14509
▁이건	-14510
▁조광	-14511
▁평을	-14512
글라데	-14513
▁가을에	-14514
▁바꾸고	-14515
▁카드를	-14516
킬로미터	-14517
로프	-14518
▁3)	-14519
▁팀과	-14520
속에서	-14521
해졌고	-14522
▁사전에	-14523
▁의혹이	-14524
▁절차를	-14525
미네	-14526
자르	-14527
철학	-14528
하와	-14529
▁음료	-14530
ille	-14531
▁시험을	-14532
▁적용되었다	-14533
RI	-14534
산물	-14535
작인	-14536
칼리	-14537
▁IM	-14538
▁가맹	-14539
▁대패	-14540
▁앞의	-14541
▁선택할	-14542
▁소련은	-14543
▁순으로	-14544
▁싸우는	-14545
▁천문학자	-14546
세다	-14547
▁만료	-14548
▁보라	-14549
▁쓰레	-14550
▁누구나	-14551
▁마라톤	-14552
▁목성의	-14553
▁물체의	-14554
▁미래의	-14555
▁바꾸는	-14556
▁아키텍	-14557
pt	-14558
▁쥬	-14559
▁자칭	-14560
위이다	-14561
▁가지로	-14562
▁암호화	-14563
▁사용하기도	-14564
▁합스부르크	-14565
발사	-14566
킨스	-14567
▁막시	-14568
▁사서	-14569
▁유동	-14570
ited	-14571
▁Day	-14572
▁묘사한	-14573
▁알렉산드르	-14574
노에	-14575
철이	-14576
훈을	-14577
▁00	-14578
▁대명	-14579
▁Part	-14580
▁가정에서	-14581
▁미사일을	-14582
▁이전까지	-14583
신인	-14584
애틀	-14585
풀이	-14586
▁다테	-14587
▁마인	-14588
▁면허	-14589
▁모셔	-14590
▁전지	-14591
▁해남	-14592
▁검은색	-14593
▁구간의	-14594
▁조사에	-14595
▁1893	-14596
▁방면으로	-14597
근의	-14598
-14	-14599
CAF	-14600
▁공천	-14601
▁광양	-14602
▁동조	-14603
▁생식	-14604
▁파동	-14605
▁헬리	-14606
▁메달을	-14607
▁손해배	-14608
▁연구와	-14609
▁위주로	-14610
▁인류의	-14611
▁파리의	-14612
▁홍콩의	-14613
▁시즌부터	-14614
▁야마가타	-14615
시한	-14616
장로	-14617
New	-14618
▁83	-14619
▁무척	-14620
▁받았다고	-14621
조부	-14622
▁군산	-14623
▁수색	-14624
▁옵션	-14625
▁음원	-14626
▁학원	-14627
리조나	-14628
▁독일에	-14629
▁않아서	-14630
▁중심에	-14631
▁나타나고	-14632
▁하느님의	-14633
운을	-14634
▁급성	-14635
▁다름	-14636
▁당원	-14637
▁부도	-14638
▁종을	-14639
브리엘	-14640
▁동쪽의	-14641
▁미네소타	-14642
bur	-14643
▁내정	-14644
▁맺어	-14645
▁시정	-14646
▁은거	-14647
▁이현	-14648
▁회화	-14649
Fran	-14650
▁마르코	-14651
▁상황은	-14652
▁토지를	-14653
▁이용된다	-14654
▁학생들을	-14655
러드	-14656
채는	-14657
취를	-14658
▁93	-14659
▁태백	-14660
▁다케다	-14661
▁이라고	-14662
▁전략을	-14663
▁헌법에	-14664
박물관에	-14665
Ge	-14666
기동	-14667
절이	-14668
▁끌고	-14669
▁발의	-14670
▁유비	-14671
▁협조	-14672
차례의	-14673
학교의	-14674
▁긴테쓰	-14675
▁로마에	-14676
▁비용이	-14677
▁남북으로	-14678
▁수록예정자	-14679
▁슬로베니아	-14680
야스	-14681
▁세기	-14682
▁어둠	-14683
▁워크	-14684
▁해고	-14685
들보다	-14686
제에서	-14687
▁데스크	-14688
▁위원회의	-14689
▁기록되었다	-14690
찬을	-14691
▁내무	-14692
▁우정	-14693
▁워너	-14694
▁테르	-14695
각형의	-14696
밀하게	-14697
▁벵	-14698
링턴	-14699
str	-14700
▁박지	-14701
▁방송되는	-14702
▁이전부터	-14703
츠크	-14704
▁다를	-14705
▁회피	-14706
▁이상한	-14707
▁1868	-14708
▁동일하게	-14709
▁운영되고	-14710
include	-14711
드릭	-14712
토와	-14713
ret	-14714
▁김유	-14715
▁캠페	-14716
▁못하여	-14717
▁용어이다	-14718
분과	-14719
성인	-14720
업의	-14721
집의	-14722
▁닫힌	-14723
▁중퇴	-14724
쪽에는	-14725
▁소나무	-14726
는가	-14727
티가	-14728
▁계수	-14729
▁조류	-14730
▁초월	-14731
▁인접해	-14732
▁흐름을	-14733
▁활동하다가	-14734
EM	-14735
시킴	-14736
액이	-14737
▁광명	-14738
▁돌고	-14739
▁마녀	-14740
▁추종	-14741
▁크롬	-14742
▁극심한	-14743
▁기반한	-14744
▁선수의	-14745
▁의혹을	-14746
▁점수를	-14747
▁수단으로	-14748
▁샀	-14749
▁찐	-14750
알라	-14751
▁탐구	-14752
▁풍자	-14753
ator	-14754
▁그곳에	-14755
▁에디션	-14756
▁상관없이	-14757
▁체코슬로바키아	-14758
표가	-14759
▁진실	-14760
▁촉매	-14761
협회는	-14762
▁당하고	-14763
▁동쪽은	-14764
▁사랑에	-14765
▁서쪽의	-14766
▁올바른	-14767
▁자체의	-14768
▁기념하여	-14769
▁콰	-14770
편은	-14771
_14	-14772
~15	-14773
▁사바	-14774
▁소말	-14775
▁수축	-14776
▁장흥	-14777
자리의	-14778
▁기간이	-14779
▁주연을	-14780
남부	-14781
▁아날	-14782
▁연소	-14783
▁장미	-14784
▁천재	-14785
학적인	-14786
▁도왔다	-14787
▁필리프	-14788
▁프로젝트의	-14789
▁과반	-14790
▁배려	-14791
▁오류	-14792
석에서	-14793
이었을	-14794
▁베토벤	-14795
▁시즌은	-14796
▁운행하고	-14797
장사	-14798
표는	-14799
▁가솔	-14800
▁궁궐	-14801
▁데서	-14802
▁그렸다	-14803
▁미주리	-14804
▁오늘날에는	-14805
▁해체되었다	-14806
광을	-14807
아트	-14808
~16	-14809
당하여	-14810
▁모두를	-14811
▁버전을	-14812
▁앨범에	-14813
▁위험이	-14814
▁접근할	-14815
▁종교의	-14816
ision	-14817
정상	-14818
창한	-14819
mon	-14820
▁기기	-14821
▁라그	-14822
▁상경	-14823
▁확신	-14824
▁다양체	-14825
▁카스티	-14826
▁트로이	-14827
▁기여하였다	-14828
쉽게	-14829
▁LA	-14830
▁내어	-14831
▁듀얼	-14832
▁선로	-14833
▁천거	-14834
▁최성	-14835
▁치고	-14836
▁투명	-14837
▁피를	-14838
▁모시고	-14839
▁싸움을	-14840
▁국가대표팀에	-14841
(9	-14842
난을	-14843
날레	-14844
들리	-14845
무는	-14846
비오	-14847
ert	-14848
▁박종	-14849
avid	-14850
▁길이의	-14851
▁내리는	-14852
▁분리된	-14853
▁불규칙	-14854
▁표현할	-14855
▁그레이트	-14856
▁삼층석탑	-14857
▁여객철도의	-14858
gh	-14859
하키	-14860
▁누적	-14861
▁파손	-14862
▁현행	-14863
▁휴전	-14864
▁가상의	-14865
▁교통의	-14866
▁막부의	-14867
▁머리에	-14868
▁생산된	-14869
▁잡아먹	-14870
▁현상은	-14871
점인	-14872
팀에	-14873
▁경희	-14874
▁아산	-14875
▁양을	-14876
▁장사	-14877
▁힘썼	-14878
▁수도를	-14879
▁의무를	-14880
▁자랐다	-14881
▁지원하고	-14882
▁10,000	-14883
~7	-14884
▁뻔	-14885
개에	-14886
기둥	-14887
린을	-14888
설은	-14889
▁동문	-14890
▁동학	-14891
▁입구	-14892
▁축조	-14893
▁하반	-14894
▁사라진	-14895
▁하이드	-14896
개국에서	-14897
▁방문하여	-14898
vel	-14899
▁사리	-14900
▁동대문	-14901
▁면이다	-14902
▁생각이	-14903
▁우승했다	-14904
/3	-14905
NU	-14906
더의	-14907
통상	-14908
피에	-14909
▁캐서	-14910
년대와	-14911
컴퓨터	-14912
▁가사를	-14913
▁북쪽은	-14914
▁웨스턴	-14915
▁케임브리지	-14916
EX	-14917
RO	-14918
▁an	-14919
▁손실	-14920
년에도	-14921
▁제시한	-14922
▁헤르체고	-14923
▁International	-14924
▁얕	-14925
▁리보	-14926
▁석회	-14927
▁원조	-14928
▁Tra	-14929
▁겉보기	-14930
▁국가와	-14931
▁아폴로	-14932
▁하도록	-14933
▁벨기에의	-14934
▁(1	-14935
▁04	-14936
▁넷째	-14937
▁대북	-14938
▁뾰족	-14939
▁수령	-14940
▁터치	-14941
▁80%	-14942
▁십자군	-14943
▁앨범인	-14944
▁제도에	-14945
▁혼란을	-14946
▁필요성을	-14947
능한	-14948
유사	-14949
▁경에	-14950
▁농장	-14951
▁다크	-14952
▁대부	-14953
▁둔다	-14954
▁원의	-14955
▁풍속	-14956
▁문제와	-14957
▁스테이	-14958
▁영지를	-14959
국제공항	-14960
▁발견되지	-14961
▁하였지만	-14962
망의	-14963
▁he	-14964
▁모자	-14965
물리학	-14966
제도를	-14967
쥐과에	-14968
▁나라가	-14969
▁사이토	-14970
▁스즈키	-14971
▁언급했다	-14972
▁고려시대의	-14973
리던	-14974
상업	-14975
▁기회	-14976
▁청춘	-14977
▁타자	-14978
▁평론가	-14979
▁플래시	-14980
AI	-14981
PD	-14982
티드	-14983
포와	-14984
▁니코	-14985
▁우측	-14986
▁자아	-14987
▁쾰른	-14988
▁타당	-14989
관계가	-14990
세였다	-14991
▁말미암	-14992
▁싸웠다	-14993
▁열차를	-14994
▁지휘를	-14995
▁태국의	-14996
▁파란색	-14997
▁100%	-14998
▁고려하여	-14999
▁늘어났다	-15000
▁방글라데	-15001
▁스톡홀름	-15002
▁알래스카	-15003
▁작가이다	-15004
번이	-15005
운이	-15006
▁단식	-15007
부에는	-15008
▁말부터	-15009
▁쓰여진	-15010
▁엔진이	-15011
▁도착했다	-15012
▁으	-15013
직할	-15014
태를	-15015
-13	-15016
▁서포	-15017
▁읽고	-15018
▁다이어	-15019
▁언론에	-15020
▁가르쳤다	-15021
▁가나가와현	-15022
_16	-15023
▁봉기	-15024
▁원격	-15025
▁전함	-15026
▁출가	-15027
▁고대의	-15028
▁말까지	-15029
▁서울에	-15030
▁새누리당	-15031
▁자료이다	-15032
CS	-15033
득점	-15034
스기	-15035
지오	-15036
▁li	-15037
▁공습	-15038
▁몸의	-15039
▁부총	-15040
▁왼손	-15041
왕으로	-15042
▁구하는	-15043
계에서는	-15044
ensis	-15045
▁형성하는	-15046
바퀴	-15047
중종	-15048
타워	-15049
▁김명	-15050
▁부각	-15051
▁슈트	-15052
▁죽인	-15053
▁지쿠	-15054
▁체인	-15055
스트가	-15056
(189	-15057
▁1,2	-15058
강은	-15059
롭고	-15060
만년	-15061
의학	-15062
창의	-15063
mun	-15064
▁가늘	-15065
▁감금	-15066
▁경질	-15067
▁고소	-15068
▁생체	-15069
▁영업을	-15070
▁장면이	-15071
▁변경했다	-15072
▁수행한다	-15073
▁출연하여	-15074
러를	-15075
▁도미	-15076
▁때려	-15077
▁화순	-15078
▁2-0	-15079
▁가져온	-15080
▁와이번	-15081
주의적인	-15082
▁노래이다	-15083
Sc	-15084
▁낫	-15085
복의	-15086
초로	-15087
▁번성	-15088
▁키가	-15089
▁CBS	-15090
▁보존되어	-15091
▁주관하는	-15092
aj	-15093
년생	-15094
년제	-15095
▁날이	-15096
▁노면	-15097
▁미친	-15098
▁산성	-15099
▁의결	-15100
▁장안	-15101
▁코코	-15102
▁제목은	-15103
▁담당한다	-15104
▁시기에는	-15105
▁에콰도르	-15106
제곱	-15107
질러	-15108
▁이완	-15109
▁증대	-15110
▁안전한	-15111
▁조정의	-15112
▁토스카	-15113
▁선수들은	-15114
▁싣	-15115
ics	-15116
▁(2	-15117
▁갖지	-15118
▁노조	-15119
▁어쩔	-15120
▁차를	-15121
▁출판되었다	-15122
▁고산	-15123
▁방침	-15124
▁부재	-15125
▁이타	-15126
하기가	-15127
▁따뜻한	-15128
▁문화와	-15129
▁사태가	-15130
Ne	-15131
▁냈	-15132
전국	-15133
▁개를	-15134
▁불린	-15135
▁얇은	-15136
▁요약	-15137
illa	-15138
▁간신히	-15139
▁법무부	-15140
▁오르는	-15141
루냐	-15142
▁연인	-15143
▁바뀌어	-15144
덴부르크	-15145
▁1886	-15146
▁요청했다	-15147
▁데뷔하였으며	-15148
▁낚	-15149
분해	-15150
▁상해	-15151
▁오로	-15152
▁콜라	-15153
▁헬싱	-15154
호선은	-15155
▁가리지	-15156
▁사거리	-15157
▁신학자	-15158
▁주위의	-15159
카리	-15160
티아의	-15161
▁갈등이	-15162
▁완성된	-15163
▁유학생	-15164
어족	-15165
▁늦게	-15166
▁다마	-15167
갔다가	-15168
헝가리	-15169
▁지키기	-15170
▁행동에	-15171
▁관계없이	-15172
▁이용해서	-15173
▁선임되었다	-15174
개미	-15175
묘한	-15176
▁고사	-15177
▁나은	-15178
▁소통	-15179
▁똑같이	-15180
▁미치지	-15181
▁시간의	-15182
▁해군은	-15183
졌기	-15184
mus	-15185
▁Of	-15186
▁토끼	-15187
▁무렵에	-15188
▁여성을	-15189
▁인테르	-15190
▁발견되어	-15191
읍에	-15192
lin	-15193
▁상행	-15194
▁일간	-15195
▁중엽	-15196
해야만	-15197
▁가격이	-15198
▁바다에	-15199
▁심하게	-15200
▁주제를	-15201
▁코치를	-15202
명이었다	-15203
▁내부에서	-15204
▁역사에서	-15205
▁한편으로	-15206
▁체포되었다	-15207
韓國	-15208
업체	-15209
현실	-15210
▁데카	-15211
▁되던	-15212
▁요동	-15213
▁죽게	-15214
▁220	-15215
▁방법에	-15216
▁지역인	-15217
▁판매를	-15218
▁거부했다	-15219
▁인디애나	-15220
복음	-15221
요의	-15222
티시	-15223
▁동국	-15224
▁섬과	-15225
▁포착	-15226
▁해가	-15227
게이트	-15228
▁동부에	-15229
▁시장의	-15230
▁클럽의	-15231
▁통치를	-15232
▁한국과	-15233
놀이	-15234
▁강풍	-15235
▁이렇	-15236
▁타협	-15237
명에서	-15238
port	-15239
▁국민당	-15240
▁크레이	-15241
▁퍼포먼	-15242
▁스크린도	-15243
▁조별리그	-15244
밀히	-15245
재산	-15246
티코	-15247
▁겹쳐	-15248
▁공이	-15249
▁대마	-15250
▁밀리	-15251
▁비치	-15252
오스트	-15253
▁내용에	-15254
▁수도로	-15255
▁영국이	-15256
▁표현이	-15257
▁에너지가	-15258
▁헥	-15259
부작	-15260
지부	-15261
▁다툼	-15262
▁이빨	-15263
▁키스	-15264
회사로	-15265
▁균형을	-15266
▁나라에	-15267
▁혁명을	-15268
▁단독으로	-15269
▁국회의원을	-15270
면적	-15271
병과	-15272
▁자크	-15273
▁항목	-15274
다람쥐	-15275
▁레스토	-15276
▁전투의	-15277
▁초창기	-15278
▁독창	-15279
▁벌여	-15280
▁직통	-15281
▁진해	-15282
▁칼럼	-15283
▁피의	-15284
▁복소수	-15285
▁바르샤바	-15286
발은	-15287
▁다투	-15288
▁산둥	-15289
▁휩쓸	-15290
▁그보다	-15291
▁서울로	-15292
主義	-15293
승의	-15294
영국	-15295
ode	-15296
▁레온	-15297
▁흐르고	-15298
▁애리조나	-15299
배가	-15300
진군	-15301
▁델타	-15302
▁불참	-15303
▁지류	-15304
▁퇴적	-15305
▁화를	-15306
▁드디어	-15307
▁소련이	-15308
▁유형의	-15309
▁컨트리	-15310
세기에는	-15311
▁발표하고	-15312
▁은퇴했다	-15313
▁영화제에서	-15314
▁전국적으로	-15315
퍼는	-15316
해석	-15317
▁기수	-15318
▁대행	-15319
▁절차	-15320
▁서대문	-15321
▁왔으며	-15322
▁일하고	-15323
▁조지프	-15324
rag	-15325
▁차체	-15326
▁도널드	-15327
▁애비뉴	-15328
▁서울특별시의	-15329
니오	-15330
당인	-15331
ael	-15332
▁결별	-15333
▁조세	-15334
▁조형	-15335
▁춤을	-15336
▁터보	-15337
▁표본	-15338
심으로	-15339
팀으로	-15340
▁순위를	-15341
▁미래통합	-15342
▁활발하게	-15343
화할	-15344
▁생일	-15345
▁실존	-15346
▁안나	-15347
▁유식	-15348
▁장덕	-15349
▁헌정	-15350
났지만	-15351
▁도입한	-15352
▁리그인	-15353
▁시코쿠	-15354
▁대대적인	-15355
▁성적으로	-15356
▁진행했다	-15357
근이	-15358
유예	-15359
▁폭행	-15360
하게도	-15361
▁NGC	-15362
▁시애틀	-15363
▁협력을	-15364
▁오케스트라	-15365
시카	-15366
쓰마	-15367
애니	-15368
염을	-15369
▁성리	-15370
▁시노	-15371
▁흥미	-15372
터에서	-15373
▁떨어뜨	-15374
▁알프레	-15375
▁노선으로	-15376
▁압도적인	-15377
NG	-15378
아라	-15379
어인	-15380
▁결선	-15381
▁긴장	-15382
▁베른	-15383
▁파산	-15384
교에서	-15385
대통령	-15386
연으로	-15387
▁보고서	-15388
▁다양하게	-15389
▁다이아몬드	-15390
네르	-15391
▁원숭	-15392
▁장을	-15393
▁조국	-15394
▁티켓	-15395
▁히사	-15396
▁결정에	-15397
▁대대로	-15398
▁민간인	-15399
▁힘으로	-15400
▁1891	-15401
▁설명하고	-15402
▁클라우드	-15403
▁명명되었다	-15404
▁`	-15405
가게	-15406
박물	-15407
원인	-15408
rit	-15409
▁겪고	-15410
▁듣지	-15411
▁명은	-15412
▁부시	-15413
▁빌라	-15414
▁가르침	-15415
▁지키고	-15416
▁사람들과	-15417
OK	-15418
▁뷔	-15419
▁vs	-15420
▁링크	-15421
▁전격	-15422
▁점수	-15423
어머니	-15424
▁독일군	-15425
▁상처를	-15426
▁스포르	-15427
▁왕실의	-15428
▁인간은	-15429
▁전국의	-15430
▁제정된	-15431
▁제한된	-15432
사르	-15433
수지	-15434
옆면	-15435
_20	-15436
lex	-15437
▁전래	-15438
▁충전	-15439
년도에	-15440
▁그룹을	-15441
▁제출한	-15442
▁맘	-15443
교사	-15444
_17	-15445
▁김광	-15446
▁시합	-15447
▁이양	-15448
▁청산	-15449
에너지	-15450
▁독일인	-15451
▁되도록	-15452
▁컴퓨팅	-15453
▁1887	-15454
▁값은	-15455
▁다저	-15456
▁우의	-15457
▁이이	-15458
▁Ins	-15459
▁경쟁을	-15460
▁동유럽	-15461
▁비주얼	-15462
▁소재의	-15463
▁따라서는	-15464
▁부르고뉴	-15465
▁샐	-15466
강한	-15467
▁내걸	-15468
▁상응	-15469
▁War	-15470
▁가족과	-15471
▁승리에	-15472
▁아키타	-15473
▁열대폭	-15474
▁선수들의	-15475
▁점령했다	-15476
▁콘크리트	-15477
원수	-15478
▁바에	-15479
▁방콕	-15480
▁압력	-15481
부리그	-15482
순위로	-15483
정부가	-15484
▁90%	-15485
▁USS	-15486
▁기업이	-15487
▁별자리	-15488
▁정도에	-15489
▁케네디	-15490
▁Fran	-15491
▁병원에서	-15492
▁정당이다	-15493
▁후지와라노	-15494
],	-15495
공화	-15496
만인	-15497
▁고기	-15498
▁막는	-15499
▁입헌	-15500
▁집어	-15501
시간이	-15502
▁것이나	-15503
▁수용할	-15504
▁시도를	-15505
▁추구하는	-15506
▁우즈베키스탄	-15507
랑카	-15508
▁입지	-15509
▁전수	-15510
지었다	-15511
▁생긴다	-15512
▁젊은이	-15513
▁친구인	-15514
▁발견하고	-15515
▁뱅	-15516
▁흠	-15517
노래	-15518
니코	-15519
▁고원	-15520
▁아메	-15521
▁카카	-15522
능력을	-15523
지지만	-15524
▁건조한	-15525
▁득표율	-15526
▁안티오	-15527
▁함수를	-15528
▁간주된다	-15529
▁공격하는	-15530
▁형사소송법	-15531
가장	-15532
노를	-15533
덕왕	-15534
영조	-15535
ari	-15536
▁Ne	-15537
▁경작	-15538
▁배속	-15539
▁입주	-15540
레이트	-15541
▁서부에	-15542
▁하나다	-15543
▁한계를	-15544
erson	-15545
▁오클랜드	-15546
▁흥선대원	-15547
▁수여받았다	-15548
예수	-15549
토록	-15550
▁요충	-15551
▁정하고	-15552
▁기간동안	-15553
▁내에서는	-15554
▁토착종이다	-15555
▁프로젝트는	-15556
▁명목	-15557
▁묶어	-15558
▁정성	-15559
▁투항	-15560
▁남동생	-15561
▁세포의	-15562
▁시에는	-15563
▁캐릭터를	-15564
▁수록되었다	-15565
셨다	-15566
와도	-15567
자고	-15568
한은	-15569
▁실버	-15570
▁양육	-15571
▁오크	-15572
▁펜싱	-15573
▁마오쩌	-15574
▁맨해튼	-15575
▁알파벳	-15576
▁관해서는	-15577
▁국무총리	-15578
사한	-15579
▁구형	-15580
▁찬양	-15581
테리아	-15582
하겠다	-15583
▁All	-15584
▁금요일	-15585
▁열심히	-15586
▁정책은	-15587
▁조반니	-15588
추진	-15589
▁벽돌	-15590
▁상담	-15591
▁평평	-15592
회의를	-15593
▁난카이	-15594
▁마르틴	-15595
▁성으로	-15596
▁이용객	-15597
▁항공모함	-15598
▁활동하던	-15599
▁박사학위를	-15600
웠던	-15601
▁91	-15602
▁상법	-15603
▁카시	-15604
부분에	-15605
▁논쟁이	-15606
▁명확한	-15607
▁조직은	-15608
▁스튜디오에서	-15609
검은	-15610
림은	-15611
암의	-15612
600	-15613
▁루시	-15614
▁별세	-15615
▁원천	-15616
span	-15617
▁받아야	-15618
▁부드럽	-15619
▁성향의	-15620
▁조약이	-15621
▁강조했다	-15622
▁에스페란	-15623
▁영화에서	-15624
▁팔레스타인	-15625
▁몰수	-15626
▁반격	-15627
▁발령	-15628
▁승점	-15629
▁충북	-15630
▁치른	-15631
▁목소리	-15632
▁반응이	-15633
▁신화에	-15634
▁전당에	-15635
▁전신인	-15636
▁전통적	-15637
▁클럽인	-15638
▁행성이	-15639
▁1866	-15640
▁그룹으로	-15641
」,	-15642
나시	-15643
름의	-15644
▁강은	-15645
▁랴오	-15646
▁미륵	-15647
▁부에	-15648
▁예는	-15649
▁형인	-15650
▁고양시	-15651
▁내각의	-15652
▁도로를	-15653
▁사상은	-15654
▁왕가의	-15655
ution	-15656
▁한국철도	-15657
▁실시되었다	-15658
▁앰	-15659
▁엇	-15660
락의	-15661
서스	-15662
▁바꿀	-15663
▁이득	-15664
▁대화를	-15665
▁월요일	-15666
▁종목은	-15667
▁동치이다	-15668
▁살아있는	-15669
:2	-15670
리사	-15671
보와	-15672
사유	-15673
▁데모	-15674
▁미상	-15675
▁봄에	-15676
▁전이	-15677
가지가	-15678
▁판매하는	-15679
▁개통되었다	-15680
')	-15681
랑을	-15682
언론	-15683
일기	-15684
▁고토	-15685
▁단층	-15686
▁면이	-15687
▁문과	-15688
▁음향	-15689
▁이븐	-15690
▁코카	-15691
▁포수	-15692
나라가	-15693
▁구역은	-15694
▁보낸다	-15695
▁하루에	-15696
년대까지	-15697
▁단체이다	-15698
▁원인으로	-15699
▁소프트웨어를	-15700
워서	-15701
▁Gu	-15702
▁것일	-15703
▁국적	-15704
▁궁전	-15705
▁명사	-15706
▁성곽	-15707
바야시	-15708
테이너	-15709
raph	-15710
▁가족을	-15711
▁사항을	-15712
▁작성된	-15713
▁격투	-15714
▁저널	-15715
▁적어	-15716
개국이	-15717
▁유럽과	-15718
▁일어나지	-15719
▁허리케인	-15720
▁정기적으로	-15721
렉션	-15722
ena	-15723
▁나를	-15724
▁삼척	-15725
▁정작	-15726
연합회	-15727
▁3.1	-15728
▁모니터	-15729
▁무소속	-15730
▁정의는	-15731
▁그녀에게	-15732
▁출발하여	-15733
되나	-15734
비용	-15735
타고	-15736
▁바꿨	-15737
▁차로	-15738
로이드	-15739
▁단체의	-15740
▁마을이	-15741
▁뉴욕에서	-15742
EE	-15743
나기	-15744
복합	-15745
▁상급	-15746
▁스노	-15747
▁중공	-15748
▁파기	-15749
대회를	-15750
▁아이가	-15751
▁않아도	-15752
▁프레데	-15753
고등법원	-15754
▁아날로그	-15755
▁사용되기도	-15756
▁선수단이다	-15757
▁업그레이드	-15758
독한	-15759
▁SU	-15760
▁대영	-15761
▁시부	-15762
▁우회	-15763
▁유의	-15764
▁전무	-15765
당한다	-15766
▁그룹이	-15767
▁당대의	-15768
▁죽음에	-15769
받았으며	-15770
진상규명	-15771
▁설립하여	-15772
▁전까지는	-15773
▁×	-15774
농업	-15775
안과	-15776
ean	-15777
uck	-15778
▁고쿠	-15779
가능한	-15780
▁생겨난	-15781
▁참여할	-15782
▁축구를	-15783
▁생물학적	-15784
▁시리즈에	-15785
▁옥스퍼드	-15786
▁증가하고	-15787
▁1,500	-15788
OT	-15789
록을	-15790
alk	-15791
rin	-15792
▁딸이	-15793
▁상공	-15794
▁신동	-15795
only	-15796
▁공간은	-15797
▁플라이	-15798
▁공백	-15799
▁서임	-15800
▁수양	-15801
▁첨단	-15802
색이다	-15803
▁수학적	-15804
▁극장에서	-15805
▁6,	-15806
▁가산	-15807
▁오아	-15808
▁유목	-15809
났는데	-15810
자라고	-15811
orth	-15812
▁주도한	-15813
▁붙여졌다	-15814
▁궁정	-15815
▁렌즈	-15816
▁솟아	-15817
▁제너	-15818
▁호프	-15819
▁사건과	-15820
▁영역에	-15821
▁이름과	-15822
▁정하는	-15823
▁중국은	-15824
▁토리노	-15825
박쥐과에	-15826
▁로마에서	-15827
▁성장하였다	-15828
기갑	-15829
머는	-15830
urn	-15831
▁대각	-15832
▁이닝	-15833
▁히라	-15834
▁API	-15835
▁도쿄에서	-15836
▁않았다는	-15837
▁플레이어가	-15838
에미	-15839
▁at	-15840
▁입양	-15841
▁점과	-15842
▁함양	-15843
▁양자로	-15844
▁인공지능	-15845
▁입학하여	-15846
~8	-15847
나에	-15848
세력	-15849
▁간략	-15850
▁공수	-15851
▁방치	-15852
▁씨앗	-15853
▁윌슨	-15854
▁일기	-15855
▁토크	-15856
▁글로브	-15857
▁도시인	-15858
▁역할은	-15859
▁유력한	-15860
▁충청도	-15861
과정에서	-15862
)-	-15863
련된	-15864
카쓰	-15865
▁갑옷	-15866
▁브랜	-15867
▁전전	-15868
▁조인	-15869
▁호크	-15870
▁뉴캐슬	-15871
▁분석을	-15872
▁세금을	-15873
▁1863	-15874
▁경기장으로	-15875
바둑	-15876
세손	-15877
▁그저	-15878
▁문하	-15879
▁보증	-15880
▁1,0	-15881
▁장애인	-15882
▁중국을	-15883
▁해병대	-15884
▁만들었고	-15885
구간	-15886
솔리	-15887
정권	-15888
▁노란	-15889
▁류큐	-15890
▁일일	-15891
▁잃게	-15892
▁자산	-15893
▁하비	-15894
블랜드	-15895
over	-15896
▁무궁화	-15897
▁출판된	-15898
RC	-15899
부아	-15900
요를	-15901
▁CM	-15902
▁병이	-15903
▁치세	-15904
▁미군의	-15905
▁미야기	-15906
▁부대의	-15907
▁약속을	-15908
▁용인시	-15909
▁인증을	-15910
▁설립되어	-15911
ym	-15912
마귀	-15913
▁드는	-15914
▁스칸	-15915
▁유가	-15916
▁종군	-15917
▁주입	-15918
▁차출	-15919
▁하치	-15920
그룹의	-15921
내었다	-15922
데이터	-15923
만원을	-15924
▁MTV	-15925
▁각지의	-15926
▁권위를	-15927
▁노르망	-15928
▁대단히	-15929
▁시작할	-15930
▁언론인	-15931
위원회에	-15932
▁음반으로	-15933
집은	-15934
▁Qu	-15935
▁모의	-15936
▁어찌	-15937
▁휴식	-15938
▁병원에	-15939
▁증상이	-15940
▁행하는	-15941
▁간격으로	-15942
▁선수였다	-15943
변호	-15944
속도	-15945
준을	-15946
▁be	-15947
▁박성	-15948
▁살게	-15949
▁쪽에	-15950
음보살	-15951
정부는	-15952
▁예컨대	-15953
▁유지하기	-15954
▁일본군의	-15955
▁경상북도의	-15956
▁大	-15957
야와	-15958
포시	-15959
enc	-15960
▁by	-15961
▁대역	-15962
▁루카	-15963
▁리바	-15964
▁세라	-15965
▁헌신	-15966
관계에	-15967
운동장	-15968
위까지	-15969
▁목적이	-15970
▁정의를	-15971
▁한편으로는	-15972
라리	-15973
민과	-15974
티넘	-15975
▁공방	-15976
▁이겨	-15977
▁좌측	-15978
▁달라고	-15979
▁생방송	-15980
▁제국과	-15981
▁프란치	-15982
▁협정을	-15983
대학교를	-15984
▁1881	-15985
▁필리핀의	-15986
▁다나카	-15987
▁처분을	-15988
네티	-15989
증권	-15990
▁다듬	-15991
▁부유	-15992
▁옮긴	-15993
▁추서	-15994
▁곳곳에	-15995
▁종류는	-15996
▁총리를	-15997
▁1861	-15998
▁주민들의	-15999
▁섀	-16000
_18	-16001
▁새긴	-16002
▁세레	-16003
▁청룡	-16004
펜하겐	-16005
▁도로가	-16006
▁불안정	-16007
▁1864	-16008
▁가브리엘	-16009
마케	-16010
세요	-16011
▁et	-16012
▁경의	-16013
▁광학	-16014
▁남미	-16015
▁마우	-16016
▁세비	-16017
▁앤더	-16018
가이자	-16019
▁규정을	-16020
▁안정된	-16021
▁독자적으로	-16022
▁렉	-16023
"()	-16024
▁EU	-16025
▁Li	-16026
▁떠오	-16027
▁언니	-16028
▁취업	-16029
▁품질	-16030
▁대전의	-16031
▁연합의	-16032
▁유닉스	-16033
▁유리한	-16034
▁자메이	-16035
▁전자의	-16036
▁체계는	-16037
▁혐의를	-16038
▁유아기를	-16039
▁중심지로	-16040
다를	-16041
만화	-16042
사자	-16043
ati	-16044
▁AV	-16045
▁동정	-16046
▁신형	-16047
▁장인	-16048
▁전담	-16049
▁절단	-16050
▁내리고	-16051
▁방사능	-16052
림과	-16053
온을	-16054
▁We	-16055
▁개항	-16056
▁메뉴	-16057
▁후세	-16058
디자인	-16059
▁Med	-16060
▁비영리	-16061
▁하워드	-16062
▁미야자키	-16063
▁사용되어	-16064
▁해당되는	-16065
명종	-16066
천면	-16067
▁부합	-16068
▁살라	-16069
▁선은	-16070
▁이송	-16071
(186	-16072
▁무리를	-16073
▁예전에	-16074
▁해안에	-16075
▁후기에	-16076
▁만들어져	-16077
.6%	-16078
▁배수	-16079
▁비늘	-16080
▁앙골	-16081
▁온건	-16082
▁키르	-16083
공사의	-16084
▁갈리아	-16085
▁공으로	-16086
▁느끼고	-16087
▁대기업	-16088
▁마리의	-16089
▁청동기	-16090
▁회원국	-16091
세기까지	-16092
▁버전으로	-16093
▁스페이스	-16094
고속도로의	-16095
▁설치하였다	-16096
▁진행하였다	-16097
공립	-16098
무의	-16099
통은	-16100
▁송파	-16101
▁저하	-16102
icro	-16103
▁그래도	-16104
▁사헌부	-16105
▁생성된	-16106
▁참가할	-16107
▁케이스	-16108
▁헬리콥	-16109
▁1876	-16110
▁시즈오카	-16111
ations	-16112
령과	-16113
파울	-16114
▁7,	-16115
▁고든	-16116
▁김인	-16117
▁김형	-16118
▁누이	-16119
▁더빙	-16120
▁산시	-16121
▁자란	-16122
▁잠정	-16123
▁접한	-16124
청에서	-16125
▁여겼다	-16126
▁지닌다	-16127
▁키예프	-16128
▁흐른다	-16129
SD	-16130
됐던	-16131
▁복장	-16132
▁산이	-16133
▁제대	-16134
▁찍은	-16135
▁치루	-16136
▁혼성	-16137
스키는	-16138
▁따왔다	-16139
▁자유당	-16140
▁헌법을	-16141
권에서는	-16142
▁스페인어	-16143
▁전반적인	-16144
▁투수이다	-16145
리마	-16146
운의	-16147
▁느린	-16148
▁면제	-16149
http	-16150
▁끼쳤다	-16151
▁디비시	-16152
▁사이로	-16153
▁함수는	-16154
▁작용하는	-16155
조리	-16156
헌법	-16157
▁로버	-16158
▁부평	-16159
▁정선	-16160
▁짧고	-16161
▁명확히	-16162
▁서로의	-16163
▁앨리스	-16164
▁양식의	-16165
▁우려가	-16166
▁위치가	-16167
▁디자인은	-16168
▁임명하였다	-16169
▁형성되었다	-16170
▁팰	-16171
그마	-16172
심과	-16173
코딩	-16174
▁장제	-16175
▁가솔린	-16176
▁조직에	-16177
주식회사	-16178
▁Music	-16179
▁대한민국을	-16180
za	-16181
미나	-16182
출력	-16183
▁수필	-16184
▁위촉	-16185
연대는	-16186
▁기관차	-16187
▁낳는다	-16188
▁당선된	-16189
▁대표가	-16190
▁바탕에	-16191
▁받았던	-16192
▁연이어	-16193
▁위키백과	-16194
▁컴퓨터를	-16195
망에	-16196
MBC	-16197
▁Mc	-16198
▁ac	-16199
▁갤러	-16200
▁검거	-16201
▁격추	-16202
▁모색	-16203
▁아소	-16204
▁쪽은	-16205
우스와	-16206
▁고문을	-16207
▁대표를	-16208
▁장소에	-16209
▁예전에는	-16210
▁작품에서	-16211
▁프리메라	-16212
▁만들어진다	-16213
▁늙	-16214
▁킴	-16215
물인	-16216
약의	-16217
ray	-16218
▁AD	-16219
▁많지	-16220
▁미라	-16221
▁분지	-16222
▁안도	-16223
▁요인	-16224
▁모로코	-16225
▁보내어	-16226
▁어렵게	-16227
▁대한항공	-16228
▁효과적인	-16229
어사	-16230
회관	-16231
▁MB	-16232
▁개헌	-16233
▁저격	-16234
▁출석	-16235
▁하행	-16236
각으로	-16237
론으로	-16238
치에서	-16239
▁모른다	-16240
▁식물의	-16241
▁쓰기도	-16242
▁전화를	-16243
▁주인공으로	-16244
yc	-16245
기본	-16246
느러	-16247
▁나노	-16248
▁어업	-16249
▁우아	-16250
▁의문	-16251
▁차관	-16252
▁헬레	-16253
퍼런스	-16254
▁몬테네	-16255
▁유지할	-16256
▁한국을	-16257
po	-16258
▁릭	-16259
비서	-16260
처는	-16261
▁미키	-16262
▁송신	-16263
▁습윤	-16264
▁유료	-16265
▁현악	-16266
해지자	-16267
▁Ste	-16268
▁가로지	-16269
▁속이다	-16270
▁밝혀지지	-16271
▁앨범으로	-16272
도쿄	-16273
▁가신	-16274
▁김윤	-16275
▁반포	-16276
▁서귀	-16277
▁승무	-16278
▁자작	-16279
▁행진	-16280
▁혼동	-16281
▁견해가	-16282
▁구하기	-16283
▁챌린지	-16284
▁그랑프리	-16285
▁물리치고	-16286
▁여겨지고	-16287
▁적용된다	-16288
▁받아들였다	-16289
▁딕	-16290
유로	-16291
트넘	-16292
히데	-16293
▁SL	-16294
▁리옹	-16295
▁ATP	-16296
▁너무나	-16297
▁천황이	-16298
잉글랜드	-16299
▁들어가게	-16300
▁의미이다	-16301
▁효율적으로	-16302
더가	-16303
보장	-16304
사적	-16305
전대	-16306
크레	-16307
▁금호	-16308
▁방화	-16309
▁선원	-16310
▁원통	-16311
▁인명	-16312
▁철폐	-16313
▁OST	-16314
▁동등한	-16315
▁생명을	-16316
▁외국어	-16317
▁것입니다	-16318
TE	-16319
.4%	-16320
▁우파	-16321
조에서	-16322
하이드	-16323
▁지구가	-16324
▁시작하고	-16325
▁오카야마	-16326
▁클리블랜드	-16327
HL	-16328
감의	-16329
척을	-16330
▁94	-16331
▁백두	-16332
▁야외	-16333
▁중형	-16334
▁클러	-16335
▁어느날	-16336
▁주파수	-16337
▁황제는	-16338
▁무대에서	-16339
▁벨라루스	-16340
▁이번에는	-16341
ww	-16342
데라	-16343
▁대왕	-16344
▁짓는	-16345
▁투여	-16346
▁마르세	-16347
▁손실을	-16348
▁John	-16349
그가	-16350
eck	-16351
▁것의	-16352
▁비엔	-16353
▁주조	-16354
▁카사	-16355
(2012	-16356
CACAF	-16357
▁지배하는	-16358
▁최고인민	-16359
▁개발하였다	-16360
▁향토문화유산	-16361
cus	-16362
▁간이	-16363
▁감수	-16364
▁매체	-16365
▁매킨	-16366
▁선행	-16367
▁des	-16368
▁종래의	-16369
▁영향력이	-16370
▁우루과이	-16371
▁프로세서	-16372
▁하나로서	-16373
▁프란체스코	-16374
정지	-16375
.2%	-16376
las	-16377
lat	-16378
▁공존	-16379
▁농어	-16380
▁인과	-16381
▁정인	-16382
▁정자	-16383
▁포스	-16384
▁1-2	-16385
▁가져다	-16386
▁의문을	-16387
▁정상에	-16388
학자이자	-16389
▁독립적으로	-16390
RS	-16391
몽골	-16392
por	-16393
▁GS	-16394
▁경복	-16395
▁명인	-16396
▁아빠	-16397
▁ABC	-16398
나로	-16399
바리	-16400
인칭	-16401
트레	-16402
▁Ab	-16403
▁Am	-16404
▁사인	-16405
▁앞선	-16406
▁인재	-16407
▁지미	-16408
▁호를	-16409
▁거두며	-16410
▁과도한	-16411
▁노래가	-16412
▁합류했다	-16413
문서	-16414
천년	-16415
키스	-16416
.3%	-16417
▁다윈	-16418
▁후배	-16419
outh	-16420
onlyinclude	-16421
▁모호	-16422
▁천천	-16423
페스트	-16424
▁감옥에	-16425
▁정이다	-16426
▁총리는	-16427
▁정치적으로	-16428
merican	-16429
ull	-16430
▁강대	-16431
▁정려	-16432
▁트란	-16433
▁프론	-16434
▁하르	-16435
자라는	-16436
▁넘어서	-16437
▁대성당	-16438
▁못했던	-16439
▁철학적	-16440
▁표현은	-16441
▁흩어져	-16442
▁청나라의	-16443
▁스트라이커	-16444
여단	-16445
쿠르	-16446
▁마린	-16447
▁복용	-16448
▁자결	-16449
▁전복	-16450
▁채취	-16451
▁파인	-16452
대학의	-16453
메이지	-16454
▁되어야	-16455
▁스테파	-16456
▁음악과	-16457
▁진행을	-16458
(2014	-16459
▁역임했으며	-16460
▁깜	-16461
더를	-16462
▁노이	-16463
▁몽고	-16464
▁샌드	-16465
▁소극	-16466
▁실재	-16467
▁영장	-16468
▁재일	-16469
▁정전	-16470
운동이	-16471
▁기법을	-16472
▁저널리	-16473
▁패배한	-16474
▁말미암아	-16475
▁서비스가	-16476
▁스텔	-16477
▁시직	-16478
▁여인	-16479
▁유타	-16480
▁해왕	-16481
▁모르고	-16482
▁세우는	-16483
▁작전에	-16484
▁장르의	-16485
▁전하고	-16486
▁아이치현	-16487
Ed	-16488
▁#	-16489
선형	-16490
종에	-16491
▁정몽	-16492
▁트렌	-16493
브리아	-16494
(190	-16495
▁분야를	-16496
▁여파로	-16497
▁지리적	-16498
▁지원하기	-16499
▁코펜하겐	-16500
명칭	-16501
세키	-16502
운수	-16503
황의	-16504
회원	-16505
후기	-16506
▁극우	-16507
▁생겼	-16508
▁열을	-16509
스키의	-16510
▁10,	-16511
▁국적을	-16512
▁애틀랜타	-16513
감사	-16514
바위	-16515
불이	-16516
표준	-16517
히게	-16518
ety	-16519
▁관동	-16520
▁기와	-16521
▁연동	-16522
▁지극	-16523
▁칼로	-16524
저기압	-16525
▁부모의	-16526
▁이스탄	-16527
▁어항이다	-16528
▁활동하며	-16529
▁대체되었다	-16530
▁코스타리카	-16531
BI	-16532
www	-16533
▁선동	-16534
▁수락	-16535
▁유혹	-16536
▁해독	-16537
분부터	-16538
▁검사를	-16539
▁급속히	-16540
▁기술적	-16541
▁김옥균	-16542
▁노래로	-16543
▁법칙을	-16544
▁죽음의	-16545
▁중부에	-16546
했습니다	-16547
▁캐나다에서	-16548
벨트	-16549
토로	-16550
▁거창	-16551
▁반감	-16552
▁개인적	-16553
▁단어가	-16554
▁달리는	-16555
▁비롯된	-16556
▁생전에	-16557
▁카메룬	-16558
ublic	-16559
▁강조하는	-16560
▁튼	-16561
궁을	-16562
등과	-16563
사범	-16564
시기	-16565
월을	-16566
포에	-16567
tif	-16568
▁극락	-16569
▁단원	-16570
▁차츰	-16571
▁포터	-16572
▁학과	-16573
화하기	-16574
▁주민의	-16575
▁발표하여	-16576
분간	-16577
시경	-16578
태수	-16579
▁di	-16580
▁느낄	-16581
▁현직	-16582
▁가리는	-16583
▁부인은	-16584
▁효고현	-16585
▁1873	-16586
▁국내에서	-16587
▁대항하여	-16588
▁전해지는	-16589
▁통과하는	-16590
GA	-16591
미치	-16592
방과	-16593
▁Pe	-16594
▁국한	-16595
▁기고	-16596
▁작다	-16597
▁프렌	-16598
▁프롤	-16599
▁항쟁	-16600
▁경로를	-16601
▁남았다	-16602
▁성향을	-16603
▁시설관리	-16604
▁실시하는	-16605
▁의회에서	-16606
▁컴퓨터의	-16607
▁발전하였다	-16608
라니	-16609
예가	-16610
파일	-16611
히지	-16612
ook	-16613
▁계단	-16614
▁싶다	-16615
▁질문	-16616
▁판례	-16617
work	-16618
▁그밖에	-16619
▁발달한	-16620
▁피라미	-16621
▁헤이안	-16622
▁부족으로	-16623
▁정상적인	-16624
▁네이션스컵	-16625
▁요하	-16626
▁자책	-16627
▁정동	-16628
▁휘말	-16629
▁흥미를	-16630
▁Tour	-16631
기타	-16632
체국	-16633
.7%	-16634
▁회상	-16635
그리고	-16636
▁수사를	-16637
▁인간과	-16638
▁것이므로	-16639
▁스크린도어가	-16640
5,	-16641
곡리	-16642
럴드	-16643
▁강철	-16644
▁체제의	-16645
▁NASA	-16646
람회	-16647
▁러일	-16648
▁식당	-16649
▁아데	-16650
▁잠깐	-16651
▁중합	-16652
직하고	-16653
▁제주시	-16654
▁프랑스령	-16655
▁슛	-16656
▁나루	-16657
▁도래	-16658
▁선천	-16659
▁올드	-16660
루스는	-16661
타이드	-16662
▁게릴라	-16663
▁소피아	-16664
▁의지를	-16665
▁중성자	-16666
▁체제로	-16667
지역에서	-16668
▁웬	-16669
디와	-16670
위한	-16671
▁La	-16672
▁NT	-16673
▁보복	-16674
▁해저	-16675
되어서	-16676
▁경주시	-16677
▁빠졌다	-16678
▁솔로몬	-16679
▁영원히	-16680
▁의석을	-16681
▁패했다	-16682
▁비판하는	-16683
▁안정적인	-16684
▁홍콩에서	-16685
▁찔	-16686
하우	-16687
▁김준	-16688
▁문경	-16689
▁보리	-16690
클리드	-16691
한국당	-16692
▁놀라운	-16693
▁반응은	-16694
▁있어서의	-16695
생은	-16696
후쿠	-16697
▁가중	-16698
▁누나	-16699
▁동력	-16700
▁번영	-16701
▁코소	-16702
▁One	-16703
▁논쟁을	-16704
▁다목적	-16705
▁부근의	-16706
▁파이터	-16707
▁프로모	-16708
▁보호하는	-16709
산초등학교	-16710
봉은	-16711
스콘	-16712
지정	-16713
▁명종	-16714
▁연희	-16715
승으로	-16716
▁70%	-16717
▁대륙의	-16718
▁사무를	-16719
▁은하의	-16720
▁정책의	-16721
▁지붕은	-16722
oun	-16723
▁Ac	-16724
▁나갈	-16725
▁로얄	-16726
▁매수	-16727
▁패럴	-16728
atch	-16729
▁상에서	-16730
▁소유한	-16731
기일	-16732
끄러	-16733
하르	-16734
▁도네	-16735
▁무작	-16736
▁일괄	-16737
▁컸다	-16738
▁폭이	-16739
시켜야	-16740
층에서	-16741
▁대사헌	-16742
▁등에게	-16743
▁리스트	-16744
▁방안을	-16745
▁엘리트	-16746
▁예선에	-16747
▁지상파	-16748
▁질문에	-16749
▁최연소	-16750
▁클레이	-16751
들이었다	-16752
▁1850	-16753
▁1865	-16754
▁Life	-16755
▁대학교는	-16756
▁불과하다	-16757
구스	-16758
극을	-16759
내려	-16760
Con	-16761
▁CS	-16762
▁군부	-16763
▁서인	-16764
▁입국	-16765
▁징병	-16766
▁침묵	-16767
▁혼다	-16768
▁성남시	-16769
▁온도는	-16770
▁정보는	-16771
▁질량을	-16772
▁프레이	-16773
▁여겨졌다	-16774
▁일본군은	-16775
▁현대자동차	-16776
개씩	-16777
공단	-16778
트맨	-16779
▁중수	-16780
회사의	-16781
▁450	-16782
▁수업을	-16783
▁아이폰	-16784
▁원칙을	-16785
▁효과는	-16786
▁서울중앙	-16787
BL	-16788
바가	-16789
절에	-16790
oot	-16791
▁DD	-16792
▁LP	-16793
▁악의	-16794
▁히메	-16795
지거나	-16796
▁남성의	-16797
▁저항을	-16798
▁일으킨다	-16799
불의	-16800
절의	-16801
▁럭비	-16802
▁접수	-16803
▁암컷은	-16804
▁학생이	-16805
▁사용자의	-16806
▁아직까지	-16807
▁종료되었다	-16808
▁친일반민족행위진상규명	-16809
▁썬	-16810
▁퐁	-16811
직은	-16812
▁맡는	-16813
▁수로	-16814
▁신입	-16815
▁압록	-16816
▁이회	-16817
▁집회	-16818
▁1.0	-16819
▁Mon	-16820
▁강화를	-16821
▁본부를	-16822
▁북한이	-16823
▁비교해	-16824
▁전략적	-16825
줄기	-16826
퀘어	-16827
ura	-16828
▁산요	-16829
▁죽기	-16830
지역을	-16831
reen	-16832
▁3.5	-16833
▁40%	-16834
▁걸쳐서	-16835
▁공로를	-16836
▁믿었다	-16837
▁영국령	-16838
▁제품의	-16839
▁차례에	-16840
암은	-16841
▁공성	-16842
▁국유	-16843
▁모범	-16844
▁시몬	-16845
▁씨가	-16846
▁염려	-16847
▁재외	-16848
일체유	-16849
▁Sci	-16850
▁마스크	-16851
▁맡기도	-16852
▁왕국이	-16853
▁원나라	-16854
▁영국으로	-16855
▁올림피아	-16856
▁분리되었다	-16857
ze	-16858
▁싼	-16859
기하	-16860
대칭	-16861
분열	-16862
치히	-16863
키타	-16864
태종	-16865
▁놓인	-16866
▁헤어	-16867
▁관료로	-16868
▁정당이	-16869
▁주계열	-16870
▁중심을	-16871
▁못했지만	-16872
▁스타일을	-16873
위원회에서	-16874
님은	-16875
▁높여	-16876
▁표를	-16877
berg	-16878
▁교회는	-16879
▁신앙을	-16880
▁영어를	-16881
▁오른손	-16882
▁점성술	-16883
▁찢	-16884
천은	-16885
ney	-16886
ors	-16887
▁공휴	-16888
▁비전	-16889
▁이범	-16890
▁접해	-16891
사들은	-16892
▁Bar	-16893
▁구축함	-16894
▁나이는	-16895
▁도야마	-16896
▁라파엘	-16897
▁별명이	-16898
▁연안에	-16899
▁원리를	-16900
▁하노버	-16901
▁연구에서	-16902
6,	-16903
배에	-16904
▁닮은	-16905
▁하키	-16906
▁기준이	-16907
▁보이게	-16908
▁아라곤	-16909
▁귀국하여	-16910
료는	-16911
마디	-16912
변속	-16913
시안	-16914
최고	-16915
▁낮다	-16916
▁바우	-16917
▁재상	-16918
▁처럼	-16919
▁폭풍	-16920
▁강하다	-16921
▁따르고	-16922
▁미루어	-16923
▁친구가	-16924
▁메릴랜드	-16925
▁앗	-16926
대리	-16927
말의	-16928
사다	-16929
아니	-16930
용과	-16931
처가	-16932
▁파는	-16933
라에몽	-16934
르트의	-16935
▁도덕적	-16936
▁등판해	-16937
▁리그로	-16938
▁모았다	-16939
▁개발했다	-16940
가며	-16941
녀의	-16942
보물	-16943
죄로	-16944
.19	-16945
ody	-16946
▁더비	-16947
▁자서	-16948
가지로	-16949
▁근거가	-16950
▁시장이	-16951
스테르담	-16952
▁배우이자	-16953
자동	-16954
자문	-16955
.8%	-16956
▁넣는	-16957
▁달고	-16958
▁피핀	-16959
회사가	-16960
▁구단은	-16961
▁자기가	-16962
▁공항으로	-16963
▁기념하기	-16964
▁성씨이다	-16965
▁오케스트	-16966
▁미드필더로	-16967
전달	-16968
oly	-16969
▁맥락	-16970
▁송도	-16971
▁슬픔	-16972
▁축성	-16973
▁항성의	-16974
▁결합하여	-16975
▁완벽하게	-16976
▁CONCACAF	-16977
▁쉴	-16978
▁실무	-16979
▁이고	-16980
▁카지	-16981
▁규칙을	-16982
▁여배우	-16983
▁자료는	-16984
▁핵융합	-16985
▁여겨지는	-16986
▁영역에서	-16987
▁진출한다	-16988
막이	-16989
방정	-16990
있어	-16991
▁가의	-16992
▁국외	-16993
▁부다	-16994
▁연립	-16995
▁예고	-16996
▁체조	-16997
웨스트	-16998
▁남자가	-16999
▁제한을	-17000
▁국립공원	-17001
▁챙	-17002
폐합	-17003
▁공자	-17004
▁동네	-17005
▁와인	-17006
▁천왕	-17007
▁피할	-17008
들처럼	-17009
베스트	-17010
▁공군의	-17011
▁메시지	-17012
▁산업은	-17013
▁코드는	-17014
▁학교는	-17015
▁형식은	-17016
▁독일군의	-17017
▁매끄러운	-17018
▁지칭하는	-17019
▁아카데미상	-17020
날의	-17021
버른	-17022
지던	-17023
▁),	-17024
▁기인	-17025
▁소울	-17026
▁핑크	-17027
▁경력이	-17028
▁규모를	-17029
▁맡았던	-17030
▁의원의	-17031
▁이론이	-17032
▁직위를	-17033
初等學校	-17034
▁1872	-17035
▁옮겨졌다	-17036
▁위원회는	-17037
▁유지했다	-17038
▁댓	-17039
랑은	-17040
요리	-17041
청장	-17042
-23	-17043
▁교정	-17044
▁글꼴	-17045
▁반전	-17046
▁서스	-17047
▁유해	-17048
▁입수	-17049
▁페니	-17050
▁그리는	-17051
▁밴쿠버	-17052
▁자료에	-17053
▁1878	-17054
▁스튜어트	-17055
▁쿡	-17056
메트	-17057
iew	-17058
▁낙하	-17059
▁노인	-17060
▁드리	-17061
▁통보	-17062
▁가공의	-17063
▁그것의	-17064
▁도메인	-17065
▁와일드	-17066
▁유럽에	-17067
▁항복을	-17068
▁JTBC	-17069
▁설일체유	-17070
Cl	-17071
ka	-17072
당할	-17073
▁리에	-17074
▁온다	-17075
▁유러	-17076
▁공간에	-17077
▁교회가	-17078
▁참석한	-17079
▁체제가	-17080
▁팬들의	-17081
▁공감	-17082
▁불변	-17083
▁비자	-17084
▁후진	-17085
▁거리의	-17086
▁분기점	-17087
▁사형을	-17088
▁지진이	-17089
▁파일럿	-17090
▁페트로	-17091
▁분포하고	-17092
▁알렉산드리아	-17093
夫人	-17094
약이	-17095
oft	-17096
▁니혼	-17097
▁진사	-17098
▁콘솔	-17099
▁허리	-17100
레스는	-17101
▁명령에	-17102
▁적었다	-17103
▁지시를	-17104
▁유래하였다	-17105
CO	-17106
gy	-17107
두의	-17108
음반	-17109
조치	-17110
플래	-17111
let	-17112
▁사쿠	-17113
▁시속	-17114
▁함흥	-17115
▁계속된	-17116
▁단계에	-17117
▁마이애	-17118
▁운행이	-17119
▁자라는	-17120
포켓몬스터	-17121
▁담당하였다	-17122
CP	-17123
런은	-17124
상대	-17125
▁노바	-17126
▁원활	-17127
익스피	-17128
집으로	-17129
▁게이오	-17130
▁동로마	-17131
▁시신을	-17132
▁호르몬	-17133
▁가르침을	-17134
▁발견되며	-17135
▁실시했다	-17136
▁의과대학	-17137
▁제정되었다	-17138
길에	-17139
니티	-17140
매김	-17141
amb	-17142
▁총을	-17143
▁켈트	-17144
클레오	-17145
▁밖에서	-17146
▁비중이	-17147
▁생활에	-17148
▁장점이	-17149
선거에서	-17150
▁1862	-17151
▁쿠데타를	-17152
▁함경북도	-17153
▁시작되었고	-17154
거가	-17155
군인	-17156
기며	-17157
평의	-17158
호르	-17159
▁맛을	-17160
▁모른	-17161
▁보석	-17162
▁서산	-17163
▁성전	-17164
▁전락	-17165
▁전산	-17166
는다는	-17167
전까지	-17168
▁구성은	-17169
▁병사를	-17170
▁아나톨	-17171
▁이르게	-17172
▁화학적	-17173
른베르크	-17174
개인	-17175
컵을	-17176
ike	-17177
▁맛이	-17178
▁부채	-17179
▁상연	-17180
▁서머	-17181
▁아다	-17182
▁칭송	-17183
▁포털	-17184
▁GDP	-17185
▁LED	-17186
▁그만큼	-17187
▁미하일	-17188
▁북동부	-17189
▁여지가	-17190
▁나타나지	-17191
▁들어왔다	-17192
▁문신이다	-17193
▁승리했다	-17194
▁자리하고	-17195
▁괄	-17196
네오	-17197
다양	-17198
▁Su	-17199
▁무술	-17200
▁미셸	-17201
▁불분	-17202
▁역도	-17203
▁카즈	-17204
전부터	-17205
▁오리온	-17206
▁음악이	-17207
스크리트	-17208
▁기관이다	-17209
▁수행했다	-17210
▁프랑스로	-17211
▁프랑스를	-17212
▁Award	-17213
▁정치가이다	-17214
화산	-17215
▁간첩	-17216
▁겪은	-17217
▁과장	-17218
▁군정	-17219
▁셀레	-17220
▁펑크	-17221
▁했기	-17222
▁공격은	-17223
▁소식이	-17224
▁자유의	-17225
▁연합군은	-17226
▁이동하는	-17227
▁히틀러는	-17228
▁전반적으로	-17229
▁;	-17230
지스	-17231
▁강간	-17232
▁한큐	-17233
▁호족	-17234
르타뉴	-17235
▁계통의	-17236
▁다리가	-17237
▁병력이	-17238
▁시이다	-17239
▁용어가	-17240
▁장소를	-17241
▁홈경기	-17242
▁비교하여	-17243
▁소설이다	-17244
▁지역에는	-17245
▁현장에서	-17246
통치	-17247
▁돕는	-17248
▁바흐	-17249
▁조로	-17250
▁가라앉	-17251
▁교회에	-17252
▁상소를	-17253
▁새끼를	-17254
▁진출할	-17255
▁한다면	-17256
▁뿐이었다	-17257
▁프랑스군은	-17258
▁떡	-17259
나파	-17260
수단	-17261
인당	-17262
700	-17263
▁그외	-17264
▁아쿠	-17265
▁오락	-17266
▁잡는	-17267
▁제임	-17268
▁1-1	-17269
▁교사로	-17270
▁바이킹	-17271
▁성에서	-17272
▁함대를	-17273
음으로써	-17274
▁경인	-17275
▁마가	-17276
▁읽는	-17277
▁폭파	-17278
갔으나	-17279
문화의	-17280
살이풀	-17281
▁각자의	-17282
▁책으로	-17283
▁평가가	-17284
▁들어오는	-17285
▁세인트루이스	-17286
소시	-17287
지않	-17288
▁결핵	-17289
▁맞춘	-17290
▁악마	-17291
▁적게	-17292
▁초고	-17293
▁파란	-17294
▁con	-17295
▁의사소	-17296
▁자원을	-17297
▁전쟁과	-17298
▁중앙의	-17299
▁둘러싸인	-17300
배의	-17301
오자	-17302
.1%	-17303
▁고흥	-17304
▁자제	-17305
▁잦은	-17306
전에는	-17307
▁결혼한	-17308
▁느끼게	-17309
▁만난다	-17310
▁빨간색	-17311
▁작업은	-17312
▁철저히	-17313
▁수행하고	-17314
▁시리즈이다	-17315
TR	-17316
▁쟈	-17317
▁Ge	-17318
▁kt	-17319
▁돼지	-17320
▁마다	-17321
▁면을	-17322
▁변광	-17323
▁실리	-17324
▁파고	-17325
▁3.0	-17326
▁검찰은	-17327
▁단체인	-17328
▁모리스	-17329
▁부르게	-17330
▁도카이도	-17331
▁아무것도	-17332
QL	-17333
』(	-17334
료가	-17335
pro	-17336
▁팔작	-17337
▁하니	-17338
▁공장을	-17339
▁대중의	-17340
▁일반화	-17341
▁기록이다	-17342
▁중요하게	-17343
▁출전하지	-17344
▁포함되지	-17345
▁확정되었다	-17346
견이	-17347
극의	-17348
동원	-17349
살에	-17350
천리	-17351
▁가타	-17352
▁고아	-17353
▁산을	-17354
▁연한	-17355
▁AKB	-17356
▁가이드	-17357
▁두개의	-17358
▁마르티	-17359
▁발전소	-17360
▁전역을	-17361
▁케플러	-17362
▁방지하기	-17363
▁사운드트랙	-17364
ux	-17365
노와	-17366
보스	-17367
좌를	-17368
직의	-17369
▁국보	-17370
▁드라	-17371
▁롤링	-17372
▁수복	-17373
▁교황청	-17374
▁느끼는	-17375
▁안되는	-17376
▁천천히	-17377
▁설립하고	-17378
Ex	-17379
▁경과	-17380
▁보강	-17381
▁맞았다	-17382
▁의회에	-17383
▁증상을	-17384
▁카이로	-17385
▁파견하여	-17386
▁효율적인	-17387
광년	-17388
헤드	-17389
(12	-17390
-50	-17391
▁AN	-17392
▁기뻐	-17393
▁마애	-17394
▁암석	-17395
▁조롱	-17396
▁직책	-17397
▁초콜	-17398
▁포토	-17399
▁하코	-17400
▁한중	-17401
▁희곡	-17402
나무는	-17403
▁것과는	-17404
▁도르트	-17405
▁작품인	-17406
도서관은	-17407
방향으로	-17408
▁운행되고	-17409
▁싱어송라이터이다	-17410
공장	-17411
린과	-17412
삼존	-17413
코토	-17414
▁이언	-17415
▁코난	-17416
억원을	-17417
▁가족이	-17418
▁강의를	-17419
▁직책을	-17420
▁것이지만	-17421
▁관련되어	-17422
▁없었으며	-17423
▁움직임이	-17424
▁포유류의	-17425
▁플래티넘	-17426
여자대학교	-17427
▁국가대표팀에서	-17428
El	-17429
겨울	-17430
르다	-17431
물리	-17432
사실	-17433
수학	-17434
▁김승	-17435
▁음모	-17436
▁충렬	-17437
▁하프	-17438
사무소	-17439
ates	-17440
▁단계로	-17441
▁무역을	-17442
▁하겠다	-17443
▁벌어지는	-17444
▁승강장으로	-17445
7,	-17446
ery	-17447
▁꿈꾸	-17448
▁오기	-17449
▁조슈	-17450
▁기타를	-17451
▁신주쿠	-17452
▁인구밀	-17453
▁전해지고	-17454
▁활약으로	-17455
▁프로그래머	-17456
-09	-17457
erm	-17458
▁블레	-17459
▁아바	-17460
▁인산	-17461
▁커서	-17462
▁픽처	-17463
민스터	-17464
▁시신은	-17465
▁이바지	-17466
▁측에서	-17467
▁그레고리	-17468
▁모습이다	-17469
▁프린스턴	-17470
Be	-17471
훈이	-17472
▁규탄	-17473
▁김대	-17474
▁무안	-17475
▁백과	-17476
▁얘기	-17477
▁치즈	-17478
번이나	-17479
번호는	-17480
▁1.2	-17481
▁공항은	-17482
▁나타날	-17483
시키는데	-17484
▁브르타뉴	-17485
▁사용하게	-17486
▁이용되고	-17487
박이	-17488
분한	-17489
스레	-17490
포도	-17491
▁송출	-17492
으려는	-17493
조사를	-17494
지라도	-17495
▁않다는	-17496
▁알제리	-17497
▁황제를	-17498
▁1830	-17499
▁패하였다	-17500
▁헛	-17501
심에	-17502
▁국기	-17503
▁승용	-17504
▁타르	-17505
▁허드	-17506
▁뿌리를	-17507
▁사상의	-17508
▁대한민국에는	-17509
▁노스캐롤라이나	-17510
▁굶	-17511
금과	-17512
크리	-17513
티를	-17514
품은	-17515
Par	-17516
▁다발	-17517
▁섭정	-17518
▁아유	-17519
▁포식	-17520
▁간사이	-17521
▁비중을	-17522
▁서로를	-17523
▁않다고	-17524
▁은메달	-17525
▁철학을	-17526
▁받았는데	-17527
▁후반부터	-17528
▁일제강점기	-17529
▁프로그램인	-17530
▁△	-17531
▁갚	-17532
달의	-17533
상황	-17534
시다	-17535
신앙	-17536
절로	-17537
▁과테	-17538
▁돕기	-17539
▁숨을	-17540
▁싸이	-17541
▁인가	-17542
▁좌의	-17543
▁후예	-17544
학과에	-17545
▁멤버가	-17546
▁수원시	-17547
▁증거를	-17548
▁지내는	-17549
하더라도	-17550
▁Park	-17551
▁마오쩌둥	-17552
공개	-17553
국립	-17554
▁기성	-17555
▁도사	-17556
▁매력	-17557
▁세트	-17558
▁준수	-17559
▁타구	-17560
놓았다	-17561
▁공격이	-17562
▁달러에	-17563
▁수준을	-17564
▁주었고	-17565
▁파푸아	-17566
▁학명은	-17567
▁활동의	-17568
▁분류한다	-17569
▁어머니를	-17570
Te	-17571
its	-17572
▁나간	-17573
▁났다	-17574
▁막스	-17575
▁배운	-17576
▁성명	-17577
겠지만	-17578
▁최고인민회의	-17579
!》	-17580
▁쑤	-17581
브가	-17582
서인	-17583
은하	-17584
증에	-17585
▁간혹	-17586
▁안드	-17587
▁치는	-17588
▁그림은	-17589
▁단계를	-17590
▁연주를	-17591
▁요구에	-17592
▁요제프	-17593
▁침공을	-17594
▁괌	-17595
가쿠	-17596
경비	-17597
티즌	-17598
하되	-17599
▁물체	-17600
▁보낼	-17601
▁삼중	-17602
▁우유	-17603
▁은혜	-17604
▁팔아	-17605
▁128	-17606
▁밝혀진	-17607
▁방식에	-17608
▁클라크	-17609
강전에서	-17610
(2009	-17611
▁어머니와	-17612
▁없으므로	-17613
▁우크라이나의	-17614
▁홉	-17615
든다	-17616
박을	-17617
일인	-17618
프턴	-17619
▁바오	-17620
▁본인	-17621
▁성도	-17622
▁지자	-17623
▁파벌	-17624
▁황도	-17625
로스의	-17626
였다는	-17627
▁2~3	-17628
▁교육에	-17629
▁마누엘	-17630
▁방송이	-17631
▁생각한	-17632
이었다는	-17633
퍼레이션	-17634
▁Your	-17635
▁공장에서	-17636
▁후계자로	-17637
▁룸	-17638
통과	-17639
투수	-17640
학사	-17641
▁너머	-17642
▁스포	-17643
단에는	-17644
프로세	-17645
ling	-17646
▁나트륨	-17647
▁목록을	-17648
▁성적은	-17649
▁세네갈	-17650
▁책에서	-17651
▁철저한	-17652
▁결승전에	-17653
▁일대에서	-17654
FI	-17655
▁므	-17656
▁사신	-17657
▁이모	-17658
▁자카	-17659
당했고	-17660
되다가	-17661
▁3-1	-17662
▁성적이	-17663
▁아리아	-17664
▁인기있는	-17665
▁치명적인	-17666
▁마다가스카르	-17667
로맨	-17668
▁EX	-17669
▁IV	-17670
▁말도	-17671
▁손잡	-17672
▁우치	-17673
▁진한	-17674
▁청색	-17675
▁카프	-17676
▁불확실	-17677
▁장기간	-17678
▁클럽은	-17679
아메리칸	-17680
▁Girl	-17681
▁생각하자	-17682
▁표기한다	-17683
▁활용하여	-17684
▁아프리카의	-17685
▁초등학교다	-17686
안보	-17687
▁고딕	-17688
▁구한	-17689
▁단말	-17690
▁리조	-17691
▁미세	-17692
▁사슴	-17693
▁증폭	-17694
▁해부	-17695
년경에	-17696
시켜서	-17697
▁0.0	-17698
▁경제는	-17699
▁뉴욕주	-17700
▁쌓았다	-17701
▁예선을	-17702
▁가와사키	-17703
▁대규모의	-17704
▁러시아와	-17705
HD	-17706
성우	-17707
제일	-17708
▁오대	-17709
▁레이싱	-17710
▁비타민	-17711
▁자녀를	-17712
▁공산당의	-17713
▁나카무라	-17714
▁동안에는	-17715
▁살아남은	-17716
▁심지어는	-17717
달라	-17718
몬트	-17719
처의	-17720
▁첼시	-17721
▁캄파	-17722
개이다	-17723
rich	-17724
▁가깝게	-17725
▁되므로	-17726
▁라오스	-17727
▁로스쿨	-17728
▁선언을	-17729
▁시에라	-17730
▁예로는	-17731
▁이기고	-17732
▁체결된	-17733
▁이용하고	-17734
▁요구하였다	-17735
▁푸에르토리	-17736
커를	-17737
▁sh	-17738
▁워드	-17739
▁피오	-17740
▁선거인	-17741
▁순서로	-17742
▁역할로	-17743
▁피해자	-17744
▁계속되는	-17745
▁근본적인	-17746
▁콘테스트	-17747
도마뱀붙이	-17748
광이	-17749
니크	-17750
례로	-17751
복이	-17752
_21	-17753
~17	-17754
▁세습	-17755
▁집정	-17756
▁측이	-17757
▁코호	-17758
▁125	-17759
▁240	-17760
▁멜버른	-17761
▁상파울	-17762
▁안타를	-17763
▁앤드루	-17764
▁존재로	-17765
▁지위에	-17766
▁추가된	-17767
▁혁명이	-17768
▁1869	-17769
▁공간으로	-17770
▁추정되며	-17771
▁카탈루냐	-17772
▁아이스하키	-17773
번대	-17774
순은	-17775
▁베리	-17776
▁원반	-17777
▁인력	-17778
운동가	-17779
▁고유한	-17780
▁예정인	-17781
사관학교	-17782
▁스테이션	-17783
▁전달하는	-17784
▁시설관리자는	-17785
기아	-17786
▁관제	-17787
▁몰두	-17788
▁상소	-17789
▁쌍대	-17790
▁장쑤	-17791
▁재래	-17792
▁포럼	-17793
▁하급	-17794
▁노동당	-17795
▁방정식	-17796
▁종이다	-17797
▁판정을	-17798
▁회사에	-17799
민주연합	-17800
▁거리에서	-17801
▁프로세스	-17802
▁피아니스트	-17803
▁민족문제연구소의	-17804
FS	-17805
타인	-17806
학술	-17807
▁동등	-17808
▁마셜	-17809
▁세븐	-17810
▁스킴	-17811
▁제천	-17812
▁타케	-17813
쳤으나	-17814
▁계획의	-17815
▁원소는	-17816
▁국가대표로	-17817
▁채택되었다	-17818
▁활동했으며	-17819
ows	-17820
▁과연	-17821
▁구이	-17822
▁산에	-17823
▁외래	-17824
▁정제	-17825
▁커플	-17826
부원군	-17827
▁산맥의	-17828
▁상업적	-17829
▁거점으로	-17830
▁대항하는	-17831
근은	-17832
III	-17833
▁IN	-17834
▁노후	-17835
▁위그	-17836
▁제인	-17837
▁헌액	-17838
▁자세를	-17839
▁프리스	-17840
디나비아	-17841
▁보이지만	-17842
▁종목이다	-17843
▁콘서트를	-17844
HA	-17845
모노	-17846
▁불행	-17847
▁아프	-17848
▁에레	-17849
▁엔터	-17850
▁청계	-17851
▁호쿠	-17852
공으로	-17853
omas	-17854
▁장관이	-17855
▁회장으로	-17856
라드	-17857
.12	-17858
uss	-17859
▁로페	-17860
▁몸은	-17861
▁사영	-17862
▁점거	-17863
▁정이	-17864
타나베	-17865
▁가격은	-17866
▁거뒀다	-17867
▁끌어들	-17868
▁문화에	-17869
▁왕조가	-17870
▁from	-17871
▁시즌이다	-17872
▁차지했고	-17873
▁경기장에서	-17874
▁줄어들었다	-17875
ociation	-17876
▁댈	-17877
강원	-17878
처분	-17879
eae	-17880
▁me	-17881
▁무서	-17882
▁선봉	-17883
▁의령	-17884
▁정주	-17885
역까지	-17886
▁밀도가	-17887
▁숫자는	-17888
▁원정을	-17889
▁크리에	-17890
▁해밀턴	-17891
했음에도	-17892
▁1867	-17893
▁Time	-17894
▁창설되었다	-17895
▁α	-17896
데자	-17897
형사	-17898
▁SA	-17899
▁경호	-17900
▁평의	-17901
▁가지지	-17902
▁경제를	-17903
▁상태는	-17904
▁언어가	-17905
▁이사회	-17906
▁현대에	-17907
▁명령했다	-17908
▁지나간다	-17909
▁지명되었다	-17910
로워	-17911
있지	-17912
창조	-17913
oid	-17914
orm	-17915
▁강행	-17916
▁급히	-17917
▁넓고	-17918
▁퇴장	-17919
현으로	-17920
▁EBS	-17921
▁걸리는	-17922
▁내무부	-17923
▁레오폴	-17924
▁에어로	-17925
▁전적으로	-17926
성종	-17927
에스	-17928
지상	-17929
초가	-17930
캠퍼	-17931
피트	-17932
▁색이	-17933
▁온난	-17934
기관이	-17935
inal	-17936
▁로마로	-17937
▁브뤼셀	-17938
▁의약품	-17939
▁장남으로	-17940
▁프란치스코	-17941
모르	-17942
속은	-17943
▁격려	-17944
▁고이	-17945
▁답변	-17946
▁도출	-17947
▁찾고	-17948
▁코시	-17949
▁홍수	-17950
났으나	-17951
두었다	-17952
▁것들을	-17953
▁북유럽	-17954
▁사업이	-17955
▁테네시	-17956
▁익스플로	-17957
▁클럽에서	-17958
▁프랜시스	-17959
▁인도네시아의	-17960
복은	-17961
양과	-17962
초는	-17963
테의	-17964
화문	-17965
▁객체	-17966
▁도둑	-17967
▁이메	-17968
▁절벽	-17969
▁쪽이	-17970
▁번째는	-17971
▁볼티모	-17972
▁시절을	-17973
▁원소의	-17974
▁음반에	-17975
▁자료로	-17976
▁팀이다	-17977
▁파나마	-17978
임의	-17979
테는	-17980
.9%	-17981
▁2》	-17982
▁고장	-17983
▁박상	-17984
▁성악	-17985
▁유희	-17986
자에서	-17987
지역으로	-17988
▁거치면서	-17989
▁유니버설	-17990
▁주변에는	-17991
▁브룩	-17992
▁일식	-17993
▁후작	-17994
상태가	-17995
슬레틱	-17996
▁Eng	-17997
▁공격할	-17998
▁본부는	-17999
▁전투로	-18000
시키면서	-18001
▁추정하고	-18002
▁애니메이션이다	-18003
▁널	-18004
▁촛	-18005
루로	-18006
문트	-18007
성장	-18008
▁공명	-18009
▁딸과	-18010
▁아치	-18011
▁SNS	-18012
▁기관이	-18013
▁하늘을	-18014
▁라이선스	-18015
▁분류하고	-18016
▁설계되었다	-18017
삼진	-18018
▁GO	-18019
▁금산	-18020
▁남하	-18021
▁별을	-18022
▁상기	-18023
▁재선	-18024
▁정경	-18025
기면서	-18026
▁TBS	-18027
▁북서부	-18028
▁없으면	-18029
▁1875	-18030
▁투표에서	-18031
▁공개적으로	-18032
▁공헌하였다	-18033
▁광범위하게	-18034
▁쪼	-18035
녀가	-18036
누마	-18037
달마	-18038
와라	-18039
적과	-18040
Car	-18041
▁만드	-18042
▁위를	-18043
▁탄자	-18044
▁머리카	-18045
▁반란이	-18046
▁오이타	-18047
▁요시다	-18048
▁종교는	-18049
▁태생의	-18050
▁스타일의	-18051
▁아이들을	-18052
▁주인공이	-18053
▁인도차이나	-18054
하길	-18055
해로	-18056
후가	-18057
▁복권	-18058
▁부당	-18059
▁신민	-18060
▁양측	-18061
▁인형	-18062
▁장이	-18063
▁기관의	-18064
▁남동쪽	-18065
▁노래의	-18066
▁달했다	-18067
▁보이스	-18068
▁중요시	-18069
▁회장이	-18070
▁취득하였다	-18071
">	-18072
무관	-18073
워즈	-18074
정조	-18075
▁도스	-18076
▁배에	-18077
▁우두	-18078
▁종영	-18079
▁해태	-18080
▁광고를	-18081
▁등지에	-18082
▁인정을	-18083
▁작가가	-18084
▁참여를	-18085
▁없었지만	-18086
▁유러피언	-18087
▁겔	-18088
코로	-18089
해질	-18090
▁도피	-18091
▁쉽다	-18092
▁요격	-18093
▁증진	-18094
▁급격한	-18095
▁기원은	-18096
▁배터리	-18097
▁오세아	-18098
▁총리로	-18099
루엔	-18100
▁우세	-18101
▁이코	-18102
▁최강	-18103
그러나	-18104
버스는	-18105
제이다	-18106
▁106	-18107
▁이동할	-18108
▁포로가	-18109
▁행위는	-18110
▁산스크리트	-18111
▁암스테르담	-18112
ye	-18113
고지	-18114
공작	-18115
▁늦은	-18116
▁소외	-18117
▁일족	-18118
▁조에	-18119
리그에	-18120
▁미래에	-18121
▁요청에	-18122
▁인해서	-18123
▁1592	-18124
▁가능성도	-18125
▁목소리가	-18126
▁College	-18127
라나	-18128
먼의	-18129
▁기니	-18130
▁자진	-18131
▁주권	-18132
▁집착	-18133
고에서	-18134
현에서	-18135
▁108	-18136
▁극도로	-18137
▁찬사를	-18138
▁무시하고	-18139
▁살펴보면	-18140
▁성장했다	-18141
▁소재지는	-18142
▁에너지의	-18143
▁존재했다	-18144
▁씻	-18145
샤오	-18146
창이	-18147
▁은신	-18148
▁페로	-18149
▁폐렴	-18150
▁구성을	-18151
▁나무를	-18152
▁산티아	-18153
▁서양의	-18154
▁시위가	-18155
▁전원이	-18156
▁정의된	-18157
▁종류로	-18158
▁케이프	-18159
그라운드	-18160
▁장소에서	-18161
▁측정하는	-18162
선인	-18163
여행	-18164
피크	-18165
▁거점	-18166
▁끼고	-18167
▁물과	-18168
▁보자	-18169
▁수교	-18170
▁일화	-18171
▁줄리	-18172
▁102	-18173
▁길이를	-18174
▁문학의	-18175
▁집합을	-18176
▁유래되었다	-18177
공과	-18178
문인	-18179
▁그릴	-18180
▁기법	-18181
▁말과	-18182
▁목재	-18183
▁블로	-18184
▁재차	-18185
▁주니	-18186
▁탈취	-18187
▁파병	-18188
슬라프	-18189
시이다	-18190
역이며	-18191
▁무솔리	-18192
▁박사는	-18193
▁본인은	-18194
▁비율을	-18195
▁빅토르	-18196
▁사실에	-18197
▁상원의	-18198
▁구성하고	-18199
▁사용하던	-18200
▁사회민주	-18201
▁스페인은	-18202
▁도서관이다	-18203
강도	-18204
께끼	-18205
주사	-18206
주아	-18207
토쿠	-18208
후이	-18209
~14	-18210
▁Sm	-18211
▁에게	-18212
▁헌병	-18213
청소년	-18214
▁가리켜	-18215
▁레드삭	-18216
▁가톨릭교	-18217
▁엑스박스	-18218
▁출연한다	-18219
▁공개하였다	-18220
▁꽂	-18221
패의	-18222
act	-18223
▁남인	-18224
▁띄는	-18225
▁루키	-18226
▁머신	-18227
▁병자	-18228
▁치환	-18229
▁언론의	-18230
▁증거는	-18231
▁향상을	-18232
▁반대하였다	-18233
▁국가대표팀은	-18234
사항	-18235
업과	-18236
제철	-18237
짐에	-18238
EST	-18239
▁DF	-18240
▁배달	-18241
▁서열	-18242
▁쏘아	-18243
tian	-18244
▁브리튼	-18245
▁수요가	-18246
aster	-18247
▁공화국이	-18248
▁국제적으로	-18249
▁선고받았다	-18250
보국	-18251
소재	-18252
인사	-18253
▁관세	-18254
▁복선	-18255
▁조회	-18256
사우스	-18257
▁1/3	-18258
▁가문을	-18259
▁당국은	-18260
▁바다의	-18261
▁시트콤	-18262
▁한사람	-18263
▁Club	-18264
▁활동으로	-18265
▁늪	-18266
경쟁	-18267
군수	-18268
맥을	-18269
요는	-18270
지어	-18271
충은	-18272
큐슈	-18273
▁무언	-18274
▁밀란	-18275
▁씨는	-18276
▁육체	-18277
▁인원	-18278
▁취한	-18279
▁포격	-18280
라이드	-18281
분까지	-18282
▁서부의	-18283
▁스칼라	-18284
▁화제를	-18285
되었음을	-18286
▁컴파일러	-18287
▁현대적인	-18288
▁이탈리아는	-18289
밭쥐	-18290
비언	-18291
▁대접	-18292
▁에른	-18293
▁이누	-18294
▁회귀	-18295
자리가	-18296
▁손상을	-18297
▁인물은	-18298
▁국가보안	-18299
▁윌리엄스	-18300
▁제작했다	-18301
▁친일반민족행위진상규명위원회가	-18302
LC	-18303
”(	-18304
다오	-18305
등은	-18306
링겐	-18307
시브	-18308
워크	-18309
확인	-18310
era	-18311
ops	-18312
▁애완	-18313
▁이항	-18314
▁것인가	-18315
▁기대를	-18316
▁높았다	-18317
▁성격의	-18318
▁훈장을	-18319
▁이론에서	-18320
보컬	-18321
왕국	-18322
ars	-18323
▁농경	-18324
▁우한	-18325
▁좀더	-18326
▁중위	-18327
very	-18328
▁교류를	-18329
▁적외선	-18330
▁항공사	-18331
▁대비하여	-18332
▁미나모토	-18333
▁아랍에미	-18334
▁이베리아	-18335
▁지도자로	-18336
▁진행한다	-18337
개소	-18338
나비	-18339
완전	-18340
외교	-18341
저의	-18342
택이	-18343
,19	-18344
▁At	-18345
▁알맞	-18346
▁일차	-18347
▁전위	-18348
달라는	-18349
약으로	-18350
이트를	-18351
▁방어를	-18352
▁시간과	-18353
▁취임한	-18354
▁포유류	-18355
▁피렌체	-18356
질에	-18357
▁공예	-18358
▁대덕	-18359
▁로비	-18360
▁말리	-18361
▁종신	-18362
▁주주	-18363
▁기록과	-18364
▁바다를	-18365
▁볼로냐	-18366
▁성명을	-18367
▁오일러	-18368
▁주지사	-18369
▁프랜차	-18370
▁발매됐다	-18371
늦게	-18372
하리	-18373
▁군용	-18374
▁냉전	-18375
▁대포	-18376
▁캐시	-18377
시간에	-18378
▁USB	-18379
▁미토콘	-18380
▁빠져나	-18381
▁연설을	-18382
▁조화를	-18383
▁펠리페	-18384
ichael	-18385
광주	-18386
협정	-18387
ham	-18388
ype	-18389
▁당황	-18390
▁민정	-18391
▁상록	-18392
▁시바	-18393
▁조계	-18394
▁카테	-18395
▁허블	-18396
화되고	-18397
▁위치로	-18398
▁주장도	-18399
▁패러디	-18400
적이라고	-18401
▁이산화탄	-18402
▁충청남도의	-18403
명도	-18404
업무	-18405
오게	-18406
우로	-18407
이론	-18408
Don	-18409
ila	-18410
▁BM	-18411
▁OB	-18412
▁때를	-18413
▁묻혀	-18414
▁신종	-18415
▁완결	-18416
▁요정	-18417
▁최장	-18418
▁편이	-18419
▁거쳤다	-18420
▁구조와	-18421
▁더글러스	-18422
▁지점에서	-18423
▁캐릭터가	-18424
▁Korea	-18425
▁네트워크를	-18426
메드	-18427
서비	-18428
오던	-18429
조지	-18430
창은	-18431
duc	-18432
▁Up	-18433
▁달에	-18434
▁당내	-18435
▁모차	-18436
▁미에	-18437
▁정읍	-18438
▁천사	-18439
웠으며	-18440
클라호	-18441
▁떠난다	-18442
▁세월호	-18443
▁의회가	-18444
▁제한이	-18445
▁도입했다	-18446
▁보호하고	-18447
▁연루되어	-18448
▁몹	-18449
근을	-18450
▁광년	-18451
▁말고	-18452
▁입는	-18453
▁적분	-18454
▁노선에	-18455
▁동메달	-18456
▁서초구	-18457
▁아들은	-18458
▁이론과	-18459
▁제안한	-18460
데자네이	-18461
사회주의	-18462
▁국회에서	-18463
▁라이브러	-18464
▁향토유적	-18465
▁Night	-18466
▁무산되었다	-18467
▁전라남도의	-18468
년엔	-18469
마니	-18470
제비	-18471
▁순차	-18472
▁알폰	-18473
▁청송	-18474
▁한가	-18475
▁IOC	-18476
▁기술과	-18477
▁단체는	-18478
▁루돌프	-18479
▁스트레	-18480
▁레스토랑	-18481
▁합격하여	-18482
제조	-18483
진구	-18484
쾌한	-18485
ION	-18486
▁뒤의	-18487
▁모신	-18488
▁불필	-18489
▁섞여	-18490
▁스텝	-18491
▁지는	-18492
▁타락	-18493
대학을	-18494
시간은	-18495
here	-18496
▁구조에	-18497
▁나누는	-18498
▁있듯이	-18499
▁행동이	-18500
삼국사기	-18501
▁적용되는	-18502
TF	-18503
독을	-18504
isc	-18505
▁고추	-18506
▁길다	-18507
▁빅뱅	-18508
▁어우	-18509
▁용서	-18510
▁일리	-18511
▁0.5	-18512
▁과정의	-18513
▁구단이	-18514
▁지원이	-18515
▁직후에	-18516
▁1874	-18517
▁중앙정보	-18518
▁인정받았다	-18519
▁파괴되었다	-18520
▁첸	-18521
가미	-18522
순이	-18523
▁귀속	-18524
▁대청	-18525
▁만날	-18526
▁보며	-18527
▁각지에	-18528
▁기억을	-18529
▁두각을	-18530
▁탁월한	-18531
법원에서	-18532
▁갈래	-18533
▁김천	-18534
▁신원	-18535
▁양대	-18536
▁열려	-18537
▁개봉된	-18538
▁공세를	-18539
▁몽골의	-18540
▁북서쪽	-18541
▁초콜릿	-18542
▁총애를	-18543
▁유명하며	-18544
▁완성되었다	-18545
·3	-18546
궤도	-18547
위치	-18548
피오	-18549
▁뉴턴	-18550
▁장원	-18551
▁틈을	-18552
▁교황은	-18553
▁무엇이	-18554
▁지나면	-18555
▁가르치는	-18556
▁도미니카	-18557
(0	-18558
군주	-18559
아카	-18560
타도	-18561
표의	-18562
Ste	-18563
▁거세	-18564
▁나지	-18565
▁성북	-18566
▁조현	-18567
▁파우	-18568
▁기호는	-18569
▁적당한	-18570
▁트럼프	-18571
▁증가했다	-18572
▁팔작지붕	-18573
▁경제적으로	-18574
망은	-18575
케의	-18576
활성	-18577
And	-18578
elf	-18579
▁법에	-18580
▁자민	-18581
▁한달	-18582
▁대사관	-18583
▁동서로	-18584
▁이름도	-18585
▁전기를	-18586
▁1840	-18587
▁컨테이너	-18588
▁쿠웨이트	-18589
▁플랫폼을	-18590
립트	-18591
층과	-18592
▁중등	-18593
▁지침	-18594
▁파면	-18595
ship	-18596
▁설계를	-18597
지방검찰청	-18598
▁제작하였다	-18599
▁스칸디나비아	-18600
▁맷	-18601
皇帝	-18602
니언	-18603
증과	-18604
타수	-18605
▁개미	-18606
▁발동	-18607
▁번도	-18608
▁예가	-18609
▁단체가	-18610
▁탤런트	-18611
▁데스크톱	-18612
고시	-18613
▁공고	-18614
▁군벌	-18615
▁나뭇	-18616
▁뚫고	-18617
▁조영	-18618
가들이	-18619
민들이	-18620
자리는	-18621
▁글자를	-18622
▁내린다	-18623
▁받아서	-18624
▁벌이는	-18625
(2007	-18626
(2008	-18627
▁1200	-18628
▁결승골을	-18629
매를	-18630
저를	-18631
토프	-18632
합성	-18633
▁거칠	-18634
▁나미	-18635
▁문정	-18636
▁평탄	-18637
▁혐오	-18638
르트는	-18639
orge	-18640
▁3-0	-18641
▁국내에	-18642
▁목요일	-18643
▁방사선	-18644
▁않았을	-18645
▁개칭되었다	-18646
unction	-18647
yle	-18648
▁긴키	-18649
▁설비	-18650
▁조항	-18651
▁혼혈	-18652
▁THE	-18653
▁소재한	-18654
▁영토로	-18655
▁행동은	-18656
▁미쓰비시	-18657
▁사이에서는	-18658
▁후쿠오카현	-18659
모어	-18660
틴은	-18661
▁나우	-18662
▁사의	-18663
▁임의	-18664
▁재팬	-18665
▁화해	-18666
천으로	-18667
▁von	-18668
▁갈라져	-18669
▁대사를	-18670
▁대전차	-18671
▁시기가	-18672
▁아이콘	-18673
▁인물의	-18674
형문화재	-18675
▁발행하는	-18676
▁예정이었다	-18677
▁중국에서는	-18678
DC	-18679
척이	-18680
▁위함	-18681
▁청량	-18682
왔으나	-18683
▁가문이	-18684
▁뛰어넘	-18685
▁생산이	-18686
▁우간다	-18687
▁작사가	-18688
▁투쟁을	-18689
대학으로	-18690
이탈리아	-18691
▁가운데에	-18692
▁명확하게	-18693
▁못하도록	-18694
▁받아들이지	-18695
사법	-18696
순의	-18697
오버	-18698
▁김선	-18699
▁부파	-18700
▁살짝	-18701
▁장녀	-18702
▁전하	-18703
▁중원	-18704
▁참의	-18705
▁파직	-18706
▁Wii	-18707
▁공헌을	-18708
▁샌디에	-18709
▁아들의	-18710
▁퍼스트	-18711
▁달라진다	-18712
▁대다수의	-18713
▁필수적인	-18714
궁에	-18715
손의	-18716
와서	-18717
▁모금	-18718
▁추존	-18719
▁것이기	-18720
▁경계에	-18721
▁기원후	-18722
▁마닐라	-18723
▁북동쪽	-18724
▁이사를	-18725
▁장치가	-18726
▁토너먼	-18727
▁덧붙였다	-18728
▁아들이며	-18729
▁이해하는	-18730
리쿠	-18731
▁내며	-18732
▁반죽	-18733
▁분수	-18734
▁유수	-18735
▁읽을	-18736
▁클루	-18737
▁한족	-18738
irst	-18739
▁과학의	-18740
▁박영효	-18741
▁반정부	-18742
▁원칙에	-18743
▁작전은	-18744
▁접근을	-18745
▁지분을	-18746
▁출전을	-18747
▁코호몰	-18748
▁패하여	-18749
▁핼	-18750
리면	-18751
잡지	-18752
~12	-18753
▁AG	-18754
▁as	-18755
▁남산	-18756
▁도루	-18757
▁레일	-18758
▁섬이	-18759
▁유역	-18760
나에서	-18761
드래곤	-18762
▁아무리	-18763
▁이뤄진	-18764
▁작가로	-18765
▁클리어	-18766
▁등에서는	-18767
춘추	-18768
▁대좌	-18769
▁옥타	-18770
▁최영	-18771
▁추계	-18772
스터의	-18773
▁사쓰마	-18774
▁게오르크	-18775
▁공간이다	-18776
▁판매되었다	-18777
락은	-18778
로폰	-18779
통에	-18780
훈의	-18781
히드	-18782
.10	-18783
olf	-18784
▁맞춤	-18785
▁산호	-18786
▁어리	-18787
▁안전을	-18788
▁채널을	-18789
▁카타르	-18790
▁셰익스피	-18791
▁아오모리	-18792
▁죽음으로	-18793
▁제시하였다	-18794
▁Record	-18795
▁임명되었으며	-18796
▁National	-18797
▁%	-18798
아미	-18799
▁동요	-18800
▁맥주	-18801
▁뱅크	-18802
▁습득	-18803
▁안고	-18804
년마다	-18805
ular	-18806
▁GNU	-18807
▁기지를	-18808
▁버스를	-18809
▁사후에	-18810
▁저지대	-18811
▁집합의	-18812
만으로는	-18813
arles	-18814
▁물리학자	-18815
▁아나운서	-18816
▁익스프레스	-18817
▁일반적이다	-18818
▁멍	-18819
▁죠	-18820
女子	-18821
비노	-18822
▁번갈	-18823
[...]
