<unk>	0
<s>	0
</s>	0
▁	-3.25183
이	-4.32003
▁영화	-4.32566
의	-4.57177
가	-4.63787
도	-4.65596
는	-4.74638
을	-4.92175
에	-4.97282
고	-5.00745
다	-5.019
은	-5.06124
지	-5.12314
한	-5.32399
▁너무	-5.32716
▁정말	-5.44456
를	-5.46166
만	-5.50933
▁이	-5.52863
▁진짜	-5.63875
로	-5.68003
나	-5.6862
게	-5.68861
영화	-5.73134
어	-5.92528
과	-5.92637
기	-5.96947
리	-5.97577
네	-5.99704
라	-6.01491
아	-6.06717
인	-6.0723
하고	-6.13326
으로	-6.13719
▁안	-6.15279
▁잘	-6.15369
서	-6.16354
▁왜	-6.18033
▁점	-6.19305
요	-6.23734
▁이런	-6.23983
와	-6.25011
들	-6.25781
▁아	-6.27716
▁그	-6.28604
▁다	-6.29254
▁더	-6.30513
에서	-6.31224
네요	-6.31917
▁수	-6.32275
해	-6.34653
▁그냥	-6.3781
자	-6.40361
거	-6.40866
스	-6.4106
하는	-6.43859
▁드라마	-6.44849
▁본	-6.45506
지만	-6.47157
면	-6.47999
음	-6.48599
수	-6.51633
▁보고	-6.54064
▁평점	-6.56047
니	-6.5773
▁연기	-6.59014
야	-6.59403
함	-6.6013
시	-6.61511
하	-6.62659
▁내	-6.63454
▁ᄏᄏ	-6.64545
▁좀	-6.65757
사	-6.66175
이다	-6.67036
▁이거	-6.68362
▁최고	-6.68593
▁개	-6.69021
▁한	-6.70326
하다	-6.70629
▁쓰레기	-6.70761
▁최고의	-6.71061
▁완전	-6.72366
대	-6.72748
▁봤는데	-6.73341
하게	-6.74041
▁참	-6.74919
▁영화를	-6.75699
진	-6.77959
데	-6.78129
구	-6.79357
▁스토리	-6.79926
▁없는	-6.79943
우	-6.80006
일	-6.80042
미	-6.80363
▁없다	-6.8188
임	-6.82277
ᄏᄏ	-6.82344
▁못	-6.82616
▁이건	-6.83076
▁내가	-6.8356
주	-6.84098
냐	-6.85056
보다	-6.85886
안	-6.86766
여	-6.87567
▁이게	-6.88188
드	-6.88801
▁영화가	-6.89162
는데	-6.89652
▁좋은	-6.89792
▁영화는	-6.90998
듯	-6.91829
보	-6.92155
▁나	-6.92352
할	-6.92671
성	-6.9386
▁있는	-6.94711
▁난	-6.94954
장	-6.95433
던	-6.96247
들이	-6.97234
▁이렇게	-6.97278
상	-6.98403
정	-6.99246
▁보는	-6.99614
해서	-7.00445
▁다시	-7.00545
적	-7.00928
▁평점이	-7.01045
보고	-7.03948
▁역시	-7.04148
▁재밌게	-7.0495
신	-7.05567
마	-7.05574
중	-7.06014
ᄏ	-7.06758
▁시간	-7.06904
까지	-7.07093
치	-7.07187
▁말	-7.07683
▁넘	-7.08497
▁뭐	-7.09736
려	-7.10415
▁오	-7.12201
트	-7.12313
랑	-7.12584
▁것	-7.12791
전	-7.13117
▁많이	-7.14212
▁재미	-7.14569
▁작품	-7.14581
건	-7.14685
질	-7.15291
▁감동	-7.17351
부	-7.1739
오	-7.17461
▁전	-7.18838
▁볼	-7.19723
러	-7.19867
습니다	-7.2023
▁별로	-7.20715
▁지	-7.21478
비	-7.23259
▁보	-7.2366
▁마지막	-7.23782
▁저	-7.24053
▁ᄏᄏᄏ	-7.24404
▁하	-7.26037
▁꼭	-7.26086
때	-7.26786
ᅲᅲ	-7.27084
인데	-7.27586
▁또	-7.27777
어요	-7.27961
했다	-7.28136
용	-7.2821
소	-7.28774
▁아깝다	-7.28968
히	-7.29108
것	-7.2977
▁가	-7.30306
물	-7.30548
▁주	-7.3108
말	-7.31101
식	-7.31948
▁ᅲᅲ	-7.32415
▁감독	-7.32482
감	-7.32828
내	-7.32906
▁무	-7.33428
적인	-7.33607
그	-7.33989
원	-7.34287
▁가장	-7.34668
▁대	-7.35029
▁하나	-7.35097
▁액션	-7.35129
▁ᅳᅳ	-7.3514
화	-7.36287
ᄏᄏᄏ	-7.36994
선	-7.37256
▁생각	-7.37583
▁기대	-7.3842
진짜	-7.38423
▁명작	-7.38967
▁별	-7.39088
▁이야기	-7.40142
개	-7.40236
라고	-7.40291
입니다	-7.40382
제	-7.40988
▁기	-7.41094
영	-7.41137
세	-7.41497
▁ᄏ	-7.41766
점	-7.42168
줄	-7.43448
같은	-7.43744
작	-7.43751
▁하는	-7.43823
▁그리고	-7.44194
▁없고	-7.44395
하지	-7.44541
▁보면	-7.44827
너무	-7.45343
▁무슨	-7.45349
▁할	-7.45526
더	-7.46092
무	-7.46115
▁지금	-7.46256
긴	-7.46822
부터	-7.46833
좀	-7.46895
군	-7.47647
▁일	-7.48999
▁한국	-7.49202
▁짱	-7.49646
본	-7.49856
으면	-7.49961
▁만든	-7.50116
▁중	-7.50319
걸	-7.50387
▁비	-7.50915
▁느낌	-7.51046
▁배우	-7.51212
▁사	-7.5135
▁미	-7.51535
없는	-7.52152
디	-7.52209
▁조	-7.52436
▁분	-7.52514
씨	-7.52561
▁다른	-7.5312
▁말이	-7.53163
▁김	-7.53342
드라마	-7.53794
ᅳᅳ	-7.53863
▁와	-7.53998
▁사랑	-7.54171
▁처음	-7.543
당	-7.54928
조	-7.55041
▁자	-7.55328
란	-7.55571
▁좋아	-7.55954
정말	-7.57378
▁좋다	-7.58057
▁아니	-7.58271
▁유	-7.58611
있는	-7.59446
연	-7.59454
이나	-7.59583
바	-7.59612
유	-7.59913
남	-7.60049
▁내용	-7.60501
▁ᄒᄒ	-7.6052
타	-7.60817
된	-7.61005
▁영화다	-7.61049
▁정	-7.61171
▁년	-7.61179
르	-7.612
모	-7.61794
▁연출	-7.61813
래	-7.62849
▁일본	-7.63025
난	-7.63923
▁끝까지	-7.64016
▁재밌다	-7.64066
▁같은	-7.64284
레	-7.64289
호	-7.64533
크	-7.64785
에게	-7.64909
동	-7.65137
▁편	-7.65296
두	-7.6607
▁봐도	-7.66561
죠	-7.66703
▁봤다	-7.67099
분	-7.68005
저	-7.68552
운	-7.6863
▁돈	-7.68772
▁솔직히	-7.69395
위	-7.69471
▁있다	-7.69514
▁시	-7.69568
한다	-7.69641
▁뭔가	-7.69711
▁재미있게	-7.69716
▁해	-7.7008
심	-7.70248
▁때	-7.7062
들의	-7.70847
▁두	-7.70857
▁코미디	-7.71111
▁대박	-7.71119
잘	-7.71485
연기	-7.7154
▁거	-7.72187
라는	-7.72356
린	-7.7275
▁여자	-7.72853
▁마	-7.72979
▁아주	-7.72999
준	-7.73008
▁신	-7.73067
▁최악	-7.73281
▁이영화	-7.73674
간	-7.74092
길	-7.74925
▁최악의	-7.75196
▁애	-7.75248
▁이걸	-7.75362
합니다	-7.75389
▁남	-7.75628
▁알	-7.75879
되는	-7.7642
판	-7.76587
었다	-7.76726
경	-7.77498
▁제	-7.7839
인지	-7.78698
▁한번	-7.78827
단	-7.78851
▁전혀	-7.79032
▁어	-7.79074
하나	-7.8013
인가	-7.8016
재	-7.80336
▁구	-7.80437
▁스	-7.8054
했던	-7.80569
노	-7.80685
때문에	-7.80888
▁줄	-7.81541
▁같다	-7.81631
▁재미없다	-7.81806
▁보기	-7.82259
▁내용이	-7.82371
▁세	-7.82404
봤는데	-7.82496
엔	-7.82584
▁부	-7.82681
처럼	-7.82835
▁반	-7.82956
워	-7.83049
▁모두	-7.83121
님	-7.83316
▁후	-7.83482
▁하지만	-7.83642
날	-7.83847
발	-7.83981
루	-7.84378
명	-7.84437
▁대한	-7.84798
▁굿	-7.8501
▁추천	-7.85038
이랑	-7.85088
울	-7.85205
▁급	-7.8554
▁장면	-7.85753
희	-7.86023
생	-7.8603
▁사람	-7.86384
▁모	-7.87457
▁번	-7.87765
▁계속	-7.8778
프	-7.88121
▁인생	-7.88408
ᄒᄒ	-7.88441
티	-7.88452
피	-7.88462
▁보다	-7.88509
면서	-7.88947
▁그래도	-7.88963
까	-7.8898
▁이상	-7.89078
따	-7.89413
▁딱	-7.89498
▁많은	-7.90021
▁배우들	-7.90034
하면	-7.90233
▁않고	-7.90304
▁실망	-7.90403
▁내내	-7.90589
▁나오는	-7.9096
며	-7.91019
구나	-7.91173
방	-7.91283
든	-7.91343
관	-7.91532
민	-7.91581
▁어떻게	-7.91785
편	-7.91942
▁우리	-7.91979
하지만	-7.92002
▁아니다	-7.92034
급	-7.92226
▁아름다운	-7.92306
없다	-7.92315
▁박	-7.92409
못	-7.9286
▁소	-7.93057
ᅲ	-7.93068
▁공포	-7.93391
▁연기가	-7.93478
터	-7.93528
▁스릴러	-7.93559
▁되	-7.9375
▁바	-7.93885
▁제일	-7.94153
▁아니라	-7.94235
들은	-7.94653
살	-7.94741
이라	-7.94952
파	-7.95303
▁만드는	-7.95352
박	-7.95741
애	-7.95846
하네	-7.95943
▁아닌	-7.96025
국	-7.96222
림	-7.96285
▁우	-7.9663
카	-7.96869
▁이제	-7.9734
반	-7.97413
▁건	-7.97507
겠다	-7.97721
다니	-7.98051
차	-7.98075
즈	-7.98219
문	-7.98234
▁전개	-7.98387
▁싶다	-7.98461
▁보다가	-7.98586
형	-7.98686
망	-7.98747
공	-7.98768
▁않은	-7.99005
▁장	-7.99029
▁조금	-7.99318
겨	-7.99599
▁않는	-7.9964
▁끝	-7.99797
없이	-7.99888
▁개봉	-7.99889
▁근데	-8.00326
년	-8.00397
▁듯	-8.00401
▁내용도	-8.00676
▁배	-8.01347
키	-8.01393
▁여	-8.01448
달	-8.01626
▁아까운	-8.01654
▁음악	-8.01659
ᄒ	-8.01853
▁살	-8.01897
짱	-8.01946
▁연기도	-8.02237
▁재미도	-8.02299
▁속	-8.02411
▁요즘	-8.02598
▁여운이	-8.03185
▁시간이	-8.03313
볼	-8.03401
▁원	-8.03763
현	-8.03913
보는	-8.03927
▁수준	-8.04144
▁그런	-8.04302
생각	-8.04438
▁점도	-8.04584
▁반전	-8.04702
▁애니	-8.04789
지는	-8.04795
▁강	-8.04988
▁절대	-8.05056
으	-8.05574
▁나는	-8.0562
버	-8.05791
▁ᄏᄏᄏᄏ	-8.05956
ᅮᅮ	-8.05977
▁욕	-8.06084
▁현실	-8.06121
▁아직도	-8.06146
후	-8.06298
▁모든	-8.06376
져	-8.06566
▁감독이	-8.06623
▁주인공	-8.07355
▁재밌어요	-8.07531
▁남는	-8.07955
실	-8.08001
▁막장	-8.08359
▁만들어	-8.08606
▁엄청	-8.08706
어서	-8.08718
▁오랜만에	-8.0893
▁이해	-8.0897
▁스토리가	-8.09216
▁걍	-8.09217
보면	-8.09263
▁년대	-8.09299
▁연기력	-8.09755
니까	-8.09923
산	-8.10502
▁때문에	-8.10532
▁명	-8.10627
▁울	-8.10704
▁멋진	-8.10705
속	-8.10705
▁영화라고	-8.10856
▁남자	-8.11521
참	-8.11948
하네요	-8.12051
ᄏᄏᄏᄏ	-8.12902
▁시리즈	-8.12912
▁하고	-8.12923
▁좋고	-8.12925
▁소재	-8.13002
되	-8.13405
▁불	-8.13453
다가	-8.13482
▁영	-8.13595
▁재밌	-8.13617
▁망	-8.137
▁제대로	-8.14103
이란	-8.14225
▁눈물	-8.14376
매	-8.14417
▁초	-8.14441
▁공포영화	-8.14461
왜	-8.14528
▁차라리	-8.14788
스토리	-8.14794
▁영화입니다	-8.14877
적으로	-8.14926
지도	-8.15167
니다	-8.15233
▁나온	-8.15466
▁결말	-8.15508
▁재	-8.15656
▁나도	-8.15677
▁나름	-8.15742
토	-8.15748
한테	-8.15911
뿐	-8.15953
체	-8.16019
▁파	-8.1603
▁진심	-8.16061
해요	-8.1611
▁가족	-8.16132
▁좋았다	-8.16218
▁수작	-8.16268
정도	-8.163
▁최고다	-8.16379
극	-8.16405
▁지루하고	-8.16439
▁발	-8.16444
▁도대체	-8.16784
▁뻔한	-8.17143
▁주는	-8.17225
던데	-8.1734
이라는	-8.1743
▁원작	-8.1743
▁눈	-8.17569
꺼	-8.17663
태	-8.17666
▁공감	-8.17679
▁지루한	-8.17746
▁기억	-8.1799
▁나오	-8.18049
▁정도	-8.18943
▁스토리도	-8.19118
▁걸	-8.19349
▁미국	-8.19376
▁있	-8.19392
예	-8.19837
▁웃	-8.19932
밖에	-8.20076
인듯	-8.20168
▁봤습니다	-8.20382
▁재밌는	-8.20394
▁지루함	-8.20441
평점	-8.20477
봤다	-8.20525
코	-8.20831
▁봤던	-8.20893
역	-8.21211
▁재미가	-8.21354
▁공	-8.21359
넘	-8.21382
▁날	-8.21397
▁아니고	-8.2141
하기	-8.21453
▁없음	-8.21705
▁노	-8.22042
▁쓰	-8.22254
최고	-8.22264
▁감독의	-8.22421
▁보세요	-8.22629
▁성	-8.22873
▁심	-8.22885
스트	-8.23019
▁인	-8.23733
배	-8.23828
려고	-8.23852
▁기분	-8.23979
▁괜찮은	-8.23979
▁필요	-8.24049
▁싶은	-8.24168
▁피	-8.243
▁되는	-8.24353
▁캐릭터	-8.24369
▁좋아하는	-8.24403
감동	-8.24652
▁영상	-8.24712
▁졸작	-8.25008
는거	-8.25013
류	-8.25096
포	-8.25106
구만	-8.25395
▁시작	-8.25445
▁알바	-8.25741
▁보면서	-8.25856
▁제목	-8.26248
▁대사	-8.26712
▁후회	-8.26947
▁가슴	-8.26975
▁뭘	-8.27167
▁긴장감	-8.27246
▁우리나라	-8.27268
▁동	-8.27293
종	-8.2737
▁예	-8.27482
쳐	-8.27507
▁진	-8.27571
했는데	-8.27718
▁점이	-8.27724
▁마지막에	-8.27756
었는데	-8.27789
▁애니메이션	-8.28243
죽	-8.28369
했	-8.28709
▁머	-8.28746
것도	-8.28821
더라	-8.29053
▁뭔	-8.29212
없	-8.29557
▁보는내내	-8.29579
▁강추	-8.29651
먹	-8.29668
있다	-8.29817
▁존나	-8.30098
▁막	-8.3012
▁기억에	-8.30139
배우	-8.30146
건지	-8.30213
테	-8.30335
잼	-8.30566
입	-8.30668
라도	-8.30757
석	-8.30812
봄	-8.31096
해도	-8.31244
▁차	-8.31251
▁지루하다	-8.31306
리는	-8.31567
그냥	-8.3159
▁표현	-8.31784
근	-8.31789
▁연	-8.31796
▁봤어요	-8.31914
집	-8.31917
▁없	-8.31954
▁시나리오	-8.31958
▁맞	-8.322
였다	-8.32302
녀	-8.32461
▁허	-8.32708
▁이해가	-8.32754
▁만들	-8.32756
이고	-8.32787
사람	-8.32801
▁그저	-8.32962
▁몇	-8.33279
재밌	-8.33374
▁영화의	-8.33399
불	-8.33436
움	-8.33528
▁들	-8.33534
▁배우들의	-8.33786
▁될	-8.33919
투	-8.33984
는게	-8.34206
▁코믹	-8.3437
중에	-8.34589
알	-8.34797
▁함께	-8.34878
금	-8.34893
▁만화	-8.34955
주는	-8.35233
감독	-8.3531
▁캐스팅	-8.36153
악	-8.36453
릴	-8.3657
▁ᅮᅮ	-8.36694
설	-8.36723
▁극장에서	-8.3685
▁특히	-8.36887
▁좋아요	-8.37284
▁노래	-8.37299
력	-8.37311
이런	-8.37641
▁사람들	-8.37769
작품	-8.37845
▁못한	-8.37865
사랑	-8.38189
학	-8.38349
장면	-8.3836
▁졸	-8.38394
강	-8.38401
이라고	-8.38452
▁영화에	-8.38674
▁한국영화	-8.38706
능	-8.38942
▁재밌음	-8.3912
통	-8.39159
▁잼	-8.39246
만큼	-8.39288
않	-8.39293
이네	-8.39357
▁더빙	-8.39405
▁않	-8.39641
격	-8.39707
▁제발	-8.39853
▁ᅲ	-8.39906
▁점은	-8.39922
▁오늘	-8.40116
환	-8.40185
▁개인적으로	-8.40413
너	-8.40423
▁위	-8.40431
재미	-8.41088
번	-8.41153
교	-8.41409
▁몰입도	-8.41712
른	-8.41785
회	-8.41799
락	-8.41889
▁같	-8.42047
▁별점	-8.42239
았다	-8.42253
론	-8.42424
했음	-8.42598
▁큰	-8.42723
절	-8.42927
봐도	-8.42929
▁인간	-8.43088
난다	-8.43126
▁선	-8.4313
봐	-8.43182
▁사실	-8.43408
▁모르겠다	-8.43412
보단	-8.43429
▁없이	-8.43472
▁매우	-8.43813
행	-8.43859
▁안되는	-8.43971
대로	-8.4401
을까	-8.44145
▁결국	-8.44149
▁ᄒ	-8.44165
들을	-8.44462
쓰	-8.44649
케	-8.44712
▁죽	-8.44785
양	-8.44793
▁된	-8.44864
▁봐야	-8.44946
직	-8.45034
친	-8.4505
▁예술	-8.45156
▁호	-8.45239
▁최	-8.45401
계	-8.459
▁화	-8.45904
머	-8.46008
▁어떤	-8.46043
군요	-8.46091
▁점대	-8.46213
액션	-8.46428
▁베	-8.4646
▁영화로	-8.46682
▁마음이	-8.46751
김	-8.47266
▁총	-8.47349
▁억지	-8.47446
짐	-8.47562
▁타	-8.47763
평	-8.47778
▁아이	-8.47937
▁분위기	-8.4807
▁노잼	-8.48176
▁미친	-8.48227
갈	-8.48647
버린	-8.48659
담	-8.48862
잡	-8.4888
▁감동이	-8.49093
▁재밌고	-8.49104
이야	-8.49161
▁매	-8.49201
천	-8.49246
돈	-8.49295
이네요	-8.4954
▁그만	-8.49722
▁길	-8.49777
▁생각이	-8.49789
▁걸작	-8.49803
▁준	-8.49847
▁간	-8.50116
등	-8.50205
된다	-8.50468
▁물	-8.50494
▁상	-8.50628
▁류	-8.50663
▁가슴이	-8.50691
▁않는다	-8.50809
슨	-8.50982
▁웃기	-8.51042
▁영화네요	-8.51098
시간	-8.51164
열	-8.51262
었	-8.51298
▁연기는	-8.5139
▁행복	-8.51408
▁너무나	-8.51494
씬	-8.51501
▁아무리	-8.51548
▁재미없음	-8.517
증	-8.51757
업	-8.51818
좋아	-8.52131
인줄	-8.52131
글	-8.52233
▁보지	-8.5235
▁한다	-8.52692
▁기억이	-8.52702
▁내용은	-8.52764
▁위한	-8.52796
▁치	-8.52932
▁꽤	-8.53317
▁따라	-8.53345
▁누가	-8.53482
는지	-8.53492
▁쓰레기영화	-8.5361
▁사람이	-8.53687
▁결말이	-8.53842
쓰레기	-8.53957
기는	-8.54072
칠	-8.54994
▁감동적인	-8.55033
▁어설픈	-8.55164
▁로맨스	-8.55169
하면서	-8.55178
▁포스터	-8.55188
▁토	-8.55205
▁야	-8.55215
▁똥	-8.55401
름	-8.55403
▁로	-8.55428
▁간만에	-8.55599
새	-8.55798
▁대체	-8.56071
▁눈물이	-8.5613
▁있고	-8.56156
▁너	-8.56324
▁지루	-8.56389
이었다	-8.56396
완전	-8.56635
영화는	-8.56655
▁갈수록	-8.56741
▁엔딩	-8.56758
▁얼마나	-8.56772
▁재미있는	-8.56778
▁잔잔한	-8.56962
거야	-8.57014
▁영화중	-8.57113
맨	-8.57178
▁그나마	-8.57335
▁아쉽다	-8.57359
▁없어	-8.57401
▁하나도	-8.57574
▁아무	-8.57588
▁매력	-8.57848
었던	-8.57881
▁음	-8.57927
▁재미있다	-8.58026
▁성룡	-8.58033
기도	-8.58161
▁발연기	-8.58275
▁평	-8.58294
▁보게	-8.58304
▁애들	-8.58309
끼	-8.58436
▁같이	-8.58451
▁문제	-8.58543
슬	-8.58583
▁단	-8.59113
▁재미없	-8.59171
▁만	-8.59191
▁않다	-8.59193
▁없었다	-8.59354
▁찾아	-8.59422
록	-8.5977
였	-8.59844
▁입	-8.60186
▁시즌	-8.60261
▁적	-8.60273
▁웃음	-8.60346
잇	-8.60614
었음	-8.60629
▁훨씬	-8.60652
▁감동도	-8.60869
내용	-8.60885
느낌	-8.61012
▁영화관에서	-8.61059
▁밖에	-8.61102
뭐	-8.61105
건가	-8.61199
온	-8.61273
나는	-8.61366
▁마음	-8.61499
▁싶	-8.61659
기에	-8.61747
뻔	-8.61789
소리	-8.62335
▁스릴	-8.62364
창	-8.62427
이거	-8.62666
▁정신	-8.62723
권	-8.62818
놓고	-8.63158
베	-8.63544
또	-8.63549
▁그렇게	-8.6371
▁구성	-8.63902
▁좋은데	-8.63971
훈	-8.64108
하며	-8.64179
이지만	-8.64299
같	-8.64324
▁있을	-8.64709
플	-8.64808
▁잠	-8.64818
▁출연	-8.64851
▁재미는	-8.64873
약	-8.64923
아니	-8.65015
▁있었	-8.65094
▁회	-8.65279
께	-8.65465
수가	-8.65553
▁경	-8.65587
▁당	-8.65868
▁진정한	-8.66015
▁생각보다	-8.66059
었어요	-8.66138
됨	-8.66237
▁주연	-8.66274
▁그래서	-8.66324
▁위해	-8.66335
▁느낌이	-8.66337
병	-8.66445
▁맘에	-8.66478
나요	-8.665
▁중국	-8.6663
▁재밌네요	-8.66673
▁것이	-8.66713
범	-8.66953
▁잡	-8.6706
▁백	-8.67207
▁약	-8.67365
막	-8.67416
이상	-8.67426
▁외	-8.67461
레이	-8.67528
▁뿐	-8.67554
▁높	-8.67567
▁좋	-8.67691
결	-8.67855
브	-8.67935
▁다큐	-8.67944
▁뭐야	-8.67951
거지	-8.68053
수준	-8.68085
▁재미없는	-8.68345
ᄋ	-8.68425
▁올	-8.68514
▁재밋	-8.68626
▁허접	-8.68962
짜	-8.68983
▁존	-8.69041
해야	-8.69252
▁극	-8.69259
표	-8.69264
짓	-8.69265
▁추	-8.69271
보니	-8.69342
승	-8.69549
▁알고	-8.69594
▁의미	-8.69898
▁전쟁	-8.70003
블	-8.70277
▁실	-8.70365
▁메	-8.70426
어야	-8.7053
▁카	-8.70535
▁볼만한	-8.70953
받	-8.71068
▁당시	-8.71123
▁오래	-8.71171
▁약간	-8.71229
언	-8.71235
▁포	-8.71345
듯한	-8.71406
▁먹	-8.71507
▁점수	-8.71648
▁코	-8.72292
이지	-8.72329
▁장난	-8.72382
라서	-8.72496
▁네이버	-8.72541
치고	-8.72888
기대	-8.72945
▁보여주는	-8.73243
▁준다	-8.73344
욕	-8.73493
▁안되	-8.73505
▁재미있어요	-8.73624
있	-8.74022
리고	-8.74042
▁들어	-8.7416
▁같아요	-8.742
이야기	-8.74312
에도	-8.7448
▁나왔	-8.74599
▁전부	-8.74624
해라	-8.74691
▁꿀잼	-8.74699
백	-8.74745
린다	-8.74858
진다	-8.74934
순	-8.75101
▁배우들이	-8.75362
싶	-8.75379
느	-8.75394
각	-8.75432
났	-8.7545
▁영화였다	-8.75603
▁첨	-8.75711
▁아님	-8.75754
▁다들	-8.75756
기를	-8.75792
▁주고	-8.75853
▁멜로	-8.75894
▁감	-8.76007
▁있을까	-8.76453
라면	-8.76455
하는데	-8.7647
출	-8.76612
▁설정	-8.76664
▁악	-8.76747
▁뭐지	-8.76772
슴	-8.76889
였음	-8.76921
▁스토리는	-8.7718
색	-8.77195
아서	-8.77266
만들	-8.77494
없고	-8.77531
덕	-8.7766
▁갈	-8.77837
될	-8.7787
기만	-8.77954
▁자체	-8.77963
했지만	-8.77973
이건	-8.78081
▁잼있	-8.7814
추	-8.78261
▁어느	-8.78592
▁존재	-8.78615
치는	-8.78822
다고	-8.7892
▁영화임	-8.78967
▁감동을	-8.7899
▁이런영화	-8.78999
▁충격	-8.7908
▁추억	-8.79083
처	-8.79186
▁글	-8.7926
빈	-8.79391
▁영상미	-8.7944
잖아	-8.79538
▁연기를	-8.7962
▁엄마	-8.79636
▁평가	-8.79967
련	-8.80004
▁작가	-8.80133
나오는	-8.80171
▁초딩	-8.80204
혜	-8.80217
ᄀ	-8.80256
웃	-8.80326
▁중간에	-8.80344
▁생각을	-8.80421
▁손	-8.80436
보기	-8.80461
▁만점	-8.80576
맞	-8.80883
▁봐라	-8.81011
졌	-8.81055
합	-8.81083
▁관객	-8.81183
▁어디서	-8.81231
▁작	-8.81237
▁나와서	-8.81277
▁여주인공	-8.81316
▁봤음	-8.81328
션	-8.81454
▁감성	-8.81479
▁바로	-8.81494
▁크	-8.81498
▁판타지	-8.81586
쉬	-8.81883
▁봤지만	-8.81895
▁맛	-8.81965
재미있	-8.81983
여자	-8.82052
혀	-8.82157
겠	-8.82217
할때	-8.82298
▁이영화를	-8.8237
▁모습	-8.82374
땜에	-8.82441
▁아까움	-8.82512
효	-8.82704
▁너무너무	-8.8272
▁재미있	-8.8287
▁뭐냐	-8.82887
▁이딴	-8.82896
▁힘	-8.83065
▁좋은영화	-8.83163
▁영화인데	-8.83221
▁높은	-8.83236
▁줄거리	-8.83298
▁요	-8.83317
이라도	-8.83331
▁다음	-8.83334
▁비해	-8.83402
영화를	-8.83406
▁각본	-8.83415
▁얼굴	-8.8347
▁나올	-8.83497
스러운	-8.83513
눈	-8.83588
숙	-8.836
▁소리	-8.83673
ᅮ	-8.83778
▁열	-8.8381
겠지	-8.83912
퍼	-8.83939
것이	-8.84059
왕	-8.84101
으나	-8.84138
▁나이	-8.84199
향	-8.84214
있고	-8.84305
모르	-8.84636
빠	-8.84883
▁이름	-8.84907
별로	-8.84939
습	-8.84942
먼	-8.84961
▁여기	-8.84971
▁생각하게	-8.84998
렸	-8.85057
영화가	-8.85138
찬	-8.85149
철	-8.85162
▁비디오	-8.85233
광	-8.85273
▁상당히	-8.85346
▁그대로	-8.85391
라니	-8.85435
커	-8.85438
적이	-8.85466
더니	-8.85583
▁얘기	-8.85924
▁다시봐도	-8.86017
▁많	-8.86129
▁레	-8.86212
▁딸	-8.86231
햇	-8.86247
▁게	-8.86285
좋	-8.86328
▁봐서	-8.86595
좋은	-8.86687
초	-8.86798
▁역	-8.86884
▁끝나	-8.86936
▁좋네요	-8.86939
존	-8.86967
▁대단한	-8.86971
별	-8.87036
▁버	-8.87141
길래	-8.87182
▁거의	-8.87249
▁아직	-8.87251
▁질	-8.87473
▁혼자	-8.87573
줘	-8.87676
그리고	-8.87694
▁친구	-8.88064
▁아이들	-8.8822
탄	-8.88278
견	-8.88369
엇	-8.88554
▁원작을	-8.88578
전개	-8.88593
써	-8.88605
▁역사	-8.88677
▁비교	-8.88708
낸	-8.88798
료	-8.88809
탈	-8.88861
해지는	-8.88869
▁장르	-8.88871
익	-8.88899
▁재밌는데	-8.88979
보다는	-8.89144
▁봐	-8.89153
▁짜증	-8.89185
▁언제	-8.89587
▁봄	-8.89605
▁왕	-8.89648
▁삼류	-8.8972
▁등	-8.89867
▁재밌었다	-8.89945
▁종	-8.90003
▁휴	-8.90022
▁여배우	-8.90095
이라면	-8.90107
▁그러	-8.9021
채	-8.90219
메	-8.90235
▁같은데	-8.90324
▁사회	-8.90363
▁어릴때	-8.90364
▁헐	-8.904
없음	-8.9043
들어	-8.90522
했어요	-8.90578
▁창	-8.90587
최악	-8.90731
▁집중	-8.90822
아깝다	-8.90849
▁했는데	-8.90855
▁낫다	-8.90995
대박	-8.91068
▁점을	-8.91168
▁예상	-8.91258
겟	-8.91441
▁마음에	-8.91509
▁옛날	-8.91515
▁팬	-8.91698
▁달	-8.91719
분들	-8.91747
찍	-8.91747
곡	-8.91915
▁주제	-8.91994
▁몸	-8.92288
지루	-8.92303
▁윤	-8.92434
▁유치한	-8.92481
주의	-8.92519
▁이것도	-8.92743
▁훌륭한	-8.92792
▁했다	-8.92826
▁변	-8.92948
▁누구	-8.9299
▁몰입	-8.92999
▁흥행	-8.93074
▁제작	-8.93138
한거	-8.93179
할수	-8.93243
복	-8.93255
고싶다	-8.93361
▁대해	-8.93479
▁감독님	-8.9351
패	-8.93556
는건	-8.93768
▁머리	-8.93811
▁볼만	-8.93818
▁흠	-8.93848
같이	-8.93891
마지막	-8.93964
▁빨리	-8.93996
씩	-8.9401
▁그닥	-8.94144
▁통	-8.94216
▁따뜻한	-8.94243
나오	-8.94257
▁부족	-8.94371
▁년이	-8.94376
▁뭐가	-8.94391
츠	-8.94496
▁장면이	-8.94542
추천	-8.94619
목	-8.94679
남자	-8.94775
▁사람들이	-8.94861
▁깨	-8.94921
▁굉장히	-8.94977
▁새로운	-8.95
▁극장판	-8.95012
▁없네	-8.95045
▁ᄍᄍ	-8.95163
▁된다	-8.95203
▁멋있	-8.95219
▁천	-8.95242
▁평점을	-8.95276
▁따	-8.95482
▁살아	-8.95643
▁실화	-8.95698
▁만들었	-8.95727
▁배경	-8.95739
▁자기	-8.95912
▁두번	-8.9602
놈	-8.96059
▁것을	-8.96084
▁유치	-8.96302
근데	-8.96308
▁패	-8.96383
▁말도	-8.9643
잔	-8.96532
윤	-8.96601
▁더럽게	-8.96615
▁힘들	-8.96769
듬	-8.96785
앗	-8.96888
▁방	-8.9701
▁한마디로	-8.97076
▁나의	-8.97113
을때	-8.97129
▁연출력	-8.97314
▁순	-8.97344
ᅳ	-8.97354
▁삼	-8.9737
징	-8.97383
▁예전에	-8.97418
▁첫	-8.97428
▁데	-8.97534
▁보니	-8.97652
▁성우	-8.97684
▁나와	-8.98036
이라니	-8.98042
법	-8.98093
건데	-8.98119
▁흥미진진	-8.98195
척	-8.9827
▁에서	-8.98337
땐	-8.98343
▁초반	-8.98376
한영화	-8.98451
▁암	-8.98453
끝	-8.98533
명작	-8.98546
▁그러나	-8.98613
본다	-8.98614
▁저런	-8.9865
▁담	-8.98716
▁낮	-8.98733
▁양	-8.9882
▁화면	-8.9882
올	-8.98925
▁어디	-8.99286
▁지루해	-8.99306
▁슬픈	-8.99409
▁싸	-8.99494
침	-8.99497
구요	-8.99539
▁그런지	-8.99572
▁으	-8.99737
▁않았	-8.99759
조차	-8.99826
▁웃긴	-8.99859
허	-9.00014
▁처음부터	-9.00163
▁그리	-9.00223
▁돈주고	-9.00251
▁빠져	-9.00373
봐서	-9.00377
쪽	-9.00423
▁안된다	-9.00512
▁하지	-9.00516
▁좋음	-9.00712
했습니다	-9.00792
재밋	-9.00806
▁것도	-9.00861
▁산	-9.00878
▁재미없어	-9.00887
▁상황	-9.00935
▁봤네요	-9.01011
▁완벽한	-9.01111
귀	-9.01133
동안	-9.01186
다는	-9.01266
▁리	-9.01407
술	-9.01502
만으로도	-9.01583
▁나온다	-9.01641
▁완벽	-9.01662
▁편이	-9.01741
들도	-9.01797
▁항상	-9.01964
▁세계	-9.02102
▁충분히	-9.02275
▁만들지	-9.02325
적이고	-9.02335
봐라	-9.02344
▁제가	-9.02384
시리즈	-9.02386
▁있지만	-9.02419
념	-9.0247
스럽다	-9.02532
▁못하는	-9.02561
▁그래픽	-9.02582
▁일본영화	-9.02613
▁떨	-9.02775
다시	-9.02776
▁병맛	-9.02789
▁이영화는	-9.02811
▁찾	-9.02899
▁평점에	-9.02965
▁좋겠다	-9.02991
▁무조건	-9.03001
도없고	-9.03011
▁불륜	-9.03013
▁점점	-9.03033
▁관	-9.03276
필	-9.03295
▁교훈	-9.03337
하냐	-9.03337
팬	-9.03403
청	-9.03456
▁아버지	-9.03496
하자	-9.0355
웃음	-9.03583
▁현	-9.03592
런	-9.03642
성이	-9.03644
▁엄청난	-9.03649
▁정도로	-9.03711
만든	-9.03716
▁있어	-9.03794
준다	-9.0408
같다	-9.04364
▁재미있고	-9.04463
▁잘못	-9.04491
겠지만	-9.04504
야지	-9.04546
▁괜찮	-9.04555
▁돌아	-9.04599
만한	-9.0464
▁만족	-9.04652
▁낮은	-9.04664
▁ᄒᄒᄒ	-9.04676
▁망작	-9.04699
에선	-9.04752
거냐	-9.04813
▁재밌어	-9.04831
간다	-9.04966
▁돈이	-9.04972
엉	-9.05012
리가	-9.05078
▁바보	-9.05146
▁코메디	-9.0536
▁믿	-9.0555
멋	-9.0558
▁저질	-9.05603
▁감동적이	-9.05605
▁도저히	-9.05647
▁자체가	-9.05802
▁확	-9.05808
▁찍	-9.05939
▁이번	-9.05973
▁돌	-9.05993
외	-9.06027
▁뒤	-9.06037
▁지금까지	-9.06087
▁끌	-9.06106
재미없	-9.06188
▁무서운	-9.0633
많	-9.06458
▁생	-9.06496
이에요	-9.06561
▁없어서	-9.06585
삼	-9.06598
을듯	-9.06608
▁영화도	-9.0663
▁형	-9.06779
▁설	-9.06852
▁바라	-9.06855
▁여주	-9.07002
튼	-9.07038
왔	-9.07071
▁괜히	-9.07269
처음	-9.07521
▁하다	-9.07612
사람들	-9.07614
▁꿈	-9.07704
▁광	-9.07842
▁유머	-9.08037
이냐	-9.08045
▁극장	-9.08195
좋다	-9.08199
▁편은	-9.08287
▁볼수	-9.08346
▁밀	-9.08369
▁있었다	-9.08389
▁전형적인	-9.08392
▁시절	-9.08399
틀	-9.08402
▁어렸을때	-9.08443
얼	-9.08451
하시	-9.08461
▁속편	-9.08473
▁영화보다	-9.08503
▁일단	-9.08583
▁참고	-9.08643
나라	-9.08704
셨	-9.08708
정도로	-9.08845
시키	-9.08862
굿	-9.08951
▁저는	-9.09005
였는데	-9.09079
▁대작	-9.09159
거다	-9.0921
▁소설	-9.09233
▁킬링타임용	-9.093
배우들	-9.09472
▁있어서	-9.09512
▁부족한	-9.09515
졌다	-9.09538
▁힘든	-9.09638
들에게	-9.09709
내가	-9.09726
▁교	-9.09748
▁모르고	-9.09827
세요	-9.09888
▁알았다	-9.09967
쯤	-9.09974
▁새	-9.09985
▁반전이	-9.10081
네여	-9.10093
▁이정도	-9.10094
▁좋았어요	-9.10109
▁진실	-9.10114
짜리	-9.10152
거리	-9.1026
▁집	-9.1027
▁자꾸	-9.10294
▁아쉽	-9.10347
▁대단	-9.10376
▁주인공이	-9.10436
낮	-9.10589
염	-9.10593
▁금	-9.10634
으니	-9.10765
꼬	-9.108
▁졸라	-9.10845
그런	-9.10879
▁디	-9.10884
▁사람은	-9.10925
활	-9.11052
▁먹먹	-9.11073
▁대단하다	-9.11122
▁믿고	-9.11136
보다가	-9.11263
리스	-9.11306
놈들	-9.11354
풍	-9.11382
꼭	-9.11398
▁꼬	-9.11426
▁보여주	-9.11502
▁되어	-9.11513
▁좀비	-9.11555
▁떠	-9.11603
▁괴	-9.11655
▁숨	-9.11683
▁리메이크	-9.11726
▁감정	-9.11781
음악	-9.11816
▁질질	-9.11841
▁프랑스	-9.11912
독	-9.11928
▁놀	-9.11955
▁책	-9.12029
▁아이들이	-9.12073
품	-9.12084
나서	-9.12103
▁아쉬운	-9.12297
▁귀여운	-9.12313
▁왜이리	-9.1238
주고	-9.12419
휴	-9.12529
▁액션영화	-9.12582
▁스타일	-9.12781
것같다	-9.12815
뻐	-9.12871
▁청춘	-9.12878
▁짜	-9.12899
한번	-9.12977
▁사랑을	-9.1303
▁ᄏᄏᄏᄏᄏ	-9.13089
다면	-9.13116
▁없을	-9.13244
▁예고편	-9.13271
▁재미없고	-9.13553
도록	-9.1357
한데	-9.13575
에는	-9.13585
▁여운	-9.13635
▁골	-9.13692
▁보는데	-9.13733
봐야	-9.13842
▁감독은	-9.13878
▁액션도	-9.13887
많이	-9.14031
▁아오	-9.14111
▁더욱	-9.14117
지금	-9.14123
보는데	-9.1413
▁명작이다	-9.14164
▁댓글	-9.14189
▁몰	-9.14195
돼	-9.14267
▁없네요	-9.14272
▁나만	-9.14382
에요	-9.14574
시대	-9.14585
▁완성도	-9.14617
연출	-9.14633
▁재밌었어요	-9.14721
였습니다	-9.14784
곤	-9.14892
▁이런걸	-9.14923
▁화이팅	-9.14944
변	-9.14957
▁년전	-9.14988
껏	-9.15177
전에	-9.15203
규	-9.15204
ᄆ	-9.15204
▁그래	-9.15221
▁드	-9.15253
▁가지고	-9.15347
주인공	-9.15404
▁작품성	-9.15409
▁시대	-9.15442
▁아까워	-9.15624
인거	-9.15657
끔	-9.15691
함이	-9.15729
▁늘	-9.15787
▁성장	-9.16004
▁전개가	-9.16012
▁평점은	-9.16029
몰	-9.1608
▁했	-9.16208
뜨	-9.16217
괴	-9.16282
재밌게	-9.16342
킹	-9.16391
넣	-9.16595
▁선택	-9.16775
▁귀	-9.1683
되고	-9.16924
▁온	-9.16959
▁유치하고	-9.1715
▁감상	-9.17202
▁트	-9.17245
▁월	-9.17276
▁쳐	-9.17337
영화다	-9.17419
싸	-9.17427
▁갑자기	-9.17496
▁겁나	-9.17614
드는	-9.17615
▁시간낭비	-9.1766
▁써	-9.17667
▁순간	-9.17688
립	-9.17745
▁목소리	-9.1784
▁허무	-9.17897
결말	-9.17905
로운	-9.18008
하던	-9.18099
ᅲᅲᅲ	-9.18169
▁이리	-9.18198
▁느낄	-9.18284
▁귀신	-9.18295
▁복	-9.1836
▁가는	-9.18426
▁별루	-9.18551
▁있음	-9.18554
하니	-9.18585
주세요	-9.18654
▁지금도	-9.18675
▁관람	-9.18711
노잼	-9.18737
▁최악이다	-9.1879
▁우연히	-9.18831
완	-9.18848
▁천재	-9.18864
▁궁금	-9.18884
▁좋았음	-9.18908
▁알았	-9.18984
▁어린	-9.19104
▁뻔	-9.19107
▁이런거	-9.1911
줬	-9.19125
▁않을	-9.19285
맛	-9.19333
▁처음으로	-9.19333
딱	-9.1936
했어	-9.19405
렌	-9.19422
▁설명	-9.19566
▁원래	-9.19589
▁개연성	-9.19748
▁왠지	-9.19757
▁아무것도	-9.19867
▁이상한	-9.19868
▁이것	-9.20083
▁지금봐도	-9.20165
부분	-9.20213
▁신기	-9.2022
▁이쁘	-9.20285
럽	-9.20308
▁라	-9.20325
▁이후	-9.20361
▁이유	-9.20372
좋았	-9.20437
▁전작	-9.2046
▁세상	-9.2048
▁니	-9.20508
돌	-9.20511
▁것은	-9.20557
▁미화	-9.20722
▁내인생	-9.20751
▁상상력	-9.20762
▁마무리	-9.20765
▁유쾌한	-9.20768
롭	-9.20771
▁기대하고	-9.20777
▁까	-9.20808
누	-9.20831
걸까	-9.20945
▁생각해	-9.21021
역시	-9.21127
▁빠	-9.21204
듣	-9.21281
랄	-9.21322
이게	-9.21325
▁짜증나	-9.21369
▁않음	-9.21439
▁해도	-9.21558
기가	-9.21586
▁한계	-9.21592
▁년도	-9.21605
시절	-9.21711
▁유쾌	-9.21928
▁절	-9.22102
최고의	-9.22146
ᄅ	-9.22547
▁끝내	-9.2255
▁여성	-9.22634
▁클	-9.22671
▁모르는	-9.22678
렸다	-9.22679
▁알았는데	-9.22682
▁연출이	-9.22813
점이	-9.22903
▁개그	-9.22912
픈	-9.22974
▁됐	-9.22976
함을	-9.22996
났다	-9.2303
▁계	-9.2303
하세요	-9.23139
▁로맨틱	-9.23174
▁매력적인	-9.23183
힌	-9.23184
▁투	-9.23185
▁해준	-9.23198
족	-9.23222
▁그것	-9.23264
반전	-9.23378
응	-9.23385
▁노력	-9.23424
▁슬	-9.23458
▁대한민국	-9.23522
을텐데	-9.23577
▁터	-9.23601
▁상상	-9.23613
▁중에	-9.23769
ᄂ	-9.23802
그래도	-9.23858
▁살인	-9.23858
강추	-9.23973
▁우울	-9.23984
▁삶	-9.24033
엿	-9.24079
▁벌	-9.24095
▁느끼게	-9.24153
▁없었	-9.2425
▁전편	-9.24425
량	-9.24455
애니	-9.24544
▁ᄉᄇ	-9.24597
하여	-9.24605
▁편집	-9.24866
겁	-9.24926
▁언	-9.2494
▁게임	-9.25034
혹	-9.25101
잉	-9.25109
▁뭔지	-9.25183
▁아놔	-9.25211
▁알게	-9.25213
▁억지로	-9.25218
▁잘봤습니다	-9.25321
끄	-9.25323
▁영화라	-9.2539
▁아름답다	-9.25449
▁그때	-9.25522
없어	-9.2554
▁프로	-9.25632
▁ᅳ	-9.25671
됐	-9.25836
갑	-9.2588
▁탄	-9.25922
코미디	-9.25949
봤음	-9.26
안되	-9.26046
▁잘만든	-9.26054
▁죽음	-9.26125
놓	-9.26129
면서도	-9.26192
▁만들었다	-9.26523
▁소재는	-9.26524
▁후반부	-9.26574
일까	-9.26599
▁영화였습니다	-9.2661
▁어이없	-9.26656
▁이런게	-9.26756
▁지루하지	-9.26888
마다	-9.26888
짝	-9.26959
▁흥미	-9.27002
밀	-9.2702
▁눈이	-9.27025
▁영화중에	-9.27059
탕	-9.27062
앙	-9.27063
▁불편	-9.27101
▁나쁜	-9.27157
▁진행	-9.27163
▁허접한	-9.27166
하긴	-9.27198
▁느끼	-9.27198
졸	-9.2727
하는거	-9.27318
▁황당	-9.27345
최	-9.27347
보세요	-9.27397
갔	-9.27489
였던	-9.2752
눈물	-9.2754
영화중	-9.27566
▁훌륭	-9.27579
▁입니다	-9.27587
▁이미	-9.2762
▁이연걸	-9.27761
▁있는데	-9.27849
▁배우가	-9.27851
는걸	-9.27867
▁복수	-9.27869
웠	-9.28038
▁쓴	-9.28151
쓸	-9.28203
▁권	-9.28208
여서	-9.28245
▁처	-9.28283
겠네	-9.2829
든다	-9.28318
▁방송	-9.28364
답	-9.28384
▁용	-9.28532
▁액션이	-9.28564
▁그랬	-9.28578
황	-9.28591
▁과거	-9.28646
▁감사	-9.28655
▁점짜리	-9.28681
ᄒᄒᄒ	-9.28752
쇼	-9.28754
▁커	-9.28796
마저	-9.28816
자들	-9.28862
▁특	-9.28966
턴	-9.29107
▁화려한	-9.29108
▁독	-9.29197
▁생각나	-9.29294
말이	-9.29342
실망	-9.29487
▁낭비	-9.29519
보게	-9.29556
령	-9.29734
싱	-9.29782
시다	-9.29787
들과	-9.29821
재미없다	-9.29843
▁문	-9.29887
것을	-9.29918
십	-9.30116
책	-9.3013
ᄃ	-9.30141
▁둘	-9.30154
▁훨	-9.30155
속에	-9.30291
▁귀엽고	-9.3033
▁깊이	-9.30472
했으면	-9.30508
해주는	-9.30574
줌	-9.30688
▁성인	-9.30768
▁비추	-9.30772
벌	-9.30809
▁맥	-9.30849
▁바람	-9.30859
만으로	-9.30907
▁가치	-9.30932
▁인간의	-9.3094
▁해서	-9.30951
였어요	-9.30951
▁지난	-9.31032
▁사람들은	-9.31051
▁어찌	-9.31206
버리	-9.31219
▁말고	-9.31225
쁘	-9.31239
▁봤었는데	-9.31242
에겐	-9.31283
▁비슷한	-9.31292
▁이야기를	-9.31315
▁않았다	-9.31321
▁왜이렇게	-9.31353
아닌	-9.31469
▁진부한	-9.31475
풀	-9.31604
지마	-9.31611
인간	-9.31672
깔	-9.31849
▁이영화가	-9.31854
껄	-9.31856
▁알바들	-9.31868
▁만나	-9.31892
▁저도	-9.31905
▁점준다	-9.31914
▁현재	-9.31917
▁키	-9.31923
▁역대	-9.32023
좋아요	-9.32029
▁지나	-9.32044
스런	-9.32087
▁자유	-9.32189
▁흐	-9.32189
▁벗	-9.32242
▁수가	-9.32251
▁인정	-9.32295
들아	-9.32342
▁보고나서	-9.32374
▁티	-9.32432
가서	-9.32454
▁듯한	-9.32518
버렸다	-9.32522
킬	-9.32552
▁어릴적	-9.3261
재밌어요	-9.32631
▁좋았는데	-9.32645
▁그게	-9.32647
▁한편	-9.327
▁재밌었는데	-9.32738
▁슬프	-9.3275
가족	-9.32776
▁재밌습니다	-9.3281
▁이러	-9.32815
▁감동적이고	-9.32832
▁아니지만	-9.3292
쿠	-9.32963
로서	-9.33016
▁모르겠	-9.33127
▁어이없는	-9.33135
▁잼있게	-9.33156
▁신선한	-9.33219
▁민	-9.33237
육	-9.33239
셔	-9.33313
▁중간	-9.33331
하라	-9.33346
쩌	-9.33362
▁웃겨	-9.33479
▁싶어	-9.33653
▁보고싶다	-9.33654
▁범죄	-9.33681
▁답답	-9.33725
▁젤	-9.33747
거나	-9.33908
▁느	-9.33953
지마라	-9.33955
▁섹시	-9.33971
▁글쎄	-9.33972
▁특유의	-9.34023
▁취향	-9.34071
오는	-9.34134
시켜	-9.34168
▁재밌었	-9.34175
▁아닌가	-9.34196
놓은	-9.34281
감이	-9.34395
보면서	-9.34465
어도	-9.34514
암	-9.34539
▁앞으로	-9.34605
닥	-9.34636
▁보여준	-9.34649
자가	-9.34656
ᅡ	-9.34683
▁슬프다	-9.34696
▁떠나	-9.34808
▁그런가	-9.3487
▁완	-9.34889
▁그녀	-9.3498
유치	-9.35178
▁매력이	-9.35238
클	-9.35255
▁재미있음	-9.35302
▁스토리에	-9.35357
▁인상깊	-9.35403
없네	-9.35404
▁어색	-9.35405
▁여전히	-9.35437
▁목	-9.35453
▁합니다	-9.35549
▁영웅	-9.35567
▁마라	-9.35664
드라	-9.3568
▁황	-9.35706
것이다	-9.35707
▁아빠	-9.35749
▁느껴지는	-9.35771
인이	-9.35931
▁놓	-9.35932
홍	-9.36014
▁것이다	-9.36044
▁나에게	-9.36051
▁이어	-9.36063
영상	-9.36097
▁감사합니다	-9.36114
▁좋았습니다	-9.36185
잼있	-9.36232
거같다	-9.36256
으면서	-9.36735
▁년에	-9.36747
▁세상에	-9.36761
▁아닌듯	-9.36858
▁촬영	-9.36859
▁메세지	-9.3686
▁결혼	-9.36888
▁싫어	-9.36898
▁아깝	-9.37134
▁보지마세요	-9.37151
ᄍᄍ	-9.37184
▁있다는	-9.37197
▁추억의	-9.3726
▁동화	-9.37262
▁그렇고	-9.37297
▁안보	-9.3731
▁꺼	-9.37314
되어	-9.37376
이면	-9.37484
▁느껴	-9.37497
했고	-9.37524
뿌	-9.37592
▁표절	-9.37614
▁명작이	-9.3766
있게	-9.37787
딩	-9.37895
▁판	-9.37911
거임	-9.37942
▁독립영화	-9.3805
착	-9.38081
겹	-9.38235
▁맞는	-9.38248
나온다	-9.38287
▁안나오	-9.38306
뒤	-9.38343
▁표정	-9.38382
▁평생	-9.38423
스타	-9.38603
▁미소	-9.38617
▁이젠	-9.38647
했는지	-9.38647
▁독특한	-9.3878
▁답	-9.38795
▁얼	-9.38824
었습니다	-9.38922
코드	-9.39026
춘	-9.39063
▁대충	-9.39101
▁돌려	-9.3913
순간	-9.39185
▁처음이다	-9.39204
▁아름답고	-9.39408
놀	-9.39475
▁재미없네	-9.39517
▁상영	-9.39544
▁잔인하	-9.39624
▁호러	-9.39634
이렇게	-9.3964
욱	-9.39645
새끼	-9.39751
▁빈	-9.39752
엄	-9.39753
묘	-9.39771
예요	-9.39779
이제	-9.39829
드리	-9.39832
애들	-9.39865
나온	-9.39883
▁볼때마다	-9.39926
▁똑같	-9.39953
▁남주	-9.39985
▁등장	-9.39994
▁하면	-9.4
장면은	-9.40034
▁노출	-9.40059
▁함	-9.40074
▁눈을	-9.40086
내요	-9.4012
▁액션은	-9.4024
▁했지만	-9.40281
▁해주는	-9.4054
릭	-9.40554
했을	-9.40557
몬	-9.40588
▁확실히	-9.40589
▁조폭	-9.40633
▁일상	-9.40681
스터	-9.40694
▁넘어	-9.40705
▁찍은	-9.4071
▁성공	-9.40716
▁음악이	-9.408
▁너무나도	-9.4083
▁그림	-9.4083
▁아저씨	-9.40838
지않은	-9.40865
오빠	-9.4093
람	-9.40997
일뿐	-9.41001
▁나를	-9.41044
▁인물	-9.41045
만들어	-9.4108
▁지루해서	-9.41136
▁소름	-9.41158
▁저예산	-9.41201
▁본다	-9.41239
▁평론가	-9.41289
▁봐야할	-9.41327
▁스케일	-9.41352
▁캐	-9.41382
▁캐릭터들	-9.41434
깨	-9.41434
▁필요없다	-9.41486
무슨	-9.41578
재밌다	-9.41636
▁하게	-9.41657
▁시선	-9.41742
텐데	-9.41744
▁싫다	-9.41744
▁유치하	-9.41794
▁보기엔	-9.4181
작가	-9.41826
▁역시나	-9.41891
▁좋았고	-9.41902
는것	-9.41951
▁임	-9.41979
▁남는다	-9.42024
롱	-9.42122
▁예쁜	-9.42139
▁먼저	-9.42165
링	-9.42257
마음	-9.42309
▁이정도면	-9.42336
영환	-9.42342
▁시청률	-9.42421
▁순수한	-9.42551
▁보시길	-9.42578
나올	-9.42597
▁자연	-9.42702
▁있었던	-9.42798
페	-9.42882
▁억	-9.42883
▁감탄	-9.42929
아이	-9.42987
팔	-9.4306
▁어색한	-9.43069
모습	-9.4308
▁단순	-9.43122
▁고전	-9.43217
▁재미있네요	-9.4326
▁짧	-9.43262
▁마음을	-9.43264
▁ᄃᄃ	-9.43338
봣	-9.43406
▁재밋게	-9.43459
이었	-9.43545
▁몰랐	-9.43588
사람이	-9.43605
▁깊은	-9.43678
송	-9.4369
던가	-9.43691
▁전체적으로	-9.43696
▁몸매	-9.43727
▁연애	-9.43794
▁맨	-9.43818
▁애들이	-9.43895
▁기대를	-9.43903
▁뒷	-9.4394
▁미래	-9.44037
▁지루하	-9.44132
▁같네요	-9.44184
▁갑	-9.44201
▁갖	-9.4425
만화	-9.44261
▁몇번을	-9.44341
빨	-9.44359
ᄉ	-9.44376
▁끝난	-9.44412
널	-9.44459
풋	-9.44465
▁디즈니	-9.44465
허술	-9.44566
▁굳	-9.44639
▁분명	-9.44674
▁멀	-9.44783
▁시원	-9.44864
▁평범한	-9.44961
▁누	-9.45074
▁여자들	-9.45129
지고	-9.4515
틴	-9.4521
▁알수	-9.45212
▁사랑이	-9.45293
줘야	-9.45345
아님	-9.45366
려는	-9.45372
▁재밌네	-9.45397
▁티비에서	-9.45435
확	-9.45437
▁추천합니다	-9.45475
▁리얼	-9.45491
더군요	-9.45566
▁좋을	-9.45609
▁안하고	-9.45651
▁엉성한	-9.45686
▁이야기가	-9.45695
▁있나	-9.45712
있어	-9.45738
▁브	-9.45744
▁접	-9.45787
▁죽는	-9.45876
▁표	-9.45902
덤	-9.46059
폰	-9.46059
제목	-9.46092
▁딴	-9.46106
▁모습이	-9.46131
려서	-9.46136
▁긴	-9.46217
찌	-9.46275
킨	-9.46344
▁예전	-9.46364
▁필요없는	-9.46382
ᄏᄏᄏᄏᄏ	-9.46418
▁알아	-9.46429
버려	-9.46542
▁생각나는	-9.46575
▁이하	-9.46579
▁작품이	-9.46669
▁정치	-9.46725
▁슬픔	-9.46739
▁어이가	-9.46805
▁밑에	-9.46865
▁별로다	-9.46877
▁희망	-9.46966
▁연기력이	-9.46999
웠다	-9.47041
▁아들	-9.47176
하다니	-9.47225
지않는	-9.47267
▁태	-9.47297
▁끝나고	-9.47336
▁해주	-9.4734
▁그런데	-9.47409
▁기분이	-9.47437
▁현대	-9.47456
더만	-9.47552
▁긴장	-9.47663
닝	-9.47678
▁아깝지	-9.47729
▁그다지	-9.47775
▁좋았던	-9.47788
▁삶을	-9.478
한듯	-9.4782
기분	-9.47903
▁그럭저럭	-9.4795
▁않아	-9.47964
버리고	-9.48008
쓴	-9.4802
▁시걸	-9.48042
▁언제나	-9.48072
한건	-9.48079
▁물론	-9.48087
▁홍콩	-9.48124
▁더이상	-9.48129
온다	-9.48182
나게	-9.48233
▁짠	-9.48239
▁멋지다	-9.48268
하는게	-9.4827
▁점주는	-9.48307
▁나왔으면	-9.48431
▁주인공들	-9.48494
▁틀	-9.48529
▁잊혀지지	-9.48537
▁살짝	-9.48541
▁봤다가	-9.48568
봤어요	-9.48591
▁있다면	-9.4866
괜찮	-9.48717
▁사극	-9.48721
오글	-9.4875
▁킬링타임	-9.48808
▁없나	-9.48826
빵	-9.48871
무섭	-9.48892
▁보는게	-9.48975
▁에로	-9.48979
수록	-9.4902
▁난다	-9.49083
▁보이는	-9.4919
득	-9.49208
다른	-9.49218
▁힐링	-9.49325
떨	-9.49334
▁이건뭐	-9.49359
▁아닐까	-9.49393
▁사랑스러운	-9.49429
아주	-9.49524
▁썩	-9.49531
▁설레	-9.4958
▁다소	-9.4958
힘	-9.49597
▁왔	-9.49622
▁낫	-9.49635
타임	-9.49644
▁짜증나는	-9.49665
▁몰입감	-9.49711
됬	-9.49778
▁제목이	-9.49866
▁화가	-9.49926
걸로	-9.5003
▁보았	-9.50046
맞추	-9.50126
▁압권	-9.50159
▁메시지	-9.50164
다운	-9.50202
▁나라	-9.50259
▁심리	-9.50262
머리	-9.50302
흐	-9.50373
▁무지	-9.5041
▁후반	-9.50414
하지않	-9.50447
▁용서	-9.50501
▁동물	-9.5054
진심	-9.50552
▁죄	-9.50593
▁만드	-9.50639
특히	-9.5065
했네	-9.5072
▁분들	-9.50733
▁인상적	-9.50771
▁받	-9.50778
인생	-9.50784
따위	-9.50809
▁팔	-9.50816
보이	-9.50841
▁만들어진	-9.50879
▁빼	-9.50884
웅	-9.50903
▁아니면	-9.50945
▁여자가	-9.50971
빡	-9.50998
스러움	-9.50999
▁관심	-9.5108
▁올해	-9.51082
▁볼수록	-9.51106
평점이	-9.51147
친구	-9.51181
었으면	-9.51199
줄이야	-9.51212
연기가	-9.5127
던지	-9.51332
▁관계	-9.51392
▁쓰래기	-9.51611
성을	-9.51637
▁요소	-9.51659
▁보고싶은	-9.51738
▁되게	-9.51807
그러	-9.51821
ᅲᅮ	-9.5183
씁	-9.51845
▁다큐멘터리	-9.51846
▁악역	-9.51906
것은	-9.51997
▁싫	-9.52012
해주	-9.5203
▁괴물	-9.52058
▁볼만함	-9.52111
되지	-9.52112
▁사랑과	-9.52112
▁프로그램	-9.52177
▁낚	-9.52245
끝나	-9.52279
골	-9.52286
충	-9.52287
총	-9.52345
▁귀엽	-9.52346
취	-9.52352
손	-9.52367
▁오히려	-9.52431
▁재미있었다	-9.5249
▁유치함	-9.52539
▁홍	-9.52678
▁청	-9.52691
▁사이	-9.5289
▁병	-9.52922
▁같음	-9.5295
▁무섭다	-9.53071
인것	-9.53096
▁실제	-9.53116
▁영화관	-9.5315
할듯	-9.53159
▁티비	-9.53186
둘	-9.53242
봐요	-9.53329
슈	-9.53345
▁꼴	-9.5335
▁몇번	-9.5337
▁가볍게	-9.53562
▁범인	-9.53595
말고	-9.53742
▁안됨	-9.53791
▁재밌었음	-9.53819
나와	-9.53953
끌	-9.53979
▁우정	-9.5401
웃기	-9.54012
월	-9.5404
케이	-9.54048
▁떨어지는	-9.54072
죄	-9.5412
▁어쩔	-9.54178
▁말로	-9.54193
ᄃᄃ	-9.54222
▁연기에	-9.54278
▁높다	-9.5428
▁봤었	-9.54331
▁짱짱	-9.54406
렉	-9.54428
▁근	-9.54432
▁게이	-9.54434
▁리뷰	-9.54441
▁스타	-9.54467
▁중반	-9.54659
▁붙	-9.54682
▁무섭	-9.54724
▁취	-9.54758
▁수준이	-9.54792
감독이	-9.548
▁돋	-9.54953
▁옛날에	-9.54984
왔다	-9.55009
알바	-9.55147
▁드라마를	-9.55226
▁슬프고	-9.55284
압	-9.55301
▁싸구려	-9.55309
▁무엇보다	-9.55312
소재	-9.55361
▁부분	-9.55415
▁먼	-9.55431
▁고민	-9.55438
봣는데	-9.55441
까진	-9.55555
▁아닌데	-9.55584
▁감동과	-9.5559
먹고	-9.55668
▁재미를	-9.55713
▁스토리와	-9.5573
▁드라마가	-9.55737
▁찍어	-9.55828
좋고	-9.55837
▁유치하다	-9.5584
▁국	-9.55851
▁이유가	-9.55876
▁드럽게	-9.55904
▁볼만하	-9.5594
▁퀄리티	-9.55984
뜻	-9.55985
봤던	-9.5599
니깐	-9.5599
▁의도	-9.5604
▁덜	-9.5608
▁송	-9.56112
▁비주얼	-9.56194
▁기대안하고	-9.56196
▁소름돋	-9.562
▁사건	-9.56204
▁보이	-9.56283
▁가끔	-9.56337
▁쫌	-9.56366
되네요	-9.56392
어진	-9.56488
▁잔잔하고	-9.56552
▁페	-9.56553
▁연기와	-9.56562
▁오버	-9.56573
▁나중에	-9.56586
▁뮤지컬	-9.56665
▁나가	-9.56718
옥	-9.56787
첨	-9.56853
수도	-9.56879
르는	-9.56892
▁카메라	-9.5691
▁폭	-9.5691
하는지	-9.56948
▁봤으면	-9.57087
▁느낀	-9.57094
▁시사회	-9.57124
▁찡	-9.57134
▁방금	-9.57135
빼고	-9.57285
돌아	-9.57341
▁능력	-9.57412
▁올리	-9.57432
곳	-9.57465
▁삶의	-9.57655
형님	-9.5776
▁포기	-9.57827
으며	-9.57936
잤	-9.57956
▁해피엔딩	-9.57988
틈	-9.57988
▁레전드	-9.57988
▁섹스	-9.57992
▁느와르	-9.58021
▁그의	-9.5806
용으로	-9.58069
▁외국	-9.58075
▁할말이	-9.58079
▁춤	-9.58105
더라구요	-9.58321
▁영화보고	-9.58324
▁다행	-9.58396
▁서로	-9.58423
▁재밋다	-9.58473
▁그린	-9.58474
시고	-9.58575
헤	-9.58612
▁빌려	-9.5863
랬	-9.58632
쳤	-9.58645
▁모습을	-9.58664
엘	-9.58718
율	-9.58818
▁이거보고	-9.58846
▁달라	-9.58872
쏘	-9.58893
혁	-9.58893
낼	-9.58897
▁전에	-9.58902
때마다	-9.59026
▁영국	-9.59059
▁부분이	-9.59103
나옴	-9.59169
티비	-9.59206
흘	-9.59226
▁까지	-9.59233
▁풀어	-9.59237
▁킬링타임용으로	-9.59264
▁어쩌	-9.5936
▁달리	-9.59426
▁미드	-9.59439
▁기본	-9.5947
시킨	-9.59488
볼만	-9.5956
▁이제야	-9.59601
▁ᅲᅲᅲ	-9.59604
랜	-9.59626
▁빛	-9.59656
일이	-9.59664
는영화	-9.59691
▁볼거리	-9.59693
▁ᅮ	-9.59717
▁보고싶	-9.59723
것만	-9.5975
▁실패	-9.5979
세계	-9.598
끊	-9.59814
▁아름다움	-9.59814
▁쵝오	-9.59815
▁눈빛	-9.59833
▁웃기고	-9.59942
▁드는	-9.59962
님의	-9.59972
▁좋습니다	-9.60009
▁처음엔	-9.60132
▁헛	-9.60242
필요	-9.60283
흔	-9.60371
▁열심히	-9.60375
▁마치	-9.60412
내는	-9.6056
▁개판	-9.60606
▁힘들다	-9.60673
ᄏᄏᄏᄏᄏᄏᄏᄏᄏᄏᄏᄏᄏᄏᄏᄏ	-9.60682
딸	-9.60706
▁베스트	-9.60827
와서	-9.60924
▁그렇다	-9.61012
긴한데	-9.6109
▁빨	-9.61118
기엔	-9.61173
▁어제	-9.61207
재밌음	-9.61225
▁중간중간	-9.6125
구성	-9.61409
▁결	-9.6141
그렇	-9.61449
▁따뜻	-9.61478
험	-9.61521
▁내용을	-9.61549
끈	-9.61645
▁볼만하다	-9.61917
▁같습니다	-9.61924
▁있지	-9.61929
▁폭력	-9.61954
▁몰입이	-9.61978
▁봣는데	-9.62013
▁아나	-9.62036
▁죽어	-9.6205
막장	-9.62055
었지만	-9.62202
나와서	-9.62298
▁다르	-9.62351
잃	-9.62353
▁영화이다	-9.62381
중의	-9.62422
▁필	-9.62461
밑	-9.62592
굴	-9.62599
앞	-9.62608
멘	-9.62617
▁시트콤	-9.62618
▁청소년	-9.62618
▁통쾌	-9.62631
들고	-9.62644
▁불쾌	-9.62645
▁만큼	-9.6265
▁행동	-9.62669
▁와우	-9.62698
▁라는	-9.62706
▁음악도	-9.62714
영화라고	-9.62735
▁짓	-9.62788
▁높아	-9.62793
▁불쌍	-9.62822
▁제작진	-9.62849
해준	-9.62854
▁소재가	-9.62881
영화로	-9.62978
▁이쁜	-9.62988
▁무서워	-9.63064
▁같아	-9.63089
▁야한	-9.63193
내용도	-9.63259
▁말할	-9.63377
▁짝퉁	-9.63382
▁못하고	-9.63386
▁흘러	-9.63513
폭	-9.63537
벽	-9.63539
홀	-9.63561
▁로그인	-9.63572
▁즐겁게	-9.63575
▁진심으로	-9.63576
어지는	-9.63583
▁ᄋᄋ	-9.63636
▁생애	-9.63642
캐	-9.63643
▁시시	-9.63657
개봉	-9.63682
▁다시한번	-9.63726
▁아직까지	-9.63768
▁우와	-9.63777
먹는	-9.63813
▁포장	-9.63825
▁연속	-9.63835
▁출연진	-9.63884
되서	-9.63903
았는데	-9.63937
▁인생을	-9.63941
▁그들의	-9.63982
▁산으로	-9.64017
하려고	-9.64055
▁죽을	-9.64071
하면서도	-9.64072
▁푹	-9.6412
▁남기	-9.64176
▁해야	-9.64231
▁퍼	-9.64284
▁영화지만	-9.64295
▁하는데	-9.64306
▁매력있	-9.64336
내용이	-9.64385
시길	-9.64487
ᄋᄋ	-9.64526
힐	-9.64532
ᅵ	-9.64532
▁종교	-9.64583
▁자신	-9.64611
▁과연	-9.64611
웨	-9.64655
방송	-9.6466
▁남을	-9.64688
벨	-9.64729
▁인기	-9.64783
드러	-9.64841
아라	-9.64969
▁눈물을	-9.64977
▁열정	-9.6501
▁괜찮았	-9.65184
는건지	-9.6519
▁친	-9.65192
것같	-9.65225
있음	-9.65249
▁시대를	-9.65255
▁울었	-9.65332
▁보러	-9.6541
갔다	-9.65429
협	-9.65436
▁젊은	-9.65437
▁빠지	-9.6546
▁시간을	-9.65479
▁마이클	-9.6551
▁그럴	-9.65577
▁소녀	-9.65582
▁배우의	-9.65583
▁마세요	-9.65589
으론	-9.65612
▁자막	-9.65661
스릴러	-9.65697
▁군대	-9.65703
인의	-9.65721
님이	-9.65731
▁초반에	-9.65766
▁보길	-9.65796
학생	-9.65798
▁영화냐	-9.65805
▁전달	-9.65809
▁지루할	-9.65855
▁칼	-9.65921
▁멋있다	-9.66041
째	-9.66174
시간에	-9.66179
▁무비	-9.66213
스가	-9.66216
무비	-9.66272
▁저렇게	-9.66289
였지만	-9.66318
▁사랑하는	-9.66417
▁발로	-9.66418
항	-9.6648
솔	-9.66481
▁헐리우드	-9.66483
점수	-9.66484
▁아쉬웠	-9.66486
▁의외로	-9.66504
▁통해	-9.66519
▁안되고	-9.66533
보자	-9.66541
▁죽여	-9.66593
▁점수를	-9.66644
▁가지	-9.66654
▁반전도	-9.6667
▁굿굿	-9.66672
▁만든다	-9.66715
▁의심	-9.66761
ᄏᄏᄏᄏᄏᄏᄏᄏᄏ	-9.66764
▁공감이	-9.66792
▁나서	-9.66815
▁탄탄한	-9.66824
▁안돼	-9.66848
▁딱히	-9.66888
하구	-9.669
이유	-9.66913
▁식	-9.66932
▁정말로	-9.66971
▁안타깝다	-9.67011
▁재미없어요	-9.67075
▁찍었	-9.67075
▁사람을	-9.67085
▁역할	-9.67092
▁뒤로	-9.67133
▁이기	-9.67137
공포	-9.67161
▁왜케	-9.67192
▁많아	-9.67273
▁광고	-9.6736
▁빌	-9.6743
콜	-9.67457
▁둘다	-9.67458
떄	-9.67473
▁견자단	-9.67474
깎	-9.67474
▁헐리웃	-9.67474
▁울었다	-9.67508
▁굳이	-9.67595
▁미치	-9.67596
▁단연	-9.67636
▁지나치	-9.67653
▁감동적	-9.67656
▁편보다	-9.67686
▁환상	-9.67736
▁지루했다	-9.67752
▁쩐다	-9.6776
정이	-9.67785
▁유쾌하고	-9.67815
짜증	-9.67879
같음	-9.68053
▁앞	-9.68063
▁스토리를	-9.68122
점도	-9.68162
▁했던	-9.68189
▁모든게	-9.68189
▁점준	-9.68213
▁어렸을	-9.68239
현실	-9.68241
▁이루	-9.68318
▁개인	-9.68323
센	-9.68329
▁정서	-9.68346
▁올라	-9.68359
져서	-9.68373
신이	-9.68403
▁이런영화가	-9.68422
탁	-9.6843
▁없지만	-9.68433
릿	-9.68462
혼	-9.68515
▁좋았	-9.6853
▁생생	-9.68556
시키는	-9.68587
속에서	-9.68603
▁나쁘지	-9.68604
▁사랑에	-9.68604
가슴	-9.68622
▁고생	-9.68628
잠	-9.68674
장난	-9.68736
ᄌ	-9.68771
▁영화에요	-9.68811
▁생각없이	-9.68827
▁경찰	-9.68876
상을	-9.68894
▁아는	-9.68917
▁멋	-9.68926
▁평이	-9.68949
▁여기서	-9.68969
▁씨	-9.69039
잔잔	-9.69089
▁법	-9.6914
중에서	-9.69207
▁좋아서	-9.69308
▁현실성	-9.69308
▁보지마	-9.69309
▁행	-9.69311
한게	-9.69316
리아	-9.69329
▁많았	-9.69349
균	-9.69464
▁즐거운	-9.69484
튀	-9.69484
▁어려운	-9.69484
▁위대한	-9.69486
▁희생	-9.6952
할까	-9.69585
▁코난	-9.6962
▁망한	-9.69625
▁악당	-9.69625
찾	-9.69629
▁의리	-9.69667
많은	-9.69703
▁낮아서	-9.69739
씨가	-9.69776
▁이쁘다	-9.6979
쩔	-9.69791
북	-9.69798
젤	-9.69801
▁분노	-9.69854
▁느끼는	-9.69858
면에서	-9.69882
▁출	-9.69906
▁결과	-9.69954
▁동생	-9.69958
▁헤	-9.69987
나고	-9.70027
버림	-9.70027
▁심심	-9.70037
▁자극	-9.70072
▁몰라도	-9.70084
▁웃김	-9.70108
▁최근	-9.70325
▁진리	-9.7049
▁슈퍼	-9.70495
▁무엇을	-9.70529
▁어머니	-9.70547
▁잔인한	-9.7056
▁끝나는	-9.70562
▁밥	-9.70573
▁긴장감도	-9.70605
▁사는	-9.70647
▁학교에서	-9.70656
▁독특	-9.70704
▁맘	-9.70846
답답	-9.70871
표현	-9.70942
▁되었다	-9.70964
슬퍼	-9.70971
▁당시에	-9.70974
영화임	-9.71008
▁꽃	-9.71091
▁투자	-9.71118
즘	-9.71189
▁핵	-9.71218
기억	-9.71276
에서는	-9.71299
감동적	-9.71308
원작	-9.71361
▁펑펑	-9.71366
▁ᄀ	-9.71441
▁결말은	-9.71496
땡	-9.71535
스러웠	-9.71556
▁재밌을	-9.71564
▁따뜻해지는	-9.71566
▁뛰어난	-9.7157
사람은	-9.71619
▁재미있었어요	-9.71632
▁노답	-9.71673
인가요	-9.71686
▁엘	-9.71736
▁제작비	-9.71781
한다는	-9.71792
친다	-9.71821
접	-9.71842
폐	-9.71956
▁심장	-9.71983
감을	-9.7208
▁그려	-9.72113
▁신선하고	-9.72205
▁받아	-9.72232
▁어른	-9.72243
▁직	-9.72263
함과	-9.72269
▁각	-9.72293
▁못했다	-9.72312
▁아쉬움	-9.72358
매력	-9.72358
▁죄다	-9.72378
그래	-9.72378
▁무시	-9.72449
▁네	-9.72467
▁또한	-9.7253
▁가진	-9.72547
▁보니까	-9.72568
냉	-9.72577
탐	-9.72577
▁주성치	-9.72579
▁빼고	-9.72587
포인트	-9.72594
▁세기	-9.72596
▁에휴	-9.72624
▁이후로	-9.72643
▁발견	-9.72646
했나	-9.72798
▁뜨	-9.72874
▁전투	-9.7289
▁든다	-9.72982
땅	-9.73016
▁잊지	-9.73041
▁이유는	-9.73079
▁과정	-9.73118
엄마	-9.7312
▁이따위	-9.73143
▁있어요	-9.73219
한다면	-9.73263
받고	-9.7337
언니	-9.73394
계의	-9.73397
▁루	-9.73423
▁뻔하고	-9.735
얻	-9.73509
▁느낄수	-9.73531
▁영화였어요	-9.73552
쌍	-9.73575
값	-9.73614
텔	-9.73629
▁보고나면	-9.73642
▁벌써	-9.73653
메이	-9.7367
▁발전	-9.73686
▁어휴	-9.73725
▁사기	-9.73744
▁옛	-9.7378
▁풍	-9.73811
▁나옴	-9.73826
▁놀라	-9.73879
안에	-9.74022
▁음악과	-9.74079
▁가득	-9.74093
떠	-9.74132
▁포르노	-9.74191
▁건지	-9.74264
▁있네요	-9.74272
▁잔	-9.74288
▁끄	-9.74352
▁팬이	-9.74358
얘기	-9.74362
▁살아있	-9.74418
스타일	-9.74436
▁남자가	-9.74467
▁되었	-9.74493
▁빼고는	-9.74575
▁매력적이	-9.74607
▁봣	-9.74617
뛰	-9.74673
좌	-9.74684
▁마이너스	-9.74693
▁김기덕	-9.74693
▁이쁘고	-9.74765
이해	-9.74772
▁쓰레기같은	-9.74779
▁특이	-9.74793
늘	-9.74809
▁내려	-9.74858
봉	-9.74903
▁북한	-9.75035
▁철	-9.75042
▁한국영화는	-9.75115
▁미모	-9.75191
▁꾸	-9.75206
▁예쁘	-9.75222
▁진정	-9.75222
▁연출도	-9.75238
▁싶네요	-9.7525
젠	-9.7531
아니라	-9.75341
슬프	-9.75383
▁급영화	-9.7541
▁보여	-9.75413
하더라	-9.75463
▁몇년	-9.75485
쾌	-9.75593
▁영화에서	-9.75743
▁전기세	-9.75771
▁반개도	-9.75773
안되는	-9.75813
▁웃기지도	-9.75848
▁돌아가	-9.75855
▁그럼	-9.75889
▁빵점	-9.76004
▁끼	-9.76074
▁소재로	-9.76098
▁극치	-9.76109
▁끝이	-9.76139
▁나오고	-9.76162
▁평범	-9.76233
아까움	-9.76272
▁엉망	-9.7633
▁나왔다	-9.76434
▁많다	-9.76438
사가	-9.76511
들만	-9.76555
연기도	-9.7658
빙	-9.76614
▁다만	-9.76671
노래	-9.76705
▁뜬금없	-9.76855
▁봤더니	-9.76855
넹	-9.76855
톱	-9.76855
▁무언가	-9.76857
▁레알	-9.76922
▁최강	-9.76942
꾸	-9.76987
▁잼있다	-9.77009
▁받았	-9.77018
▁울고	-9.77051
이런영화	-9.77069
▁인생의	-9.77083
▁순수	-9.77087
▁결말도	-9.7711
▁이래	-9.77188
시간이	-9.77286
프로	-9.7746
▁놈	-9.77489
▁좋지만	-9.77545
ᄏᄏᄏᄏᄏᄏᄏᄏᄏᄏᄏᄏᄏ	-9.77577
▁단순한	-9.77595
자는	-9.77615
▁무섭지도	-9.7764
프리	-9.77643
학교	-9.77714
하려	-9.77739
주기도	-9.77789
느라	-9.77871
▁진부	-9.77881
로써	-9.77951
털	-9.77954
▁전문가	-9.77959
▁흥미로운	-9.77972
▁흔한	-9.77976
▁역대급	-9.78012
▁하루	-9.78067
▁보인다	-9.78082
정신	-9.78115
▁드라마는	-9.78129
따라	-9.78157
▁생각한다	-9.78184
있는데	-9.78217
ᅲᅲᅲᅲ	-9.78243
하지마라	-9.78258
새끼들	-9.78464
▁중에서	-9.78515
아요	-9.7853
▁받을	-9.78564
▁한국인	-9.78566
▁속에	-9.78602
▁문화	-9.78643
흥	-9.78693
갈수록	-9.78711
보는내내	-9.78729
가지고	-9.7873
▁알겠	-9.78797
일본	-9.78882
▁낳	-9.78889
▁멍청한	-9.78904
뻔한	-9.78907
해진다	-9.7892
택	-9.78967
▁하네요	-9.78975
같네	-9.79017
만드는	-9.79039
▁한데	-9.79071
▁쉽게	-9.79078
▁찌질	-9.79142
▁색	-9.79144
▁연결	-9.79146
▁샤	-9.79185
엔딩	-9.79221
▁멍청	-9.79238
▁홍보	-9.79262
▁명품	-9.79265
있나	-9.7927
전쟁	-9.79279
▁진부하고	-9.79287
▁나오면	-9.79346
▁않게	-9.7935
▁무협	-9.79387
▁왜이래	-9.79394
왔는데	-9.79398
▁재미잇	-9.79413
▁왠	-9.79419
식으로	-9.79434
치곤	-9.7947
▁국내	-9.79501
▁지루하기	-9.79517
▁우주	-9.79521
높	-9.79529
▁없는데	-9.7961
▁늘어	-9.79663
꿀잼	-9.79692
▁있게	-9.79729
했네요	-9.79791
쥐	-9.79801
▁남아	-9.79807
▁오바	-9.79829
▁좀더	-9.79847
▁가서	-9.79868
▁괜찮은데	-9.79883
▁여러	-9.79908
더라면	-9.79924
사이	-9.79926
▁ᄉ	-9.80071
관계	-9.8008
뚱	-9.80189
혈	-9.80189
▁뭉클	-9.80189
▁젠장	-9.80193
▁말을	-9.80276
계속	-9.80372
버렸	-9.80512
▁느꼈	-9.8052
에서도	-9.8055
▁아쉽네요	-9.80558
▁집에서	-9.80804
▁졸리	-9.80853
려면	-9.80859
▁무서웠	-9.8089
축	-9.80976
캐릭터	-9.80985
▁아마	-9.80999
뭔	-9.81032
이였다	-9.81089
▁꼽	-9.811
▁손발이	-9.81105
▁시도	-9.8111
▁케이블	-9.81133
▁배우들도	-9.81149
아니다	-9.81164
끝까지	-9.81188
▁꽝	-9.8119
영화의	-9.81223
엇다	-9.81251
남는	-9.81257
▁솔직	-9.81258
▁ᄋ	-9.81302
▁잊을	-9.81315
컨	-9.81325
퀴	-9.81325
팀	-9.81325
▁연예인	-9.81326
스러워	-9.81354
대는	-9.81364
▁상처	-9.81392
▁변태	-9.81396
▁달달	-9.81415
▁자신의	-9.81417
▁힘이	-9.81444
냥	-9.81457
▁국민	-9.81458
▁죽이	-9.81473
▁당신	-9.81482
▁사랑이야기	-9.81486
▁삶에	-9.8152
▁신파	-9.81629
▁보게되	-9.81653
▁주기	-9.81669
▁줌	-9.81756
▁현실적인	-9.81772
고싶어	-9.81782
했다는	-9.81819
▁생각합니다	-9.81832
▁한심	-9.81843
했으나	-9.81892
아깝	-9.8194
쉽	-9.8198
하던데	-9.82004
▁질리지	-9.82027
똥	-9.82038
▁한참	-9.8211
▁잊을수	-9.82176
▁채	-9.82181
▁웃음이	-9.82233
냈	-9.82234
▁니들	-9.82249
수있는	-9.82306
아쉽	-9.82425
팅	-9.82466
컬	-9.8247
▁아까울	-9.82475
냄새	-9.82482
▁흐름	-9.82508
▁보았다	-9.82559
시는	-9.82559
해주세요	-9.82586
리를	-9.82589
▁조합	-9.82628
수없는	-9.82649
▁잭	-9.8265
이라서	-9.82675
▁점수가	-9.82726
▁워	-9.82727
▁주말	-9.828
▁떠나서	-9.82843
에대한	-9.82843
▁앤	-9.8288
▁영어	-9.8289
보지	-9.82906
쁜	-9.83045
▁제로	-9.83049
▁쇼	-9.8308
▁있습니다	-9.83101
▁와닿	-9.83198
▁끌어	-9.8323
▁어렵	-9.83285
▁현실적이	-9.83332
▁미안	-9.83339
몽	-9.83379
궁	-9.83379
몰입	-9.83451
▁반성	-9.83467
겟다	-9.83476
스의	-9.83502
▁시리즈중	-9.83536
▁프	-9.83559
스럽	-9.83633
▁히	-9.837
▁좋겠어요	-9.83704
▁차이	-9.83724
▁일품	-9.8376
▁풀	-9.83823
▁몰입해서	-9.83867
▁부족하다	-9.83945
주고싶	-9.83968
셔서	-9.83991
▁년전에	-9.84048
▁올려	-9.84095
로우	-9.84118
누나	-9.84139
▁홍콩영화	-9.84178
워서	-9.84187
쟁이	-9.84201
▁적당	-9.8422
▁곳	-9.8424
까지는	-9.84307
▁만들고	-9.84348
닌	-9.84391
▁원작의	-9.84415
▁영화라는	-9.84473
▁지구	-9.84488
만큼은	-9.84501
▁아줌마	-9.84536
▁보자	-9.84546
대사	-9.84614
▁진지	-9.84665
▁그렇	-9.84672
▁ᄏᄏᄏᄏᄏᄏ	-9.84703
씬은	-9.84712
▁중요한	-9.8475
낀	-9.84805
고싶은	-9.84806
▁카리스마	-9.84814
례	-9.84814
▁아름다웠	-9.84814
▁크리스마스	-9.84814
섯	-9.84814
▁필름	-9.8484
▁아련	-9.84891
력이	-9.84974
▁없었던	-9.85078
▁주인공의	-9.85127
▁부터	-9.8525
▁잼없	-9.8536
▁맡	-9.85362
적은	-9.85424
▁혼	-9.85449
▁훈훈한	-9.85483
▁이해할	-9.85493
▁않지만	-9.85508
▁추억이	-9.85531
▁싸이코	-9.85536
▁비슷	-9.85605
▁안보고	-9.85664
▁콩	-9.85668
▁못해	-9.85693
▁전설의	-9.85765
▁쓰레기다	-9.85786
▁재미있어	-9.85816
무엇	-9.85816
▁지금은	-9.8582
텐	-9.85835
돋	-9.85849
영화라	-9.8586
었어	-9.85881
▁모르	-9.8591
좋음	-9.85946
하겠	-9.85974
였어	-9.85991
뉴	-9.85995
부족	-9.85995
▁초등학생	-9.86005
떼	-9.86005
칙	-9.86005
ᅥ	-9.86005
지않고	-9.86006
원이	-9.86026
▁개뿔	-9.86044
▁이때	-9.8606
▁맨날	-9.86071
▁어린이	-9.86118
▁있으면	-9.86168
쳤다	-9.86214
본영화	-9.86216
▁관한	-9.86264
적이다	-9.86297
제발	-9.8635
▁기대했는데	-9.86385
▁끝났	-9.86412
▁필요한	-9.86422
▁공부	-9.86423
▁되지	-9.86433
▁표현한	-9.86485
▁느낌을	-9.86517
▁사랑은	-9.86531
야한다	-9.866
▁만든영화	-9.86609
▁사람의	-9.86679
▁식상	-9.86728
▁별개	-9.86736
▁명작입니다	-9.86736
▁없지	-9.86801
▁좋았을	-9.86819
짜증나	-9.86841
하는건	-9.86854
▁우리가	-9.86864
▁간다	-9.86885
스키	-9.86916
되었	-9.86934
▁지루하게	-9.8697
뭔가	-9.87041
샤	-9.8708
장면이	-9.87096
잔인	-9.87106
연기력	-9.87188
ᄇ	-9.87195
롤	-9.87209
라이언	-9.87244
▁영화인듯	-9.87274
▁상업	-9.87302
▁기다리	-9.87319
▁거지	-9.87361
▁있구나	-9.87414
▁최고입니다	-9.87485
것들	-9.87489
▁남겨	-9.87502
▁운	-9.87543
해진	-9.8762
▁분이	-9.87794
공포영화	-9.87872
▁점정도	-9.87879
▁오랜만	-9.87898
▁찌	-9.87938
▁낮다	-9.87953
▁아이가	-9.8801
▁본거	-9.8808
▁뭐라	-9.8814
▁크게	-9.88295
▁쉬	-9.8833
밥	-9.88343
▁웃기다	-9.88412
셀	-9.88426
멸	-9.88428
▁더러운	-9.88431
▁좋았으나	-9.88448
▁시간가는줄	-9.88467
좋아하는	-9.88488
▁아픔	-9.88491
되면	-9.88524
▁보시	-9.8853
생겼	-9.88571
▁어이	-9.8859
▁낚시	-9.88638
▁설마	-9.88641
▁뜻	-9.88698
▁명화	-9.88824
▁쓸	-9.8884
▁낮네	-9.88846
▁감동적이다	-9.88923
▁볼수있	-9.88948
놨	-9.88968
그리	-9.88998
▁점주	-9.89002
▁시청	-9.8903
▁보기에	-9.89035
란다	-9.89046
리지	-9.8912
▁채널	-9.89138
▁쩝	-9.8915
▁형님	-9.89292
▁한마디	-9.89323
▁유명	-9.8934
공감	-9.89355
▁비디오로	-9.89405
▁자식	-9.89481
하는것	-9.89504
▁한명	-9.89536
이자	-9.89543
▁멍	-9.89575
▁케	-9.8961
뽕	-9.89663
▁러닝타임	-9.89663
렁	-9.89663
▁왠만하면	-9.89664
▁불구하고	-9.89665
▁검색	-9.89677
▁묘사	-9.89677
▁죽는줄	-9.89692
▁방법	-9.89718
▁비극	-9.89718
▁세월	-9.89725
이었음	-9.89739
▁믿을	-9.89777
▁양심	-9.89783
▁무척	-9.89831
▁잼잇	-9.89856
▁철학	-9.8987
▁기대이상	-9.899
▁인간들	-9.89932
▁최소	-9.89957
할수있	-9.89966
명이	-9.90036
재미없음	-9.90039
쓰레기영화	-9.90251
▁즐기	-9.90302
▁조연	-9.90304
▁재미없었다	-9.90368
머니	-9.90428
▁인간이	-9.90433
▁좋아해서	-9.90623
▁최대	-9.90719
▁아역	-9.90745
▁어릴	-9.90803
허접	-9.90894
하신	-9.90905
▁로봇	-9.90926
▁어린시절	-9.90934
▁감흥	-9.90935
겠네요	-9.90935
▁낚였다	-9.9096
▁최초	-9.90975
▁지켜	-9.91
▁미쳤	-9.91042
▁의미를	-9.91085
▁들었	-9.91116
▁야동	-9.91154
▁박수를	-9.91197
▁괜찮다	-9.91278
▁작품을	-9.91306
▁이럴	-9.91345
다는게	-9.91379
▁누구나	-9.91418
사회	-9.91418
▁여행	-9.91425
었고	-9.91435
▁쿠	-9.91444
▁가져	-9.91471
지루함	-9.915
▁개봉한	-9.91514
감독님	-9.91576
▁인도	-9.91605
하는영화	-9.91646
없어서	-9.91665
으려	-9.91719
▁이유를	-9.91829
▁폴	-9.91829
이며	-9.91841
▁전쟁영화	-9.91906
버리는	-9.91935
▁이해하기	-9.91945
해야지	-9.92019
▁못하다	-9.92071
▁탑	-9.9215
▁떨어지	-9.92153
깍	-9.92179
둔	-9.92179
ᄎ	-9.92179
▁더불어	-9.92185
▁색다른	-9.92189
▁바뀌	-9.92189
▁영혼	-9.9222
나왔	-9.92251
얼굴	-9.92261
▁한번쯤	-9.92275
▁안맞	-9.92281
소재를	-9.92404
기위해	-9.92424
▁나오지	-9.92461
▁잘봤어요	-9.92511
▁가면	-9.92537
▁잼나게	-9.9255
억지	-9.92558
▁싶었	-9.92576
▁빵	-9.92581
잇는	-9.92585
▁같아서	-9.92682
▁그녀의	-9.92761
겠음	-9.92778
하려는	-9.92806
베리	-9.9282
버릴	-9.92918
▁유명한	-9.92936
하기만	-9.92955
씨의	-9.92973
했을까	-9.92981
▁애기	-9.93043
필요없	-9.93116
▁좋아할	-9.93122
▁감동의	-9.93179
하기엔	-9.93239
했었는데	-9.9325
▁논	-9.93297
▁없어요	-9.93317
▁본영화	-9.9334
▁사랑의	-9.9334
와는	-9.93354
▁억지스럽	-9.93399
▁친구들	-9.93431
엠	-9.93458
켓	-9.93461
▁패러디	-9.93461
탓	-9.93461
▁외계인	-9.93462
▁그걸	-9.93465
▁핵노잼	-9.93474
▁기다려	-9.93486
▁그저그런	-9.93517
▁못할	-9.93525
▁안타깝	-9.93542
밤	-9.93572
▁대사가	-9.93576
님들	-9.93583
▁못한다	-9.93632
▁재밌던데	-9.9364
▁매력적	-9.93811
▁하나하나	-9.93856
▁가슴에	-9.93867
▁꿈을	-9.93916
▁찬	-9.93975
▁승	-9.93981
나가는	-9.94006
▁재미와	-9.94084
있냐	-9.94091
▁최고였다	-9.94102
▁에로영화	-9.94215
▁재미있었	-9.94231
지네요	-9.94249
하셨	-9.94254
▁야구	-9.94366
▁ᄏᄏᄏᄏᄏᄏᄏ	-9.94432
자체가	-9.94557
▁봤네	-9.94563
▁좋게	-9.94698
옹	-9.9474
붕	-9.94749
랫	-9.9476
찜	-9.9476
칸	-9.9476
▁살려	-9.94783
▁씬	-9.94791
▁말아먹	-9.94792
▁특별한	-9.94799
▁이것이	-9.94804
▁복잡	-9.94807
▁착한	-9.94869
▁여름	-9.94907
덜	-9.94928
▁기술	-9.94942
시즌	-9.94983
▁남녀	-9.94987
집니다	-9.94996
▁이래서	-9.95026
▁의문	-9.95037
관람	-9.95081
▁보지말	-9.95118
▁전설	-9.9512
▁충	-9.95147
▁조카	-9.95167
▁신선	-9.95181
뭐야	-9.95208
었네	-9.95208
▁잼나	-9.95311
▁한심한	-9.95385
▁가족영화	-9.95391
재밌어	-9.95474
▁작품이다	-9.95485
▁뻔하	-9.95538
내내	-9.95611
▁뽑	-9.95625
▁도전	-9.9563
▁공포물	-9.95651
점을	-9.95662
끼리	-9.95702
자나	-9.95704
만의	-9.95737
▁인상	-9.95862
▁싶지	-9.95898
▁캬	-9.9592
하기도	-9.95931
▁엄	-9.95942
▁중요	-9.95954
않다	-9.96006
것인가	-9.96023
닮	-9.96036
▁말하는	-9.96045
없는영화	-9.96045
뮤	-9.96075
삐	-9.96076
▁고양이	-9.96078
▁평점보고	-9.96085
▁얘	-9.96092
▁극장가서	-9.96102
▁겨우	-9.96106
▁크리스	-9.96118
자체	-9.96135
▁멋지	-9.96163
▁싶은데	-9.96167
▁충격적이	-9.96182
▁에이	-9.96218
▁아니야	-9.96249
▁개막장	-9.96255
▁방영	-9.96257
봅니다	-9.96288
▁볼게	-9.96295
차라리	-9.96309
즐	-9.96333
드립니다	-9.96343
▁감히	-9.96348
▁재미있습니다	-9.96377
▁재밌다고	-9.96389
▁농	-9.96421
겠어요	-9.96445
있었	-9.96459
야할	-9.96484
보구	-9.96545
▁보긴	-9.96545
극장	-9.96577
▁만들면	-9.96635
▁깔끔	-9.96652
소설	-9.96699
▁십	-9.96705
요즘	-9.96721
으로써	-9.96751
럴	-9.9676
▁행복한	-9.968
▁장면에서	-9.9681
랄까	-9.96819
▁조화	-9.96826
▁넘치는	-9.96904
▁망치	-9.96912
시작	-9.96928
사는	-9.96934
▁작은	-9.97047
지말고	-9.97066
▁신선하	-9.97076
▁퇴	-9.97118
하지도	-9.97121
ᅮᅲ	-9.97177
▁원작이	-9.97235
인건	-9.97237
▁챙겨	-9.97251
▁단지	-9.97282
대단	-9.97295
감독의	-9.97313
우리	-9.97338
▁용기	-9.97368
륜	-9.97379
컷	-9.97391
꾼	-9.97403
쥬	-9.97409
▁그당시	-9.97412
▁탈	-9.97431
▁느껴진다	-9.97441
▁참신한	-9.97443
때매	-9.97525
▁전율	-9.97526
볼수	-9.97544
특	-9.97561
▁보지마라	-9.97616
▁장르가	-9.97638
▁만들다니	-9.97689
▁시각	-9.9769
▁체	-9.97718
▁모르겠지만	-9.97719
▁인물들	-9.97725
▁학교	-9.97738
▁무리	-9.9775
옴	-9.97776
▁보통	-9.97777
▁만남	-9.97785
▁합	-9.97848
▁자살	-9.97859
▁비하면	-9.97873
▁덕분에	-9.97882
▁밤	-9.97914
그래서	-9.97969
▁가능	-9.98004
▁심하게	-9.98134
줬다	-9.98163
보고싶다	-9.98209
▁연기력도	-9.98274
기까지	-9.98285
▁대화	-9.98353
틱	-9.98392
▁관객을	-9.98441
▁동안	-9.98479
내고	-9.9851
건만	-9.98517
오래	-9.98544
닐	-9.9856
룡	-9.98607
현실적	-9.98733
긋	-9.9876
렷	-9.9876
▁기독교	-9.98761
핀	-9.98761
▁아류작	-9.98761
▁이제서야	-9.98763
▁재미없게	-9.98764
▁모험	-9.98818
▁풍경	-9.98819
겁니다	-9.98822
▁되고	-9.98835
▁존경	-9.98878
▁고통	-9.98884
▁아이돌	-9.98886
점은	-9.98951
콩	-9.98957
▁뇌	-9.99015
냈다	-9.99045
꼴	-9.99095
만듬	-9.99142
▁전체	-9.99148
▁완전히	-9.99193
▁뿐이다	-9.99242
▁작가가	-9.99343
▁한편의	-9.99462
▁결론	-9.99524
▁이런영화를	-9.99525
▁밋밋	-9.99598
▁눈에	-9.99622
▁헤어	-9.99643
▁떨어진다	-9.99645
▁내가본	-9.99679
는구나	-9.99693
▁낮지	-9.99854
▁안나	-9.99931
▁틀어	-9.99979
아까운	-10.0001
▁잊	-10.0004
춰	-10.0011
▁심각	-10.0011
▁읽어	-10.0013
핑	-10.0013
▁무엇인지	-10.0013
▁바꿔	-10.0014
▁교육	-10.0015
는것도	-10.0019
▁못함	-10.0022
한국	-10.0026
▁감명	-10.0029
▁외모	-10.0032
▁케이블에서	-10.0036
▁훌륭하다	-10.0039
▁빼면	-10.0039
줘서	-10.0043
▁허세	-10.0046
▁색감	-10.0049
▁남편	-10.0049
하고싶은	-10.0051
갓	-10.0051
▁코미디영화	-10.0053
거라	-10.0056
▁감안	-10.0057
▁갔	-10.0065
▁답답한	-10.0075
▁웃고	-10.0081
나올때	-10.0095
▁먹고	-10.0097
는거야	-10.0098
▁어쩔수	-10.0109
개그	-10.0117
▁드립니다	-10.013
콘	-10.0139
▁어른들	-10.0147
흡	-10.0149
▁블랙	-10.0151
뽀	-10.0152
▁에피소드	-10.0152
▁안타까운	-10.0152
▁소소한	-10.0152
▁잔혹	-10.0153
▁몇몇	-10.0154
▁영원히	-10.0156
자의	-10.0156
▁봤을까	-10.0161
▁개성	-10.0163
▁보여준다	-10.0166
▁귀여워	-10.0173
▁좋았지만	-10.0176
▁악마	-10.0184
▁아픈	-10.0196
맹	-10.0197
떡	-10.0206
▁지나도	-10.0213
▁훈훈	-10.0213
▁엉성	-10.022
▁돼	-10.0223
▁식상한	-10.0225
도아니고	-10.0227
본사람	-10.0238
안됨	-10.0238
켜	-10.0244
▁보려고	-10.0245
하하하	-10.0249
놔	-10.026
지를	-10.0263
▁있네	-10.0272
▁볼만했	-10.0276
▁아진짜	-10.0289
껴	-10.029
▁부르	-10.0291
뜬	-10.0293
▁살다살다	-10.0293
▁심형래	-10.0293
▁동성애	-10.0293
▁아이디어	-10.0293
▁스트레스	-10.0293
▁교과서	-10.0293
▁잔뜩	-10.0293
▁스스로	-10.0293
▁뛰어	-10.0294
▁가슴을	-10.0296
▁선생님	-10.0298
▁영화인	-10.0299
만드네	-10.03
▁최고임	-10.0321
▁해석	-10.0322
▁됨	-10.0323
▁편도	-10.0326
▁피해자	-10.033
빛	-10.0337
빌	-10.0341
흠	-10.0343
레스	-10.0348
▁생각하는	-10.0348
▁가치가	-10.0351
후회	-10.0357
▁엉성하고	-10.0358
▁만들수	-10.0372
▁죽이는	-10.0376
▁불쌍하다	-10.0378
▁다르다	-10.038
▁노래가	-10.0382
▁소름이	-10.0382
부분이	-10.0386
▁구성이	-10.0386
▁웬	-10.0389
▁맹	-10.039
▁정말이지	-10.0394
빨리	-10.0394
▁넌	-10.0396
▁그렇지	-10.04
절대	-10.0401
▁영상이	-10.0405
ᄏᄏᄏᄏᄏᄏᄏᄏᄏᄏ	-10.0413
▁ᄏᄏᄏᄏᄏᄏᄏᄏ	-10.0414
히는	-10.0416
출연	-10.0416
▁편의	-10.0417
설정	-10.0419
▁있어야	-10.042
▁볼수있는	-10.0427
▁노래도	-10.0429
올리	-10.0429
닿	-10.0429
헌	-10.0432
그만	-10.0434
닉	-10.0436
▁인내심	-10.0436
▁제임스	-10.0436
▁마이	-10.0437
▁우리의	-10.0439
▁효과	-10.0439
▁바꾸	-10.0441
ᄏᄏᄏᄏᄏᄏᄏᄏᄏᄏᄏᄏ	-10.0441
▁감각	-10.0442
▁언제봐도	-10.0443
▁갈등	-10.0443
▁조작	-10.0444
▁이미지	-10.0445
▁다룬	-10.0446
▁없다는	-10.0448
▁무술	-10.0455
▁오래된	-10.0455
▁좋아하는데	-10.0459
▁보여줬	-10.0462
▁있다니	-10.0464
▁지났	-10.0468
▁생각하고	-10.0471
▁들었다	-10.0473
▁최근에	-10.0473
▁전개도	-10.0476
잡고	-10.0479
어여	-10.0482
▁오락	-10.0483
속의	-10.0483
▁소중한	-10.049
긴장감	-10.0492
큰	-10.0494
▁여전	-10.0497
▁주기도	-10.0497
▁할까	-10.0498
꽃	-10.0498
더빙	-10.0498
긴하지만	-10.0501
▁수준의	-10.0502
▁촌스럽	-10.0508
▁본다면	-10.0511
씬이	-10.0517
▁잘만들었	-10.0519
▁잇	-10.0523
이걸	-10.0525
빠지	-10.0531
▁긴장감이	-10.0532
자를	-10.0534
▁ᄌ	-10.0536
▁척	-10.0538
보셈	-10.0545
적이지	-10.0546
▁맞아	-10.0551
▁정도의	-10.0555
가요	-10.0562
스럽고	-10.0567
왓	-10.057
▁짜증난다	-10.0576
찮	-10.0579
▁특수효과	-10.0581
랭	-10.0581
룩	-10.0581
벅	-10.0581
▁주윤발	-10.0581
▁짜임새	-10.0581
쪼	-10.0581
▁후속작	-10.0581
▁그거	-10.0581
▁테러	-10.0582
세상	-10.0588
하지마	-10.059
▁반복	-10.0593
▁남자의	-10.0596
▁섬	-10.0596
▁열연	-10.0599
▁요리	-10.06
▁조절	-10.0609
▁개노잼	-10.0611
▁살면서	-10.0611
했지	-10.0613
까요	-10.0615
▁재미도없고	-10.0615
▁남네요	-10.0621
▁관객들	-10.0623
▁출연한	-10.0625
▁신경	-10.0625
▁예쁘고	-10.0625
▁모르게	-10.0628
▁많은걸	-10.0629
버전	-10.0644
비디오	-10.0645
화이팅	-10.0646
맥	-10.0646
새롭	-10.0647
▁됬	-10.0647
▁그립다	-10.0651
이여	-10.0651
▁안습	-10.0654
▁생각함	-10.0654
▁아니었	-10.0665
거면	-10.067
▁망친	-10.0671
▁알려	-10.0672
낫	-10.0679
▁포스	-10.0682
마지막에	-10.0682
▁모를	-10.0683
▁말하고	-10.0694
간의	-10.0695
▁낮아	-10.0696
기법	-10.0696
▁줄수	-10.0697
배우가	-10.0701
▁진수	-10.0702
▁번째	-10.0713
▁모든것	-10.0716
▁재난영화	-10.0719
▁소장	-10.072
물을	-10.0724
략	-10.0726
괜	-10.0727
숭	-10.0728
칭	-10.0728
▁오랫만에	-10.0728
▁거짓말	-10.0728
▁잠깐	-10.0729
검	-10.0729
▁아까웠다	-10.073
▁억지스러운	-10.0735
▁만들었는지	-10.0737
▁어디에	-10.0739
▁단편	-10.0745
보니까	-10.0746
▁점대는	-10.0748
▁썼	-10.0753
▁잼있어요	-10.0755
▁옥	-10.0758
▁것들	-10.076
▁술	-10.0761
셈	-10.0763
▁세상을	-10.0764
▁괜찮음	-10.077
▁좀비영화	-10.0773
▁희	-10.0773
▁별로임	-10.0774
▁지겹다	-10.0782
좋은영화	-10.0785
장애	-10.0785
▁돌리	-10.0788
▁생각나서	-10.0789
년이	-10.0797
▁남자들	-10.0798
웃김	-10.0807
▁형편없	-10.0813
싫어	-10.0814
▁시청자	-10.0818
브라	-10.0821
영화인데	-10.0823
배경	-10.0826
햇다	-10.0832
▁군	-10.0838
럼	-10.0843
▁빠진	-10.0846
문화	-10.0849
▁봤어	-10.0857
▁뭐니	-10.0858
▁죽이고	-10.086
▁뭘까	-10.0865
▁뛰어나	-10.087
ᄁ	-10.0877
닷	-10.0877
▁내생에	-10.0878
▁할머니	-10.0884
▁일어나	-10.0885
기로	-10.0888
▁캐릭터가	-10.0893
▁편에	-10.0896
▁반담	-10.0897
▁해라	-10.0902
▁봐도봐도	-10.0902
▁모두가	-10.0905
▁집중해서	-10.0907
과는	-10.0907
▁우리는	-10.091
▁생각하면	-10.091
됐다	-10.0912
보소	-10.0913
▁여운을	-10.0917
▁먼가	-10.0919
▁아쉽지만	-10.092
▁풍자	-10.0934
거리는	-10.0941
특별	-10.0942
했더니	-10.0946
ᅮᅮᅮ	-10.0954
▁안맞는	-10.0956
잊	-10.0957
▁다운	-10.0962
▁재미없어서	-10.0964
▁못보겠	-10.0964
▁년작	-10.0968
졸작	-10.0968
▁응	-10.0972
▁장면들	-10.0975
▁영화보는	-10.0976
▁시간만	-10.098
▁그렇다고	-10.0988
▁배우를	-10.0992
▁거장	-10.0993
것같은	-10.0996
좋았다	-10.1001
▁촌	-10.1004
▁이런건	-10.101
▁얼마	-10.1013
었지	-10.1014
▁잠이	-10.1014
▁높게	-10.1016
요소	-10.1017
▁엔딩이	-10.102
▁쩔	-10.102
우스	-10.1026
아까웠	-10.1026
▁블록버스터	-10.1028
▁클레멘타인	-10.1028
▁로버트	-10.1028
▁제니퍼	-10.1028
▁깜짝	-10.1028
▁끔찍	-10.1029
▁제이슨	-10.1029
▁끈	-10.1029
납니다	-10.1031
▁보내	-10.1032
▁단어	-10.1032
▁잤다	-10.1034
▁톰	-10.1035
▁담배	-10.1037
다큐	-10.1038
▁강력	-10.1047
▁이딴걸	-10.1048
할뿐	-10.1051
▁나에겐	-10.1053
있네	-10.1054
본영화중	-10.1054
▁만들기	-10.1059
▁부실	-10.1061
덕에	-10.1063
▁년도에	-10.1064
있어서	-10.1064
▁죽은	-10.1064
할수없	-10.1064
▁커플	-10.1065
▁매력을	-10.1066
하시는	-10.1066
인데도	-10.1067
▁막판에	-10.1069
▁내면	-10.1072
려다가	-10.1077
되나	-10.1079
▁만한	-10.1079
재미있게	-10.108
▁쥐	-10.1081
▁아침	-10.1083
▁부모	-10.1084
이니	-10.1088
기에는	-10.1089
▁짐	-10.1089
▁침	-10.1094
주면	-10.1096
보여	-10.111
▁많고	-10.1111
몸	-10.1118
갑니다	-10.112
▁아름답	-10.1121
웃겨	-10.1122
▁수작이다	-10.1125
▁편견	-10.1128
▁최고의영화	-10.1129
있을	-10.1129
져요	-10.1135
▁궁금하다	-10.1139
▁검	-10.1139
깝	-10.114
▁줬	-10.1142
▁봤을	-10.1145
▁따로	-10.1151
지말자	-10.116
▁누군가	-10.1163
▁영화보면서	-10.1167
상실	-10.1168
▁예쁘다	-10.1171
엑	-10.1182
▁가벼운	-10.1182
하겠다	-10.1183
▁나은	-10.1184
않는	-10.1188
▁놀라운	-10.1189
▁봤을때	-10.1189
싫	-10.119
▁작품은	-10.119
▁흔들	-10.119
▁암튼	-10.1192
여주	-10.1194
▁하는지	-10.1194
▁화려하	-10.1195
▁나름대로	-10.1198
높은	-10.1201
▁해결	-10.1205
▁대중	-10.1206
▁흥	-10.1207
▁선동	-10.1212
상태	-10.1213
▁시리즈는	-10.1214
▁몽	-10.1214
▁따뜻하고	-10.1218
▁푸	-10.1219
▁분위기가	-10.122
▁하면서	-10.1223
▁재미있을	-10.1229
큐	-10.1236
▁놀랍다	-10.1237
▁내용인지	-10.1239
▁액션씬	-10.1255
것만으로도	-10.1259
이즈	-10.126
▁레이	-10.1265
치고는	-10.1267
▁조선	-10.1269
쟁	-10.1273
▁초딩때	-10.1273
추억	-10.1276
▁본방사수	-10.1277
▁아이들과	-10.128
휘	-10.1283
▁여러분	-10.1285
평가	-10.1286
▁아까운영화	-10.1289
▁연기자들	-10.1305
▁기억나는	-10.1319
▁두고	-10.1325
능력	-10.1326
섭	-10.1326
▁모르겠고	-10.1328
▁아깝고	-10.1328
▁하아	-10.1331
▁ᄍᄍᄍ	-10.1336
▁다운받아	-10.1337
▁살고	-10.1338
롯	-10.1338
딘	-10.1338
▁왤케	-10.1338
싹	-10.1338
▁디테일	-10.1338
컴	-10.1338
▁내생애	-10.1339
▁직접	-10.134
▁자주	-10.134
거같은데	-10.1341
려요	-10.1342
▁어쩜	-10.1343
▁대단하	-10.1346
▁데리고	-10.1346
문제	-10.1347
▁한숨	-10.1351
▁사진	-10.1352
ᄒᄒᄒᄒ	-10.1354
▁깨닫게	-10.1355
▁오빠	-10.1357
살아	-10.1358
▁보았습니다	-10.1359
▁폐	-10.1365
▁집에	-10.1372
▁들어가	-10.1375
보시길	-10.1382
어이없	-10.1383
▁반전은	-10.1385
겼	-10.1389
▁위로	-10.1392
▁으리	-10.1395
▁모르겟	-10.1399
▁만든거	-10.1404
▁원작에	-10.1404
▁나머지	-10.1409
▁나랑	-10.1409
▁싶어요	-10.1415
겠습니다	-10.1418
▁평론가들	-10.1427
어라	-10.1428
논	-10.1435
못해	-10.1436
앤	-10.1441
촌	-10.1442
스토리도	-10.1445
관객	-10.1446
나오고	-10.1448
는대	-10.145
▁맞지	-10.1456
같고	-10.1464
▁최고로	-10.1465
▁귀엽다	-10.1471
▁영화인지	-10.1474
웨이	-10.1477
▁어렵다	-10.1484
멜로	-10.1484
▁재밌지	-10.1484
빠져	-10.1485
게임	-10.1485
획	-10.149
▁오락영화	-10.1493
지도않고	-10.1496
섹	-10.1496
깜	-10.1497
▁조니뎁	-10.1497
▁스크린	-10.1497
▁여러가지	-10.1498
모두	-10.1499
▁식상하	-10.15
같은영화	-10.1502
▁재개봉	-10.1502
▁결코	-10.1502
▁마지막장면	-10.1504
이름	-10.1507
▁여자주인공	-10.1509
라곤	-10.1514
▁당연	-10.1516
▁최고봉	-10.1516
▁하는거	-10.152
▁소중	-10.1521
▁꼬마	-10.1523
▁울리는	-10.1523
였으면	-10.1523
▁시간아깝다	-10.1527
때부터	-10.1528
▁모르겠음	-10.1532
▁않을까	-10.1538
▁명작을	-10.154
▁모든걸	-10.1542
던영화	-10.1542
▁점줌	-10.1545
▁감정을	-10.1546
것같아요	-10.1547
▁새벽에	-10.1547
배우들이	-10.1548
▁일반	-10.155
▁앞으로도	-10.1551
▁잠시	-10.1558
▁한국판	-10.1558
▁기대했	-10.157
▁개연성도	-10.1576
▁제목만	-10.1579
▁뭐하나	-10.1586
▁재밌어서	-10.1587
▁제외	-10.1588
▁엿	-10.1595
▁볼만했다	-10.1597
굳	-10.1598
▁난해하	-10.1601
으니까	-10.1604
▁않네요	-10.1605
걍	-10.1607
아저씨	-10.1607
트가	-10.1611
싸움	-10.1611
▁이상하게	-10.1615
▁재밋어요	-10.1615
▁안봐도	-10.1621
▁똑같은	-10.1632
려나	-10.1634
어디	-10.1635
▁있던	-10.1635
▁개연성이	-10.1644
만하다	-10.1646
▁사랑해	-10.1647
낭	-10.165
영화입니다	-10.165
무시	-10.1653
동생	-10.1656
묵	-10.1658
찐	-10.1658
층	-10.1658
▁러시아	-10.1659
▁장국영	-10.1659
▁낙	-10.1659
▁이뻐서	-10.1659
▁유일한	-10.1659
▁말도안되는	-10.1661
▁다시는	-10.1661
▁경험	-10.1662
▁즐거웠	-10.1662
▁충실	-10.1663
▁웃으면서	-10.1665
▁태어나서	-10.1668
▁믿고보는	-10.1668
▁믿기지	-10.1669
▁운명	-10.1674
년전	-10.1678
▁연출과	-10.1679
▁로코	-10.1682
▁길게	-10.1685
▁욕망	-10.1687
▁그자체	-10.1688
▁대놓고	-10.1691
▁궁	-10.1692
믿	-10.1696
굿굿굿	-10.1697
▁강렬한	-10.1702
▁없습니다	-10.1707
▁난잡	-10.1711
▁책을	-10.1712
생각이	-10.1712
▁소설을	-10.1716
▁사랑해요	-10.1719
▁실제로	-10.1725
▁잘하고	-10.1729
▁형사	-10.1734
재밌는	-10.1737
존나	-10.1739
▁안본	-10.1745
▁선물	-10.1746
▁멋졌	-10.1751
▁좋겠	-10.1757
▁잘만들	-10.1757
씀	-10.1763
글자	-10.1765
빠르	-10.1766
붙	-10.1775
헐	-10.1776
벤	-10.1779
시기	-10.1788
쩐다	-10.1789
▁안볼	-10.1793
하군	-10.1797
▁기회	-10.1797
▁할수	-10.1798
▁이런영화는	-10.1798
거같아요	-10.1803
▁쩔어	-10.181
객	-10.1814
오늘	-10.1814
욤	-10.1822
▁숨겨진	-10.1822
받아서	-10.1826
▁남자주인공	-10.1831
▁여자친구	-10.1831
▁탄생	-10.1833
여행	-10.1834
▁하늘	-10.1834
아아아	-10.1834
구리	-10.1837
▁영상과	-10.1845
▁변화	-10.1845
하길	-10.185
▁봐야하는	-10.1851
▁동심	-10.1855
▁찰	-10.1856
▁슈	-10.1862
보는게	-10.1864
▁신선했	-10.1866
▁벤	-10.1866
구석	-10.187
여운이	-10.1872
▁불러	-10.1883
▁싸움	-10.1885
▁없냐	-10.1892
짱짱	-10.1895
▁어색하	-10.1895
배우들의	-10.1895
받은	-10.1896
▁보며	-10.1896
▁있었지만	-10.1901
기전에	-10.1902
▁본게	-10.1906
▁편을	-10.1917
▁헬	-10.1924
▁주연배우	-10.1925
다음	-10.1926
▁새로	-10.1927
야겠다	-10.1934
하기에	-10.1937
때문	-10.1939
찰	-10.1944
푸	-10.1947
느껴	-10.195
▁자랑	-10.1951
포스터	-10.1954
▁삼류영화	-10.1955
장르	-10.1955
없네요	-10.1956
잖	-10.196
후에	-10.1963
으로서	-10.1967
재미있어요	-10.1978
보이는	-10.1978
소름	-10.1979
감정	-10.1982
▁스티븐	-10.1989
▁해리포터	-10.1989
탱	-10.1989
▁뭥미	-10.1989
▁울컥	-10.199
▁빵빵	-10.199
▁라고	-10.1991
▁어째	-10.1998
▁디워	-10.2003
▁또다른	-10.2004
▁때문	-10.2004
▁비밀	-10.2004
▁연극	-10.2009
학년	-10.2014
재미도	-10.2016
▁게다가	-10.2016
놈이	-10.2017
싫다	-10.2023
▁애들은	-10.2024
할만한	-10.2025
▁축	-10.2029
▁막장드라마	-10.2034
▁없었음	-10.2041
할수가	-10.2042
사람들은	-10.2044
▁잔잔하면서	-10.2048
▁잼있음	-10.2056
▁대해서	-10.2067
▁남은	-10.2067
줄알았	-10.2068
▁수도	-10.2072
▁기준	-10.2073
▁잔잔하	-10.2073
▁짜증이	-10.2073
있습니다	-10.2074
▁어른이	-10.208
▁좋네	-10.2096
▁아내	-10.2098
더라도	-10.2099
▁바다	-10.2099
였나	-10.2105
▁대부분	-10.211
연기는	-10.2115
▁오글거리	-10.2117
▁약간의	-10.2117
들에	-10.2118
뇌	-10.212
귀엽	-10.2124
▁감동은	-10.2124
이딴	-10.2125
▁순수함	-10.2127
커플	-10.2129
낚	-10.2137
▁하네	-10.2144
▁하나의	-10.215
쩜	-10.2153
조금	-10.2156
▁버리	-10.2156
삭	-10.2158
▁줍니다	-10.2159
벼	-10.2159
켄	-10.2159
▁고등학교	-10.2159
덩어리	-10.2159
▁유일하게	-10.2159
▁희대의	-10.2159
▁늑대	-10.2159
받는	-10.2159
▁다양한	-10.2159
▁달콤	-10.216
▁허술한	-10.2166
▁적당히	-10.2169
▁알겠는데	-10.2177
랜드	-10.2178
▁결정	-10.2178
▁괜찮았는데	-10.2179
▁점이상	-10.2179
▁배역	-10.2184
▁불편한	-10.2187
스럽게	-10.2191
▁점이다	-10.2192
발연기	-10.2197
▁하지원	-10.2203
건가요	-10.221
부러	-10.2211
▁답답하고	-10.2213
게만드는	-10.2218
스크	-10.2218
▁영화라니	-10.2218
▁재미로	-10.2222
어색	-10.2225
▁교훈을	-10.2226
사람들이	-10.2234
▁돈을	-10.2237
▁한국에서	-10.2241
▁포스터에	-10.2246
기억이	-10.2247
▁열받	-10.2251
▁귀여움	-10.2252
▁아래	-10.2252
▁샘	-10.2253
▁넘게	-10.2257
어린	-10.2263
▁정의	-10.2265
인물	-10.2265
▁발상	-10.2267
▁조잡	-10.2269
▁부자	-10.227
임에도	-10.2277
▁느꼈다	-10.2281
▁흑	-10.2282
▁정도면	-10.2283
▁ᄃᄃᄃ	-10.229
▁영화예요	-10.2293
▁기자	-10.2296
▁짧은	-10.23
썼	-10.2301
해야할	-10.2302
어떻게	-10.2302
하진	-10.2303
생활	-10.2315
▁주제를	-10.2316
낮은	-10.232
였고	-10.2321
없었	-10.2322
이후	-10.2326
언제	-10.233
닼	-10.2331
▁명불허전	-10.2331
▁뱀파이어	-10.2331
▁우뢰매	-10.2331
▁터미네이터	-10.2331
▁할리우드	-10.2331
퓨	-10.2331
▁홍상수	-10.2331
▁플롯	-10.2331
갔는데	-10.2333
▁뭐하자는	-10.2333
▁년만에	-10.2335
▁은근히	-10.2337
▁두번째	-10.2337
▁ᅲᅲᅲᅲ	-10.2339
▁형제	-10.234
▁쉽지	-10.234
▁그야말로	-10.2343
▁꽤나	-10.2344
▁짜증남	-10.2351
▁주변	-10.2352
▁하나같이	-10.2356
▁갖고	-10.236
▁영화화	-10.2366
이런류의	-10.2367
▁재밋음	-10.2369
▁격	-10.2372
이랄까	-10.2378
떨어지	-10.2383
▁아냐	-10.2393
▁보다니	-10.2397
역사	-10.2397
▁점수는	-10.2398
▁참신하	-10.2398
▁호구	-10.2403
▁속에서	-10.2404
▁보라	-10.2406
▁녹	-10.2407
▁소년	-10.2414
▁하나로	-10.2417
▁당신은	-10.2428
▁본지	-10.2434
▁쩌는	-10.2435
한다고	-10.2436
▁하길래	-10.2442
었나	-10.2444
애들이	-10.2446
▁다시보니	-10.2447
▁살린	-10.2448
▁세번	-10.2452
▁이해할수	-10.2457
봣다	-10.2462
지마세요	-10.2466
ᄏᄏᄏᄏᄏᄏ	-10.2467
바닥	-10.2471
▁싶을	-10.2472
▁링	-10.2475
몇	-10.2479
▁영화인가	-10.2482
▁별로고	-10.2482
삶	-10.2483
춤	-10.2483
▁짜증만	-10.2491
▁시청률이	-10.2493
나오네	-10.2495
닫	-10.2505
▁스포츠	-10.2506
앨	-10.2506
웟	-10.2506
읍	-10.2506
▁아무생각없이	-10.2506
럭	-10.2506
ᅢ	-10.2506
부끄럽	-10.2506
▁아놀드	-10.2507
▁영환데	-10.2508
▁어설프고	-10.2508
▁흐르는	-10.2509
갠적으로	-10.2509
데요	-10.2511
▁예수	-10.2511
▁불쌍한	-10.2512
▁재미있는데	-10.2512
▁나오네	-10.2516
들끼리	-10.2517
▁근래	-10.2518
때까지	-10.2518
▁강한	-10.252
▁볼만합니다	-10.2524
▁중독	-10.2525
▁과장	-10.2529
▁포스터만	-10.2539
▁본듯	-10.2548
▁지루하지않	-10.255
스토	-10.2555
하하하하	-10.2556
▁북	-10.2564
일듯	-10.2564
▁흑인	-10.2567
▁받는	-10.2567
거같음	-10.2568
▁아프다	-10.2569
▁내용과	-10.2578
▁돋보이는	-10.2578
▁충분	-10.2578
▁안간다	-10.2582
옆	-10.259
▁잡아	-10.2593
▁멋지고	-10.2597
▁봉	-10.2598
▁허무한	-10.2599
▁몰라	-10.26
▁찾아보	-10.2602
▁알았네	-10.2603
오브	-10.2603
▁음식	-10.2608
▁실력	-10.2615
만족	-10.2615
▁아니지	-10.2618
▁관점	-10.2621
▁그립	-10.2626
▁황당한	-10.2631
▁손에	-10.2632
보긴	-10.2633
미가	-10.2634
▁재미없을	-10.2637
물로	-10.2639
▁이용	-10.264
쓰는	-10.2647
▁무섭고	-10.2648
같아서	-10.2648
주연	-10.2656
댄	-10.2657
▁꿀	-10.2657
아까워	-10.2659
섬	-10.2663
▁보기에는	-10.2663
▁업	-10.2665
엄청	-10.2672
작이라	-10.2674
▁볼때	-10.2674
▁괜찮았다	-10.2677
▁넘치	-10.2678
노답	-10.2679
재미있다	-10.2685
뻥	-10.2685
젖	-10.2685
▁반드시	-10.2685
▁하정우	-10.2685
▁한개도	-10.2687
▁평균	-10.2689
▁즐겨	-10.2689
▁명대사	-10.269
▁처절	-10.2691
▁만화책	-10.2691
▁받은	-10.2696
극장에서	-10.2696
▁주제가	-10.2698
▁아만다	-10.2705
▁몰랐다	-10.2706
▁말하고자	-10.2706
▁없으면	-10.2708
▁분들은	-10.2709
제로	-10.2711
▁머리가	-10.2711
▁봐야지	-10.2712
▁스릴도	-10.2724
▁떠오르	-10.273
너무너무	-10.2731
▁우연	-10.2736
▁키스	-10.2742
할것	-10.2745
드만	-10.2755
▁비판	-10.2756
▁별하나	-10.276
▁못보겠다	-10.2769
에대해	-10.2789
▁의미가	-10.2791
▁기가	-10.2798
▁마음으로	-10.2803
▁어디가	-10.2809
▁낮게	-10.2809
딴	-10.2809
보인다	-10.2809
▁어처구니	-10.2812
▁유치해	-10.2814
델	-10.2817
▁강렬	-10.2821
▁비슷하	-10.2827
봐야지	-10.2832
▁ᄒᄒᄒᄒ	-10.284
숨	-10.2841
녕	-10.2845
▁한국영화의	-10.2848
찡	-10.2857
분위기	-10.2859
보고있어요	-10.2859
불쌍	-10.286
▁듣고	-10.2862
폼	-10.2865
▁아닙니다	-10.2867
▁임팩트	-10.2867
깃	-10.2867
▁나레이션	-10.2867
땀	-10.2867
▁깡패	-10.2867
▁익숙	-10.2867
초반	-10.2869
▁배경음악	-10.2871
▁궁금하	-10.2871
▁돈내고	-10.2874
▁첫사랑	-10.2875
줄알았는데	-10.2878
▁부럽	-10.288
싶다	-10.288
▁원조	-10.2882
▁거품	-10.2883
▁거리	-10.2887
멋있	-10.2889
▁생긴	-10.2889
▁부모님	-10.2891
▁하품	-10.2891
▁즐	-10.2892
▁내게	-10.2892
이었습니다	-10.2893
▁살아가는	-10.2896
▁어거지	-10.2897
▁혹시나	-10.2897
▁정신병자	-10.2899
있지	-10.29
▁인형	-10.2903
▁이상해	-10.2904
▁연인	-10.2905
지루하다	-10.2907
▁아름답게	-10.2908
▁재미없었	-10.2911
▁보던	-10.2914
바라	-10.2915
▁소재도	-10.2924
▁않아서	-10.2925
▁영원한	-10.2928
▁오브	-10.2928
▁보여주고	-10.2932
▁감동적이네요	-10.2932
재미없어	-10.2934
▁짜증나서	-10.2935
▁보게된	-10.2936
▁삶이	-10.2947
있었다	-10.2951
▁갑니다	-10.2957
▁그지같	-10.2957
보고싶어요	-10.2959
당한	-10.2959
▁사상	-10.296
▁공감할	-10.2965
로드	-10.2966
되었다	-10.2966
▁떨어지고	-10.2968
방식	-10.297
▁이보다	-10.2978
▁본인	-10.2979
▁미국식	-10.2984
같아	-10.2985
▁이야기는	-10.2989
맘	-10.299
▁했으면	-10.2991
▁많은데	-10.2994
▁명장면	-10.2999
▁감독을	-10.3012
아빠	-10.3012
▁땜에	-10.3013
▁언니	-10.3017
없구	-10.3025
나보다	-10.3032
▁무섭지	-10.3036
것보다	-10.3047
렵	-10.3047
좋네요	-10.3047
될듯	-10.3048
코믹	-10.3049
뚝	-10.3052
▁늦게	-10.3052
▁설득력	-10.3052
▁웰메이드	-10.3052
곱	-10.3052
똘	-10.3052
랴	-10.3052
쟈	-10.3052
▁배트맨	-10.3052
삽	-10.3052
▁이토록	-10.3052
▁양아치	-10.3052
▁착각	-10.3052
보느니	-10.3053
▁블랙코미디	-10.3053
▁싸우는	-10.3054
▁폭풍	-10.3054
▁바랍니다	-10.3055
▁배꼽	-10.3055
목소리	-10.3057
▁당연히	-10.306
▁만들었을까	-10.3062
그랬	-10.3063
▁성격	-10.3073
▁자아	-10.3089
지도않	-10.309
▁잔잔하게	-10.309
지않아	-10.3095
▁말자	-10.3097
▁높아서	-10.3103
▁재밌었던	-10.3105
▁명작은	-10.3105
▁손발	-10.3107
▁않았지만	-10.311
▁본건데	-10.3113
▁영화였음	-10.3115
▁영상미가	-10.312
꺼야	-10.3122
돌이	-10.3131
▁다운받	-10.3139
둥	-10.314
▁부부	-10.3142
라는걸	-10.315
했을때	-10.3158
▁빅	-10.3166
▁대본	-10.3168
▁이딴영화	-10.3172
▁갓	-10.3188
▁두시간	-10.319
▁보지마셈	-10.3197
▁이름이	-10.3198
두고	-10.3198
엇는데	-10.3201
▁작품이라	-10.3203
▁알겠다	-10.3205
스톤	-10.3206
▁인생에	-10.3208
▁멋있는	-10.3209
▁여주인공이	-10.3213
▁실화를	-10.322
▁아깝네	-10.3226
ᄏᄏᄏᄏᄏᄏᄏ	-10.3235
혹은	-10.3236
하는건지	-10.3239
▁싶었다	-10.324
안타까	-10.324
꼈	-10.324
쿵	-10.3241
▁박중훈	-10.3241
깁	-10.3241
▁제시카	-10.3241
▁박진감	-10.3241
▁모른다	-10.3241
▁향연	-10.3242
▁감정이입	-10.3243
나름	-10.3243
▁니콜	-10.3244
▁여러번	-10.3244
탑	-10.3245
▁방식	-10.3245
▁응원	-10.3247
솔직히	-10.3247
▁장난하냐	-10.3247
도대체	-10.3247
느끼	-10.3248
▁사라지	-10.3248
▁추격	-10.3253
▁눈물나	-10.3253
▁ᄒᄃᄃ	-10.3258
상황	-10.3272
▁자체는	-10.3276
기도하고	-10.3278
▁나네요	-10.3278
티가	-10.3281
▁주인공은	-10.3283
▁자리	-10.3283
뿐이다	-10.3287
▁생각으로	-10.3287
주기	-10.3288
올라	-10.3295
▁있으	-10.3299
▁하하	-10.33
외로	-10.3302
▁좋을듯	-10.3312
▁사랑합니다	-10.3312
▁매일	-10.3315
▁안될	-10.3319
▁폐지	-10.332
▁뭐임	-10.3328
▁엉망이	-10.3333
뻔함	-10.3334
지루해	-10.3339
▁만들었나	-10.334
▁생에	-10.3341
▁전편보다	-10.3341
둥이	-10.3343
겐	-10.3343
▁않나	-10.3343
놀이	-10.3344
▁밤에	-10.3344
▁어울리는	-10.3348
▁빼곤	-10.3364
▁배경이	-10.3372
최고다	-10.3393
므	-10.3399
▁여주가	-10.34
내용은	-10.3405
외엔	-10.3405
▁철학적	-10.3405
▁아예	-10.3409
▁있었는데	-10.341
윈	-10.3419
▁맛이	-10.3421
든지	-10.3421
버스	-10.3422
▁위해서	-10.3423
▁어우	-10.3424
▁부작	-10.3426
ᄍ	-10.3426
▁답이	-10.3428
▁유발	-10.3431
ᅩ	-10.3431
▁짐캐리	-10.3433
▁케릭터	-10.3433
밧	-10.3433
짤	-10.3433
▁떨어짐	-10.3433
▁언젠가	-10.3433
▁짜집기	-10.3433
▁이소룡	-10.3433
▁드디어	-10.3433
▁박수	-10.3434
▁소중함을	-10.3434
▁앞뒤	-10.3435
▁저급	-10.3438
▁분만에	-10.3438
도좋고	-10.3439
▁흘리	-10.344
멍	-10.344
▁서울	-10.3443
▁하다가	-10.3443
아버지	-10.3443
▁에효	-10.3445
▁축구	-10.3447
나왓	-10.3447
▁마니	-10.3447
▁재미있었습니다	-10.3448
아직도	-10.3448
먹은	-10.3453
▁좋겠네요	-10.3458
▁배우들은	-10.346
뭐냐	-10.346
▁귀여워요	-10.3461
▁좋앗	-10.3463
겠죠	-10.3463
▁안보는게	-10.3467
▁감정이	-10.3467
톤	-10.3469
없나	-10.3469
▁독일	-10.347
▁도망	-10.3471
찾아	-10.3472
여운	-10.3476
▁생각난다	-10.3478
보일	-10.3481
▁ᄡ	-10.3483
▁최악의영화	-10.3485
아닌가	-10.3489
▁재난	-10.349
▁없나요	-10.3494
▁진한	-10.3498
▁기대없이	-10.35
▁반전에	-10.3501
▁휘	-10.3502
▁넘넘	-10.3505
모든	-10.3505
▁그렇지만	-10.3516
놨네	-10.3521
아까운영화	-10.3533
▁끝나서	-10.3541
▁감동받	-10.3542
▁깔끔한	-10.3544
▁다시보고	-10.3546
만큼이나	-10.3552
스릴	-10.3557
사건	-10.3557
▁장난아니	-10.3558
놈들은	-10.3565
거죠	-10.3569
제작	-10.3572
▁기적	-10.3574
▁괜찮아	-10.3581
▁명연기	-10.3585
▁생기	-10.3588
▁가정	-10.3589
▁아들이	-10.359
빼	-10.3591
후반	-10.3592
▁난리	-10.3599
▁시도는	-10.3599
흑	-10.3605
▁정신없	-10.3609
▁앞에	-10.3609
소녀	-10.3611
▁추리	-10.3621
이었던	-10.3621
납	-10.3626
▁스타워즈	-10.3629
뢰	-10.3629
▁빨갱이	-10.3629
▁화장실	-10.3629
▁이해불가	-10.3629
차승원	-10.3629
▁집착	-10.3632
▁실험	-10.3633
되요	-10.3634
▁향수	-10.3635
당시	-10.3636
▁감동적이에요	-10.3636
▁아무런	-10.3636
▁폭발	-10.3638
▁살렸다	-10.364
▁보고싶어	-10.3644
신분	-10.3645
▁억지감동	-10.3647
왠	-10.3654
꿀	-10.3654
▁다행이다	-10.3659
▁재미있었음	-10.3661
▁친구랑	-10.3666
▁울면서	-10.3667
▁평화	-10.3668
있어요	-10.3674
▁알았음	-10.3678
▁사고	-10.368
혼자	-10.3682
▁찍는	-10.3685
아이들	-10.3689
▁사랑스럽다	-10.3689
잖아요	-10.3689
▁유치해서	-10.3693
▁타란티노	-10.3696
▁다루	-10.3696
있으면	-10.3697
▁때려	-10.3698
보여주	-10.3698
▁뭐여	-10.3705
▁예술영화	-10.371
▁아프	-10.3712
▁보겠다	-10.3712
맘에	-10.3713
▁확인	-10.3717
터짐	-10.3717
조연	-10.3718
▁잼있네요	-10.3719
▁곧	-10.3719
▁겨울	-10.3723
▁아우	-10.3729
▁느껴지	-10.373
시원	-10.3732
형제	-10.3741
지루하고	-10.3744
볼수있	-10.3746
▁자세	-10.3752
▁목소리가	-10.3755
▁제목을	-10.376
▁화나	-10.3763
맞는	-10.3765
▁그만큼	-10.3769
미국	-10.3769
한편	-10.3772
▁자신을	-10.3776
▁지겹	-10.3782
▁아쉬움이	-10.3784
▁작품입니다	-10.3785
에비해	-10.3787
▁반전을	-10.3791
▁둘이	-10.3799
▁장난치	-10.3804
▁보려	-10.3808
▁희망을	-10.381
▁귀여	-10.3814
▁다신	-10.3816
▁세상이	-10.3819
▁보는거	-10.3823
랍	-10.3825
▁아니었다	-10.3826
측	-10.3826
▁먹는	-10.3826
쯔	-10.3829
▁네티즌	-10.3829
▁첩보	-10.3829
닭	-10.3829
띠	-10.3829
츄	-10.3829
▁쓸데없이	-10.3829
램	-10.3829
▁유덕화	-10.3829
▁공짜로	-10.3829
▁오글오글	-10.3829
쯧쯧	-10.3829
▁브루스	-10.3829
▁사운드	-10.3829
▁이렇	-10.3829
▁스타뎀	-10.383
▁역겨운	-10.383
▁센스	-10.3831
▁낭만	-10.3831
간만에	-10.3832
▁맞춰	-10.3833
▁돈아까워	-10.3834
▁장애인	-10.3835
▁이것보단	-10.3836
▁사이코	-10.3837
▁적어도	-10.3837
▁루즈	-10.3838
▁따름	-10.3838
▁상영관	-10.3839
앞에서	-10.3841
▁엄마가	-10.3842
▁아닐	-10.3842
▁갔다	-10.3849
듯하다	-10.385
▁무겁	-10.385
▁미안하다	-10.3851
트로	-10.3851
▁답답해	-10.3852
빠진	-10.3857
▁옷	-10.3861
▁액	-10.3868
▁보았는데	-10.387
같아요	-10.3874
▁절정	-10.3877
▁얼굴이	-10.3882
거든	-10.3889
▁웃기는	-10.3894
▁볼려고	-10.3896
더러	-10.3896
▁이상하고	-10.39
▁아깝네요	-10.3902
▁사랑하고	-10.3905
▁말밖에	-10.3907
▁소화	-10.3909
▁말고는	-10.3911
▁현실과	-10.3911
▁엉성하	-10.3912
▁돋보인	-10.3912
▁결말을	-10.3917
▁왜곡	-10.392
▁실망스럽	-10.3925
였지	-10.3931
알아	-10.3933
▁적당한	-10.3938
말이필요없	-10.394
▁땅	-10.3947
미친	-10.3952
▁보아	-10.3953
▁열라	-10.3953
부분은	-10.3954
▁떡	-10.3954
▁내돈	-10.3955
▁않은데	-10.3957
▁내일	-10.3958
▁인해	-10.3963
▁후에	-10.3992
▁매니아	-10.3994
있을까	-10.3995
▁빛을	-10.3995
▁전쟁의	-10.3998
재밋다	-10.4
▁혹시	-10.4001
▁살리	-10.4003
▁일본은	-10.4008
해주고	-10.401
▁기대하지	-10.4016
뻔했다	-10.4018
▁명배우	-10.4018
쳐서	-10.4019
▁그건	-10.4021
▁역사를	-10.4023
▁안본다	-10.4027
▁매력에	-10.4027
▁자신이	-10.403
뷰	-10.4031
▁묻어	-10.4031
덩	-10.4033
멈	-10.4033
숀	-10.4033
▁놀랐다	-10.4033
▁풋풋한	-10.4033
눌	-10.4033
헉	-10.4033
▁신하균	-10.4033
▁박보영	-10.4033
▁엽기	-10.4034
▁흑백	-10.4035
▁어설프다	-10.4035
▁꿈꾸	-10.4035
명복을	-10.4036
▁슬픈영화	-10.4037
▁오래전에	-10.4039
답니다	-10.4042
▁파괴	-10.4043
▁로빈	-10.405
▁잘못된	-10.4053
▁동양	-10.4053
▁꼭보세요	-10.4055
▁쓰는	-10.4056
▁내용전개	-10.4056
▁조낸	-10.4059
▁울었어요	-10.4065
캐스팅	-10.4068
시나리오	-10.407
▁치유	-10.4072
▁웃었다	-10.4072
리오	-10.4073
▁순수하고	-10.4075
▁뭣	-10.4078
햇는데	-10.4081
▁친구가	-10.4081
▁괜찮고	-10.4083
▁소름끼치는	-10.4091
누님	-10.4092
번째	-10.4099
▁없게	-10.4103
▁어이없다	-10.4104
▁죽었	-10.4105
▁첨이다	-10.4106
▁프랑스영화	-10.4107
재밋음	-10.4133
▁가능한	-10.4135
▁보고나니	-10.4138
▁일본인	-10.4141
▁신선함	-10.4142
더스	-10.4144
▁최고최고	-10.4147
▁마리	-10.4151
▁만들다	-10.4159
▁데이	-10.4161
▁위트	-10.4161
마냥	-10.4171
등록	-10.4177
▁파리	-10.4178
하시길	-10.418
▁거기에	-10.4182
렬	-10.4182
▁누나	-10.4182
▁김치	-10.4187
▁따분	-10.4198
▁벨	-10.4199
늙	-10.4206
▁봅니다	-10.4208
▁신고	-10.4215
▁의지	-10.4225
하니까	-10.4229
▁초등학교	-10.4234
▁씹	-10.4235
갈때	-10.4237
콤	-10.424
▁대박이다	-10.4241
윌	-10.4241
븐	-10.4241
걷	-10.4241
껀	-10.4241
뱀	-10.4241
쉐	-10.4241
▁가까운	-10.4242
▁니콜라스	-10.4242
▁닥치고	-10.4242
▁하이틴	-10.4242
▁정우성	-10.4242
▁민폐	-10.4244
▁우려먹	-10.4244
▁조아	-10.4244
▁반대	-10.4245
▁즐길	-10.4247
▁쭉	-10.425
▁은근	-10.4254
▁마시길	-10.4256
▁말하려는	-10.4257
▁자극적	-10.4261
▁첨엔	-10.4263
▁장난하나	-10.4265
▁개꿀잼	-10.4265
자마자	-10.4267
▁보시면	-10.4269
▁뻔한스토리	-10.427
▁사람이라면	-10.4271
▁처음에는	-10.4272
▁괜찮았음	-10.4274
▁부분도	-10.4275
▁시대에	-10.4276
꼽	-10.4279
▁봤다면	-10.4279
▁로망	-10.428
▁실감	-10.4289
▁미녀	-10.429
▁욕심	-10.4291
봣어요	-10.4296
나왔으면	-10.4298
▁고어	-10.4305
줘요	-10.4321
전혀	-10.4329
▁배신	-10.4342
못한	-10.4342
▁망할	-10.4343
귀신	-10.4349
▁잘만들었다	-10.4366
멋잇	-10.4373
▁놀랍	-10.438
모자	-10.4383
▁목적	-10.4388
▁화끈	-10.4396
▁보이지	-10.4397
받았다	-10.4405
▁집중이	-10.4413
▁히어로	-10.4418
▁액션과	-10.4427
▁캐리	-10.4427
▁코믹영화	-10.4437
▁등장인물	-10.4438
비추	-10.444
▁잘생겼	-10.4443
부분에서	-10.4448
엽	-10.4451
젊	-10.4451
퀄	-10.4454
▁감명깊게	-10.4454
▁류승범	-10.4454
▁유치찬란	-10.4454
▁알파치노	-10.4454
▁왕조현	-10.4454
▁이병헌	-10.4454
▁아기자기	-10.4454
▁씁쓸하	-10.4454
▁자동차	-10.4454
스파이더맨	-10.4454
▁도데체	-10.4454
▁강동원	-10.4454
▁한효주	-10.4455
▁환경	-10.4455
▁죄송	-10.4456
▁탈출	-10.4457
▁케빈	-10.4457
▁로맨틱코미디	-10.4458
▁빠지는	-10.4458
▁할아버지	-10.4461
▁흥분	-10.4461
▁고딩	-10.4462
▁그림체	-10.4462
▁낫겠다	-10.4463
▁고독	-10.4464
▁재앙	-10.4464
시대에	-10.4465
▁잠을	-10.4466
돈으로	-10.447
뭐지	-10.447
명성에	-10.4473
▁개콘	-10.4474
▁예능	-10.4475
▁거지같은	-10.4478
▁보았던	-10.4479
▁속았다	-10.448
▁담긴	-10.4481
▁마약	-10.4483
▁영원	-10.4485
▁무료	-10.4486
▁재미있었는데	-10.4491
갖	-10.4494
▁이해를	-10.4494
▁언제까지	-10.4495
▁있었으면	-10.4496
▁생활	-10.4496
▁보고싶은데	-10.4497
▁또보고싶	-10.4503
▁편안	-10.4505
▁나을듯	-10.4505
▁시작부터	-10.4506
▁인간은	-10.4506
▁어이없음	-10.4507
▁정보	-10.4508
▁생각했는데	-10.4511
▁설정이	-10.4512
폴	-10.4514
▁웃겼다	-10.4518
핵	-10.4518
잼씀	-10.452
▁무서움	-10.4523
▁국가	-10.4524
▁볼것	-10.4525
▁담은	-10.4533
▁기대이하	-10.4533
▁하는게	-10.4545
▁중심	-10.4547
제대로	-10.4557
줄알았다	-10.4559
ᄃᄃᄃ	-10.4563
▁대사들	-10.4563
표정	-10.4569
▁재밋는	-10.4574
점만점	-10.4576
선수	-10.4581
있지만	-10.4582
셔야	-10.4589
▁좋지	-10.4594
▁당신이	-10.4601
▁띄	-10.4604
▁쓰고	-10.4607
멜	-10.4608
▁돼지	-10.4611
유쾌하게	-10.4614
본거	-10.4622
▁정상	-10.4624
▁시대의	-10.463
▁여신	-10.4631
▁재미없네요	-10.4638
당시엔	-10.4646
급영화	-10.4649
픽	-10.4667
▁여자애	-10.4671
갱	-10.4672
렀	-10.4672
▁둘째치고	-10.4672
▁쏟아	-10.4672
렐	-10.4672
몫	-10.4672
퉤	-10.4672
▁대통령	-10.4672
▁점수준것들	-10.4672
뜸	-10.4672
오랫동안	-10.4672
▁괜찬	-10.4672
▁호기심	-10.4672
▁혐오	-10.4672
▁사투리	-10.4672
▁십점	-10.4672
▁혁명	-10.4672
▁필요한가	-10.4672
듭니다	-10.4672
▁손가락	-10.4672
▁무엇인가	-10.4672
▁ᄌᄂ	-10.4673
▁재밋엇	-10.4673
▁상큼	-10.4674
▁짜릿	-10.4674
▁예측	-10.4675
▁픽사	-10.4675
▁왠만한	-10.4675
▁일부러	-10.468
▁빠른	-10.468
▁좋으나	-10.4681
▁절망	-10.4685
▁판단	-10.4687
▁충분하다	-10.4687
▁부활	-10.4689
▁멋져	-10.4689
▁라스트	-10.469
▁짜증나고	-10.4692
▁류영화	-10.4693
▁개똥	-10.4696
▁살인마	-10.4701
▁의도가	-10.4702
▁표현할	-10.4706
▁기존	-10.4706
▁가족애	-10.4707
울리	-10.4709
▁답답하다	-10.4711
▁수많은	-10.4713
▁역사상	-10.4717
▁완벽하다	-10.4725
▁작가님	-10.4725
▁최고에요	-10.4726
▁많아서	-10.4727
▁심한	-10.4727
겼다	-10.473
▁좋아하지만	-10.4741
▁한번더	-10.4757
▁책으로	-10.4759
▁이야	-10.4759
벗어	-10.4765
보지마라	-10.4767
▁이거보단	-10.477
▁실수	-10.4784
▁모르겠네	-10.4786
▁의사	-10.479
이예요	-10.4799
▁찾을	-10.4804
여배우	-10.4805
흘렸	-10.4805
▁맞나	-10.4808
▁괜찮게	-10.4812
▁소장하고	-10.4814
▁잼있는	-10.4816
▁나음	-10.4826
▁새벽	-10.4827
▁어울리지	-10.4831
▁만화영화	-10.4842
▁상어	-10.4847
▁김정	-10.4848
보신분들	-10.4851
조아	-10.4858
▁한방	-10.4859
▁짝이	-10.4865
▁갖다	-10.4873
녀석	-10.4885
싼	-10.4888
갠	-10.4891
▁마지막까지	-10.4893
쿡	-10.4894
뭉	-10.4894
팍	-10.4894
셋	-10.4894
켰	-10.4894
▁못봐주겠	-10.4894
랩	-10.4894
▁임창정	-10.4894
▁도무지	-10.4894
▁흥미로웠	-10.4895
▁수면제	-10.4895
점준것중	-10.4897
▁마지막엔	-10.4899
▁말그대로	-10.4902
▁평점점	-10.4903
▁태국	-10.4905
▁어느정도	-10.491
였네요	-10.4912
▁유럽	-10.4913
▁재밌게봤어요	-10.4918
▁쿨	-10.4921
▁아파	-10.4922
▁여태	-10.4923
▁첨부터	-10.4927
▁괜찮았던	-10.4928
댄스	-10.4929
상영	-10.493
긴했지만	-10.4934
▁귀여웠	-10.4939
▁독특하고	-10.4942
▁쫓	-10.4943
▁앞서	-10.4945
▁만들어라	-10.4946
▁짱이다	-10.4949
잭슨	-10.4953
않음	-10.4957
▁낮은지	-10.4958
▁여배우들	-10.4962
▁어쩌다	-10.4967
드립	-10.4969
▁괜찮네요	-10.497
▁연기자	-10.497
ᅲᅲᅲᅲᅲᅲ	-10.497
꿈	-10.4971
으려고	-10.4971
비슷	-10.4977
▁생각할	-10.4978
구먼	-10.498
▁아이유	-10.4983
▁무섭게	-10.4985
▁인상적인	-10.4999
줘야지	-10.5
행복	-10.5011
▁뒤에	-10.5017
▁불가능	-10.5034
유발	-10.5042
해줘서	-10.5042
▁의상	-10.5048
▁놓치	-10.5049
▁사랑한다	-10.5049
▁어디로	-10.505
했다면	-10.5054
▁대학	-10.5055
▁어색하고	-10.5057
▁곰	-10.5059
그러나	-10.5062
▁가수	-10.5068
있네요	-10.5071
년대	-10.5085
▁찍고	-10.5087
였다면	-10.5088
▁진지한	-10.5093
거에요	-10.5098
못함	-10.5106
되네	-10.5115
▁잘한다	-10.512
▁송강호	-10.5121
▁오그라드는	-10.5121
및	-10.5121
▁미스캐스팅	-10.5121
▁아름다워	-10.5121
▁짬뽕	-10.5121
▁전반적으로	-10.5121
▁역겹다	-10.5121
▁적절한	-10.5121
▁베드신	-10.5121
▁누군지	-10.5121
어울림	-10.5121
▁이끌어	-10.5121
▁킬러	-10.5122
▁목숨	-10.5122
▁생각해보게	-10.5125
▁더러워	-10.5126
▁위험	-10.5127
볼까	-10.5128
▁중학생	-10.5135
▁요새	-10.5137
▁만들어낸	-10.5137
▁담겨	-10.5138
▁말아야	-10.5139
▁천국	-10.5139
▁생명	-10.5141
것같은데	-10.5147
▁재능	-10.5147
겠는데	-10.5151
▁역작	-10.5154
립니다	-10.5159
보내	-10.5161
▁만들어서	-10.5163
▁유행	-10.5163
것같네요	-10.5164
▁현실감	-10.5168
▁산만하고	-10.517
답다	-10.5176
▁탄탄하고	-10.518
▁마지막회	-10.5181
낭비	-10.5207
▁그동안	-10.5208
빼곤	-10.5208
▁아동	-10.5208
뭘	-10.5209
▁뛰어넘는	-10.5222
선택	-10.5222
▁웃겼	-10.523
▁충분한	-10.5243
하루	-10.5248
▁심하다	-10.5251
▁머야	-10.5254
▁하드	-10.5263
었는지	-10.5265
▁찾아서	-10.5275
답게	-10.5277
▁가득한	-10.5281
돌려	-10.5299
▁후하게	-10.5302
광고	-10.5318
▁옛날영화	-10.5331
월드	-10.5336
▁답답함	-10.5342
빗	-10.5353
덴	-10.5354
밉	-10.5354
컸	-10.5354
▁어정쩡	-10.5354
▁오프닝	-10.5354
▁컴퓨터	-10.5354
▁흡입력	-10.5354
맴	-10.5354
▁어두운	-10.5354
▁여러모로	-10.5354
▁김수현	-10.5354
▁비호감	-10.5354
▁일주일	-10.5354
▁빠져들게	-10.5354
벗	-10.5354
▁기발한	-10.5354
▁완젼	-10.5354
▁않으	-10.5355
▁레옹	-10.5357
▁그려낸	-10.5357
▁벗어나	-10.5359
▁빛나는	-10.5359
흑흑	-10.536
▁관련	-10.5361
▁나무	-10.5364
▁잘하네요	-10.5365
▁거북	-10.5365
만드나	-10.5366
▁이만한	-10.5367
▁감동적입니다	-10.5369
▁돋보였	-10.5375
합시다	-10.5378
▁한심하다	-10.5379
▁말인가	-10.5381
▁숨은	-10.5385
▁녹아	-10.5385
▁이거보다	-10.5386
▁궁금해서	-10.5389
▁인생영화	-10.539
▁무엇이	-10.539
▁놀란	-10.54
▁만들었냐	-10.5404
였구나	-10.5406
▁연기잘하	-10.5406
▁마음속	-10.5406
▁단점	-10.5413
스틱	-10.5416
하지말고	-10.5424
▁죽고	-10.5424
맞음	-10.5432
▁만난	-10.5436
▁잊고	-10.5436
▁밋밋한	-10.5445
것처럼	-10.5445
쩝	-10.5452
▁티비로	-10.5452
▁형편없는	-10.5454
보임	-10.5455
▁빠져서	-10.5457
병맛	-10.5459
할수있는	-10.5472
▁아니잖아	-10.5475
▁주려	-10.5478
▁광구	-10.5483
▁짜증나게	-10.5487
▁선정	-10.5493
곳에서	-10.5503
▁별로였다	-10.5504
▁찾는	-10.5507
돈주고	-10.5508
▁처음이네	-10.5516
▁피해	-10.5523
하고싶다	-10.5526
복수	-10.5536
좋은데	-10.5536
법한	-10.5555
▁이것보다	-10.5562
▁남는게	-10.5564
▁당신의	-10.5571
앉	-10.558
▁제작비가	-10.558
밋	-10.5585
▁킬링	-10.5591
▁비쥬얼	-10.5592
렛	-10.5592
렴	-10.5592
뻑	-10.5592
쏴	-10.5592
핫	-10.5592
▁섬세한	-10.5592
▁원숭이	-10.5592
▁피아노	-10.5592
▁원피스	-10.5592
▁배급사	-10.5592
▁무거운	-10.5592
▁드니로	-10.5592
▁섬뜩	-10.5592
▁엠마	-10.5592
▁두고두고	-10.5592
▁좋더라	-10.5592
▁어둡	-10.5592
마누라	-10.5593
▁심지어	-10.5594
▁스파이	-10.5594
▁크리스찬	-10.5594
▁도둑	-10.5595
▁격투	-10.5596
▁좋았을텐데	-10.5596
▁의도는	-10.5598
▁러브	-10.5598
할줄	-10.56
▁묘한	-10.56
▁내취향	-10.5602
▁끼워	-10.5602
습니까	-10.5609
▁등장인물들	-10.5611
▁그것도	-10.5616
▁분동안	-10.5619
▁부족함	-10.5619
▁망쳐놓	-10.5626
▁강추합니다	-10.5634
▁안나오는	-10.5639
▁주온	-10.5642
으러	-10.5642
하는구나	-10.5643
▁느껴지지	-10.5644
▁전설이	-10.5644
▁공유	-10.5647
▁공간	-10.565
▁장진	-10.5651
▁편까지	-10.5656
▁않아요	-10.5656
▁조잡한	-10.5661
▁안보면	-10.5661
▁웃겨서	-10.5666
▁그리워	-10.5666
▁인디	-10.5667
▁상대	-10.5674
▁탄탄	-10.5683
특집	-10.5684
▁높지	-10.5685
▁뭐라고	-10.5686
▁낚인	-10.5687
▁여인	-10.5688
▁삶과	-10.5695
되길	-10.5696
▁머냐	-10.57
샘	-10.5701
▁느리	-10.5701
로맨스	-10.5705
▁승리	-10.5706
▁많네	-10.5711
삼류	-10.5715
▁낮네요	-10.5719
허무	-10.572
극히	-10.5729
▁믿어	-10.573
▁빠졌	-10.5736
졌던	-10.5739
시작해서	-10.5743
망작	-10.5765
졌음	-10.5766
비스	-10.5767
▁만들어주	-10.5768
▁뻔해	-10.5789
그렇게	-10.579
▁실망이다	-10.5792
났음	-10.5793
▁한시간	-10.5801
▁기억나	-10.5806
▁흉내	-10.5809
▁액션물	-10.5811
▁잼없다	-10.5822
▁마시	-10.5824
▁대신	-10.5827
떤	-10.583
▁허허	-10.5832
룰	-10.5836
얄	-10.5836
▁빕니다	-10.5836
▁시종일관	-10.5836
▁애니매이션	-10.5836
▁영웅본색	-10.5836
됫	-10.5836
뺏	-10.5836
쉴	-10.5836
옳	-10.5836
좆	-10.5836
퀸	-10.5836
템	-10.5836
▁그냥저냥	-10.5836
▁클래식	-10.5836
▁잊지못할	-10.5836
▁리얼리티	-10.5836
▁김혜수	-10.5836
▁삭제	-10.5836
▁아쉬워요	-10.5836
▁몽환적	-10.5836
▁동시에	-10.5837
▁전성기	-10.5839
▁고뇌	-10.5839
▁풀어낸	-10.5839
▁잔잔함	-10.5841
▁이도저도	-10.5843
▁멋있어	-10.5844
페이스	-10.5845
지못한	-10.5846
우드	-10.5847
▁재탕	-10.5847
▁에라이	-10.585
브리	-10.5853
▁드림	-10.5857
▁우왕	-10.5858
▁졸잼	-10.5858
▁기억난다	-10.5861
▁최후	-10.5863
▁되는데	-10.5863
하나하나가	-10.5867
학년때	-10.5869
▁대표	-10.587
▁보고있는데	-10.587
▁보라고	-10.5872
▁액션신	-10.5874
므로	-10.588
▁만들어졌	-10.588
▁쩌네	-10.5882
▁피어	-10.5884
싶은데	-10.589
▁잃었	-10.5896
▁멋지게	-10.5899
▁사람들에게	-10.5901
▁남성	-10.5901
▁지금보면	-10.5907
▁넣어	-10.5907
었구나	-10.5912
▁영화라지만	-10.5918
▁구분	-10.5919
▁멋있고	-10.5926
▁아까워서	-10.5927
▁군인	-10.5928
▁신인	-10.5935
▁반영	-10.5935
▁욕먹	-10.594
훌륭	-10.595
▁결론은	-10.5952
▁신화	-10.5954
▁만원	-10.5955
좋겠	-10.5957
하실	-10.5962
초딩	-10.5962
▁보아도	-10.5963
▁옆에	-10.5967
바람	-10.5973
미화	-10.5979
결국	-10.5982
▁절로	-10.5982
▁그이상	-10.5983
▁자극적인	-10.5986
▁와진짜	-10.5988
▁베일	-10.5989
▁돋보이	-10.599
싶어지는	-10.5991
각본	-10.5994
▁스릴러물	-10.5997
▁팬들	-10.5997
별점	-10.5998
아닌데	-10.6
이후로	-10.6019
▁들어간	-10.6023
었을까	-10.6029
하겠습니다	-10.6041
▁대부	-10.6044
▁도시	-10.6048
렸음	-10.6056
신분들	-10.6056
▁뻔하다	-10.6057
▁있긴	-10.6061
▁천만	-10.6063
믿고	-10.6065
아니면	-10.6069
혐	-10.6084
펜	-10.6086
▁뒤늦게	-10.6086
킴	-10.6086
▁가볍지	-10.6086
꽁	-10.6086
늬	-10.6086
▁김희선	-10.6086
▁칭찬	-10.6086
▁묵직	-10.6086
▁눈으로	-10.6086
▁블루	-10.6087
▁컬트	-10.6087
▁무간도	-10.6087
▁극혐	-10.6088
▁환장	-10.6089
▁잔인함	-10.6091
▁멋짐	-10.6092
▁역량	-10.6092
▁가족들	-10.6093
▁알려주는	-10.6093
▁따뜻해	-10.6096
▁엄청나게	-10.6097
▁시간아까워	-10.6098
▁늙어	-10.61
▁보여줄	-10.61
겠어	-10.6101
▁흉내내	-10.6114
좀비	-10.6121
▁다운받아서	-10.6123
▁충격적인	-10.6127
▁부산	-10.6139
▁사랑스럽고	-10.6141
대전	-10.6143
▁가짜	-10.6157
▁모르겠네요	-10.6174
▁매주	-10.6181
▁훈훈하고	-10.6182
▁싫어하는	-10.6189
곳이	-10.6197
해지고	-10.6203
▁기대했던	-10.6205
▁꿈과	-10.6213
▁정작	-10.6213
▁불안	-10.6215
▁있었음	-10.6216
▁이딴거	-10.6221
▁중년	-10.6221
킬링타임	-10.6222
코메디	-10.6222
▁재밋어	-10.6223
▁나머지는	-10.6227
그럼	-10.6232
다시보고싶	-10.6234
버렸네	-10.624
충격	-10.624
까봐	-10.6247
▁달려	-10.6248
▁부정	-10.6248
보고나서	-10.6251
재밋어요	-10.6257
그대로	-10.6272
겨울	-10.6275
▁무협영화	-10.6286
▁만세	-10.6288
▁이딴게	-10.6291
▁되야	-10.6297
▁본듯한	-10.6299
하길래	-10.6304
안된다	-10.6311
▁나와야	-10.6326
▁초반부	-10.6327
▁정체	-10.6327
좋겠다	-10.6327
뎀	-10.6341
밍	-10.6342
ᄊ	-10.6342
▁디카프리오	-10.6342
▁밝혀	-10.6342
▁인터넷	-10.6342
▁테이큰	-10.6342
뚫	-10.6342
썬	-10.6342
캠	-10.6342
왈	-10.6342
▁최민식	-10.6342
▁한석규	-10.6342
툭	-10.6342
▁아쉬울	-10.6342
▁미스터리	-10.6342
▁흠잡을	-10.6342
▁비행기	-10.6343
▁러셀	-10.6343
▁상관없	-10.6343
▁말이필요없다	-10.6345
▁섬세하	-10.6346
▁파격적	-10.6346
▁호흡	-10.6346
▁슈퍼맨	-10.6347
▁람보	-10.6347
▁자연스러운	-10.6347
▁방황	-10.6348
▁난해한	-10.6348
▁잃은	-10.6349
▁서양	-10.6349
▁닮았	-10.635
▁동영상	-10.6352
▁등등	-10.6354
▁좋겠습니다	-10.6357
▁반갑	-10.6359
▁또라이	-10.6364
호러	-10.6366
▁노인	-10.6366
▁멋져요	-10.6367
▁모욕	-10.6369
▁진지하게	-10.6369
▁아깝습니다	-10.6369
높아	-10.6374
▁가히	-10.6376
▁좋구	-10.638
▁재밌었습니다	-10.638
▁모르지만	-10.6381
▁아이들에게	-10.6383
▁귀여워서	-10.6383
▁알바생	-10.6385
▁있어보이	-10.6389
▁보는동안	-10.639
▁보고싶네요	-10.6394
▁날아	-10.6399
▁착하	-10.6404
▁비중	-10.6405
▁에로물	-10.6406
▁화끈한	-10.6419
한국영화	-10.642
▁화질	-10.6421
▁다르게	-10.6437
▁매미	-10.6443
▁아련한	-10.6451
▁와닿는	-10.6452
▁원하는	-10.6469
중국	-10.6471
▁나한테	-10.6478
엇음	-10.648
▁야하지도	-10.6487
무서워	-10.6487
▁최고인듯	-10.649
겠는가	-10.649
귀여워	-10.6491
평론가	-10.6492
칼	-10.6492
▁본격	-10.6494
스코	-10.6496
범죄	-10.6497
밖	-10.65
▁내시간	-10.6508
부르	-10.6518
▁없군	-10.6522
것같아	-10.6525
외에는	-10.6529
편집	-10.653
올린	-10.6533
▁알게되	-10.6539
여주인공	-10.6539
▁없던	-10.654
▁감동입니다	-10.6542
▁중국영화	-10.6543
▁지루하네	-10.6544
멋진	-10.6546
▁남아있는	-10.6551
▁못만들	-10.6554
물론	-10.6555
실화	-10.6565
흥미롭	-10.6569
자꾸	-10.6575
있었는데	-10.6575
소재와	-10.6585
재미있음	-10.6593
▁만들려	-10.6598
어설프	-10.6599
챙	-10.6602
썸	-10.6605
▁군더더기	-10.6605
뜯	-10.6605
홈	-10.6605
▁송승헌	-10.6605
▁아마추어	-10.6605
▁엄정화	-10.6605
짙	-10.6605
▁김민종	-10.6605
▁후속편	-10.6605
▁바탕으로	-10.6605
▁설경구	-10.6605
▁감성팔이	-10.6605
▁드래곤볼	-10.6605
▁고마워	-10.6605
랍니다	-10.6605
▁최민수	-10.6605
▁안타까움	-10.6605
▁왕가위	-10.6606
▁완죤	-10.6606
▁그럴싸	-10.6608
▁택시	-10.6608
▁공룡	-10.6611
▁억지스런	-10.6614
▁낮추	-10.6614
▁극복	-10.6615
▁국산	-10.6616
▁실사	-10.6618
▁꺼져	-10.6618
▁할말없	-10.6619
▁전체적인	-10.6619
▁존잼	-10.6624
▁무슨말이	-10.6631
▁순위	-10.6631
▁자연스럽게	-10.6633
▁처음본다	-10.6635
▁진부하다	-10.6635
▁감동적임	-10.6637
▁싶었던	-10.6641
▁의미있는	-10.6642
ᅲᅲᅲᅲᅲ	-10.6645
▁브레	-10.665
▁케미	-10.6656
▁이은주	-10.666
▁네이버평점	-10.6665
▁있으나	-10.6671
▁또봐도	-10.6672
▁않았던	-10.6687
낫다	-10.6698
▁봐주	-10.67
방에서	-10.6711
▁천사	-10.6717
▁드네요	-10.6721
▁배경으로	-10.6728
▁토니	-10.673
더군	-10.6747
▁다시봤는데	-10.6764
▁허접하고	-10.6765
멀	-10.6766
프로그램	-10.677
개인적으로	-10.6771
아무리	-10.6772
▁비교해	-10.6775
더럽게	-10.6775
경찰	-10.6776
▁사용	-10.6783
▁없을까	-10.6786
▁당황	-10.6796
렇	-10.6803
▁이상하다	-10.6812
▁보는것	-10.6816
깐	-10.6818
알바들	-10.6829
▁백인	-10.6833
▁다시보기	-10.6851
▁봐야한다	-10.6863
팠	-10.6875
궈	-10.6876
▁뒤죽박죽	-10.6876
▁엔딩크레딧	-10.6876
뎁	-10.6876
랏	-10.6876
뤄	-10.6876
믄	-10.6876
팩	-10.6876
▁즐거움	-10.6876
▁키아누	-10.6876
▁예뻐서	-10.6876
▁데뷔작	-10.6876
▁봐줄만	-10.6876
▁치밀하	-10.6878
땜시	-10.6878
▁점만점에	-10.6879
▁절묘	-10.688
▁돌아보게	-10.6881
할게요	-10.6884
▁듣기	-10.6885
역할	-10.6886
더럽고	-10.6887
▁계기	-10.6887
▁욕나온다	-10.6887
▁피곤	-10.6889
▁상징	-10.6889
▁지루했음	-10.6895
▁동화같은	-10.6898
그저	-10.6899
▁단순히	-10.69
▁미안해	-10.6902
▁감동적이었다	-10.6903
▁살리지	-10.6904
아깝네	-10.6908
▁마블	-10.6911
▁인류	-10.6917
▁웃다가	-10.6919
▁지독	-10.6922
▁나올까	-10.6922
▁불쌍해서	-10.6924
졌어요	-10.6924
▁잼나요	-10.6936
즐겁고	-10.6938
▁만든건지	-10.6938
▁공연	-10.6939
▁모방	-10.694
웃겼음	-10.6948
▁한동안	-10.6954
▁정체성	-10.6958
차별	-10.6966
▁못하겠다	-10.697
많은것을	-10.6971
▁힘들어	-10.6971
▁전라도	-10.6971
▁불쌍해	-10.6991
▁명작이네요	-10.7007
▁열자	-10.7008
▁재수없	-10.701
나보네	-10.7014
동화	-10.7021
▁뛰어넘	-10.7037
끝내	-10.7053
덕분에	-10.7055
오랜만에	-10.7056
▁끝날	-10.706
예술	-10.7067
보지마세요	-10.7071
가는줄	-10.7071
ᄃᄃᄃᄃ	-10.7072
넘치는	-10.7075
저런	-10.708
웃긴	-10.7091
좋아하는데	-10.7096
것같음	-10.7105
▁정신병	-10.7118
▁막판	-10.7128
야말로	-10.7139
걸린	-10.7141
▁잊혀	-10.7143
▁캐릭	-10.7153
▁소피마르소	-10.7153
밨	-10.7153
▁고등학생	-10.7153
▁박찬욱	-10.7153
▁봤는지	-10.7153
▁호불호가	-10.7153
덧	-10.7153
렘	-10.7153
삘	-10.7153
숲	-10.7153
튜	-10.7153
▁차태현	-10.7153
▁팝콘	-10.7153
옮	-10.7153
▁박평식	-10.7153
▁숨막히	-10.7153
▁스페인	-10.7153
▁나머진	-10.7153
▁손색이	-10.7153
▁흑역사	-10.7154
▁거부감	-10.7154
▁쏘우	-10.7155
▁흥미롭게	-10.7155
▁귀찮	-10.7155
▁창있네	-10.7156
징그러	-10.7158
▁찬양	-10.7159
▁안성기	-10.7159
▁직업	-10.716
▁부탁	-10.716
순수	-10.716
밴드	-10.7161
▁거기다	-10.7162
▁개그맨	-10.7162
▁기획	-10.7166
▁발랄	-10.7167
▁모자라	-10.7169
▁개봉당시	-10.7169
▁필요없음	-10.7171
드릴	-10.7172
▁살아야	-10.7174
▁영광	-10.7174
▁만약	-10.7181
▁못따라	-10.7182
▁채우	-10.7184
▁재미나게	-10.7185
웠던	-10.7187
▁안녕	-10.7187
▁만드냐	-10.7189
으신	-10.719
▁다시보게	-10.7192
▁어쩌면	-10.7201
▁울림	-10.7204
▁레오	-10.7209
▁책임	-10.721
▁기대된다	-10.7212
▁정석	-10.7213
▁평소	-10.7214
▁천원	-10.7215
▁강간	-10.7218
▁제대로된	-10.722
오르는	-10.7221
▁준비	-10.7227
죽이고	-10.7228
느냐	-10.723
▁받아야	-10.7239
스럽지	-10.7251
▁약하다	-10.7253
▁재밋는데	-10.7262
▁만났	-10.7263
보니깐	-10.7276
▁안봐서	-10.7276
▁알게된	-10.7278
고싶었	-10.7283
나오는거	-10.7286
▁재밋네요	-10.7292
▁지금이나	-10.7298
▁나왔던	-10.7302
▁잠들	-10.7306
큼	-10.7309
있었던	-10.7324
▁불쌍하	-10.7338
무서움	-10.7348
시청률	-10.7349
잘봤습니다	-10.735
민호	-10.7356
해야하나	-10.7374
▁굳굳	-10.7435
▁일깨워	-10.7437
얀	-10.7439
▁겨울왕국	-10.7439
▁에드워드	-10.7439
▁크레딧	-10.7439
겄	-10.7439
앜	-10.7439
턱	-10.7439
톡	-10.7439
헨	-10.7439
훗	-10.7439
▁스필버그	-10.7439
▁어설퍼	-10.7439
셧	-10.7439
잣	-10.7439
▁구혜선	-10.7439
▁손예진	-10.7439
▁쓸데없는	-10.7439
▁컨셉	-10.7439
▁사무라이	-10.7439
▁권상우	-10.7439
습니당	-10.7439
▁빈약한	-10.7439
▁멈추	-10.7439
▁클라스	-10.7439
파이팅	-10.7441
▁첫번째	-10.7441
▁늙은	-10.7442
밖엔	-10.7444
▁러브스토리	-10.7444
▁돈낭비	-10.7445
▁새삼	-10.7446
실력	-10.7448
▁오글거려서	-10.7454
▁말씀	-10.7455
그림	-10.7455
▁모독	-10.7459
할정도로	-10.7463
▁초반엔	-10.7463
▁재밌기만	-10.7463
▁잔잔하지만	-10.7467
▁대실망	-10.7469
▁우승	-10.747
▁경계	-10.7472
▁빠질	-10.7478
▁학생들	-10.748
▁없구나	-10.7485
▁중병	-10.7487
▁작화	-10.749
ᅳᅮ	-10.7494
▁대결	-10.7495
겨운	-10.75
▁채워	-10.7507
는뎅	-10.7508
▁오글거리는	-10.7511
▁슬프네요	-10.7516
▁않습니다	-10.7521
▁꼭봐야	-10.7522
▁당장	-10.7525
▁다시보고싶은	-10.7526
▁사람에게	-10.7532
▁다시금	-10.7541
▁가슴아프	-10.7541
억	-10.7546
▁소개	-10.7551
▁살때	-10.7551
▁행복하게	-10.7551
▁돈아깝다	-10.757
죽여	-10.7582
▁마법	-10.7604
하거나	-10.7627
▁넘어서	-10.7643
짧	-10.7648
농	-10.7651
왜이래	-10.7653
무서운	-10.7653
댓글	-10.7655
판타지	-10.7655
▁범죄자	-10.7683
즐겁	-10.7695
룬	-10.7712
뗄	-10.7728
넬	-10.7733
쉣	-10.7733
윽	-10.7733
ᄐ	-10.7733
▁미스테리	-10.7733
▁슬펐다	-10.7733
▁엑스맨	-10.7733
듦	-10.7733
륵	-10.7733
혔	-10.7733
▁다이하드	-10.7733
▁이탈리아	-10.7733
▁김태희	-10.7733
▁깜놀	-10.7733
▁머릿속	-10.7733
▁장동건	-10.7733
▁다세포소녀	-10.7733
▁데이빗	-10.7734
▁워낙	-10.7734
생겨서	-10.7734
▁젊음	-10.7734
▁슬퍼요	-10.7735
▁극단적	-10.7737
▁확실하	-10.7738
▁느껴졌다	-10.7738
▁짱짱맨	-10.774
▁서극	-10.7744
▁과학	-10.7744
거같아	-10.7746
▁씨발	-10.7749
▁노튼	-10.7749
▁시험	-10.775
▁불법	-10.7752
▁실패작	-10.7752
아쉬워	-10.7753
▁승부	-10.7754
▁매번	-10.7757
▁유령	-10.7757
▁독립	-10.7757
▁기억남	-10.7758
▁어렸을적	-10.776
▁아무튼	-10.7761
▁향한	-10.7763
▁커버	-10.7763
▁적극	-10.7764
▁개잼	-10.7764
ᄍᄍᄍ	-10.7775
▁재미없었음	-10.7775
▁소통	-10.7776
줄알고	-10.7779
▁나오다니	-10.7781
▁어디까지	-10.7785
▁재방	-10.7786
▁잼없음	-10.7787
▁미학	-10.7798
▁안나옴	-10.7806
▁재밌당	-10.7811
▁제작자	-10.7811
보기엔	-10.7814
▁믿을게	-10.7816
▁우린	-10.7817
▁피식	-10.7822
▁대역	-10.7824
▁안가는	-10.7828
▁퇴보	-10.7836
달라고	-10.7842
르르	-10.7848
척하는	-10.7864
▁낚였네	-10.7871
▁볼만한데	-10.7872
▁두명	-10.7876
▁흥미롭지	-10.7879
짱짱짱	-10.7883
고싶지	-10.7914
▁훈훈하	-10.7921
▁좋았어	-10.7944
썩	-10.796
얼마나	-10.7966
▁당할	-10.7973
보고싶은	-10.7977
다시봐도	-10.798
폭력	-10.7981
성룡	-10.7984
노출	-10.7997
▁부담	-10.8
▁알아야	-10.8003
유머	-10.8017
▁연주	-10.8023
둑	-10.8033
댓	-10.8034
릉	-10.8036
붉	-10.8036
탁월한	-10.8036
▁과대평가	-10.8036
▁윌리엄	-10.8036
끓	-10.8036
쌓	-10.8036
▁오그라들	-10.8036
줫	-10.8036
▁황정민	-10.8036
▁어차피	-10.8036
▁소지섭	-10.8036
▁ᄇᄉ	-10.8036
▁불후의	-10.8037
▁떡밥	-10.8037
▁총체적	-10.8037
▁사기꾼	-10.8038
▁어설프게	-10.8038
만들엇	-10.804
▁질질끌	-10.804
ᄂᄂ	-10.8041
▁농담	-10.8041
엉성	-10.8044
▁과장된	-10.8045
▁열광	-10.8047
▁여태까지	-10.8048
십니다	-10.8049
남긴다	-10.8051
▁볼만해요	-10.8057
▁환상적인	-10.8057
▁경악	-10.8058
재미잇	-10.8059
▁백배	-10.806
▁다음편	-10.8064
▁분짜리	-10.8067
▁적당하다	-10.8069
▁미술	-10.8072
▁정점	-10.8075
센트	-10.8078
▁모양	-10.8079
▁극본	-10.8086
▁비록	-10.8089
▁상당	-10.8089
▁존내	-10.8094
▁짜증났	-10.8097
▁훌륭함	-10.81
▁먹먹하다	-10.8104
▁끝남	-10.812
▁말았다	-10.8132
▁변신	-10.8143
▁가능성	-10.8176
▁논리	-10.8196
▁못하겠	-10.8205
▁만들었으면	-10.8205
▁조연들	-10.8218
▁운동	-10.8231
▁스릴감	-10.825
▁극중	-10.8257
▁소름끼치	-10.8261
같애	-10.827
셨으면	-10.8274
때메	-10.8274
▁허무함	-10.8282
액	-10.8284
쫌	-10.8288
아름다운	-10.8289
옛날	-10.8289
그래픽	-10.8289
어울리는	-10.8289
ᄉᄇ	-10.829
유쾌	-10.8291
힘든	-10.83
▁돈아깝	-10.8309
영웅	-10.8311
별루	-10.8316
안좋	-10.8326
▁어울리	-10.8332
▁오랜	-10.8336
▁남자배우	-10.8339
냄	-10.8347
뱅	-10.8348
킥	-10.8349
곽	-10.8349
긔	-10.8349
뚜	-10.8349
웰	-10.8349
▁도라에몽	-10.8349
▁드림웍스	-10.8349
▁오글거림	-10.8349
▁홧팅	-10.8349
뼈	-10.8349
웩	-10.8349
탠	-10.8349
펠	-10.8349
▁원주율	-10.8349
넼	-10.8349
▁세련된	-10.8349
▁더더욱	-10.8349
▁오우삼	-10.8349
▁정주행	-10.8349
▁나루토	-10.8349
▁지저분	-10.8349
▁어딘가	-10.8349
▁임청하	-10.8349
▁외로움	-10.8349
▁아바타	-10.8349
▁엉엉	-10.8349
▁무서울	-10.8349
▁솔까	-10.8349
▁콜린	-10.8349
▁전지현	-10.8349
▁죽기전에	-10.8353
▁각색	-10.8354
▁패션	-10.8359
▁재방송	-10.836
▁복수극	-10.8363
▁뒤집	-10.8364
▁철저	-10.8364
▁히어로물	-10.8367
▁커피	-10.8367
▁마틴	-10.8368
▁흘러가는	-10.8369
▁중반부터	-10.837
▁돈벌	-10.8371
▁남자라면	-10.8374
▁힘들었다	-10.8379
▁원표	-10.8379
▁지옥	-10.8384
▁향기	-10.8386
▁나은듯	-10.8393
▁드물	-10.8401
▁성형	-10.8402
▁구역	-10.8404
▁배울	-10.8418
▁어린이용	-10.8419
마른	-10.842
▁좋아하네요	-10.8431
작렬	-10.8434
▁해외	-10.8446
▁흔하	-10.8454
▁풀어내	-10.8479
▁질리지않	-10.8481
▁각자	-10.8482
투성이	-10.8485
▁동감	-10.8498
세상에서	-10.8515
했었다	-10.8531
▁산만하	-10.8532
보여서	-10.854
봣음	-10.857
▁수준이하	-10.86
몇번	-10.8616
옷	-10.8619
마무리	-10.8619
그나마	-10.8623
▁깨닫	-10.864
▁장점	-10.8654
올려	-10.8659
▁중학교	-10.866
▁남아있	-10.8661
싶을때	-10.8666
딜	-10.8666
룸	-10.8671
욬	-10.8671
▁굉장한	-10.8671
▁말았어야	-10.8671
▁파워레인저	-10.8671
멕	-10.8671
엌	-10.8671
팽	-10.8671
푼	-10.8671
▁양동근	-10.8671
▁엉망진창	-10.8671
▁재발견	-10.8671
졋	-10.8671
핳	-10.8671
▁마찬가지	-10.8671
넷	-10.8671
▁불면증	-10.8671
▁색다르	-10.8671
▁러브라인	-10.8671
▁한쿡영화	-10.8671
▁큐브	-10.8671
▁레이첼	-10.8672
▁의외의	-10.8672
▁성유리	-10.8672
뜨거운	-10.8672
▁틀림없	-10.8672
▁심오한	-10.8672
▁스킵	-10.8672
ᅩᅩ	-10.8673
▁거기서	-10.8673
▁사라져	-10.8673
▁모자란	-10.8673
귀요미	-10.8673
봣습니다	-10.8674
▁증말	-10.8674
▁일깨워주는	-10.8674
▁담담하	-10.8677
▁존경합니다	-10.8682
▁방향	-10.8682
▁권력	-10.8684
▁빠져들었	-10.8685
▁제정신	-10.8685
▁치료	-10.8688
▁좋아한다면	-10.8688
▁허탈	-10.8689
▁공허	-10.869
▁음향	-10.8691
손색없	-10.8691
▁시골	-10.8691
▁연습	-10.8691
보였다	-10.8693
▁소품	-10.8694
▁세계관	-10.8695
▁고증	-10.8698
▁심각하게	-10.87
▁못생겼	-10.8701
▁늙었	-10.8705
▁제왕	-10.8705
▁히트	-10.8707
▁카피	-10.8707
▁되었습니다	-10.8713
▁볼만했는데	-10.8713
▁법정	-10.8715
▁없애	-10.8718
▁소소하	-10.8719
▁무색	-10.8727
▁두배우	-10.8753
▁에러	-10.8775
▁어린이들	-10.8803
채널에서	-10.8814
할수록	-10.8814
배워	-10.8818
사람마다	-10.8826
힘들었	-10.8885
뎅	-10.8924
취향	-10.8954
▁힘내	-10.8958
퇴	-10.896
▁망쳐	-10.8962
쿨	-10.8964
좋앗	-10.8977
조심	-10.8977
이쁘다	-10.8979
되어있	-10.898
볼걸	-10.8993
지르고	-10.8999
봇	-10.9001
낌	-10.9002
뜩	-10.9003
흉	-10.9004
캡	-10.9005
팝	-10.9005
썰	-10.9005
쩍	-10.9005
▁런닝타임	-10.9005
▁신데렐라	-10.9005
▁카메론	-10.9005
▁펭귄	-10.9005
▁학창시절	-10.9005
릅	-10.9005
셜	-10.9005
▁심리묘사	-10.9005
▁엉터리	-10.9005
▁톰크루즈	-10.9005
쇄	-10.9005
칫	-10.9005
▁초중반	-10.9005
▁납득	-10.9005
▁윌리스	-10.9005
▁펼쳐	-10.9005
▁평점조절	-10.9005
▁픽션	-10.9005
▁배속으로	-10.9005
▁오페라	-10.9005
▁찬사를	-10.9005
▁뉴욕	-10.9005
▁페이크	-10.9005
▁다니엘	-10.9005
▁감수성	-10.9005
▁거슬리	-10.9005
기승전	-10.9006
▁록키	-10.9006
▁미친듯이	-10.9006
▁전도연	-10.9007
▁거듭	-10.9007
▁가까이	-10.9007
▁사라진	-10.9008
어지럽	-10.9009
▁나타나	-10.9009
▁이민기	-10.9013
남매	-10.9014
왜이럼	-10.9015
▁초등학교때	-10.9016
▁역쉬	-10.9017
▁지브리	-10.9018
▁지루했어요	-10.902
영환줄	-10.9025
▁알려준	-10.9028
▁케이지	-10.903
▁선생	-10.903
▁돌려줘	-10.9033
헤헤	-10.9034
▁중학교때	-10.9035
▁얻어	-10.9043
▁울었습니다	-10.9044
▁출신	-10.9045
▁일찍	-10.9049
▁터져	-10.9056
▁볼거없	-10.9067
미치도록	-10.9091
검사	-10.9093
▁엉성함	-10.9096
▁살아남	-10.9128
재밋엇	-10.9162
으세요	-10.9176
▁재미있었던	-10.9188
낚였	-10.9199
▁자연스럽	-10.9213
▁심심하	-10.923
것들은	-10.9233
▁진부함	-10.9235
▁환상적이	-10.9243
▁광팬	-10.9247
▁없으니	-10.9299
첫	-10.9322
특유의	-10.9323
애니메이션	-10.9324
시간낭비	-10.9326
낮아서	-10.9332
앵	-10.9347
긍	-10.9349
ᅦ	-10.9349
됴	-10.9349
▁내러티브	-10.9349
▁별반개도	-10.9349
▁시끄럽	-10.9349
▁아이언맨	-10.9349
▁어쨌든	-10.9349
▁용두사미	-10.9349
▁찝찝한	-10.9349
꺄	-10.9349
▁국어책	-10.9349
▁끝판왕	-10.9349
▁서프라이즈	-10.9349
▁임권택	-10.9349
헝	-10.9349
▁싸이코패스	-10.9349
▁클린트	-10.9349
▁가슴아픈	-10.9349
▁주상욱	-10.9349
▁깨달음	-10.9349
▁송지효	-10.9349
▁웬만하면	-10.9349
▁고마운	-10.9349
떄문에	-10.935
▁엽문	-10.935
▁일어날	-10.935
▁서부영화	-10.935
▁플레이	-10.935
▁더럽다	-10.935
▁힘내세요	-10.9351
▁케이트	-10.9351
▁잘만들어진	-10.9351
▁에로틱	-10.9351
▁온몸	-10.9352
▁뉴스	-10.9352
▁강아지	-10.9352
▁눈요기	-10.9353
▁민족	-10.9355
▁대표작	-10.9358
▁빠져드는	-10.936
▁기다렸	-10.936
▁지나친	-10.9361
▁에릭	-10.9362
▁말이필요없는	-10.9362
▁저평가	-10.9362
▁산만한	-10.9363
▁몰락	-10.9363
▁명성을	-10.9364
▁출발	-10.9364
▁좋아하시는	-10.9365
▁혼란	-10.9366
▁빨간	-10.9367
▁뭐랄까	-10.9372
▁던져	-10.9375
▁시간아까움	-10.9378
▁실화라니	-10.9378
▁분명히	-10.938
내놔	-10.9381
▁더욱더	-10.9385
▁모순	-10.9385
▁인간적으로	-10.9386
▁마초	-10.9388
▁느껴질	-10.9388
▁감정선	-10.9389
▁실화라는	-10.9397
▁고문	-10.9398
▁도중에	-10.9399
무튼	-10.9433
▁사나이	-10.9439
▁다가오	-10.9444
입니까	-10.9447
시는분	-10.9467
▁데려다	-10.948
▁진정성	-10.9523
▁기억될	-10.9551
▁찍으	-10.9583
억울	-10.9609
지않게	-10.9682
즌	-10.9688
톰	-10.969
쭉	-10.9691
보았습니다	-10.9692
느와르	-10.9693
한마디로	-10.9694
암튼	-10.9698
우리나라	-10.9699
왜이리	-10.9699
결혼	-10.97
네이버	-10.97
쯧	-10.9706
뷔	-10.9706
▁다세포	-10.9706
볼때마다	-10.9706
셉	-10.9707
켈	-10.9707
▁다크나이트	-10.9707
▁매트릭스	-10.9707
▁흐지부지	-10.9707
겸	-10.9707
됌	-10.9707
빤	-10.9707
횽	-10.9707
훔	-10.9707
▁콘서트	-10.9707
▁팀버튼	-10.9707
갇	-10.9707
녁	-10.9707
둬	-10.9707
딕	-10.9707
텅	-10.9707
▁스티브	-10.9707
▁어우러진	-10.9707
쇠	-10.9707
▁객관적	-10.9707
▁김명민	-10.9707
▁조승우	-10.9707
▁어떠한	-10.9707
▁여기저기	-10.9707
▁조용히	-10.9707
▁안타까울	-10.9707
스러울	-10.9707
▁아이러니	-10.9707
▁ᄅᄋ	-10.9707
▁빅뱅	-10.9707
▁보낸다	-10.9707
▁임수정	-10.9707
▁비정상	-10.9707
▁납치	-10.9707
제작비	-10.9707
▁걱정	-10.9708
▁다운로드	-10.9708
▁증명	-10.9708
▁잃어버린	-10.9708
▁압도적	-10.9709
대단히	-10.9709
▁보여줌	-10.971
그자체	-10.971
▁담백하	-10.9711
▁낚여서	-10.9711
▁민망하	-10.9711
▁색채	-10.9712
▁이름값	-10.9712
▁가끔씩	-10.9712
▁용가리	-10.9712
▁어딜	-10.9712
▁내인생최고의	-10.9713
▁구역질	-10.9716
▁태양	-10.9718
▁웃으며	-10.9718
▁아침드라마	-10.9719
▁머리속	-10.9721
암걸리	-10.9724
▁신세계	-10.9725
▁절실	-10.9726
▁재미있던데	-10.9732
▁잼있었다	-10.9749
▁도통	-10.9754
▁억지설정	-10.9774
다운받	-10.9783
▁트랜스포머	-10.9818
▁않았으면	-10.9829
▁낚이지	-10.9835
될까	-10.9839
있을때	-10.9864
페이지	-10.9918
이건뭐	-10.993
굿굿	-10.9983
▁사랑스럽	-10.9986
왜만들었	-11.0006
되지않	-11.0009
▁볼게없	-11.0048
젼	-11.005
▁태어나	-11.0056
중간에	-11.006
가능한	-11.0072
손가락	-11.0076
낙	-11.0076
펑	-11.0077
옵	-11.0077
드래곤	-11.0077
훼	-11.0077
띵	-11.0077
▁고맙습니다	-11.0077
▁송혜교	-11.0077
▁스칼렛	-11.0077
▁웨슬리	-11.0077
▁일베충	-11.0077
곁	-11.0077
벙	-11.0077
톨	-11.0077
펄	-11.0077
▁식스센스	-11.0077
▁오그라든다	-11.0077
뉘	-11.0077
썻	-11.0077
▁프레디	-11.0077
▁애국심	-11.0077
▁아프리카	-11.0077
▁한예슬	-11.0077
▁탕웨이	-11.0077
▁태어난	-11.0077
▁하이킥	-11.0077
▁관람불가	-11.0077
▁영향을	-11.0077
▁함부로	-11.0077
▁뮤직비디오	-11.0077
▁수고하셨	-11.0077
▁이연희	-11.0077
▁엑소	-11.0078
▁그들만의	-11.0078
촬영	-11.0078
▁어울려	-11.0078
블랙	-11.0078
김남길	-11.0078
▁고질라	-11.0078
▁위대함	-11.0079
훨씬	-11.008
▁부끄러운	-11.008
▁이승기	-11.008
▁갖춘	-11.0081
▁경의를	-11.0082
완벽	-11.0082
▁저평가된	-11.0082
전체적	-11.0086
▁구멍	-11.0086
▁잔인하기만	-11.0086
헌터	-11.0086
▁대표적인	-11.0087
씹	-11.0087
이쁘고	-11.0088
▁밑에분	-11.0088
▁졸려서	-11.0088
▁생존	-11.0088
▁미안하지만	-11.0089
▁매혹	-11.009
▁지겨운	-11.009
노동자	-11.0091
극장판	-11.0091
별한개	-11.0091
▁문학	-11.0092
였으나	-11.0093
▁행복해지는	-11.0094
▁어쩌라는	-11.0106
▁간절	-11.0106
▁졸았다	-11.0108
ᄉᄉ	-11.0116
▁터지는	-11.0119
봤을땐	-11.0126
웃었네	-11.013
재밋게봣	-11.0155
것일까	-11.0157
아프고	-11.0177
▁생각해볼	-11.0178
모델	-11.0181
▁짝이없	-11.0182
알수있	-11.0184
영화관에서	-11.0238
끝날때까지	-11.0245
것도아니고	-11.0257
짓거리	-11.0307
▁첨이네	-11.0363
본것중	-11.0377
▁보여줘	-11.0385
흥미를	-11.0406
픔	-11.0439
뿔	-11.0449
믹	-11.0457
쎄	-11.046
쏠	-11.0462
ᄑ	-11.0462
▁두근두근	-11.0462
▁매끄럽지	-11.0462
▁어설픔	-11.0462
▁인종차별	-11.0462
댐	-11.0462
럿	-11.0462
안봤으면	-11.0462
재밌게봤습니다	-11.0462
▁뭔내용인지	-11.0462
▁줄리엣	-11.0462
맷	-11.0462
펀	-11.0462
▁미장센	-11.0462
▁절제된	-11.0462
샹	-11.0462
▁홍금보	-11.0462
▁강혜정	-11.0462
▁충무로	-11.0462
▁끊임없	-11.0462
▁나쁘진	-11.0462
▁로드무비	-11.0462
▁신세경	-11.0462
나옵니다	-11.0462
▁깜찍	-11.0462
▁정신나간	-11.0462
▁즐거워	-11.0462
▁타이틀	-11.0462
▁멘탈	-11.0462
▁강지환	-11.0462
▁일요일	-11.0462
까말까	-11.0463
▁슈렉	-11.0463
▁온갖	-11.0464
▁노골적	-11.0464
▁묘하게	-11.0464
▁흥미롭고	-11.0465
▁묻어나는	-11.0466
▁웬만한	-11.0467
▁문득	-11.0467
▁꺼버렸다	-11.0467
▁푸른	-11.0467
▁과잉	-11.0468
▁경쾌	-11.0469
▁감동적이었습니다	-11.0469
▁재평가	-11.047
▁사라졌	-11.047
▁감옥	-11.047
▁응원합니다	-11.0471
▁언제쯤	-11.0471
▁비싼	-11.0472
▁가해자	-11.0473
▁이나영	-11.0475
▁황금	-11.0475
▁미치겠다	-11.0476
▁놀라울	-11.0476
▁위하여	-11.0477
선생님	-11.0477
▁만들어주세요	-11.0484
▁드러나	-11.0486
▁공존	-11.0487
▁젊은이들	-11.0493
아이돌	-11.0501
더라고요	-11.0506
▁아동용	-11.0516
▁향해	-11.0518
▁어린아이	-11.0526
재미가없	-11.0529
▁조용하	-11.0535
▁상영시간	-11.0554
▁오글거려	-11.084
퉁	-11.0861
끗	-11.0861
펼	-11.0861
같았음	-11.0862
밸	-11.0862
▁서스펜스	-11.0862
▁아카데미	-11.0862
▁원맨쇼	-11.0862
▁웹툰	-11.0862
▁유치뽕짝	-11.0862
▁컨저링	-11.0862
▁클리셰	-11.0862
꿨	-11.0862
묶	-11.0862
쏙	-11.0862
▁후덜덜	-11.0862
껍	-11.0862
▁이스트우드	-11.0862
▁팍팍	-11.0862
▁김하늘	-11.0862
▁환타지	-11.0862
▁무슨내용인지	-11.0862
▁예뻐요	-11.0862
▁오타쿠	-11.0862
▁간간히	-11.0862
▁긴박감	-11.0862
▁김강우	-11.0862
▁어수선하	-11.0862
▁잘생김	-11.0862
▁이모양	-11.0862
윤계상	-11.0862
▁징징	-11.0862
쵝	-11.1278
듀	-11.1278
쌩	-11.1278
욜	-11.1278
댕	-11.1278
륙	-11.1278
쉰	-11.1278
췄	-11.1278
귓	-11.1278
숫	-11.1278
펴	-11.1278
꾹	-11.1278
캬	-11.1329
꽝	-11.1329
젓	-11.1713
햄	-11.1713
ᅭ	-11.1713
슐	-11.1713
엎	-11.1713
욧	-11.1713
쨩	-11.1713
팡	-11.1713
콕	-11.1713
흰	-11.1713
힛	-11.1713
낳	-11.1783
꽤	-11.1785
얘	-11.2148
죤	-11.2167
깡	-11.2168
샌	-11.2168
쌈	-11.2168
쑤	-11.2168
햐	-11.2168
헷	-11.2168
댈	-11.2168
뱉	-11.2168
샬	-11.2168
쌔	-11.2168
텀	-11.2168
핏	-11.2168
흙	-11.2168
힝	-11.2168
꿔	-11.264
뀌	-11.264
훌	-11.2644
뇨	-11.2644
쌤	-11.2644
썅	-11.2644
엥	-11.2644
쪄	-11.2644
췌	-11.2644
킷	-11.2644
뻘	-11.2644
밴	-11.313
랙	-11.3142
쩡	-11.3143
싯	-11.3144
엣	-11.3144
괘	-11.3144
꺅	-11.3144
닦	-11.3144
룹	-11.3144
솟	-11.3144
썽	-11.3144
얌	-11.3144
즉	-11.3144
뒀	-11.3144
셸	-11.3144
웁	-11.3144
칩	-11.3144
곰	-11.3284
넌	-11.3285
뭥	-11.367
ᅣ	-11.367
앳	-11.367
뺀	-11.367
젬	-11.367
켠	-11.367
탔	-11.367
낱	-11.367
롬	-11.367
얹	-11.367
쵸	-11.367
냅	-11.367
떳	-11.367
띄	-11.384
웬	-11.3841
짠	-11.3842
겻	-11.4219
둠	-11.422
낄	-11.4225
률	-11.4225
눠	-11.4226
뎈	-11.4226
욯	-11.4226
갤	-11.4226
늠	-11.4226
뛴	-11.4226
밭	-11.4226
씌	-11.4226
얕	-11.4226
쟝	-11.4226
캅	-11.4226
굼	-11.4226
깬	-11.4226
깽	-11.4226
윙	-11.4226
뽑	-11.4422
륭	-11.4814
짬	-11.4814
붓	-11.4814
샷	-11.4814
쌀	-11.4814
웡	-11.4814
꿋	-11.4814
몹	-11.4814
ᅧ	-11.4814
빅	-11.5053
헬	-11.5054
뭇	-11.5438
곸	-11.5439
겜	-11.5439
짖	-11.5439
꽂	-11.5439
됀	-11.5439
붐	-11.5439
읎	-11.5439
짭	-11.5439
쿤	-11.5439
퍽	-11.5439
갸	-11.5439
꾀	-11.5439
돠	-11.5439
뤽	-11.5439
씽	-11.5439
훅	-11.5439
푹	-11.5718
훨	-11.572
녹	-11.572
첼	-11.6105
뺐	-11.6105
젝	-11.6105
퀘	-11.6105
섰	-11.6106
셰	-11.6106
얔	-11.6106
좃	-11.6106
쪙	-11.6106
챔	-11.6106
킁	-11.6106
툰	-11.6106
댜	-11.6106
뮬	-11.6106
좁	-11.6106
힙	-11.682
뎌	-11.682
겅	-11.682
덥	-11.682
땟	-11.682
떴	-11.682
뤘	-11.682
슥	-11.682
얍	-11.682
촉	-11.682
퀼	-11.682
뜰	-11.682
룻	-11.682
빽	-11.682
샴	-11.682
쑈	-11.682
휼	-11.682
듭	-11.7581
걱	-11.7587
맬	-11.7589
윗	-11.7589
텍	-11.7589
됏	-11.7589
믓	-11.7589
뱃	-11.7589
빔	-11.7589
칵	-11.7589
짚	-11.7589
쾅	-11.7589
쨔	-11.7589
헛	-11.8028
맡	-11.8029
곧	-11.8037
쩐	-11.8351
늑	-11.8421
넥	-11.8422
뵙	-11.8422
숴	-11.8422
욘	-11.8422
잰	-11.8422
졷	-11.8422
텨	-11.8422
퐁	-11.8422
횡	-11.8422
훤	-11.8422
걔	-11.8422
넝	-11.8422
댔	-11.8422
뤠	-11.8422
밈	-11.8422
뷁	-11.8422
욥	-11.8422
죵	-11.8422
쳇	-11.8422
흣	-11.8422
잭	-11.8946
촬	-11.9325
홉	-11.9331
괸	-11.9331
넉	-11.9331
겔	-11.9331
굽	-11.9331
뵈	-11.9331
잌	-11.9331
찼	-11.9331
캣	-11.9331
헿	-11.9331
괄	-11.9331
꼐	-11.9331
넴	-11.9331
돔	-11.9331
뿅	-11.9331
뿡	-11.9331
쏜	-11.9331
쒯	-11.9331
퉷	-11.9331
팰	-11.9331
춥	-11.9331
첸	-12.0331
콥	-12.0331
뒈	-12.0331
밓	-12.0331
캄	-12.0331
ᆪ	-12.0331
냔	-12.0331
볶	-12.0331
썹	-12.0331
읭	-12.0331
큭	-12.0331
풉	-12.0331
ᄈ	-12.0331
꿰	-12.0331
끽	-12.0331
눅	-12.0331
멧	-12.0331
팜	-12.0331
뒷	-12.1058
닛	-12.1443
쒸	-12.1443
뇬	-12.1443
렜	-12.1443
융	-12.1443
쫘	-12.1443
컵	-12.1443
펭	-12.1443
햅	-12.1443
곀	-12.1443
깟	-12.1443
댁	-12.1443
딥	-12.1443
멱	-12.1443
뿍	-12.1443
샛	-12.1443
쳣	-12.1443
콱	-12.1443
륨	-12.1443
컹	-12.1443
꽈	-12.1443
갘	-12.1443
땜	-12.2574
킵	-12.2688
컥	-12.2689
잎	-12.269
뻗	-12.2693
놉	-12.2693
뎃	-12.2693
떙	-12.2693
쎈	-12.2693
챦	-12.2693
쿼	-12.2693
팟	-12.2693
냠	-12.2693
넛	-12.2693
롸	-12.2693
벳	-12.2693
섀	-12.2693
웹	-12.2693
쨰	-12.2693
헥	-12.2693
뤼	-12.2693
줏	-12.2693
ᄡ	-12.3736
낍	-12.4121
촤	-12.4121
갚	-12.4121
넨	-12.4121
놧	-12.4121
랖	-12.4121
뮈	-12.4121
믈	-12.4121
벵	-12.4121
뽐	-12.4121
쎼	-12.4121
웜	-12.4121
읏	-12.4121
쭝	-12.4121
챈	-12.4121
휙	-12.4121
뒹	-12.4121
딛	-12.4121
랔	-12.4121
뫼	-12.4121
앟	-12.4121
앰	-12.4121
윅	-12.4121
졉	-12.4121
캉	-12.4121
떵	-12.4121
뭄	-12.4121
찟	-12.4121
홬	-12.4121
쫓	-12.5402
뭣	-12.5402
둡	-12.5782
봅	-12.5784
갯	-12.5788
멌	-12.5788
먀	-12.5788
삥	-12.5788
귯	-12.5788
녜	-12.5788
됄	-12.5788
웍	-12.5788
끅	-12.5788
띨	-12.5788
룽	-12.5788
옛	-12.7394
슷	-13.3599
탤	-13.3621
뺄	-13.8468
뛸	-13.8469
껌	-13.847
츈	-13.8471
쫀	-13.8472
짰	-13.8473
벚	-13.8474
땔	-13.8475
냨	-13.8476
꺠	-13.8477
훠	-13.8478
햌	-13.8479
쮸	-13.848
짘	-13.8481
죨	-13.8482
좔	-13.8483
왘	-13.8484
썪	-13.8485
쌉	-13.8486
숟	-13.8487
뉜	-13.8488
깼	-13.8489
쥑	-13.849
쁩	-13.8491
덱	-13.8492
뀜	-13.8493
뀔	-13.8494
괭	-13.8495
훑	-13.8496
홥	-13.8497
폄	-13.8498
툴	-13.8499
쫑	-13.85
잴	-13.8501
앍	-13.8502
껑	-13.8503
휩	-13.8504
휠	-13.8505
츤	-13.8506
촘	-13.8507
벡	-13.8508
닠	-13.8509
횟	-13.851
헴	-13.8511
핥	-13.8512
큽	-13.8513
샐	-13.8514
릎	-13.8515
딪	-13.8516
꺾	-13.8517
긁	-13.8518
뚤	-13.8519
괞	-13.852
헠	-13.8521
쟤	-13.8522
옜	-13.8523
쁠	-13.8524
뭍	-13.8525
멎	-13.8526
꿉	-13.8527
꺽	-13.8528
큘	-13.8529
쥔	-13.853
쉘	-13.8531
녔	-13.8532
굵	-13.8533
낰	-13.8534
낡	-13.8535
핡	-13.8536
슌	-13.8537
뺴	-13.8538
꽥	-13.8539
꼼	-13.854
핍	-13.8541
펏	-13.8542
탭	-13.8543
쫒	-13.8544
씻	-13.8545
돕	-13.8546
왼	-13.8547
픕	-13.8548
닳	-13.8549
쫙	-13.855
뺨	-13.8551
쬐	-13.8552
쨋	-13.8553
얽	-13.8554
쿄	-13.8555
넓	-13.8556
샀	-13.8557
빚	-13.8558
밟	-13.8559
딨	-13.856
넋	-13.8561
뀐	-13.8562
꼇	-13.8563
뭡	-13.8564
앓	-13.8565
멤	-13.8566
땠	-13.8567
캔	-13.8568
꽉	-13.8569
뿜	-13.857
핸	-13.8571
솜	-13.8572
쭈	-13.8573
엮	-13.8574
덮	-13.8575
귄	-13.8576
홧	-13.8577
틋	-13.8578
뻣	-13.8579
빕	-13.858
릇	-13.8581
맺	-13.8582
맑	-13.8583
찔	-13.8584
겪	-13.8585
찢	-13.8586
쨌	-13.8587
쫄	-13.8588
틸	-13.8589
낯	-13.859
텝	-13.8591
닙	-13.8592
콧	-13.8593
쏟	-13.8594
껐	-13.8595
딧	-13.8596
뻤	-13.8597
왤	-13.8598
펙	-13.8599
섞	-13.86
펐	-13.8601
첩	-13.8602
밝	-13.8603
겉	-13.8604
맙	-13.8605
줍	-13.8606
됩	-13.8607
쁨	-13.8608
늦	-13.8609
볍	-13.861
찝	-13.8611
묻	-13.8612
굉	-13.8613
똑	-13.8614
읽	-13.8615
랐	-13.8616
떻	-13.8617
깊	-13.8618
았	-13.8619
밌	-13.862
퀀	-13.8621
봤	-13.8621
