.	-2.24833
<s>	0
</s>	0
<unk>	0
▁Tom	-3.89005
▁a	-3.91843
▁I	-3.97022
'	-4.02216
s	-4.04527
?	-4.11667
▁to	-4.26308
▁de	-4.42516
▁the	-4.44326
▁que	-4.51217
▁you	-4.64051
t	-4.72109
▁¿	-4.81069
▁la	-4.8216
,	-4.90723
▁is	-4.90874
▁no	-5.04855
▁en	-5.05764
▁el	-5.1113
▁me	-5.11411
▁es	-5.21393
▁un	-5.25651
▁No	-5.31651
▁	-5.32233
▁in	-5.37327
▁Mary	-5.40356
n	-5.41746
o	-5.4237
▁of	-5.45659
▁He	-5.49106
▁was	-5.55881
▁se	-5.6506
▁that	-5.67161
▁una	-5.73773
▁The	-5.74203
▁have	-5.79096
▁lo	-5.8107
▁it	-5.81408
y	-5.82993
▁for	-5.83386
▁por	-5.90567
▁You	-5.9536
▁he	-5.95573
▁Él	-5.96995
▁con	-5.98267
▁su	-6.04435
▁do	-6.04473
▁my	-6.04716
m	-6.05903
▁be	-6.06375
▁está	-6.06444
▁She	-6.11797
▁this	-6.14464
▁on	-6.1525
▁his	-6.16916
▁can	-6.17066
▁want	-6.18016
▁your	-6.18915
▁We	-6.19331
▁with	-6.19361
▁El	-6.21318
▁para	-6.22844
▁are	-6.2352
▁le	-6.23603
▁It	-6.25223
▁los	-6.26388
▁al	-6.26486
▁and	-6.26703
▁did	-6.26887
▁not	-6.27119
▁has	-6.2769
▁y	-6.28627
▁like	-6.28833
▁don	-6.29543
▁mi	-6.30026
▁Ella	-6.30683
▁know	-6.31771
▁más	-6.3407
▁Me	-6.40443
▁him	-6.41216
▁at	-6.42863
▁A	-6.4612
▁La	-6.47256
re	-6.48478
d	-6.50355
▁las	-6.52335
▁What	-6.55116
▁go	-6.55444
ll	-6.57127
ó	-6.57234
▁te	-6.57666
▁qué	-6.59644
▁what	-6.60426
▁her	-6.65282
▁tu	-6.6789
mos	-6.69313
ed	-6.69375
▁time	-6.69424
▁muy	-6.71641
▁Do	-6.7242
▁This	-6.73997
▁very	-6.7419
▁had	-6.74553
ve	-6.75438
▁will	-6.75548
a	-6.7628
e	-6.78771
▁They	-6.79179
ing	-6.79493
▁del	-6.80789
▁él	-6.81801
▁up	-6.8206
▁about	-6.82854
▁M	-6.83385
▁Esto	-6.84299
▁tiene	-6.84369
▁Es	-6.85337
▁here	-6.85931
▁think	-6.86608
!	-6.87287
▁casa	-6.8756
Qué	-6.88745
▁out	-6.92698
▁hacer	-6.94894
▁all	-6.9546
▁estaba	-6.95826
▁from	-6.97518
▁aquí	-6.9907
▁Yo	-7.00584
▁get	-7.0161
é	-7.01923
▁como	-7.02187
▁fue	-7.03193
▁were	-7.04536
▁ha	-7.07855
▁we	-7.09502
▁mucho	-7.09621
▁Mi	-7.09926
▁That	-7.10453
▁doesn	-7.10553
▁going	-7.10648
▁one	-7.10662
▁tiempo	-7.1133
▁an	-7.12217
▁algo	-7.12227
▁eso	-7.12492
▁gusta	-7.13409
▁son	-7.13449
▁as	-7.13608
▁by	-7.13721
▁esta	-7.14079
▁There	-7.16143
▁favor	-7.16823
▁good	-7.18113
▁see	-7.18338
▁come	-7.20053
▁ir	-7.21012
▁there	-7.21051
do	-7.21467
▁How	-7.22869
▁could	-7.23373
▁so	-7.24011
▁should	-7.24069
▁tan	-7.24204
▁need	-7.24209
▁been	-7.2421
▁este	-7.24672
▁Don	-7.26356
▁Boston	-7.26771
▁vez	-7.27585
▁nada	-7.28545
▁she	-7.29383
▁bien	-7.29986
▁todo	-7.31169
▁more	-7.33703
▁si	-7.34591
▁help	-7.35566
▁but	-7.36424
▁just	-7.36537
▁than	-7.36611
▁Los	-7.36828
▁would	-7.37196
▁era	-7.37758
▁puedo	-7.38466
▁car	-7.38681
▁us	-7.39537
▁ser	-7.39753
▁Esta	-7.39998
Por	-7.41761
▁got	-7.42558
▁never	-7.42685
es	-7.43134
r	-7.43652
ly	-7.43786
▁when	-7.44128
▁am	-7.45814
▁much	-7.45982
▁now	-7.46314
▁tell	-7.46475
▁ella	-7.47247
▁day	-7.47601
▁esto	-7.47629
▁Se	-7.4807
▁¡	-7.48091
▁Why	-7.48185
▁trabajo	-7.49191
▁something	-7.49279
▁puede	-7.50939
▁Teng	-7.51344
▁last	-7.51345
▁if	-7.51516
▁home	-7.52267
▁cuando	-7.52462
▁work	-7.52833
▁quiero	-7.52938
▁too	-7.52996
▁money	-7.53034
▁Quier	-7.53387
▁dinero	-7.53705
▁Lo	-7.53732
te	-7.54798
▁mañana	-7.5502
▁T	-7.55313
▁dijo	-7.55458
▁hablar	-7.57149
▁Are	-7.57603
se	-7.57969
▁some	-7.58596
▁dos	-7.58896
▁Tomás	-7.59479
▁yo	-7.59558
▁pero	-7.5969
▁back	-7.60479
▁tengo	-7.60892
▁Te	-7.60929
▁Ha	-7.60948
▁how	-7.61306
▁Le	-7.61389
▁take	-7.62282
f	-7.62473
▁Please	-7.63088
▁Let	-7.63465
▁día	-7.63818
▁who	-7.64249
▁estoy	-7.64498
▁people	-7.64902
▁house	-7.65399
▁really	-7.66322
▁book	-7.66621
▁went	-7.66866
▁said	-7.67189
▁libro	-7.67449
▁sus	-7.67884
▁told	-7.68076
▁Ello	-7.68088
▁Can	-7.68977
▁must	-7.69193
▁Este	-7.7002
▁Por	-7.70413
▁Todo	-7.70471
▁poco	-7.71013
me	-7.71767
▁lot	-7.72371
▁haber	-7.72477
▁any	-7.72754
▁todos	-7.73106
▁thought	-7.73176
▁anything	-7.73239
▁S	-7.73699
▁o	-7.73757
▁Si	-7.73824
▁había	-7.73912
▁room	-7.74032
▁French	-7.75575
▁ver	-7.75757
▁man	-7.7587
▁quiere	-7.76545
▁eat	-7.77091
▁say	-7.77261
▁made	-7.77781
▁años	-7.78687
▁always	-7.78881
▁school	-7.7899
▁Who	-7.79191
▁right	-7.79739
▁están	-7.79869
▁mejor	-7.802
▁idea	-7.80253
▁estar	-7.80304
▁hace	-7.80497
▁va	-7.81077
▁long	-7.81495
▁only	-7.81556
▁John	-7.81627
▁make	-7.81834
▁francés	-7.81882
▁padre	-7.82071
▁tarde	-7.82138
▁demasiado	-7.82522
▁María	-7.82653
▁sabe	-7.82877
▁Creo	-7.82908
▁speak	-7.83383
▁"	-7.83758
▁When	-7.83947
▁solo	-7.84199
▁two	-7.84206
▁today	-7.84629
▁Where	-7.85398
▁So	-7.86125
▁father	-7.86185
▁Su	-7.86574
▁many	-7.86645
ta	-7.87068
▁new	-7.87418
▁old	-7.87925
▁love	-7.8831
▁hizo	-7.89023
▁hay	-7.90137
▁three	-7.90264
▁night	-7.90686
▁antes	-7.91528
▁wanted	-7.91939
▁still	-7.91944
▁Eso	-7.92026
▁well	-7.92266
▁off	-7.92504
▁ahora	-7.9251
▁tres	-7.93225
▁noche	-7.93971
-	-7.94228
▁talk	-7.94885
▁N	-7.95004
▁our	-7.95004
▁asked	-7.95327
▁E	-7.95409
▁hora	-7.95563
▁quería	-7.95671
▁every	-7.96332
▁before	-7.97314
▁Did	-7.97474
▁way	-7.97619
▁sé	-7.97628
▁tenía	-7.97642
▁give	-7.97989
▁left	-7.98057
▁over	-7.98176
A	-7.98337
▁dog	-7.9865
▁tomorrow	-7.9911
▁siempre	-7.99418
▁nunca	-7.99568
▁won	-7.99718
▁sobre	-8.00025
▁or	-8.00167
D	-8.00749
▁job	-8.022
▁little	-8.02503
▁mí	-8.02647
▁verdad	-8.02992
▁saw	-8.03138
▁perro	-8.03142
▁where	-8.03168
▁hombre	-8.03301
▁again	-8.03592
▁live	-8.0471
▁C	-8.04972
▁ti	-8.05011
▁estado	-8.05093
▁comer	-8.05296
▁into	-8.0535
Cóm	-8.05999
▁they	-8.0607
▁vida	-8.06352
▁down	-8.06508
▁Está	-8.06981
▁years	-8.07066
▁better	-8.07494
▁English	-8.07818
▁sin	-8.08758
▁nuevo	-8.09784
▁ese	-8.10008
▁does	-8.10026
ónde	-8.10323
▁buy	-8.10734
▁inglés	-8.10843
▁mis	-8.10906
Quién	-8.11012
▁came	-8.11505
▁Un	-8.11919
▁nos	-8.1208
▁yesterday	-8.12215
▁usted	-8.12855
▁Las	-8.13067
▁Have	-8.1311
▁días	-8.13125
▁find	-8.13669
▁happy	-8.13783
▁play	-8.14093
▁look	-8.14584
▁coche	-8.14709
Te	-8.15181
▁leave	-8.15254
ok	-8.15682
No	-8.16069
▁En	-8.16133
▁decir	-8.16284
▁gente	-8.16453
▁hecho	-8.16538
▁mismo	-8.16539
▁mother	-8.16633
▁hoy	-8.16643
▁understand	-8.17339
▁Tiene	-8.17345
▁esa	-8.17477
▁nothing	-8.17723
▁problema	-8.17927
▁uno	-8.18112
▁other	-8.1822
▁read	-8.18368
▁first	-8.18456
▁believe	-8.19043
▁estás	-8.19156
▁them	-8.19622
▁debería	-8.19924
▁d	-8.19991
mente	-8.2008
▁next	-8.20313
▁put	-8.21663
▁hard	-8.21803
▁gustaría	-8.21833
▁after	-8.22205
▁madre	-8.22431
▁semana	-8.22584
▁alguna	-8.22588
Cuál	-8.22972
▁parece	-8.23781
▁plan	-8.23862
▁ya	-8.24133
▁Sé	-8.24477
▁stay	-8.24502
▁morning	-8.25506
▁bought	-8.25705
is	-8.25986
▁tú	-8.261
▁Ya	-8.26384
▁friends	-8.26545
▁door	-8.26632
▁problem	-8.26773
▁otra	-8.27175
▁name	-8.27385
unca	-8.27498
▁His	-8.27592
▁habitación	-8.27904
▁puerta	-8.28015
▁used	-8.28315
▁life	-8.28714
▁please	-8.28973
▁everything	-8.29125
▁feel	-8.29125
▁pasado	-8.29154
▁buen	-8.29564
▁ever	-8.30115
▁escuela	-8.30154
▁wants	-8.30211
▁así	-8.30228
▁doing	-8.30604
le	-8.30642
▁away	-8.30838
▁quieres	-8.3084
▁children	-8.30985
▁Debería	-8.31687
▁friend	-8.31715
▁dónde	-8.31953
lo	-8.3212
▁doctor	-8.32332
▁Pens	-8.3247
Cuánto	-8.32678
▁nadie	-8.32879
▁gave	-8.33103
▁late	-8.33458
▁quién	-8.33527
ble	-8.33546
on	-8.3422
▁soon	-8.34443
▁cosas	-8.34585
▁mundo	-8.34595
▁Necesit	-8.34596
▁1	-8.35178
▁ask	-8.35629
▁sure	-8.35755
▁happened	-8.35983
▁amigos	-8.36145
▁lost	-8.37446
res	-8.37778
▁their	-8.38015
▁bus	-8.38289
▁voy	-8.38338
▁ayuda	-8.38572
▁feliz	-8.38789
▁niños	-8.39094
▁fuera	-8.39377
▁remember	-8.39678
▁saber	-8.39775
▁difícil	-8.39859
▁veces	-8.39923
Cuán	-8.40095
▁why	-8.40151
▁año	-8.40251
▁hacerlo	-8.40255
▁call	-8.40498
▁already	-8.40609
▁cómo	-8.40756
▁auto	-8.41745
▁let	-8.4198
▁year	-8.42167
▁allí	-8.42534
▁boy	-8.42854
▁enough	-8.42941
▁niño	-8.43084
▁teacher	-8.43084
▁week	-8.43086
▁alone	-8.43177
▁otro	-8.43324
▁soy	-8.43902
▁heard	-8.4427
▁tienes	-8.44305
▁married	-8.44591
▁puedes	-8.44698
▁menos	-8.45111
."	-8.4543
▁sabía	-8.45655
▁wrong	-8.45793
▁best	-8.45964
▁agua	-8.46515
▁busy	-8.46597
▁bad	-8.46706
▁amigo	-8.46743
▁buena	-8.4688
▁comprar	-8.46998
que	-8.47042
▁dio	-8.472
▁sea	-8.47235
cause	-8.47249
▁bed	-8.47251
▁beautiful	-8.47255
▁mal	-8.47355
▁seguro	-8.4749
▁hear	-8.47992
▁water	-8.48248
▁Tu	-8.48281
▁often	-8.48527
▁found	-8.49103
▁ayer	-8.49492
▁visto	-8.49739
▁Voy	-8.49749
▁looking	-8.49928
▁comida	-8.5002
ndo	-8.50583
▁pronto	-8.50751
▁cold	-8.50762
▁ciudad	-8.50942
▁same	-8.51007
Tiene	-8.51279
▁thing	-8.51319
▁party	-8.51639
▁conmigo	-8.51772
▁Sol	-8.51849
▁podría	-8.51859
▁done	-8.5192
▁may	-8.521
0	-8.52389
▁después	-8.52811
▁without	-8.52814
▁desde	-8.53592
▁Would	-8.53861
▁nombre	-8.53948
▁brother	-8.53952
▁train	-8.54092
▁persona	-8.5428
▁nosotros	-8.54395
▁tus	-8.54653
▁looks	-8.5538
▁person	-8.55766
Pued	-8.55903
▁podía	-8.56235
▁seen	-8.56411
▁knew	-8.56504
▁fiesta	-8.5665
▁hermano	-8.56933
▁big	-8.5704
▁Puede	-8.57134
▁food	-8.57201
▁things	-8.57253
▁tren	-8.57256
▁vino	-8.57338
▁café	-8.57586
▁Your	-8.57596
▁use	-8.57702
▁personas	-8.57762
▁show	-8.58167
▁ahí	-8.58293
▁gran	-8.58482
▁turn	-8.58511
▁tener	-8.58862
▁tired	-8.58966
▁May	-8.58991
▁Nadie	-8.59514
▁alguien	-8.59651
▁hope	-8.59847
▁wish	-8.60287
▁dice	-8.60414
▁debe	-8.6076
▁coffee	-8.60906
▁stop	-8.61422
▁suficiente	-8.6147
▁contigo	-8.6147
▁casi	-8.61471
▁Australia	-8.61566
▁haciendo	-8.61757
▁true	-8.6186
▁habla	-8.61968
▁letter	-8.62017
▁carta	-8.62138
▁lugar	-8.62323
▁De	-8.62327
▁answer	-8.62443
▁hotel	-8.62831
▁Cuan	-8.62864
urante	-8.63416
▁around	-8.63497
▁Japan	-8.63758
▁keep	-8.63761
Me	-8.63787
▁being	-8.6407
▁knows	-8.64418
▁profesor	-8.64436
▁drink	-8.64616
▁Japón	-8.64631
▁girl	-8.64656
▁learn	-8.64981
▁hospital	-8.65149
▁yet	-8.65522
▁Ahora	-8.65533
▁clase	-8.65547
tuvo	-8.65678
▁cama	-8.65806
Es	-8.66044
▁acerca	-8.66397
▁while	-8.66399
Quiere	-8.6658
▁salir	-8.66701
▁All	-8.66794
▁Debe	-8.66992
ún	-8.67052
▁likes	-8.67607
enemos	-8.67645
▁open	-8.68361
▁toda	-8.68446
▁Estaba	-8.68534
▁tanto	-8.68622
▁grande	-8.68907
▁W	-8.69083
▁kind	-8.69206
▁sleep	-8.69408
á	-8.69564
▁ni	-8.70044
▁momento	-8.70053
▁books	-8.70091
▁cuenta	-8.70131
▁died	-8.70174
▁libros	-8.70537
▁ten	-8.70763
▁mind	-8.70996
▁place	-8.71126
▁leer	-8.71141
▁vas	-8.71204
▁Esper	-8.71225
▁once	-8.71368
▁own	-8.71504
▁tomar	-8.71956
▁pay	-8.72098
▁try	-8.72106
▁todas	-8.72611
ther	-8.72756
l	-8.72803
▁wait	-8.72914
Estás	-8.73068
▁study	-8.73367
most	-8.73368
▁watch	-8.73499
▁days	-8.73502
▁care	-8.73526
▁truth	-8.73799
í	-8.73873
▁Fue	-8.7398
▁sister	-8.73987
▁Hoy	-8.74461
▁even	-8.74631
▁hermana	-8.74639
▁diez	-8.74765
▁Parece	-8.74782
▁these	-8.74814
as	-8.74859
▁cerca	-8.75049
▁another	-8.75412
▁talking	-8.75662
▁bueno	-8.75668
▁happen	-8.75725
odavía	-8.75733
▁rápido	-8.75737
▁parents	-8.75769
▁creo	-8.75779
▁seems	-8.76021
▁ellos	-8.76072
▁Monday	-8.76392
▁teléfono	-8.76392
▁world	-8.76392
▁young	-8.76453
▁Tú	-8.76546
▁Esa	-8.76614
▁hijo	-8.76635
en	-8.76781
▁looked	-8.76951
▁lunes	-8.7705
▁todavía	-8.77055
▁lunch	-8.77379
▁family	-8.77382
▁TV	-8.77384
▁policía	-8.77596
▁walk	-8.77731
▁ago	-8.77957
▁pasó	-8.78071
▁getting	-8.78086
▁historia	-8.78315
ía	-8.7837
Puedes	-8.78509
▁problemas	-8.78564
▁familia	-8.78653
▁tried	-8.78718
cada	-8.7881
▁padres	-8.78892
▁afraid	-8.79054
▁early	-8.79399
▁realmente	-8.79406
▁hate	-8.79535
▁sido	-8.79709
▁eres	-8.79744
emos	-8.80194
▁mujer	-8.80351
▁pudo	-8.80415
▁few	-8.80763
De	-8.81005
▁rain	-8.81618
▁acuerdo	-8.81793
▁difficult	-8.81835
▁anyone	-8.81886
▁together	-8.82146
▁cat	-8.82239
▁mine	-8.82248
▁vivir	-8.82356
▁joven	-8.82443
Ha	-8.82493
▁cosa	-8.82499
▁great	-8.82838
▁trabajar	-8.83055
▁gustan	-8.83142
▁venir	-8.83195
▁horas	-8.83473
▁usual	-8.83512
▁Come	-8.83782
▁muchas	-8.83791
▁mayor	-8.83821
▁D	-8.83872
▁child	-8.84244
▁puso	-8.84258
▁else	-8.8433
er	-8.84355
▁vive	-8.84658
▁each	-8.84959
▁wife	-8.84966
▁angry	-8.85677
▁entre	-8.85876
▁dejó	-8.86074
▁vi	-8.86679
▁country	-8.86763
▁coming	-8.86781
▁jugar	-8.87467
iempre	-8.87486
▁favorite	-8.87498
gún	-8.8758
amos	-8.87986
▁hurt	-8.87987
▁siento	-8.88233
▁himself	-8.88602
▁yourself	-8.88602
▁accidente	-8.88824
ré	-8.88844
▁Does	-8.89142
▁question	-8.89355
▁mano	-8.8972
▁hours	-8.89723
▁nuestro	-8.89865
▁ocupado	-8.89867
▁met	-8.89904
▁mesa	-8.90197
▁nuestra	-8.90243
▁les	-8.90275
▁encontrar	-8.90568
▁parte	-8.90696
▁meeting	-8.90709
▁dejar	-8.90887
▁murió	-8.91234
▁matter	-8.91403
▁gato	-8.91408
▁dinner	-8.91615
ar	-8.91626
▁donde	-8.91701
▁P	-8.91798
▁phone	-8.91856
▁pasar	-8.91862
▁cinco	-8.91998
▁pregunta	-8.92001
▁temprano	-8.92006
▁table	-8.92019
▁ayudar	-8.92136
▁nadar	-8.9234
▁televisión	-8.92383
▁menudo	-8.92395
▁wouldn	-8.92546
?"	-8.92734
▁might	-8.92769
▁aprender	-8.93006
▁visit	-8.93061
▁piano	-8.93157
▁bastante	-8.93157
▁llegar	-8.9371
▁accident	-8.9382
ron	-8.94096
▁meet	-8.94263
▁última	-8.94302
▁easy	-8.94328
▁month	-8.94563
▁fácil	-8.94629
▁playing	-8.94973
▁hand	-8.94997
ba	-8.95035
▁estaban	-8.95215
▁volver	-8.95215
▁haven	-8.95226
▁police	-8.95909
▁dormir	-8.95913
▁también	-8.95914
▁swim	-8.95914
ever	-8.95932
▁necesita	-8.96181
▁write	-8.96266
▁Japanese	-8.96316
▁camino	-8.96323
▁five	-8.96353
▁estudiar	-8.96379
▁viene	-8.96937
▁reading	-8.9696
▁Tell	-8.97263
▁most	-8.97377
▁pidió	-8.97929
Has	-8.97937
▁Her	-8.98096
▁under	-8.98382
▁says	-8.98411
▁waiting	-8.98482
ando	-8.9851
ould	-8.98629
▁lives	-8.98658
▁trouble	-8.99025
▁far	-8.99116
▁eating	-8.99126
▁trying	-8.99306
▁Ou	-8.99589
ste	-8.99702
▁minutos	-8.99908
▁Al	-8.99998
▁finished	-9.00092
▁called	-9.00328
▁decided	-9.00461
▁dar	-9.00672
▁cansado	-9.00793
▁dicho	-9.00822
▁such	-9.00888
▁started	-9.00942
▁office	-9.01186
▁minutes	-9.01206
▁estación	-9.01282
▁fire	-9.01524
la	-9.01528
▁wonder	-9.01544
▁nice	-9.01547
▁dije	-9.01632
▁razón	-9.01664
▁Be	-9.01731
▁tienen	-9.01741
▁fuerte	-9.02008
os	-9.02317
▁drive	-9.0281
▁error	-9.02882
▁miedo	-9.0295
▁Ayer	-9.02961
▁Una	-9.03027
▁sola	-9.03046
▁story	-9.0337
▁important	-9.03637
▁myself	-9.03801
▁start	-9.03866
Está	-9.03885
▁ate	-9.04102
verdad	-9.04175
▁Nos	-9.04221
▁window	-9.04229
▁preguntó	-9.04238
▁tonight	-9.04276
▁ready	-9.04494
▁país	-9.04607
▁colegio	-9.04668
▁felt	-9.04668
▁tipo	-9.04691
▁alto	-9.0482
▁ran	-9.05076
▁small	-9.0509
▁woman	-9.05105
▁Will	-9.0513
▁lado	-9.05284
▁station	-9.05544
▁importante	-9.05671
▁park	-9.05712
lguien	-9.05758
Sabes	-9.06011
▁arrived	-9.06054
▁frío	-9.06427
▁radio	-9.0643
▁ventana	-9.06461
▁haya	-9.06791
▁shoes	-9.0704
▁students	-9.07266
▁someone	-9.07322
▁sick	-9.07326
▁zapatos	-9.07842
0.	-9.08026
▁change	-9.08124
▁fin	-9.08335
▁sí	-9.0868
▁hot	-9.087
▁vio	-9.09026
▁hablando	-9.09634
▁importa	-9.0965
▁working	-9.09665
▁película	-9.09674
▁word	-9.09732
▁since	-9.09828
▁música	-9.10039
▁oficina	-9.10039
▁pretty	-9.10039
▁hijos	-9.10159
no	-9.10495
having	-9.10499
▁anymore	-9.105
▁city	-9.105
▁sorry	-9.10507
▁fun	-9.10604
c	-9.10655
▁goes	-9.10823
until	-9.11218
▁fast	-9.1139
▁cabeza	-9.11895
▁han	-9.11903
▁punto	-9.11979
▁gone	-9.12049
▁music	-9.12147
▁both	-9.12298
▁Nobody	-9.12364
▁hubiera	-9.12364
▁Everyone	-9.12365
▁homework	-9.12365
▁town	-9.12374
▁media	-9.12478
▁red	-9.12591
▁estudiantes	-9.13046
▁esperar	-9.1323
▁broke	-9.13341
nos	-9.13391
▁ido	-9.13429
▁mistake	-9.13506
▁mientra	-9.13698
▁rich	-9.13798
▁picture	-9.13962
▁da	-9.13975
▁re	-9.14064
▁reloj	-9.14199
▁bicicleta	-9.14265
▁compró	-9.14265
▁spend	-9.14442
▁único	-9.14745
▁Christmas	-9.14746
▁large	-9.14769
▁reunión	-9.14775
▁lleva	-9.14865
▁tennis	-9.15229
▁movie	-9.15232
al	-9.15258
▁those	-9.15716
▁needs	-9.15726
▁juntos	-9.15782
▁eyes	-9.15892
▁game	-9.15925
▁esperando	-9.16213
▁ojos	-9.16675
▁near	-9.16687
▁baby	-9.16692
▁primera	-9.1678
00	-9.1695
▁mucha	-9.17071
▁estamos	-9.17144
▁tenemos	-9.17218
▁dream	-9.17307
▁contra	-9.17408
▁edad	-9.17473
▁seis	-9.17577
▁Just	-9.1768
▁afternoon	-9.1768
▁misma	-9.17688
▁high	-9.18161
▁tenis	-9.18182
▁sólo	-9.18185
▁quite	-9.18312
▁nueva	-9.18401
an	-9.1846
▁hice	-9.18678
▁esposa	-9.18683
▁Giv	-9.1877
▁Some	-9.18845
▁stupid	-9.19177
▁podemos	-9.1918
▁language	-9.19464
▁anoche	-9.1961
▁six	-9.19697
▁creer	-9.19746
▁run	-9.1996
▁song	-9.20056
▁breakfast	-9.20193
▁Take	-9.20216
▁class	-9.20481
▁viejo	-9.20488
▁sueño	-9.20499
th	-9.20673
▁Era	-9.20854
▁llegó	-9.21231
▁hair	-9.21269
▁present	-9.21471
▁China	-9.21731
▁río	-9.21731
▁enjoy	-9.21732
▁buscando	-9.21734
▁caja	-9.22026
▁Estado	-9.22059
ada	-9.22062
▁ganas	-9.222
▁canción	-9.22375
▁ra	-9.22567
▁Vi	-9.22719
▁Fui	-9.22769
▁advice	-9.2277
▁verano	-9.2277
▁against	-9.22821
▁cake	-9.23106
▁estuvo	-9.23213
▁interesting	-9.23309
▁fueron	-9.23409
▁queda	-9.23431
hich	-9.23512
▁chico	-9.23664
▁caught	-9.2382
▁Get	-9.23829
▁aún	-9.24163
▁pueda	-9.24199
▁Pued	-9.24263
▁Unidos	-9.2443
▁verte	-9.24586
▁palabra	-9.24744
▁Son	-9.24825
▁deberías	-9.25024
▁bajo	-9.25106
▁finish	-9.25294
▁lived	-9.25381
▁comes	-9.2543
▁fell	-9.2544
▁face	-9.25636
▁perder	-9.25899
▁conducir	-9.25961
▁Pu	-9.26094
▁number	-9.26339
▁número	-9.26348
not	-9.26437
▁escribir	-9.26443
▁river	-9.26494
▁began	-9.26495
▁forget	-9.26798
ado	-9.26818
▁through	-9.27037
▁along	-9.27108
▁pasa	-9.27159
ólo	-9.27385
▁kill	-9.2742
▁full	-9.27426
▁cualquier	-9.27466
▁longer	-9.27646
▁times	-9.2775
▁studying	-9.27777
be	-9.27851
▁oído	-9.28014
da	-9.28015
▁será	-9.28027
▁llave	-9.28048
▁aren	-9.281
▁avión	-9.28133
▁bebé	-9.28133
▁manera	-9.28143
▁tienda	-9.28566
▁respuesta	-9.28599
▁calle	-9.28796
▁plane	-9.29012
▁ve	-9.29032
▁taxi	-9.29112
▁cuarto	-9.29253
▁fumar	-9.29403
▁pensar	-9.29521
▁free	-9.29651
▁chica	-9.29739
▁weather	-9.298
▁necesito	-9.29809
▁interesante	-9.30283
▁pelo	-9.30346
▁dólares	-9.30366
▁milk	-9.30367
▁leche	-9.30377
▁ning	-9.30487
▁autobús	-9.30926
▁perdido	-9.30927
▁quien	-9.30927
▁Aquí	-9.30956
▁cree	-9.31057
▁fish	-9.31384
g	-9.314
▁chance	-9.31438
Quisiera	-9.31495
▁summer	-9.31499
▁later	-9.31733
▁dolor	-9.31915
▁secret	-9.31972
▁médico	-9.31999
▁box	-9.32001
▁lejos	-9.32077
ra	-9.32215
▁di	-9.32425
▁kept	-9.32641
▁hour	-9.32642
▁mean	-9.3292
▁snow	-9.32976
▁short	-9.33134
▁solía	-9.33236
▁Go	-9.33255
▁older	-9.33282
▁America	-9.33314
▁age	-9.33604
▁oír	-9.33698
▁terminar	-9.33766
▁cámara	-9.338
▁cierto	-9.33845
▁watching	-9.34005
▁sol	-9.3478
▁usar	-9.34972
▁Gracias	-9.35001
▁bit	-9.35061
▁Deja	-9.35427
▁dark	-9.35554
▁ropa	-9.35565
▁salió	-9.35568
▁camera	-9.35593
▁capaz	-9.35631
sotros	-9.35666
Le	-9.3572
▁thinking	-9.35728
▁Para	-9.35863
▁makes	-9.35941
▁mío	-9.36067
▁quedó	-9.36187
▁death	-9.36199
▁tree	-9.36213
▁haga	-9.36269
▁killed	-9.36295
▁esté	-9.36556
▁parque	-9.36779
▁student	-9.36829
▁encanta	-9.36948
▁iba	-9.36964
▁pie	-9.37198
▁enfermo	-9.37361
▁pueden	-9.37801
aba	-9.37956
▁guerra	-9.37968
▁algunos	-9.38177
▁end	-9.38443
▁light	-9.3849
▁living	-9.38577
▁spoke	-9.38577
▁Keep	-9.38579
▁became	-9.38584
▁libre	-9.38633
▁hija	-9.38652
▁sat	-9.38687
▁die	-9.38746
▁loves	-9.39075
aron	-9.39124
▁daughter	-9.3927
▁surprised	-9.39273
▁regalo	-9.39308
▁seem	-9.39448
▁part	-9.39482
▁bicycle	-9.39808
▁hands	-9.40046
▁cut	-9.40114
▁forgot	-9.40429
▁hungry	-9.4043
▁everyone	-9.40434
▁York	-9.40435
▁store	-9.40435
▁Many	-9.40461
▁computer	-9.40545
▁Tokyo	-9.41054
▁born	-9.41054
▁muerte	-9.41056
▁Everybody	-9.41056
▁llevar	-9.4111
▁entender	-9.41126
▁street	-9.41166
▁dollars	-9.41237
▁To	-9.41386
▁forma	-9.41581
▁stopped	-9.41689
▁juego	-9.41814
▁listo	-9.4183
▁preguntas	-9.41944
▁clean	-9.4206
▁questions	-9.42086
▁par	-9.42103
ro	-9.42105
▁manos	-9.42187
▁cara	-9.4221
▁Navidad	-9.42316
▁company	-9.42316
▁Stop	-9.42316
alá	-9.42327
▁luz	-9.42332
▁ningun	-9.42491
▁close	-9.42563
▁vacaciones	-9.42953
▁smoking	-9.42967
▁wine	-9.4308
▁cost	-9.43469
▁trust	-9.43471
▁listen	-9.43527
▁realidad	-9.43597
▁Había	-9.43615
▁Oj	-9.43633
▁consejo	-9.43775
▁pequeño	-9.43791
▁moment	-9.43873
▁miss	-9.43922
▁real	-9.43933
▁duro	-9.44006
▁terrible	-9.4421
▁spent	-9.44239
▁posible	-9.44239
▁conozco	-9.44241
▁calor	-9.44247
▁vaya	-9.44519
▁careful	-9.44835
▁war	-9.44853
▁hambre	-9.44888
▁mak	-9.45117
▁glad	-9.4548
▁As	-9.45508
▁secreto	-9.45579
▁beber	-9.45664
taking	-9.45734
ás	-9.45755
▁ustedes	-9.45774
▁tocar	-9.46168
▁birthday	-9.462
▁drunk	-9.46201
▁pregunto	-9.46219
▁rest	-9.46222
▁estos	-9.46231
▁sit	-9.46356
▁vuelta	-9.46417
▁niña	-9.4643
▁dead	-9.46504
▁news	-9.46728
▁culpa	-9.468
▁Tokio	-9.46862
▁banco	-9.46863
▁parecía	-9.46867
▁white	-9.46871
▁Usted	-9.47055
▁b	-9.47388
▁perdió	-9.47529
▁pude	-9.47529
▁hit	-9.47556
▁largo	-9.47746
▁cena	-9.4788
▁10	-9.47898
▁viaje	-9.48446
▁Hace	-9.48704
▁tea	-9.48792
▁flores	-9.48897
▁lie	-9.48994
▁malo	-9.48996
▁Vamos	-9.49006
▁stand	-9.49026
▁acá	-9.49033
clock	-9.4906
▁become	-9.49131
▁rico	-9.49157
▁quit	-9.49345
ce	-9.49413
▁saying	-9.49501
▁cocina	-9.49508
▁behind	-9.49556
▁cumpleaños	-9.49558
▁equipo	-9.49571
▁siquiera	-9.49575
▁Look	-9.49762
▁Nuestro	-9.50241
▁cerveza	-9.50241
▁which	-9.50243
▁clothes	-9.50246
▁terminado	-9.50265
▁fui	-9.50794
▁ruido	-9.50874
▁touch	-9.50885
▁suerte	-9.50931
▁vos	-9.50932
▁veo	-9.51516
▁beer	-9.51585
▁vamos	-9.51606
▁cuidado	-9.51629
▁tío	-9.51646
▁novia	-9.51684
▁té	-9.51776
ate	-9.51826
▁entrar	-9.51982
Tom	-9.52058
▁oportunidad	-9.52258
▁flowers	-9.52261
▁hagas	-9.52263
▁pagar	-9.5229
▁japonés	-9.52326
▁Canadian	-9.52674
▁tal	-9.52821
▁hombres	-9.52981
ween	-9.53028
▁One	-9.5312
▁foto	-9.53419
▁estudiante	-9.53426
▁advise	-9.53531
▁compañía	-9.53738
▁próximo	-9.53738
▁wrote	-9.53747
▁crees	-9.53796
▁head	-9.53808
▁eaten	-9.53841
▁e	-9.53942
▁extraño	-9.54117
▁helped	-9.5412
▁prefer	-9.54203
▁árbol	-9.5439
▁dur	-9.54403
▁bank	-9.54453
▁expensive	-9.54454
▁possible	-9.54462
▁volvió	-9.54497
▁whe	-9.54562
▁changed	-9.54691
▁falta	-9.54753
▁lengua	-9.54864
▁stayed	-9.54906
i	-9.54916
▁trip	-9.55065
▁perros	-9.55135
▁B	-9.55151
▁girlfriend	-9.55172
▁pensando	-9.55182
▁wearing	-9.55265
▁trabaja	-9.554
▁team	-9.55427
▁building	-9.55579
▁sing	-9.55614
▁cuánto	-9.55897
ieron	-9.559
▁nieve	-9.55902
▁cantar	-9.56155
▁sabes	-9.56199
▁others	-9.56206
▁asunto	-9.56327
▁tarea	-9.56333
▁Sunday	-9.56337
▁key	-9.56362
▁dress	-9.56439
▁final	-9.56493
▁business	-9.56624
▁vestido	-9.56626
▁allá	-9.56868
▁haci	-9.56921
▁reason	-9.57072
▁primero	-9.57086
▁point	-9.57375
▁uncle	-9.57405
▁palabras	-9.57551
▁travel	-9.57639
▁aconsej	-9.57683
▁works	-9.57703
▁blame	-9.57981
▁golf	-9.58102
▁bring	-9.58103
▁outside	-9.58117
▁pan	-9.58223
▁color	-9.58262
▁quieras	-9.58474
▁order	-9.58475
▁bet	-9.59126
▁conoce	-9.59142
▁hiciste	-9.5957
▁catch	-9.59592
▁única	-9.596
▁cuatro	-9.596
▁noise	-9.59608
▁cuándo	-9.59612
▁tall	-9.59741
▁speaks	-9.59846
▁otros	-9.59855
▁canadiense	-9.60122
▁extranjero	-9.60124
▁pain	-9.60139
▁van	-9.60316
▁diccionario	-9.60358
▁mujeres	-9.60497
▁worked	-9.60581
▁visitar	-9.60664
▁Has	-9.60748
▁heart	-9.60849
▁paper	-9.60887
▁puesto	-9.60914
▁speaking	-9.61018
▁famous	-9.61123
▁examen	-9.61129
▁lista	-9.61203
▁whole	-9.61297
▁equivocado	-9.61635
▁cook	-9.61658
sta	-9.6167
▁gets	-9.61857
▁black	-9.6189
▁asleep	-9.6189
▁edificio	-9.6189
▁herself	-9.6189
▁decidió	-9.61891
▁vista	-9.61908
▁Déjame	-9.61926
▁amor	-9.61991
▁piensa	-9.62025
▁pequeña	-9.62442
▁cup	-9.62449
▁needed	-9.62449
▁último	-9.62666
tomó	-9.62711
▁popular	-9.6341
▁llover	-9.63432
▁biblioteca	-9.63447
▁running	-9.63448
▁taza	-9.63448
▁glasses	-9.63501
▁fuego	-9.63509
▁ice	-9.63549
▁lose	-9.63594
▁escuchar	-9.63704
▁win	-9.64184
▁decisión	-9.64234
▁floor	-9.64234
▁hurry	-9.64234
▁proud	-9.64234
▁dangerous	-9.64235
▁carne	-9.64287
▁salud	-9.64372
▁restaurante	-9.64522
▁sound	-9.64889
▁follow	-9.64904
▁strange	-9.64904
▁strong	-9.6495
▁Someone	-9.6503
▁quickly	-9.65042
▁paid	-9.65046
▁esperaba	-9.65061
▁tenido	-9.65063
▁montón	-9.65069
▁raining	-9.65286
Podrías	-9.65405
us	-9.65634
▁sería	-9.65753
▁different	-9.65766
▁dictionary	-9.65828
▁sombrero	-9.65828
▁éxito	-9.65828
▁library	-9.65843
▁trabajando	-9.65862
▁least	-9.65892
▁offer	-9.65918
p	-9.66114
▁bag	-9.66469
▁poder	-9.66628
▁crazy	-9.66634
▁fútbol	-9.66634
▁jardín	-9.66634
▁lluvia	-9.66634
▁baseball	-9.66634
▁exactly	-9.66641
▁entiendo	-9.66722
Va	-9.66919
▁conseguir	-9.67123
▁break	-9.67163
▁llama	-9.67197
▁telephone	-9.6729
▁vivo	-9.67304
▁worry	-9.67333
▁mala	-9.6744
▁empezó	-9.67447
▁dentro	-9.67449
▁interested	-9.67475
▁loved	-9.67541
▁sale	-9.67575
▁restaurant	-9.6778
▁justo	-9.6782
▁agree	-9.67969
▁four	-9.68041
▁club	-9.68269
▁caminar	-9.68291
b	-9.68591
▁waited	-9.68599
▁dogs	-9.68643
▁gatos	-9.68715
▁muerto	-9.69001
▁safe	-9.69029
▁garden	-9.69078
▁sitio	-9.69097
▁Dame	-9.69112
▁Com	-9.69127
▁weight	-9.69217
▁decirle	-9.69245
▁primer	-9.6926
▁anybody	-9.69305
▁cenar	-9.69582
▁thinks	-9.69666
▁played	-9.69677
▁favorito	-9.69791
▁front	-9.69925
▁choice	-9.69927
▁concert	-9.69927
▁exactamente	-9.69929
▁sentido	-9.69945
▁poner	-9.69959
▁errores	-9.70047
de	-9.70224
▁thank	-9.70352
▁camisa	-9.70639
▁explain	-9.70643
▁inteligente	-9.70696
▁Ve	-9.70729
▁treinta	-9.70767
▁frente	-9.70773
▁"¿	-9.70776
▁leyendo	-9.7078
▁baño	-9.70786
▁concierto	-9.708
▁loco	-9.70932
▁takes	-9.71125
▁cry	-9.71517
▁blanco	-9.71529
▁poor	-9.71535
▁Deb	-9.71538
▁abogado	-9.71539
▁alrededor	-9.71609
▁encontró	-9.71615
▁atención	-9.71615
▁guitarra	-9.71623
▁Mañana	-9.71659
▁thirty	-9.7168
I	-9.71784
▁Now	-9.71823
▁eran	-9.71953
"	-9.72094
▁mistakes	-9.72164
▁problems	-9.72172
▁return	-9.72346
▁probabl	-9.72354
▁vendrá	-9.72402
▁broken	-9.72415
▁guitar	-9.7246
▁béisbol	-9.72469
▁llorar	-9.72505
▁estará	-9.72507
▁pasando	-9.72526
En	-9.72909
ción	-9.72974
ited	-9.73231
▁dormido	-9.73247
▁sad	-9.73302
▁umbrella	-9.73331
▁jugando	-9.73336
▁siete	-9.73344
▁wear	-9.73466
▁seemed	-9.73519
▁evening	-9.73634
▁walked	-9.73653
▁aire	-9.73685
▁opened	-9.73692
▁mad	-9.73883
▁clases	-9.74096
▁peligro	-9.74177
▁paraguas	-9.74201
▁shirt	-9.74205
▁estudiando	-9.74215
▁Thank	-9.74238
▁hide	-9.7425
u	-9.74267
▁side	-9.74326
▁lucky	-9.74329
Cuánta	-9.7437
▁caso	-9.74525
▁pens	-9.74601
to	-9.74644
▁Piens	-9.74791
▁words	-9.7489
▁llamar	-9.74892
▁air	-9.74985
▁glass	-9.75018
▁Casi	-9.75078
▁certain	-9.75078
▁dirección	-9.75078
▁television	-9.75078
▁road	-9.75093
▁hat	-9.75093
▁pasada	-9.75104
hose	-9.75175
▁Mis	-9.75178
▁cambiar	-9.75186
in	-9.75273
▁realize	-9.7559
▁acaba	-9.75732
▁move	-9.75839
▁peor	-9.75896
▁sell	-9.75914
Puede	-9.75923
▁cuanto	-9.75959
▁People	-9.75963
▁animales	-9.7601
▁missed	-9.76163
▁Ven	-9.76315
▁quieren	-9.76554
▁expect	-9.76619
▁mía	-9.76648
▁talked	-9.76722
▁accept	-9.76724
▁deal	-9.768
▁encontré	-9.76856
▁cayó	-9.76856
▁husband	-9.76863
rought	-9.76863
▁abuelo	-9.76865
▁sometimes	-9.7707
▁test	-9.77131
▁sent	-9.77219
▁movies	-9.7738
▁seguir	-9.77446
▁health	-9.77479
▁empezar	-9.77608
▁On	-9.77685
▁Everything	-9.77757
▁New	-9.77757
Queré	-9.77759
▁lawyer	-9.77762
▁seven	-9.77785
able	-9.77786
▁almuerzo	-9.77803
▁minute	-9.77866
▁learned	-9.7814
Cree	-9.78159
▁ganar	-9.78185
▁feeling	-9.78325
▁Bo	-9.78374
▁patient	-9.78602
▁comió	-9.78667
▁barco	-9.78669
▁deberes	-9.78769
▁Necesita	-9.78862
▁clear	-9.79524
▁OK	-9.79583
▁situación	-9.79583
▁lying	-9.79589
▁estúpido	-9.79622
▁miró	-9.79635
▁driver	-9.79711
▁responder	-9.79715
▁Realmente	-9.79733
▁causa	-9.798
▁pass	-9.80103
▁result	-9.80281
▁smoke	-9.80435
ir	-9.80467
▁attention	-9.80509
▁llamó	-9.80509
▁figure	-9.8051
▁fine	-9.80517
▁Quería	-9.80558
▁rato	-9.80568
▁Odi	-9.80605
▁forward	-9.80609
▁severa	-9.80655
▁men	-9.80831
▁Ni	-9.81181
▁pedir	-9.81197
▁completamente	-9.81448
▁piensas	-9.81674
▁dance	-9.82186
▁playa	-9.82249
▁Sus	-9.82332
▁arrive	-9.82345
▁danger	-9.82386
▁opinión	-9.82387
▁situation	-9.82387
▁rompió	-9.82387
▁twice	-9.82388
▁swimming	-9.82389
▁Paris	-9.82391
▁siendo	-9.82411
▁medio	-9.8243
▁rules	-9.82483
▁crying	-9.82513
▁case	-9.82609
▁visited	-9.8269
▁necesitas	-9.82707
▁irme	-9.83034
▁sala	-9.83315
▁pudiera	-9.8334
▁vacation	-9.83341
▁entró	-9.83341
▁dijiste	-9.83344
▁half	-9.83352
▁feed	-9.83379
▁Tenía	-9.83391
▁decision	-9.83409
▁invited	-9.83433
▁meat	-9.83457
▁hermosa	-9.83481
▁minuto	-9.83524
▁lago	-9.84025
▁normal	-9.84223
▁París	-9.84301
▁imposible	-9.84301
▁invierno	-9.84302
▁resolver	-9.84302
▁boca	-9.84305
▁Even	-9.84346
▁desk	-9.84352
▁alive	-9.84359
▁finally	-9.84381
▁arm	-9.84462
▁apple	-9.84531
▁tenga	-9.84542
▁Compré	-9.8481
▁After	-9.85268
▁pienso	-9.85272
▁habría	-9.85273
▁ocupada	-9.85277
▁address	-9.85279
▁leaving	-9.85281
▁completely	-9.8529
▁solve	-9.85314
▁universidad	-9.85315
▁beach	-9.85379
▁seat	-9.85403
▁ayudarte	-9.85413
▁peligroso	-9.85419
▁peso	-9.85436
▁haría	-9.8544
▁sentó	-9.85463
▁fishing	-9.85465
▁closed	-9.85503
▁digas	-9.85886
▁seeing	-9.85927
▁divertido	-9.86252
▁cuchillo	-9.86252
▁cuesta	-9.86253
▁worried	-9.86254
▁ello	-9.86266
rank	-9.86279
▁drinking	-9.86632
▁known	-9.86768
▁vaso	-9.86913
Er	-9.87054
turned	-9.87176
▁papel	-9.8718
▁driving	-9.87243
▁terminó	-9.87243
▁blue	-9.87243
▁pieza	-9.87246
▁grandfather	-9.87265
▁atrás	-9.87293
▁montaña	-9.87485
▁ship	-9.87485
▁mountain	-9.87489
▁worth	-9.87561
co	-9.87773
▁pick	-9.87821
▁sal	-9.87927
▁pena	-9.88003
▁send	-9.88032
▁estaría	-9.88181
▁próxima	-9.88243
▁jamás	-9.88244
▁knife	-9.88245
▁carro	-9.88326
▁States	-9.88327
▁promise	-9.88342
▁weekend	-9.88441
▁triste	-9.88462
▁haré	-9.88468
▁meses	-9.88473
▁wall	-9.88479
▁sleeping	-9.88612
▁recordar	-9.88671
est	-9.88768
▁animals	-9.88896
▁abrir	-9.89048
▁guess	-9.89186
▁Londres	-9.89253
▁capital	-9.89253
▁everybody	-9.89253
▁kitchen	-9.89253
▁abroad	-9.89253
▁machine	-9.89253
▁shopping	-9.89253
▁London	-9.89254
▁share	-9.89254
▁intentando	-9.8926
▁aeropuerto	-9.89264
▁mayoría	-9.89297
▁younger	-9.89297
▁Mucha	-9.89309
▁Muchos	-9.89335
▁amable	-9.89355
▁ticket	-9.89536
▁guy	-9.89569
▁F	-9.89598
▁control	-9.89879
▁casado	-9.90031
T	-9.90129
▁voz	-9.90273
▁writing	-9.90273
▁suppose	-9.90273
▁comido	-9.90274
▁cine	-9.90274
▁duele	-9.90281
▁venido	-9.90286
tion	-9.90375
▁promised	-9.90427
▁viven	-9.90525
▁pen	-9.90613
▁mantener	-9.90673
▁Sos	-9.90799
▁hiciera	-9.90826
▁vayas	-9.90968
▁pedí	-9.91091
▁mar	-9.9116
▁simple	-9.91211
▁aquel	-9.91259
▁women	-9.91304
▁either	-9.91412
▁less	-9.91605
▁boys	-9.91692
▁Va	-9.91725
▁Ten	-9.91834
▁eggs	-9.9194
▁huevos	-9.91957
▁dejes	-9.91978
▁morir	-9.91982
▁p	-9.92068
▁abrigo	-9.92353
▁hold	-9.92374
▁hiding	-9.92403
▁passed	-9.92487
▁llevaba	-9.92508
▁singing	-9.92508
▁sense	-9.92511
cia	-9.9253
▁opinion	-9.92565
remos	-9.92633
▁second	-9.9264
▁begin	-9.92701
▁Mira	-9.92772
▁debo	-9.92791
▁kiss	-9.93144
▁except	-9.93396
▁airport	-9.93398
▁impossible	-9.93398
▁medicine	-9.93398
▁traffic	-9.93399
▁coat	-9.93399
▁escritorio	-9.93399
▁entonces	-9.93401
▁Leave	-9.93414
▁sitting	-9.93441
▁worse	-9.93442
▁alta	-9.9346
▁torta	-9.93527
refiero	-9.93923
▁manzanas	-9.94055
▁Haz	-9.94066
▁doubt	-9.94168
▁llev	-9.94192
▁serious	-9.94409
Lo	-9.94423
▁diga	-9.94438
▁winter	-9.94463
▁bailar	-9.94667
▁respecto	-9.94746
▁viajar	-9.9476
▁also	-9.94768
▁silla	-9.94829
▁manzana	-9.94871
Tú	-9.95045
▁Here	-9.95104
▁grandes	-9.95202
▁R	-9.95228
▁kids	-9.95251
▁contar	-9.95274
espués	-9.95511
▁corriendo	-9.95538
▁estuviera	-9.95538
▁suele	-9.95543
▁Nothing	-9.95547
▁espera	-9.95573
▁cocinar	-9.9558
▁comprado	-9.95614
▁abrió	-9.95633
▁llaves	-9.95704
▁listening	-9.95726
▁sun	-9.95843
▁bird	-9.95964
▁piece	-9.95972
dónde	-9.96005
▁lleno	-9.96043
▁fight	-9.96437
▁venga	-9.96593
▁Thanks	-9.9661
▁caliente	-9.96624
▁jefe	-9.96624
▁written	-9.96624
▁Anoche	-9.96633
▁serio	-9.96704
▁lake	-9.96952
▁partido	-9.97006
▁recuerdo	-9.9703
▁nuestros	-9.973
▁traje	-9.97332
▁somos	-9.9742
▁ideas	-9.97427
▁tie	-9.97533
▁waste	-9.97605
▁clima	-9.97668
▁corazón	-9.97723
▁propia	-9.97723
▁siguiente	-9.97723
▁cielo	-9.97723
▁abierta	-9.97726
▁quedarme	-9.97766
rá	-9.97869
▁American	-9.97997
▁Today	-9.98008
▁shut	-9.98009
▁mensaje	-9.98113
▁afuera	-9.9817
▁liked	-9.98219
▁fotos	-9.9822
unque	-9.9826
▁estabas	-9.98336
Alguna	-9.98338
▁Nuev	-9.98409
▁carry	-9.98677
▁cats	-9.98817
▁success	-9.98831
▁felices	-9.98834
▁Stay	-9.98835
▁pescado	-9.98897
▁past	-9.98921
▁salt	-9.98932
▁expected	-9.98992
▁cause	-9.99042
▁taken	-9.99087
▁paciente	-9.99249
▁chocolate	-9.99249
▁gas	-9.9927
▁message	-9.99279
▁chair	-9.99293
▁rojo	-9.99298
▁brazo	-9.99319
▁precio	-9.99333
til	-9.99334
▁matar	-9.99647
▁irse	-9.99745
▁surprise	-9.99809
▁trató	-9.99958
▁ocurrió	-9.99961
▁detrás	-9.99961
▁viendo	-9.99962
▁ocho	-9.99966
▁desayuno	-9.99977
▁Sabía	-10.0003
▁Try	-10.0011
go	-10.0041
▁noticias	-10.0044
▁derecho	-10.0046
▁apples	-10.0086
ake	-10.0089
▁Francia	-10.0109
▁iglesia	-10.0109
▁shop	-10.011
▁olvidó	-10.011
▁mirando	-10.0111
▁Dime	-10.0113
▁public	-10.0113
▁favorita	-10.0115
▁queremos	-10.0116
▁confiar	-10.0122
▁happens	-10.0146
▁horse	-10.0162
▁Lament	-10.0194
sk	-10.0204
▁Toda	-10.0211
▁foot	-10.0212
▁foreign	-10.0223
▁smart	-10.0223
▁Quizá	-10.0224
▁church	-10.0224
▁diciendo	-10.0224
▁sky	-10.0225
▁cuál	-10.0225
▁escribió	-10.0225
▁ball	-10.0226
▁querés	-10.023
▁Call	-10.023
▁chicos	-10.0259
▁quiera	-10.0259
▁perfect	-10.0268
▁keys	-10.0268
▁correcto	-10.0269
▁warm	-10.0271
▁months	-10.0271
▁Espera	-10.0273
▁sentence	-10.0276
▁os	-10.0277
▁funciona	-10.0277
▁animal	-10.0277
▁gun	-10.0282
▁contento	-10.0286
▁At	-10.0311
ting	-10.0327
▁Con	-10.0339
▁France	-10.0341
▁easily	-10.0341
▁empleo	-10.0341
▁Osaka	-10.0341
▁comiendo	-10.0341
▁shot	-10.0341
▁compré	-10.0341
▁boss	-10.0341
▁leído	-10.0343
▁Alguno	-10.0345
▁refused	-10.0346
▁gracias	-10.0348
▁pared	-10.0366
▁bebe	-10.0369
▁ves	-10.0377
▁happening	-10.0381
▁learning	-10.0386
▁correr	-10.0388
iendo	-10.0388
▁wash	-10.0389
▁fault	-10.0393
caso	-10.0394
▁anciano	-10.0398
▁periódico	-10.0399
less	-10.04
▁honest	-10.0417
▁caro	-10.0427
▁empieza	-10.0458
▁necesario	-10.0458
▁soccer	-10.0458
▁difference	-10.0459
▁novio	-10.0459
▁across	-10.0467
▁carefully	-10.0469
▁hermanos	-10.0507
▁reglas	-10.051
▁domingos	-10.0513
▁negro	-10.0518
▁amiga	-10.0518
▁domingo	-10.0522
▁law	-10.0532
▁novela	-10.0533
▁pictures	-10.0533
▁teach	-10.0565
▁join	-10.0576
▁puente	-10.0577
▁boyfriend	-10.0578
▁pueblo	-10.058
▁dejado	-10.0587
▁inside	-10.0589
▁walking	-10.0618
▁smile	-10.0621
▁estas	-10.0628
▁novel	-10.0629
▁languages	-10.063
▁voice	-10.0636
ca	-10.0642
▁piso	-10.0642
▁sigue	-10.0645
▁cream	-10.0646
▁Acab	-10.0647
Ya	-10.0655
▁pase	-10.0678
▁bath	-10.0687
▁significa	-10.0688
▁future	-10.0698
▁sacó	-10.0698
▁bread	-10.0698
▁prisa	-10.0698
▁intentó	-10.0699
▁trata	-10.0719
▁sounds	-10.072
ió	-10.0723
▁Nada	-10.0737
▁though	-10.0748
▁noticia	-10.0768
▁parar	-10.0806
▁girls	-10.0812
▁Something	-10.082
▁enemy	-10.082
▁tarta	-10.082
▁wake	-10.082
▁habló	-10.082
▁almorzar	-10.0821
▁pensaba	-10.0821
▁Hic	-10.0838
▁remind	-10.0848
▁vale	-10.0851
▁varia	-10.0854
▁ride	-10.0858
▁verme	-10.0866
▁llega	-10.0871
▁quedar	-10.088
▁hundred	-10.0887
▁asiento	-10.0895
▁count	-10.093
▁O	-10.0931
▁estés	-10.0931
▁Chinese	-10.0943
▁Wait	-10.0943
▁college	-10.0943
▁enfadado	-10.0944
▁siguió	-10.0945
▁evitar	-10.0945
▁segura	-10.0945
▁campo	-10.0951
▁llegado	-10.0951
▁Supong	-10.0959
▁Podría	-10.0959
▁gana	-10.0972
▁escrito	-10.0977
▁saben	-10.0999
▁pizza	-10.1012
▁pobre	-10.1016
Se	-10.1027
▁German	-10.1039
▁somewhere	-10.1068
▁encontrado	-10.1068
▁Oí	-10.107
▁slowly	-10.1071
▁quedarse	-10.1074
▁contó	-10.1076
▁H	-10.1076
▁laughed	-10.1077
▁demás	-10.1086
▁cooking	-10.1087
▁L	-10.1099
▁quiet	-10.1104
▁top	-10.1125
▁borracho	-10.1141
Para	-10.1145
▁caballo	-10.1146
▁ama	-10.1146
▁eye	-10.1149
▁ill	-10.1158
▁gustaba	-10.1174
▁escape	-10.1181
▁bolsa	-10.1195
▁couple	-10.1195
▁ayudó	-10.1195
▁policeman	-10.1195
▁América	-10.1196
▁cita	-10.1196
▁comenzó	-10.1197
▁cartas	-10.1207
▁necesitaba	-10.1208
▁sentía	-10.1209
▁standing	-10.1216
▁stolen	-10.1226
bajo	-10.1232
▁entiende	-10.1232
▁For	-10.1241
▁report	-10.1247
▁llegue	-10.1262
▁helado	-10.1268
▁propio	-10.1275
▁newspaper	-10.1275
▁price	-10.1276
▁mil	-10.1281
▁wor	-10.1284
▁toca	-10.1291
▁decide	-10.1317
▁futuro	-10.1323
▁heavy	-10.1323
▁lloviendo	-10.1323
▁acostumbrado	-10.1323
▁mouth	-10.1325
▁pesar	-10.1326
▁marry	-10.1327
▁quedé	-10.133
▁failed	-10.1331
▁entered	-10.1333
▁shower	-10.134
Con	-10.1351
▁decirme	-10.1355
▁Pon	-10.1374
▁pretend	-10.1384
▁regret	-10.1401
▁bridge	-10.1402
▁remain	-10.1406
▁idioma	-10.1408
▁fat	-10.1421
ver	-10.1434
án	-10.1446
▁azúcar	-10.1453
▁marido	-10.1453
▁casó	-10.1455
▁necessary	-10.1455
▁ayudarme	-10.1469
▁pescar	-10.1478
▁aware	-10.1489
▁Alguna	-10.1511
▁consider	-10.1514
▁orgulloso	-10.1537
▁daño	-10.1538
▁nació	-10.1539
▁larga	-10.154
▁fix	-10.1572
▁prison	-10.1583
▁experiencia	-10.1584
▁nervous	-10.1584
▁público	-10.1584
▁funny	-10.1585
▁hacía	-10.1588
▁fear	-10.1588
▁echar	-10.1588
▁tendrá	-10.159
▁presidente	-10.1594
▁moved	-10.1607
▁compras	-10.1615
aste	-10.1627
▁siente	-10.1631
Podría	-10.1637
▁fall	-10.1639
or	-10.164
▁eight	-10.1691
▁sign	-10.1702
▁correo	-10.1705
▁enfermedad	-10.1711
▁fly	-10.1713
▁rock	-10.1718
▁Every	-10.1718
▁durmiendo	-10.1718
▁Kyoto	-10.1718
onozco	-10.1719
▁humor	-10.1719
▁button	-10.1721
▁suelo	-10.1723
▁Was	-10.1726
▁dientes	-10.1738
▁limpiar	-10.1754
▁beat	-10.1768
▁hará	-10.1774
▁correct	-10.1776
▁Habla	-10.1791
▁enamorado	-10.1808
Esto	-10.1808
▁f	-10.181
▁pájaro	-10.1814
▁experience	-10.1837
▁diferencia	-10.1844
ought	-10.1852
▁storm	-10.1853
▁green	-10.1853
▁native	-10.1853
▁tormenta	-10.1853
▁semanas	-10.1856
▁G	-10.1869
▁lend	-10.1872
▁brothers	-10.1935
▁famoso	-10.1948
▁gift	-10.195
▁guys	-10.195
▁bottle	-10.195
▁sentado	-10.1952
▁joke	-10.1953
▁especial	-10.198
▁per	-10.1983
▁general	-10.1984
▁deep	-10.1984
▁film	-10.199
▁proyecto	-10.199
▁twenty	-10.199
▁Perdí	-10.199
▁thousand	-10.199
▁zoo	-10.199
▁wallet	-10.199
▁blood	-10.1991
▁blind	-10.1992
▁wonderful	-10.1994
▁viste	-10.1995
▁Solía	-10.2
▁pensé	-10.2004
▁kissed	-10.2006
▁bar	-10.2043
▁paseo	-10.2043
▁perfecto	-10.2046
▁clock	-10.2091
▁diferente	-10.2093
▁sino	-10.2104
▁list	-10.2111
▁plans	-10.2115
▁verlo	-10.2115
▁save	-10.212
▁enferma	-10.2129
▁grew	-10.2129
▁stood	-10.2129
▁fruit	-10.2129
▁Dios	-10.2131
▁empty	-10.2131
▁Dile	-10.2132
▁sugar	-10.2133
▁contacto	-10.2159
▁seas	-10.217
▁ayude	-10.2188
▁dado	-10.2193
▁owe	-10.2217
▁fact	-10.2235
▁preocupado	-10.2237
▁azul	-10.2263
▁claro	-10.227
▁corbata	-10.227
▁Nuestra	-10.227
▁sintió	-10.2271
Desearía	-10.2274
▁means	-10.2274
▁agradable	-10.2276
▁received	-10.2276
▁bother	-10.229
▁eats	-10.2291
▁decirte	-10.2312
ban	-10.2341
▁date	-10.2344
▁mejores	-10.2356
▁Alg	-10.2367
▁veía	-10.2369
▁bonita	-10.2377
▁igual	-10.2378
▁botella	-10.238
▁resto	-10.2383
▁herido	-10.2386
▁Uno	-10.2396
▁borrow	-10.24
▁discuss	-10.24
▁picnic	-10.2413
▁Jackson	-10.2413
▁abuela	-10.2413
▁hicieron	-10.2413
▁taught	-10.2413
▁beginning	-10.2413
▁translate	-10.2413
▁worst	-10.2414
▁aquella	-10.2415
▁grave	-10.2419
▁usa	-10.2447
▁prestar	-10.2451
▁planes	-10.2478
▁India	-10.2511
▁ven	-10.2511
▁Sabe	-10.2511
nas	-10.2522
▁prueba	-10.2527
▁smell	-10.2528
▁Tal	-10.2541
▁tras	-10.2542
▁Europe	-10.2556
▁despierto	-10.2557
▁discurso	-10.2557
▁vosotros	-10.2557
▁oferta	-10.2558
▁tuviera	-10.2558
▁suena	-10.2558
▁matemáticas	-10.2564
▁pelota	-10.2567
▁smiled	-10.2576
▁arma	-10.2583
imos	-10.2597
▁watched	-10.2614
▁Re	-10.264
▁charge	-10.2652
▁leaves	-10.266
▁Sin	-10.2676
▁line	-10.2681
▁Most	-10.2692
▁attend	-10.2697
▁común	-10.2702
▁Saturday	-10.2705
▁negó	-10.2705
▁decidido	-10.2705
▁information	-10.2705
▁veinte	-10.2705
▁información	-10.2705
▁prometió	-10.2705
▁planning	-10.2705
▁inmediatamente	-10.2705
▁totalmente	-10.2705
▁tratando	-10.2707
▁soup	-10.2707
▁sight	-10.2713
qué	-10.2718
ong	-10.2739
▁llena	-10.276
▁buenos	-10.2768
ic	-10.2775
▁yen	-10.2779
idad	-10.278
▁staying	-10.279
▁grow	-10.2796
▁Writ	-10.2804
▁haces	-10.2809
▁murder	-10.2839
▁apena	-10.2842
▁speech	-10.2846
▁valor	-10.2848
▁village	-10.2854
▁Europa	-10.2854
▁levantó	-10.2854
▁máquina	-10.2854
▁luego	-10.2854
▁built	-10.2854
▁common	-10.2854
▁verdaderamente	-10.2855
▁sopa	-10.2858
▁An	-10.2876
ne	-10.2885
▁haberlo	-10.2893
▁odia	-10.2894
▁fit	-10.2894
amente	-10.2915
ia	-10.2928
▁exam	-10.2976
▁cambio	-10.2978
▁tuyo	-10.2984
▁junto	-10.2987
h	-10.2989
▁succeed	-10.2993
▁feelings	-10.2993
▁crowd	-10.2995
▁encima	-10.3005
▁mamá	-10.3005
▁nueve	-10.3005
▁assume	-10.3005
▁roto	-10.3005
▁sorprendió	-10.3006
▁enojado	-10.3006
▁guapa	-10.3006
▁moon	-10.3006
▁quise	-10.3006
▁poca	-10.3006
▁parado	-10.3014
▁conocía	-10.3015
▁amo	-10.3017
▁darle	-10.3019
▁sepa	-10.3097
▁Tur	-10.3127
▁toma	-10.3127
▁carrera	-10.3129
▁enemigo	-10.3138
▁trees	-10.3145
▁ley	-10.3156
▁anywhere	-10.3159
▁primavera	-10.3159
▁repente	-10.3159
▁silencio	-10.3159
▁studied	-10.3159
▁mintiendo	-10.3159
▁apartment	-10.3159
▁choose	-10.316
▁soportar	-10.3164
▁single	-10.3165
▁vivía	-10.3165
▁tomado	-10.3168
▁alegr	-10.3173
▁type	-10.3173
▁sentimientos	-10.3174
▁Br	-10.3176
▁rang	-10.318
▁God	-10.32
▁actually	-10.3204
ch	-10.3221
▁sorprendido	-10.3294
▁alegra	-10.3299
▁deserve	-10.33
▁coger	-10.331
▁menor	-10.331
▁aceptar	-10.331
▁Fuji	-10.3315
▁alemán	-10.3315
▁conocido	-10.3315
▁project	-10.3315
▁slept	-10.3315
▁sorpresa	-10.3315
▁llegué	-10.3315
▁botón	-10.3315
▁enseñó	-10.3317
▁teeth	-10.3318
▁guilty	-10.3318
▁podrá	-10.3318
▁bill	-10.3322
▁quedarte	-10.3323
▁locked	-10.3327
▁llegará	-10.3327
▁ech	-10.334
▁buenas	-10.3344
▁rule	-10.3356
▁puedas	-10.336
▁Quere	-10.3366
▁weeks	-10.3372
▁personal	-10.3379
▁vario	-10.3392
▁rey	-10.3419
▁See	-10.3421
▁andar	-10.3432
ri	-10.3433
▁leg	-10.344
▁estudia	-10.3455
▁apologize	-10.3459
▁verde	-10.3464
▁museum	-10.3474
▁yellow	-10.3474
▁bosque	-10.3474
▁museo	-10.3474
▁paz	-10.3474
▁papá	-10.3475
▁earth	-10.3475
▁tonto	-10.3476
▁lentes	-10.3481
Eso	-10.351
▁Di	-10.3525
bido	-10.3549
Estaré	-10.3563
▁abajo	-10.3565
▁breath	-10.3576
▁duda	-10.3603
▁tengas	-10.3603
▁plays	-10.3604
▁admit	-10.3613
▁pintura	-10.3617
▁convince	-10.362
▁cards	-10.3623
▁president	-10.3624
▁vuelto	-10.3635
▁grandmother	-10.3635
▁tampoco	-10.3635
▁bike	-10.3635
▁cheese	-10.3635
▁fence	-10.3635
▁resfriado	-10.3636
▁habrá	-10.3636
▁mitad	-10.3636
▁earlier	-10.3636
▁querría	-10.3636
hrew	-10.3636
▁ganó	-10.3636
▁nine	-10.3637
▁prestado	-10.3638
▁pertenece	-10.3639
▁nervioso	-10.3643
▁Ape	-10.3646
▁player	-10.3657
▁likely	-10.3659
▁yours	-10.3662
▁agreed	-10.3665
▁quitó	-10.3669
▁luna	-10.367
▁paso	-10.3672
▁dan	-10.3676
▁calm	-10.3687
▁olvides	-10.3701
▁bear	-10.3702
▁Tené	-10.3716
▁lavar	-10.3719
▁hacen	-10.3722
▁Les	-10.3724
▁Tan	-10.3738
▁tele	-10.3745
▁finger	-10.379
▁idiota	-10.3794
▁painting	-10.3796
1	-10.3798
▁Children	-10.3799
▁Show	-10.3799
▁funeral	-10.3799
▁intención	-10.3799
▁jóvenes	-10.3799
▁medicina	-10.3799
▁seguridad	-10.3799
▁wedding	-10.38
▁immediately	-10.38
▁held	-10.3801
▁extra	-10.3801
▁hacerte	-10.3801
▁pair	-10.3802
▁web	-10.3816
▁Were	-10.3821
▁forgive	-10.3844
▁pájaros	-10.3847
▁pone	-10.3884
▁respect	-10.3893
▁películas	-10.3932
béis	-10.3948
▁grupo	-10.3953
▁esperanza	-10.3953
▁vieja	-10.3955
▁segundo	-10.3956
▁drinks	-10.3956
▁Life	-10.3966
▁Somebody	-10.3966
▁despacio	-10.3966
▁prisión	-10.3966
▁llueve	-10.3966
▁Two	-10.3966
▁ahead	-10.3966
▁classroom	-10.3966
▁satisfied	-10.3966
▁boat	-10.3968
▁escuchando	-10.3968
▁ladrón	-10.3968
▁history	-10.3968
▁liar	-10.3969
▁olvidado	-10.3969
▁taller	-10.3969
ur	-10.3969
▁dijeron	-10.3971
▁culpable	-10.3972
▁painted	-10.3979
▁returned	-10.3992
▁intentar	-10.4028
▁Que	-10.405
▁asking	-10.4058
Usted	-10.4086
id	-10.4095
▁post	-10.4096
▁enter	-10.4103
▁computador	-10.4116
▁negocios	-10.4118
▁cuidar	-10.4129
▁ordenador	-10.413
xcuse	-10.4135
▁Alemania	-10.4135
▁Canadá	-10.4135
▁memoria	-10.4135
▁woke	-10.4135
▁cruel	-10.4136
▁corto	-10.4136
▁diario	-10.4136
▁rápidamente	-10.4136
▁premio	-10.4138
▁ring	-10.4138
▁hermoso	-10.4138
▁position	-10.4139
▁paint	-10.4139
▁volverá	-10.4142
▁cerrar	-10.4146
▁harder	-10.4149
▁allowed	-10.4149
▁árboles	-10.415
▁picked	-10.4157
▁king	-10.4158
▁star	-10.4158
▁listened	-10.417
▁Germany	-10.4176
▁Pas	-10.418
▁fired	-10.4197
▁esas	-10.4211
▁Hol	-10.422
▁Recuerd	-10.4225
▁Am	-10.4226
▁temo	-10.4237
▁interesa	-10.4249
▁rid	-10.4254
▁queso	-10.4254
▁isla	-10.4277
nte	-10.4278
▁laugh	-10.4278
▁special	-10.4281
▁alarm	-10.4285
ría	-10.4288
S	-10.4301
▁recuerda	-10.4305
▁espalda	-10.4305
▁support	-10.4308
▁ashamed	-10.4308
▁gustó	-10.4308
▁izquierda	-10.4308
▁multitud	-10.4308
▁paciencia	-10.4308
▁tráfico	-10.4308
▁hablo	-10.4308
▁Kioto	-10.4308
▁cansada	-10.431
▁suddenly	-10.4311
▁faster	-10.4313
▁tema	-10.4315
▁covered	-10.4316
▁allow	-10.4317
▁Haga	-10.4317
▁island	-10.4319
▁noticed	-10.4322
▁probable	-10.4329
▁dressed	-10.4341
▁otras	-10.4416
el	-10.4451
ación	-10.4458
cogió	-10.4475
▁principio	-10.4476
▁escuchó	-10.4483
▁furniture	-10.4483
▁gafas	-10.4483
▁video	-10.4483
▁government	-10.4483
▁headache	-10.4483
▁oyó	-10.4484
▁wears	-10.4486
▁raro	-10.4486
▁cambiado	-10.4487
▁tía	-10.4488
▁bedroom	-10.4488
▁finalmente	-10.449
▁interesado	-10.4491
▁oscuro	-10.4493
▁aunt	-10.4495
▁Canada	-10.4499
▁traer	-10.4501
▁Será	-10.4503
▁judge	-10.4509
▁correcta	-10.4511
▁buscar	-10.4514
▁sonó	-10.4518
▁estábamos	-10.4526
▁lied	-10.4529
▁alcohol	-10.4531
▁sientes	-10.4538
▁honesto	-10.4558
▁hablan	-10.457
▁sacar	-10.4576
▁platos	-10.4596
ped	-10.4601
▁Lleva	-10.4601
▁100	-10.4609
▁forever	-10.4615
▁fond	-10.4616
▁stole	-10.4617
iste	-10.4651
ful	-10.4654
▁Spanish	-10.4662
▁absent	-10.4662
▁arroz	-10.4662
▁courage	-10.4662
▁español	-10.4662
▁vuelo	-10.4662
▁Probablemente	-10.4662
▁sofá	-10.4662
▁quiso	-10.4662
▁robado	-10.4662
▁theater	-10.4662
▁subject	-10.4662
▁mostró	-10.4663
Preferiría	-10.4663
▁bajó	-10.4664
▁solución	-10.4664
▁entera	-10.4668
▁perdí	-10.4669
▁avoid	-10.4669
▁golpeó	-10.4671
▁scared	-10.4672
▁digo	-10.4672
▁ojo	-10.4673
▁casarse	-10.4675
▁vegetables	-10.4689
▁tratar	-10.4693
▁missing	-10.4696
▁profesora	-10.4745
ord	-10.478
▁sang	-10.4814
▁pastel	-10.4838
▁notice	-10.4838
▁oro	-10.4839
▁Friday	-10.4844
▁course	-10.4844
▁cuerda	-10.4844
▁cáncer	-10.4844
▁delicious	-10.4844
▁ejercicio	-10.4844
▁nobody	-10.4844
▁somebody	-10.4844
▁viento	-10.4844
▁viernes	-10.4844
▁boring	-10.4844
▁horrible	-10.4844
▁adelante	-10.4844
▁preparado	-10.4845
▁Since	-10.4846
▁hielo	-10.4846
▁check	-10.4847
▁hubo	-10.4847
▁rains	-10.4847
▁disappointed	-10.4849
▁trampa	-10.4849
▁vuestro	-10.485
▁llamada	-10.4851
▁escribe	-10.4851
▁complaining	-10.4852
▁arrested	-10.4852
▁chino	-10.4852
▁preguntaba	-10.4857
▁hago	-10.4858
▁map	-10.4858
▁bored	-10.4861
▁Estuv	-10.4868
▁amaba	-10.4869
▁explained	-10.4871
▁washing	-10.4881
▁explicar	-10.4885
▁ended	-10.4892
▁Llev	-10.4904
▁soldados	-10.4931
▁rent	-10.4953
▁Decid	-10.496
▁c	-10.4981
ga	-10.4982
▁crime	-10.4985
▁depende	-10.5009
▁Chicago	-10.5029
▁hobby	-10.5029
▁innocent	-10.5029
▁introduce	-10.5029
▁jacket	-10.5029
▁japoneses	-10.5029
▁license	-10.5029
▁purpose	-10.5029
▁sonrisa	-10.5029
▁straight	-10.5029
▁vuestra	-10.5029
▁body	-10.5029
▁truck	-10.5029
▁rice	-10.5029
▁guste	-10.5029
▁dropped	-10.5029
▁Read	-10.5029
▁llorando	-10.503
▁bolígrafo	-10.5035
vimos	-10.5036
▁pierna	-10.5041
▁chicas	-10.5049
▁nuevos	-10.5073
▁suit	-10.5076
▁enviar	-10.508
Así	-10.5086
▁necesitamos	-10.5087
▁ex	-10.5088
ciones	-10.5095
▁escucha	-10.5098
▁answered	-10.5111
▁Encontré	-10.5127
▁escaleras	-10.5134
▁ducha	-10.5149
▁arreglar	-10.5156
▁desayunar	-10.5176
▁bare	-10.518
▁juega	-10.5182
▁peace	-10.5208
ut	-10.5213
▁Unfortunately	-10.5218
▁aburrido	-10.5218
▁fresh	-10.5218
▁linda	-10.5218
▁understood	-10.5218
▁Sometimes	-10.5218
▁stuck	-10.5218
▁recognize	-10.5218
▁Ningun	-10.5218
▁prize	-10.5218
▁profundamente	-10.5218
▁caminando	-10.5219
▁sucedió	-10.5219
▁cerrada	-10.5224
nd	-10.5224
▁yenes	-10.5226
▁frase	-10.5226
▁cancer	-10.5226
▁reached	-10.5226
▁cargo	-10.5228
▁fruta	-10.523
▁verdadero	-10.523
▁precios	-10.5232
▁madera	-10.5232
▁promesa	-10.5233
▁race	-10.5234
▁bella	-10.5234
▁flower	-10.5235
▁darme	-10.524
▁deseo	-10.524
▁deja	-10.5246
▁ordered	-10.5249
▁estuve	-10.5253
▁estáis	-10.5255
▁paró	-10.526
▁CD	-10.527
P	-10.5282
Sería	-10.5285
▁convencer	-10.529
▁casada	-10.5292
io	-10.5293
▁sports	-10.5328
▁cars	-10.533
▁birds	-10.5334
▁Os	-10.5335
▁belongs	-10.5342
▁dura	-10.5374
▁appreciate	-10.5394
▁natural	-10.5399
▁decidir	-10.5404
▁card	-10.5407
▁explanation	-10.541
▁frecuencia	-10.541
▁injured	-10.541
▁inocente	-10.541
▁intelligent	-10.541
▁lápiz	-10.541
▁opción	-10.541
▁tarjeta	-10.541
▁sonrió	-10.541
▁duty	-10.541
▁sweater	-10.5411
▁accused	-10.5411
▁conductor	-10.5411
▁tenés	-10.5411
▁dishes	-10.5412
▁tuya	-10.5413
▁centro	-10.5414
▁invite	-10.5414
▁satisfecho	-10.5423
▁convinced	-10.5428
▁wood	-10.5429
▁legs	-10.543
▁saved	-10.5431
▁low	-10.5432
▁tears	-10.5432
▁extreme	-10.5433
▁negocio	-10.544
▁actor	-10.5446
▁veré	-10.547
▁orden	-10.5481
▁mirar	-10.5514
▁permitir	-10.5522
▁conocí	-10.5533
▁agrada	-10.554
▁irte	-10.5568
▁familiar	-10.5581
▁heat	-10.5587
▁fail	-10.5594
▁vivid	-10.5598
▁oí	-10.5603
▁sentí	-10.5605
▁account	-10.5606
▁Yesterday	-10.5606
▁chaqueta	-10.5606
▁consciente	-10.5606
▁cuerpo	-10.5606
▁midnight	-10.5606
▁permiso	-10.5606
▁awake	-10.5606
▁Help	-10.5606
▁viviendo	-10.5606
▁behavior	-10.5606
▁throw	-10.5606
▁power	-10.5607
▁absolutely	-10.5608
▁averiguar	-10.5609
▁normalmente	-10.5612
▁manejar	-10.5614
▁mapa	-10.5618
▁ponga	-10.5618
▁seriously	-10.5618
▁cantante	-10.5621
▁incendio	-10.5622
▁rica	-10.5623
▁sangre	-10.5623
▁singer	-10.5624
▁nativo	-10.5624
▁pencil	-10.5626
▁broma	-10.5628
▁darte	-10.5633
▁mentira	-10.5634
▁elegir	-10.5636
▁speaker	-10.564
▁Viv	-10.5642
▁cualquiera	-10.5649
▁crimen	-10.5654
▁irá	-10.5667
▁romper	-10.5686
▁extraña	-10.5715
▁Han	-10.5716
▁conocen	-10.5724
▁human	-10.5728
▁guard	-10.5741
El	-10.5743
Conoce	-10.5755
Tené	-10.5769
▁believed	-10.5769
▁luck	-10.5776
▁pies	-10.5787
▁levanta	-10.5796
▁keeps	-10.5805
▁Ambos	-10.5806
▁England	-10.5806
▁Harvard	-10.5806
▁chicken	-10.5806
▁japonesa	-10.5806
▁medianoche	-10.5806
▁cash	-10.5806
▁escribiendo	-10.5806
▁respondió	-10.5806
▁explicación	-10.5806
▁entire	-10.5809
▁middle	-10.5809
▁partir	-10.5811
▁rara	-10.5822
▁group	-10.5827
▁entrada	-10.5831
▁roja	-10.5832
Pode	-10.5842
aré	-10.5851
▁sold	-10.5857
▁comenzar	-10.5881
robó	-10.5885
▁soldiers	-10.5902
w	-10.5906
▁hables	-10.5921
▁prove	-10.5969
ted	-10.5977
▁hid	-10.5991
▁vote	-10.5995
▁fool	-10.5997
▁attack	-10.5998
áis	-10.6001
▁risk	-10.6006
▁cool	-10.6008
▁view	-10.601
▁encuentro	-10.601
▁espacio	-10.601
▁fiebre	-10.601
▁passport	-10.601
▁toilet	-10.601
▁space	-10.601
▁stick	-10.601
▁dirty	-10.6012
▁dispuesto	-10.6012
▁probablemente	-10.6013
les	-10.6019
▁descanso	-10.6019
▁wind	-10.6019
▁shy	-10.6031
▁fighting	-10.6033
▁boda	-10.6035
▁línea	-10.6035
▁modo	-10.6036
▁accepted	-10.6039
▁vuelve	-10.6039
▁países	-10.6039
▁resultado	-10.6046
▁cookies	-10.606
jo	-10.6064
▁healthy	-10.6078
▁idiomas	-10.6081
▁baja	-10.6084
▁employees	-10.6086
▁conocer	-10.6097
▁empleados	-10.61
▁corta	-10.6134
adamente	-10.6135
ies	-10.617
▁protect	-10.6183
▁empeza	-10.6194
▁fair	-10.6212
▁hung	-10.6216
▁Finalmente	-10.6218
▁Inglaterra	-10.6218
▁consiguió	-10.6218
▁pasaporte	-10.6218
▁quisiera	-10.6218
▁themselves	-10.6218
▁mood	-10.6218
▁cortó	-10.6218
▁salvo	-10.6219
▁flor	-10.6219
▁billetera	-10.6219
▁windows	-10.6221
▁bigger	-10.6221
▁aprendiendo	-10.6221
▁Dije	-10.6222
▁pedirle	-10.6225
▁escapar	-10.6225
▁enseñar	-10.6225
▁ocultar	-10.6229
▁importar	-10.6229
▁enseña	-10.623
▁laughing	-10.6232
▁bote	-10.6233
▁War	-10.6245
▁muchacho	-10.6252
▁sábado	-10.6252
▁página	-10.6253
▁deporte	-10.6254
▁discutir	-10.6261
ero	-10.6272
ity	-10.6275
▁limpia	-10.628
▁corre	-10.6289
".	-10.6298
▁handed	-10.63
▁arte	-10.6306
▁dejara	-10.6338
▁dicen	-10.6344
.000	-10.6349
ma	-10.6367
▁encantan	-10.6376
Él	-10.6382
▁Italia	-10.6386
▁extrem	-10.6395
▁esos	-10.6403
▁querías	-10.6416
▁cien	-10.643
▁absoluta	-10.6431
▁fresco	-10.6431
▁university	-10.6431
▁spring	-10.6431
▁acabó	-10.6431
▁casualidad	-10.6431
▁neither	-10.6431
▁derecha	-10.6431
▁ambos	-10.6431
▁bromeando	-10.6431
▁Mother	-10.6432
▁involved	-10.6433
▁Italy	-10.6434
▁mató	-10.6436
x	-10.6446
▁idiot	-10.645
▁canciones	-10.6455
▁Sal	-10.6457
▁expecting	-10.6458
▁preocupes	-10.646
▁tierra	-10.6462
▁política	-10.6466
▁magazine	-10.6469
▁encuentra	-10.6469
▁maleta	-10.647
▁Dice	-10.648
▁fingi	-10.6481
ers	-10.649
rse	-10.6497
▁rained	-10.6513
▁sisters	-10.6521
▁desea	-10.6524
▁hang	-10.653
▁dreams	-10.6544
▁tanta	-10.6553
ido	-10.6573
▁dad	-10.6591
▁duerme	-10.6602
▁treat	-10.6607
k	-10.6609
Podé	-10.6615
cluso	-10.6617
▁preguntar	-10.6624
▁relax	-10.6624
▁piernas	-10.6634
▁ventanas	-10.6635
▁sentir	-10.6642
La	-10.6643
▁vuelva	-10.6645
▁contact	-10.6646
▁cheap	-10.6647
▁cambió	-10.6649
▁seldom	-10.6649
▁televisor	-10.6649
▁harto	-10.6649
▁lonely	-10.6649
▁comportamiento	-10.6649
▁asesinato	-10.6649
▁dancing	-10.6649
▁oscuridad	-10.6649
▁brush	-10.6649
▁propuesta	-10.6649
▁Father	-10.6649
▁recently	-10.665
▁fever	-10.6651
▁explicó	-10.6652
▁Hub	-10.6656
▁exist	-10.666
il	-10.6661
▁considered	-10.6669
▁Ésta	-10.667
▁solas	-10.6674
▁harm	-10.6674
▁fed	-10.668
▁gusto	-10.6683
▁followed	-10.6683
▁recibir	-10.6688
▁bonito	-10.6689
ci	-10.6689
▁revista	-10.6692
▁dices	-10.6693
▁suyo	-10.6701
ness	-10.6705
▁mente	-10.6706
▁hermanas	-10.6733
▁feels	-10.6748
▁calling	-10.6757
▁Habl	-10.6766
▁casar	-10.6767
▁agarr	-10.6768
▁begins	-10.6795
▁record	-10.6799
▁hablado	-10.6805
▁apareció	-10.6833
▁honor	-10.6856
eme	-10.686
▁camión	-10.6871
▁countries	-10.6871
▁cárcel	-10.6871
▁genial	-10.6871
▁pérdida	-10.6871
▁roof	-10.6871
▁stuff	-10.6871
▁destino	-10.6871
▁suicide	-10.6871
▁mentiroso	-10.6871
▁cometido	-10.6871
mo	-10.6871
▁corrió	-10.6872
▁odio	-10.6872
▁robaron	-10.6873
▁cried	-10.6874
▁size	-10.6874
▁suspect	-10.6874
▁importaría	-10.6874
▁admitt	-10.6874
▁techo	-10.6875
▁managed	-10.6878
▁Op	-10.688
▁copy	-10.6882
▁cerró	-10.6883
▁raised	-10.6884
▁fácilmente	-10.6887
▁sooner	-10.6887
▁besó	-10.6896
▁muebles	-10.6897
▁volar	-10.6899
▁exercise	-10.691
▁meaning	-10.6915
▁habit	-10.6915
▁trozo	-10.6918
▁pocket	-10.6918
▁motor	-10.6926
▁daré	-10.6929
▁Tuv	-10.6932
▁pas	-10.6933
▁dedos	-10.6934
▁miles	-10.6935
▁parecen	-10.6938
cted	-10.6942
ja	-10.6946
▁Jam	-10.696
▁land	-10.6974
▁meant	-10.6999
▁vimos	-10.7009
v	-10.7013
▁pintar	-10.7032
quiera	-10.7054
▁talks	-10.7062
▁És	-10.7066
▁Iré	-10.7076
▁das	-10.7078
▁drop	-10.7083
▁útil	-10.7092
▁gold	-10.7097
giving	-10.7097
▁Hokkaido	-10.7098
▁inmediato	-10.7098
▁jealous	-10.7098
▁memory	-10.7098
▁ourselves	-10.7098
▁propósito	-10.7098
▁solution	-10.7098
▁thief	-10.7098
▁unlikely	-10.7098
▁excelente	-10.7098
▁rope	-10.7098
▁facilidad	-10.7098
▁distinguir	-10.7098
▁famosa	-10.7098
▁ciego	-10.7098
▁mediodía	-10.7098
▁salido	-10.7099
▁forgotten	-10.7099
▁recibió	-10.7102
▁paga	-10.7103
▁pregunté	-10.7104
▁simplemente	-10.7105
▁climbed	-10.7109
▁llamado	-10.7119
▁galletas	-10.7121
▁art	-10.7129
▁flight	-10.7145
▁merece	-10.7147
Os	-10.7147
▁supiera	-10.7149
▁piedra	-10.715
▁dulce	-10.7153
▁neighbor	-10.7154
dor	-10.7159
▁jokes	-10.7161
▁entero	-10.7161
▁pelea	-10.7169
▁stranger	-10.717
▁sueños	-10.7193
▁rumor	-10.7198
▁compar	-10.72
Y	-10.7216
▁parada	-10.7226
▁necesitan	-10.7265
▁ninguno	-10.7267
▁aff	-10.7296
▁comí	-10.7302
▁diet	-10.7312
miento	-10.7316
▁Da	-10.7318
▁appear	-10.7318
▁sabemos	-10.7322
▁similar	-10.7324
▁rude	-10.733
▁barato	-10.7331
▁demasiada	-10.7331
▁stairs	-10.7331
▁murieron	-10.7331
▁instead	-10.7331
▁teatro	-10.7331
▁llame	-10.7331
▁feet	-10.7331
▁escondiendo	-10.7331
▁peces	-10.7331
▁sabido	-10.7331
▁corner	-10.7331
▁denied	-10.7331
▁Speak	-10.7331
▁gobierno	-10.7331
▁math	-10.7332
▁excuse	-10.7332
▁fuiste	-10.7332
▁pegó	-10.7332
▁useful	-10.7333
▁cumplir	-10.7333
▁mirada	-10.7335
▁pistola	-10.7337
▁diría	-10.7337
▁delante	-10.7338
iento	-10.7338
▁forced	-10.7339
▁programa	-10.7343
▁continued	-10.7347
▁doble	-10.7348
▁subió	-10.735
▁acabado	-10.735
▁washed	-10.7356
▁dieta	-10.7357
▁sos	-10.7362
eron	-10.7367
▁pasará	-10.7371
▁debía	-10.7372
na	-10.7372
cabo	-10.7374
▁cometer	-10.7376
▁fábrica	-10.7381
▁bolsillo	-10.7389
▁claim	-10.7392
▁kid	-10.7394
▁quedaré	-10.7411
▁Ést	-10.7415
▁helping	-10.7426
▁lock	-10.7442
▁ante	-10.7447
▁volveré	-10.7457
▁cortar	-10.7462
▁invitados	-10.7464
▁trap	-10.7468
▁cola	-10.7468
vivió	-10.7475
▁nuestras	-10.7476
▁ocupados	-10.748
▁gra	-10.7522
▁preocupa	-10.7524
▁anda	-10.7534
▁planea	-10.7546
▁welcome	-10.7554
▁principal	-10.7562
▁menu	-10.7567
ambién	-10.7568
▁accustom	-10.7569
▁comienza	-10.7569
▁cuadro	-10.7569
▁discusión	-10.7569
▁disparó	-10.7569
▁felicidad	-10.7569
▁jazz	-10.7569
▁joking	-10.7569
▁particular	-10.7569
▁recommend	-10.7569
▁temperatura	-10.7569
▁quince	-10.7569
▁juice	-10.7569
▁educación	-10.7569
▁comfortable	-10.7569
▁obvious	-10.7569
▁pez	-10.7569
▁blew	-10.7569
▁pity	-10.7569
▁basura	-10.7569
▁fría	-10.7571
▁sushi	-10.7571
▁confused	-10.7574
▁invitó	-10.7574
▁tomando	-10.7576
▁compraste	-10.7579
▁Vaya	-10.758
▁míos	-10.7583
▁Oh	-10.7586
▁lágrimas	-10.7588
▁prepared	-10.759
▁fixed	-10.7591
▁bomba	-10.7593
▁brave	-10.7593
▁escaped	-10.7599
pareció	-10.7625
▁Estudi	-10.7627
▁season	-10.7631
▁dedo	-10.7639
▁correos	-10.7645
▁vender	-10.7651
▁beso	-10.7654
▁lenguas	-10.7673
▁songs	-10.7673
▁fill	-10.769
▁drugs	-10.7696
▁willing	-10.7705
▁ayudara	-10.7707
time	-10.7713
▁lack	-10.7716
pa	-10.7731
tió	-10.775
▁descubri	-10.7786
▁area	-10.7791
▁knock	-10.7801
▁tight	-10.7807
bbed	-10.7809
▁cruzar	-10.7812
▁School	-10.7813
▁Tierra	-10.7813
▁appointment	-10.7813
▁llueva	-10.7813
▁request	-10.7813
▁supermarket	-10.7813
▁supermercado	-10.7813
▁dumb	-10.7813
▁adentro	-10.7813
▁argue	-10.7813
▁distancia	-10.7813
▁tongue	-10.7813
▁hogar	-10.7813
▁obra	-10.7813
▁excited	-10.7814
▁Mamá	-10.7814
▁factory	-10.7815
▁trabajó	-10.7816
▁butter	-10.7816
▁oil	-10.7818
era	-10.7819
▁burned	-10.7819
▁distance	-10.7825
▁arriba	-10.7835
▁asistir	-10.7839
▁act	-10.7839
▁llamas	-10.7844
▁jug	-10.7851
▁raise	-10.7861
So	-10.7873
▁muñeca	-10.7878
▁sweet	-10.7879
▁earthquake	-10.7879
▁stone	-10.7881
▁condition	-10.7884
▁vecino	-10.7886
▁hablaba	-10.7889
▁traj	-10.7917
▁bajar	-10.7941
▁armas	-10.7956
▁Americans	-10.796
▁U	-10.7962
▁tastes	-10.797
▁bomb	-10.8039
▁intend	-10.805
▁pocos	-10.8051
▁Vin	-10.8052
▁allergi	-10.8056
cha	-10.8057
▁despertar	-10.8057
▁enorme	-10.806
Son	-10.8062
▁attempt	-10.8063
▁temperature	-10.8063
▁esquina	-10.8063
▁fifteen	-10.8063
▁gratis	-10.8063
▁football	-10.8063
▁bathroom	-10.8063
▁gordo	-10.8063
▁jugador	-10.8064
▁Papá	-10.8066
▁Mejor	-10.8067
▁levantarse	-10.8068
▁diré	-10.8069
▁jumped	-10.807
gged	-10.8075
▁contestar	-10.8075
hap	-10.8077
▁hablante	-10.8079
▁fingers	-10.808
▁lady	-10.808
▁letters	-10.8089
▁ganado	-10.8094
▁contado	-10.8098
▁Per	-10.812
▁Podé	-10.8121
▁suitcase	-10.8139
▁losing	-10.8141
▁doce	-10.8149
▁iré	-10.815
▁regresar	-10.8153
▁noon	-10.8154
▁podés	-10.8159
▁hojas	-10.8165
▁debemos	-10.8176
filled	-10.8196
▁calls	-10.8201
ías	-10.8235
ue	-10.8238
man	-10.8243
▁mountains	-10.8255
▁Má	-10.8262
▁canta	-10.827
▁lleve	-10.827
Ella	-10.8271
▁lights	-10.8282
▁estaré	-10.8285
▁Cad	-10.8286
▁preparar	-10.8292
▁climb	-10.8295
▁proteger	-10.8305
▁fuma	-10.8307
tábamos	-10.8307
▁continue	-10.8311
implemente	-10.8318
▁absoluto	-10.8319
▁ajedrez	-10.8319
▁avergonzado	-10.8319
▁bebida	-10.8319
▁bolso	-10.8319
▁cuello	-10.8319
▁excellent	-10.8319
▁maestro	-10.8319
▁pasatiempo	-10.8319
▁studies	-10.8319
▁moving	-10.8319
▁naked	-10.8319
▁million	-10.8319
▁gentleman	-10.8319
▁naive	-10.8319
▁lazy	-10.8319
▁email	-10.8319
▁Watch	-10.8319
▁preparando	-10.8321
▁Sorry	-10.8321
▁increíble	-10.8321
▁recibido	-10.8321
▁discovered	-10.8322
▁esposo	-10.8322
▁ingenuo	-10.8324
▁Cierr	-10.8325
▁apagar	-10.8335
▁dejé	-10.8336
▁loud	-10.8337
enza	-10.8341
▁descansar	-10.8347
▁saberlo	-10.8347
▁pinta	-10.8347
▁informe	-10.8348
▁step	-10.8353
▁urgente	-10.8354
▁permite	-10.8357
▁San	-10.8367
▁complain	-10.8376
▁detalles	-10.8391
▁costumbre	-10.8394
▁molesta	-10.8395
▁caballero	-10.8396
▁blanca	-10.8396
▁cuidadoso	-10.84
▁hole	-10.8401
▁conoces	-10.8404
▁fotografía	-10.8404
▁Fi	-10.8408
▁metro	-10.8412
▁Trat	-10.8416
▁Pasa	-10.8418
▁Sha	-10.8434
seando	-10.8438
▁hearing	-10.8439
▁pretende	-10.8462
▁fondo	-10.8462
▁meal	-10.8464
▁luces	-10.8466
▁visita	-10.8471
▁games	-10.8472
▁pieces	-10.848
▁cute	-10.8488
▁farm	-10.8497
▁partes	-10.8501
▁acaso	-10.8505
▁pleased	-10.8514
ke	-10.8542
prendió	-10.8547
ach	-10.8563
▁obey	-10.8569
▁reach	-10.8571
▁posibilidad	-10.8576
▁valiente	-10.8579
▁comienzo	-10.8582
▁huele	-10.8582
▁levanté	-10.8582
▁pedido	-10.8582
▁proposal	-10.8582
▁resemble	-10.8582
▁segunda	-10.8582
▁sospechoso	-10.8582
▁permission	-10.8582
▁Rome	-10.8582
▁handsome	-10.8582
▁teoría	-10.8582
▁clever	-10.8582
▁awful	-10.8582
▁menú	-10.8583
▁cubierta	-10.8583
▁salary	-10.8583
▁chess	-10.8584
▁anillo	-10.8584
▁preguntarle	-10.8586
▁Dejé	-10.8587
▁prevented	-10.859
▁suya	-10.8591
▁Send	-10.8592
▁suggested	-10.8592
▁climate	-10.8595
▁ayudarle	-10.8615
▁creía	-10.8617
nse	-10.8618
▁verduras	-10.8618
▁socks	-10.8618
▁reserva	-10.8619
▁solved	-10.8624
▁mayores	-10.863
▁fuimos	-10.863
▁alcanzar	-10.8634
▁trusted	-10.8634
▁profesores	-10.8639
▁drogas	-10.8647
▁friendly	-10.8658
▁terremoto	-10.867
▁atrapado	-10.8672
▁vacía	-10.8672
▁fuerza	-10.8672
▁cousin	-10.8674
▁holiday	-10.8675
▁belong	-10.8676
▁skirt	-10.8676
ita	-10.8681
▁computadora	-10.8683
▁By	-10.8694
▁llevo	-10.8695
ment	-10.8699
▁runs	-10.8699
▁pond	-10.8703
▁golpe	-10.8708
▁andando	-10.8718
éis	-10.8718
▁banda	-10.873
ck	-10.8735
▁naranjas	-10.8748
▁deje	-10.8764
ry	-10.877
▁vecinos	-10.8772
tuvieron	-10.8781
▁casados	-10.8786
▁doll	-10.8786
▁cruz	-10.8798
▁levantar	-10.88
▁culpar	-10.8805
mi	-10.8823
z	-10.8835
Esta	-10.8843
▁sleepy	-10.8845
▁silent	-10.8846
▁tenían	-10.885
▁shall	-10.8852
▁Pronto	-10.8852
▁bottom	-10.8852
▁carretera	-10.8852
▁goodbye	-10.8852
▁nariz	-10.8852
▁población	-10.8852
▁responsible	-10.8852
▁Cualquier	-10.8852
▁examination	-10.8852
▁refrigerator	-10.8852
▁Few	-10.8852
▁sueldo	-10.8852
▁impidió	-10.8852
▁jail	-10.8852
▁empresa	-10.8852
▁pareja	-10.8853
▁orgullosa	-10.8853
▁vistazo	-10.8853
▁confianza	-10.8853
▁profundo	-10.8853
▁equivocada	-10.8853
▁theory	-10.8854
▁cartera	-10.8855
▁upset	-10.8855
▁conferencia	-10.8855
▁wise	-10.8855
▁grass	-10.8856
▁describe	-10.8859
ish	-10.886
▁stealing	-10.886
▁calma	-10.8862
▁copia	-10.8866
▁Say	-10.887
▁Sigue	-10.8874
▁attended	-10.8876
▁limpio	-10.8885
▁montar	-10.8885
▁texto	-10.8888
▁probar	-10.8896
▁querían	-10.8907
▁smells	-10.8908
▁sonar	-10.8914
ándose	-10.8917
▁yes	-10.8925
▁rare	-10.8934
▁Pode	-10.8936
▁taste	-10.894
▁artículo	-10.8942
▁dormitorio	-10.8942
▁conduce	-10.8946
▁objetivo	-10.8947
▁ear	-10.8948
▁estudio	-10.8949
▁page	-10.8952
▁cabo	-10.8953
▁plato	-10.8954
▁huevo	-10.8955
▁poema	-10.8964
tuve	-10.8965
▁co	-10.8967
bo	-10.8985
ista	-10.8987
ábamos	-10.9005
▁matters	-10.9008
▁estrellas	-10.9022
▁arrest	-10.9024
▁loca	-10.903
▁Des	-10.9031
▁band	-10.9032
▁ears	-10.9035
das	-10.9043
▁Trata	-10.9057
C	-10.9069
▁difficulty	-10.9091
▁urgent	-10.9093
,"	-10.9096
entras	-10.91
▁visa	-10.9123
▁slight	-10.9124
▁reír	-10.9124
▁match	-10.9125
▁bright	-10.9128
▁neck	-10.913
▁Internet	-10.913
▁amount	-10.913
▁emergency	-10.913
▁estómago	-10.913
▁hicimos	-10.913
▁músico	-10.913
▁responsable	-10.913
▁sistema	-10.913
▁tímido	-10.913
▁amistad	-10.913
▁emergencia	-10.913
▁drove	-10.913
▁opportunity	-10.913
▁remedio	-10.913
▁nurse	-10.913
▁eventually	-10.913
▁dying	-10.9131
▁agreement	-10.9131
▁preferido	-10.9131
▁saludable	-10.9133
▁popula	-10.9134
▁happiness	-10.9134
▁gate	-10.9134
▁agradecido	-10.9135
▁abandoned	-10.9135
▁completo	-10.9135
▁olvidé	-10.9136
▁trago	-10.914
▁skiing	-10.9141
▁teaches	-10.9145
▁cantando	-10.9145
▁alarma	-10.9146
▁clearly	-10.9148
▁sonido	-10.9149
▁mail	-10.9155
▁teaching	-10.9157
▁llamaré	-10.9164
▁fortuna	-10.9167
▁quedado	-10.9172
▁dry	-10.9175
▁papas	-10.9177
▁artist	-10.9191
Sabe	-10.9206
omen	-10.9212
▁poem	-10.9224
▁depends	-10.9227
▁rose	-10.9237
▁espere	-10.9237
▁estrella	-10.9239
▁naranja	-10.9239
▁egg	-10.924
▁miembros	-10.9254
▁mañanas	-10.9255
▁lasted	-10.9258
▁Dud	-10.9296
▁vengas	-10.9301
▁verg	-10.9302
▁spends	-10.9309
▁hated	-10.9316
▁costs	-10.9323
reció	-10.9335
▁turno	-10.9338
mé	-10.9338
▁listos	-10.9352
ad	-10.9355
ical	-10.9358
▁Llama	-10.9358
Piensa	-10.9366
prendí	-10.9393
▁necesidad	-10.9409
ti	-10.941
▁airplane	-10.9416
▁despedido	-10.9416
▁durmió	-10.9416
▁energy	-10.9416
▁improbable	-10.9416
▁mantequilla	-10.9416
▁neighborhood	-10.9416
▁plenty	-10.9416
▁relación	-10.9416
▁stories	-10.9416
▁Listen	-10.9416
▁Three	-10.9416
▁hubiese	-10.9416
▁inútil	-10.9416
▁Hurry	-10.9416
▁esperó	-10.9416
▁iPad	-10.9416
▁cabello	-10.9416
▁patience	-10.9416
▁market	-10.9416
▁castillo	-10.9416
▁convencido	-10.9416
▁Policía	-10.9416
▁ground	-10.9416
▁convenció	-10.9416
▁above	-10.9416
▁musician	-10.9416
▁Good	-10.9416
▁With	-10.9417
▁matrimonio	-10.9417
▁castle	-10.9417
▁Fro	-10.9418
▁ejemplo	-10.9418
▁Quédate	-10.942
▁envió	-10.942
▁deaf	-10.942
▁huge	-10.9421
▁definite	-10.9424
▁crossed	-10.9427
red	-10.9428
▁imagine	-10.943
▁dis	-10.9431
▁sh	-10.9433
▁dieron	-10.9435
▁Eat	-10.9436
▁bebió	-10.9439
▁flying	-10.944
za	-10.9441
▁anyway	-10.945
▁bell	-10.9458
▁saltó	-10.946
▁weak	-10.946
▁Llegu	-10.947
▁duró	-10.9477
▁nor	-10.9508
▁eras	-10.9511
▁adopt	-10.9517
▁motivo	-10.9522
▁esfuerzo	-10.9532
▁photo	-10.9532
▁viejos	-10.9538
▁detail	-10.9549
▁none	-10.9574
émonos	-10.9577
01	-10.9614
▁kinds	-10.9614
▁caer	-10.9618
▁neighbors	-10.9638
▁ski	-10.9654
▁hablas	-10.9659
▁regalos	-10.9662
Estaba	-10.9667
▁necesitar	-10.9678
▁apart	-10.9681
▁mover	-10.9693
bió	-10.9695
▁sharp	-10.9708
▁rehus	-10.971
▁España	-10.971
▁Spain	-10.971
▁Tomorrow	-10.971
▁Volveré	-10.971
▁falda	-10.971
▁pantalones	-10.971
▁puntual	-10.971
▁system	-10.971
▁cincuenta	-10.971
▁esquiar	-10.971
▁require	-10.971
▁conversation	-10.971
▁puzzle	-10.971
▁subway	-10.971
▁twelve	-10.971
safortunadamente	-10.971
▁pool	-10.971
▁elevator	-10.971
▁example	-10.971
▁pagó	-10.971
▁requiere	-10.971
▁sofa	-10.971
▁easier	-10.971
▁cantidad	-10.971
▁Should	-10.9711
▁gritó	-10.9711
▁bench	-10.9711
▁Normalmente	-10.9712
▁manager	-10.9714
▁thirsty	-10.9714
▁asustado	-10.9715
▁Vuelve	-10.9715
▁stronger	-10.9716
▁hill	-10.9716
▁article	-10.9722
▁passengers	-10.9723
▁mom	-10.9724
▁ignored	-10.9726
▁habido	-10.9726
▁attacked	-10.9728
▁invitar	-10.9729
▁significado	-10.9729
▁estuviste	-10.9734
▁llegaron	-10.9734
▁Creía	-10.9739
▁hecha	-10.9741
▁millas	-10.9745
▁Day	-10.9747
▁bas	-10.9748
va	-10.9757
oney	-10.9761
▁Sí	-10.9781
▁diferentes	-10.9787
▁Li	-10.9804
▁Of	-10.9811
▁cierta	-10.9826
▁intention	-10.9827
▁servicio	-10.9832
▁estúpida	-10.9833
▁estadounidense	-10.9836
▁venta	-10.9837
▁sport	-10.9837
▁asegurar	-10.9845
▁novelas	-10.9856
▁oranges	-10.9874
▁lee	-10.9878
ón	-10.9888
▁bite	-10.9891
▁debí	-10.9897
▁comprender	-10.9897
▁sta	-10.9908
▁buying	-10.9911
▁admiti	-10.9914
ante	-10.9926
▁escritor	-10.9931
los	-10.9936
▁program	-10.9936
▁uso	-10.9937
▁cab	-10.9952
▁harías	-10.9953
Realmente	-10.9964
▁fe	-10.9964
▁Roma	-10.9965
▁results	-10.9979
▁Coge	-10.998
▁persuade	-10.9998
▁suffer	-11.0002
▁trav	-11.0002
ook	-11.0003
ncluso	-11.0004
▁sandwich	-11.0007
▁hacemos	-11.001
virtió	-11.0012
▁energía	-11.0013
▁lloró	-11.0013
▁paquete	-11.0013
▁rechazó	-11.0013
▁relationship	-11.0013
▁área	-11.0013
▁equipaje	-11.0013
▁violencia	-11.0013
▁kidding	-11.0013
▁committed	-11.0013
▁Parecía	-11.0013
▁prohibido	-11.0014
▁pollo	-11.0014
▁illness	-11.0014
▁enfadada	-11.0014
▁héroe	-11.0014
▁fifty	-11.0014
▁muchacha	-11.0015
▁louder	-11.0015
▁potatoes	-11.0015
▁tallest	-11.0015
▁granja	-11.0016
▁perfectamente	-11.0016
▁kick	-11.0017
▁forest	-11.0019
▁viva	-11.002
▁round	-11.002
▁tranquilo	-11.0023
▁main	-11.0023
▁smaller	-11.0023
▁empezado	-11.0024
▁survived	-11.0024
▁escuchado	-11.0025
hink	-11.0027
▁perfectly	-11.0029
ina	-11.0031
▁querer	-11.0034
▁imagin	-11.0034
▁Vive	-11.0037
▁artista	-11.0039
▁guests	-11.0043
▁uses	-11.0046
▁pre	-11.0047
▁Quiere	-11.0055
▁g	-11.0073
iera	-11.0079
▁nose	-11.0081
▁malas	-11.0081
▁dejaré	-11.0089
▁prepare	-11.009
▁imaginar	-11.0095
▁director	-11.0103
▁jugo	-11.0114
ccord	-11.0119
▁prices	-11.0125
▁abre	-11.0129
▁caballos	-11.0132
▁Sundays	-11.0135
▁abierto	-11.0139
▁afortunado	-11.0141
▁contract	-11.0141
▁hombro	-11.0143
▁members	-11.0143
▁riesgo	-11.0144
▁luce	-11.0149
▁escalera	-11.015
▁invitado	-11.015
vo	-11.0154
▁autos	-11.0156
j	-11.0171
▁olvidar	-11.0176
▁acordar	-11.018
▁hechos	-11.0188
▁ma	-11.0189
▁estadounidenses	-11.0193
▁hable	-11.021
▁tarda	-11.021
▁quedara	-11.0219
ion	-11.0225
▁tickets	-11.0237
▁gasta	-11.024
▁quitar	-11.0245
▁montañas	-11.0249
▁Visit	-11.0258
Tu	-11.0263
▁experiment	-11.0269
▁resultados	-11.0278
▁expert	-11.0279
▁woods	-11.0295
▁herir	-11.0295
▁slow	-11.0318
▁noches	-11.0319
▁seguido	-11.0322
▁ocurrir	-11.0324
▁Lincoln	-11.0326
▁October	-11.0326
▁Washington	-11.0326
▁brown	-11.0326
▁calcetines	-11.0326
▁curious	-11.0326
▁maravilloso	-11.0326
▁nosotras	-11.0326
▁smiling	-11.0326
▁traducir	-11.0326
▁website	-11.0326
▁garage	-11.0326
▁eleven	-11.0326
▁elección	-11.0326
▁conoció	-11.0326
▁conversación	-11.0326
▁weird	-11.0326
▁colina	-11.0326
▁couch	-11.0326
▁curso	-11.0326
▁tough	-11.0326
▁poniendo	-11.0326
▁querido	-11.0326
▁saliera	-11.0326
▁credit	-11.0326
▁saliendo	-11.0327
▁monte	-11.0327
▁verdadera	-11.0327
▁scolded	-11.0328
▁gracioso	-11.0328
▁regaló	-11.0328
▁preocupada	-11.0328
▁betrayed	-11.0329
▁shelf	-11.0329
▁ciento	-11.033
▁cuánta	-11.033
▁trabajadores	-11.0331
▁levantarme	-11.0331
▁supone	-11.0332
▁robar	-11.0332
▁trae	-11.0334
▁ayudarnos	-11.0335
▁altura	-11.0335
▁supuesto	-11.0339
▁Gi	-11.034
▁complained	-11.0341
▁local	-11.0341
▁nuevamente	-11.0343
▁tratado	-11.0348
Necesita	-11.0349
▁Russian	-11.0349
▁Won	-11.0353
▁pensado	-11.0354
▁adora	-11.0358
▁leyó	-11.036
tar	-11.0362
▁writer	-11.0373
ear	-11.0374
pe	-11.0375
▁respuestas	-11.0375
▁prepar	-11.0378
▁within	-11.0401
por	-11.0402
▁ascensor	-11.0402
ten	-11.0409
ive	-11.041
▁starting	-11.041
▁coma	-11.0417
▁extranjeros	-11.0424
▁decía	-11.0439
▁using	-11.044
▁billete	-11.0464
▁deber	-11.0464
▁viniera	-11.0467
▁orange	-11.0471
▁cercano	-11.0477
▁material	-11.0484
▁Tuvi	-11.0492
▁mess	-11.0506
it	-11.0511
▁shoulder	-11.0526
▁dará	-11.055
▁termina	-11.0551
▁hurts	-11.0559
▁pesca	-11.0565
las	-11.0569
▁ap	-11.0573
▁modern	-11.0582
▁llevan	-11.0605
▁plu	-11.0611
▁Aquel	-11.0615
▁press	-11.0619
▁suggest	-11.0622
▁complete	-11.0629
▁cross	-11.0631
▁refuse	-11.0634
▁push	-11.0636
▁mention	-11.0638
ones	-11.0639
▁bald	-11.0639
▁licencia	-11.064
▁quick	-11.0642
▁advantage	-11.0648
▁agujero	-11.0648
▁anciana	-11.0648
▁capitán	-11.0648
▁departamento	-11.0648
▁exchange	-11.0648
▁illegal	-11.0648
▁plata	-11.0648
▁possibility	-11.0648
▁pudimos	-11.0648
▁suéter	-11.0648
▁podido	-11.0648
▁enfermera	-11.0648
▁encontraste	-11.0648
▁breve	-11.0648
▁lentamente	-11.0648
▁toalla	-11.0648
▁podamos	-11.0648
▁salida	-11.0649
▁author	-11.0649
▁embarrassed	-11.0649
▁Escuché	-11.065
▁tenéis	-11.065
▁nearest	-11.0652
▁sort	-11.0653
▁third	-11.0654
▁due	-11.0654
▁graduated	-11.0655
▁gotten	-11.0655
▁ability	-11.0656
▁stars	-11.0656
▁Dale	-11.0657
▁repaired	-11.0659
▁pulled	-11.066
▁Bueno	-11.0661
▁esconder	-11.0661
▁iguales	-11.0662
▁board	-11.0662
▁dijera	-11.0663
▁últimamente	-11.0671
▁mira	-11.0673
▁borrowed	-11.0677
▁apologized	-11.0679
▁sepas	-11.0695
▁renunciar	-11.0698
▁sore	-11.0702
▁solos	-11.0709
ho	-11.0721
▁iría	-11.0722
▁vemos	-11.0727
▁schedule	-11.0728
▁quedamos	-11.0729
▁badly	-11.0729
▁handle	-11.0733
▁besar	-11.074
▁verle	-11.0754
cía	-11.0754
▁Mom	-11.0769
▁toques	-11.0775
▁Hazl	-11.0777
▁salga	-11.0791
▁rosa	-11.0796
▁boleto	-11.0797
▁vendría	-11.0797
▁disease	-11.0798
ni	-11.0798
ida	-11.0803
▁drug	-11.0805
▁cuida	-11.0818
▁compra	-11.0827
Vist	-11.0828
▁piensan	-11.084
▁marca	-11.0843
un	-11.0863
▁holidays	-11.0865
ará	-11.0885
▁pequeños	-11.0886
▁abandonar	-11.0887
▁hagan	-11.0897
▁divide	-11.0919
▁deportes	-11.0925
though	-11.0932
▁plant	-11.0934
▁changes	-11.0938
▁Manten	-11.094
▁Trabaja	-11.0941
▁mentir	-11.0961
▁llevas	-11.0963
Sabé	-11.0964
Pensaba	-11.0969
▁pelear	-11.0974
▁pull	-11.0974
▁engine	-11.0975
▁ilegal	-11.0975
▁débil	-11.0975
▁rode	-11.0979
▁Brasil	-11.0981
▁Disculpe	-11.0981
▁Smoking	-11.0981
▁Tráeme	-11.0981
▁aceptó	-11.0981
▁apartamento	-11.0981
▁childhood	-11.0981
▁cierra	-11.0981
▁curiosidad	-11.0981
▁enseguida	-11.0981
▁estupendo	-11.0981
▁greet	-11.0981
▁otoño	-11.0981
▁pañuelo	-11.0981
▁razonable	-11.0981
▁respeto	-11.0981
▁retraso	-11.0981
▁supper	-11.0981
▁vacío	-11.0981
▁value	-11.0981
▁zoológico	-11.0981
▁marriage	-11.0981
▁creyó	-11.0982
▁captain	-11.0982
▁center	-11.0982
▁dislike	-11.0982
▁Close	-11.0982
▁interés	-11.0982
▁regresó	-11.0982
▁armario	-11.0982
▁winning	-11.0982
▁foolish	-11.0982
▁puesta	-11.0982
▁apagó	-11.0982
▁Llámame	-11.0982
▁education	-11.0982
▁Cats	-11.0982
▁ocultando	-11.0983
▁trece	-11.0983
▁acusado	-11.0984
▁consigo	-11.0984
▁someday	-11.0985
▁bebiendo	-11.0985
▁subir	-11.0986
▁useless	-11.0987
▁tocando	-11.0987
▁llegaste	-11.0988
▁contrato	-11.0989
▁celoso	-11.0989
hí	-11.099
▁bang	-11.0992
▁warned	-11.0992
▁conversar	-11.0999
▁intenta	-11.1001
ito	-11.1005
▁dirá	-11.1005
▁esperado	-11.1006
▁li	-11.1007
▁pasajeros	-11.1009
▁progress	-11.1009
▁answers	-11.1012
▁vernos	-11.1013
▁quedaron	-11.1014
▁enemigos	-11.1027
▁talento	-11.1028
▁cambia	-11.103
▁skin	-11.1033
▁Intenta	-11.1035
▁irnos	-11.1036
▁alimentar	-11.1051
▁Italian	-11.1053
zo	-11.1053
▁salvar	-11.1058
▁fantasmas	-11.1065
▁odian	-11.1083
▁aquellos	-11.1101
▁paying	-11.1105
▁enfadar	-11.1105
▁haz	-11.1106
ró	-11.1112
▁disculpas	-11.1125
▁comen	-11.1126
hings	-11.1135
▁quedes	-11.1139
ese	-11.1141
▁amigas	-11.1143
Recuerda	-11.1147
▁nuevas	-11.1151
▁letra	-11.1161
▁vende	-11.1168
▁Hey	-11.1196
N	-11.1232
▁citizen	-11.124
▁vuelvas	-11.126
▁tomo	-11.128
▁imp	-11.1281
▁Sh	-11.1284
▁metal	-11.1289
▁pro	-11.1291
arse	-11.1302
▁hop	-11.1312
▁escribí	-11.1314
▁polite	-11.1322
▁11	-11.1325
▁tail	-11.1326
▁Brazil	-11.1326
▁Mexico	-11.1326
▁acercó	-11.1326
▁available	-11.1326
▁cuestión	-11.1326
▁escenario	-11.1326
▁grateful	-11.1326
▁junio	-11.1326
▁mirror	-11.1326
▁octubre	-11.1326
▁unhappy	-11.1326
▁éstos	-11.1326
▁collar	-11.1326
▁robbed	-11.1326
▁soltero	-11.1326
▁towel	-11.1326
▁velocidad	-11.1326
▁millones	-11.1326
▁private	-11.1326
▁sencillo	-11.1326
▁evil	-11.1326
▁condiciones	-11.1326
▁amazing	-11.1326
▁violence	-11.1327
▁queréis	-11.1327
▁éste	-11.1327
▁aprendido	-11.1327
▁trapped	-11.1327
▁nuts	-11.1327
▁carrie	-11.1328
▁ataque	-11.1328
▁agotado	-11.1328
▁espejo	-11.1329
▁birth	-11.1329
▁desearía	-11.1329
▁cre	-11.1329
▁colectivo	-11.1329
▁pale	-11.1331
▁sano	-11.1331
▁volviendo	-11.1331
▁intentarlo	-11.1331
▁ciencia	-11.1332
▁greatest	-11.1332
▁pesado	-11.1333
▁abandonó	-11.1333
▁venía	-11.1334
▁piel	-11.1336
▁original	-11.1338
▁pagado	-11.1338
▁toward	-11.1345
▁appeared	-11.1345
▁deserted	-11.1348
Recibí	-11.1349
▁Ma	-11.1355
▁succeeded	-11.1355
▁Venga	-11.136
▁impuestos	-11.1361
ací	-11.1362
▁depressed	-11.1366
▁detuvo	-11.1368
▁larger	-11.137
▁queja	-11.1371
▁nubes	-11.1374
▁clouds	-11.138
▁conocemos	-11.1385
▁Olvidé	-11.1385
té	-11.1385
▁usando	-11.139
!"	-11.1398
▁bello	-11.1398
▁escalar	-11.1402
tally	-11.1402
▁iremos	-11.1407
▁marcha	-11.1409
▁nadando	-11.1423
▁ghosts	-11.1424
becoming	-11.1435
▁acabar	-11.1437
pi	-11.1453
▁teachers	-11.1456
▁sospecha	-11.1463
▁Queda	-11.148
▁presentes	-11.1492
▁lindo	-11.1497
pusieron	-11.1502
▁cigarette	-11.1505
▁reparar	-11.1505
▁cae	-11.1508
▁primo	-11.1509
▁horses	-11.1517
iz	-11.1528
etesto	-11.153
ran	-11.1532
▁Dej	-11.1533
▁wet	-11.1544
▁mando	-11.156
▁contest	-11.158
▁consejos	-11.1582
▁robo	-11.1604
▁goal	-11.1605
▁promet	-11.1623
law	-11.1629
¿	-11.163
▁tend	-11.1638
▁chose	-11.1643
▁pareces	-11.1644
▁promesas	-11.1655
▁repair	-11.1659
▁pe	-11.1662
▁señor	-11.1665
▁escondi	-11.1666
▁devolver	-11.1669
▁disturb	-11.167
▁repeat	-11.1671
▁shock	-11.1671
▁search	-11.1672
▁build	-11.1672
▁automóvil	-11.1677
▁dificultad	-11.1677
▁sudden	-11.1678
▁thin	-11.1682
▁stomach	-11.1683
▁Facebook	-11.1683
▁Yokohama	-11.1683
▁alcalde	-11.1683
▁arguing	-11.1683
▁beauty	-11.1683
▁crédito	-11.1683
▁desnudo	-11.1683
▁fortune	-11.1683
▁lecture	-11.1683
▁llamo	-11.1683
▁negra	-11.1683
▁ocurrido	-11.1683
▁ridículo	-11.1683
▁suicidó	-11.1683
▁wild	-11.1683
▁baile	-11.1683
▁bucket	-11.1683
▁impresión	-11.1683
▁pleasant	-11.1683
▁violín	-11.1683
▁huyó	-11.1683
▁polvo	-11.1683
▁despise	-11.1683
▁buried	-11.1684
▁failure	-11.1684
▁aprendiste	-11.1684
▁changing	-11.1684
▁belleza	-11.1684
▁libertad	-11.1684
▁confía	-11.1684
▁moda	-11.1684
▁Deje	-11.1684
▁Pregúntale	-11.1684
▁encontramos	-11.1685
▁Intenté	-11.1685
▁friendship	-11.1685
▁disappeared	-11.1686
▁guapo	-11.1686
▁sentarme	-11.1688
▁fallen	-11.1688
▁cap	-11.1689
▁practice	-11.1691
▁invented	-11.1691
▁ausente	-11.1692
▁Antes	-11.1692
▁hacerse	-11.1694
▁divorced	-11.1696
▁cual	-11.1697
▁emocionado	-11.1697
▁intento	-11.1699
Este	-11.1702
▁treated	-11.1704
▁beside	-11.1705
▁ponerse	-11.1712
ried	-11.1713
endo	-11.1718
ied	-11.1723
▁miel	-11.1723
▁Ésa	-11.1737
▁traveling	-11.1739
▁verla	-11.174
▁express	-11.1746
▁cleaning	-11.1749
▁cooked	-11.1751
▁workers	-11.1755
▁snowing	-11.1755
je	-11.1756
▁burl	-11.1772
▁apuesto	-11.1779
▁descubrir	-11.1792
▁canadienses	-11.1797
▁stamps	-11.1798
▁productos	-11.1824
,000	-11.1837
▁interest	-11.1844
▁gives	-11.1847
▁houses	-11.1849
▁novels	-11.1852
▁actuar	-11.1852
▁musical	-11.1852
▁Mo	-11.1865
▁criminal	-11.1865
▁equal	-11.1865
▁maravillosa	-11.1866
▁dé	-11.1866
▁hábito	-11.1871
▁antiguo	-11.1872
▁saving	-11.1874
▁soldier	-11.1878
▁soldado	-11.188
▁charla	-11.1884
▁herida	-11.1887
▁detener	-11.1895
▁ayudará	-11.19
izo	-11.1901
▁lies	-11.1904
▁details	-11.1904
▁photos	-11.1904
▁Hable	-11.1911
▁Lleg	-11.1922
▁llen	-11.1925
zó	-11.1931
ond	-11.1946
rás	-11.1949
▁ta	-11.1959
▁w	-11.1964
▁predict	-11.1975
▁arms	-11.1984
▁Hi	-11.199
▁quedan	-11.1996
▁accidentes	-11.1996
entí	-11.2004
Debería	-11.2006
▁trabajaba	-11.2012
ud	-11.2017
Teng	-11.2017
▁form	-11.2027
▁concern	-11.2041
▁autor	-11.2043
▁hire	-11.2047
▁suspicious	-11.2047
▁ignore	-11.2049
ithout	-11.2053
▁electric	-11.2053
▁Water	-11.2054
▁Picasso	-11.2054
▁alfombra	-11.2054
▁cinturón	-11.2054
▁delicioso	-11.2054
▁despertó	-11.2054
▁efectivo	-11.2054
▁gerente	-11.2054
▁laptop	-11.2054
▁lástima	-11.2054
▁provide	-11.2054
▁salvó	-11.2054
▁service	-11.2054
▁sugirió	-11.2054
▁ruso	-11.2054
▁basketball	-11.2054
▁complicated	-11.2054
▁battle	-11.2054
▁vinieron	-11.2054
▁batalla	-11.2054
▁sensible	-11.2054
▁rush	-11.2054
▁invitation	-11.2054
▁everywhere	-11.2054
▁mintió	-11.2054
▁rota	-11.2054
▁invitación	-11.2054
▁exhausted	-11.2054
▁México	-11.2054
▁atrasado	-11.2055
▁salario	-11.2055
▁tocó	-11.2055
▁baffled	-11.2056
▁tendría	-11.2057
▁decepcionado	-11.2057
▁impressed	-11.2057
▁tiró	-11.2058
▁molesto	-11.2058
▁capaces	-11.2059
▁Park	-11.206
▁entendido	-11.2062
▁ruined	-11.2064
▁Siga	-11.2064
▁considerado	-11.2065
▁cometió	-11.2065
▁intentado	-11.2066
▁Asia	-11.2067
▁gritar	-11.2067
▁pushed	-11.2068
▁cercana	-11.2068
▁starts	-11.2073
▁imagen	-11.2073
▁visitado	-11.2074
▁seguros	-11.2074
▁ordenó	-11.2082
▁votar	-11.2082
qui	-11.2085
▁apunt	-11.2102
▁Ador	-11.2103
▁meter	-11.2105
▁signed	-11.2116
▁text	-11.2123
▁despedir	-11.2137
▁buses	-11.2159
▁atrap	-11.2165
▁acostumbrar	-11.2172
▁argument	-11.2176
▁arena	-11.2177
▁largas	-11.218
aciones	-11.2188
▁Asum	-11.2195
▁Dad	-11.2206
▁tareas	-11.2206
▁compañeros	-11.2207
▁quejas	-11.2212
▁iron	-11.2214
▁aspecto	-11.2252
teniendo	-11.2256
▁extranjera	-11.2259
▁effort	-11.226
▁chiste	-11.2261
▁echa	-11.227
▁names	-11.228
▁plantas	-11.2286
▁social	-11.2346
▁add	-11.235
▁guardar	-11.2355
▁sabían	-11.2383
▁amar	-11.2398
▁ibas	-11.2404
▁Díga	-11.2413
▁chat	-11.2416
▁alérgic	-11.242
proximadamente	-11.2421
▁dentist	-11.2423
▁lift	-11.2425
▁crash	-11.2426
▁gain	-11.2426
▁desert	-11.2427
▁steal	-11.2427
▁supo	-11.2429
▁sand	-11.2432
▁recoger	-11.2437
▁Hawaii	-11.2438
▁World	-11.2438
▁audience	-11.2438
▁caluroso	-11.2438
▁despierta	-11.2438
▁economía	-11.2438
▁enemies	-11.2438
▁genio	-11.2438
▁genius	-11.2438
▁handkerchief	-11.2438
▁llamé	-11.2438
▁mochila	-11.2438
▁razones	-11.2438
▁íbamos	-11.2438
▁excusa	-11.2438
▁insane	-11.2438
▁itself	-11.2438
▁opina	-11.2438
▁professor	-11.2438
▁ugly	-11.2438
▁solicitud	-11.2438
▁coward	-11.2439
▁cima	-11.2439
▁pintó	-11.2439
▁master	-11.2439
▁hero	-11.2439
▁diary	-11.2439
▁importancia	-11.2439
▁kilómetros	-11.244
▁mantiene	-11.244
▁sonreír	-11.244
▁puse	-11.2441
▁vieron	-11.2441
▁frightened	-11.2441
▁adiós	-11.2441
▁election	-11.2442
▁Find	-11.2442
lew	-11.2443
▁punished	-11.2444
▁cheated	-11.2445
uerra	-11.2447
▁sentada	-11.2448
▁admitir	-11.2448
▁spite	-11.245
▁capable	-11.2451
▁dentista	-11.2454
▁import	-11.2455
▁deeply	-11.2456
▁hello	-11.2457
▁acting	-11.2457
▁cantó	-11.2459
▁diste	-11.2461
Yo	-11.2464
▁Acaba	-11.2466
▁drives	-11.2472
▁llegaría	-11.2472
▁dejaría	-11.248
▁expresar	-11.2481
▁kissing	-11.2481
▁classes	-11.2486
▁compre	-11.2488
▁Vete	-11.2491
▁voted	-11.25
▁fines	-11.25
▁teme	-11.2506
▁vayamos	-11.2514
▁alumnos	-11.252
▁quedando	-11.2527
▁wondering	-11.2545
▁usado	-11.2553
▁Whi	-11.2554
▁visiting	-11.2554
king	-11.2556
illa	-11.2557
▁K	-11.2557
▁leader	-11.2557
▁army	-11.256
▁convertir	-11.2563
▁pidie	-11.2565
▁vienes	-11.2569
ndré	-11.2569
▁acuerdas	-11.2577
▁Perdón	-11.261
▁Escucha	-11.2611
▁Pase	-11.2623
▁apariencia	-11.265
▁impaciente	-11.265
▁field	-11.2652
▁hambriento	-11.2657
▁cerdo	-11.2657
▁miembro	-11.2662
▁sp	-11.2662
▁leí	-11.2662
▁regla	-11.2663
▁empleado	-11.267
tir	-11.2674
▁esfuerzos	-11.2677
▁gast	-11.268
▁niñas	-11.2697
ice	-11.2729
▁carga	-11.2734
▁dulces	-11.2742
▁vase	-11.2757
O	-11.2763
Les	-11.2764
▁saltar	-11.2765
▁talent	-11.2767
adas	-11.2787
ponía	-11.2787
▁produce	-11.2788
▁firmar	-11.2804
pongo	-11.2809
▁mistaken	-11.2816
▁advance	-11.2823
▁improve	-11.2823
▁trabajado	-11.2824
▁wound	-11.2826
▁receive	-11.2831
▁sándwich	-11.2832
▁flu	-11.2832
ng	-11.2834
▁nevar	-11.2837
▁scene	-11.2838
▁accompan	-11.2838
▁First	-11.2838
▁June	-11.2838
▁baloncesto	-11.2838
▁compromiso	-11.2838
▁current	-11.2838
▁desierto	-11.2838
▁desperté	-11.2838
▁detective	-11.2838
▁economy	-11.2838
▁grosero	-11.2838
▁pepper	-11.2838
▁piscina	-11.2838
▁ridiculous	-11.2838
▁seguida	-11.2838
▁tránsito	-11.2838
▁conduciendo	-11.2838
▁escena	-11.2838
▁móvil	-11.2838
▁okay	-11.2838
▁mercado	-11.2838
▁notebook	-11.2838
▁juez	-11.2838
▁bound	-11.2838
▁formulario	-11.2838
▁reuniones	-11.2838
▁campana	-11.2838
▁gorda	-11.2839
▁espero	-11.2839
▁anger	-11.2839
▁violin	-11.2839
▁coser	-11.2839
▁fecha	-11.2839
▁peel	-11.2839
▁villa	-11.2839
▁rieron	-11.2839
▁definitivamente	-11.2839
▁Dijo	-11.2839
▁celular	-11.284
▁tercer	-11.284
▁claramente	-11.284
▁exciting	-11.2841
▁arrestado	-11.2841
▁outfit	-11.2841
▁kindness	-11.2842
▁lion	-11.2842
▁noisy	-11.2842
▁elected	-11.2843
▁fracaso	-11.2843
▁aumento	-11.2844
▁concentrate	-11.2844
▁scientist	-11.2844
▁Llega	-11.2845
▁candy	-11.2846
▁successful	-11.2846
▁cancel	-11.2846
▁mathematics	-11.285
▁cuyo	-11.285
▁gained	-11.2852
▁pill	-11.2852
▁vago	-11.2853
▁levantado	-11.2854
▁confundido	-11.2855
▁pi	-11.2855
▁vain	-11.2858
up	-11.2859
▁persuaded	-11.286
ces	-11.2863
▁obedecer	-11.2863
▁trataba	-11.2864
▁ringing	-11.2866
▁encendió	-11.2868
▁tendré	-11.2872
▁falling	-11.2873
▁diera	-11.2876
▁muertos	-11.2887
▁bala	-11.289
▁venden	-11.2893
tor	-11.2901
▁cansados	-11.2908
▁contain	-11.2917
▁trenes	-11.2933
tado	-11.2942
▁hopes	-11.2947
▁continuar	-11.2966
▁mismos	-11.2975
▁orders	-11.2985
▁Suel	-11.301
▁mejorar	-11.301
Escribe	-11.302
um	-11.3021
▁document	-11.3027
ine	-11.3049
▁mu	-11.3053
▁tap	-11.3067
lic	-11.3067
▁medida	-11.3068
▁francesa	-11.3071
▁cheek	-11.3071
▁brazos	-11.3073
▁Time	-11.3074
▁member	-11.3078
▁force	-11.3081
▁presentar	-11.3092
▁suceder	-11.3093
▁quede	-11.3095
▁poems	-11.3095
▁disculpa	-11.3099
▁warn	-11.31
▁indica	-11.3107
▁fotografías	-11.3117
aking	-11.313
▁formas	-11.3164
▁dormí	-11.3183
▁teníamos	-11.3187
▁dirigi	-11.3197
▁model	-11.3203
looking	-11.3206
Todo	-11.3206
▁cell	-11.3207
▁sirve	-11.3212
che	-11.3215
▁tied	-11.3222
▁interrupt	-11.323
▁jump	-11.3231
▁parecer	-11.3234
▁olvida	-11.3237
▁survive	-11.324
▁prevent	-11.3243
▁gather	-11.3244
ation	-11.3251
▁grab	-11.3254
▁apoyo	-11.3255
▁basket	-11.3255
▁cierre	-11.3255
▁confío	-11.3255
▁envelope	-11.3255
▁garganta	-11.3255
▁kilometers	-11.3255
▁quizá	-11.3255
▁silence	-11.3255
▁tamaño	-11.3255
▁throat	-11.3255
▁anxious	-11.3255
▁grapes	-11.3255
▁ríe	-11.3255
▁viniste	-11.3255
▁colgó	-11.3255
▁acusó	-11.3255
▁calvo	-11.3255
▁actress	-11.3255
▁enojada	-11.3255
▁naturaleza	-11.3255
▁trato	-11.3256
▁amarillo	-11.3256
▁acostumbrada	-11.3256
▁océano	-11.3256
▁sencilla	-11.3256
▁suggestion	-11.3256
▁opera	-11.3256
▁cubierto	-11.3256
▁fought	-11.3256
▁volando	-11.3256
▁Alice	-11.3257
▁Entiendo	-11.3257
▁forgetful	-11.3257
▁seriamente	-11.3257
▁quejando	-11.3258
▁annoying	-11.3259
▁harta	-11.3259
▁gira	-11.326
▁notas	-11.326
rme	-11.3261
▁peleando	-11.3261
▁spilled	-11.3262
▁escondido	-11.3265
▁Vale	-11.3266
▁juzgar	-11.3266
▁inclinó	-11.3268
▁Africa	-11.3268
▁cocinando	-11.3269
▁Entonces	-11.3271
▁llamaste	-11.3272
▁lava	-11.3274
▁casarte	-11.3275
▁staring	-11.3284
ated	-11.3287
▁growing	-11.3288
▁murdered	-11.3291
▁inteligentes	-11.3291
▁regular	-11.3292
▁dime	-11.3293
▁oírte	-11.3295
▁llegamos	-11.33
ling	-11.33
▁funcionar	-11.3301
▁comprarlo	-11.3305
ui	-11.3306
▁planeta	-11.3307
▁lower	-11.3309
▁piloto	-11.3312
▁estarás	-11.3313
▁ayudaría	-11.3313
▁inform	-11.3315
ico	-11.3318
▁perfecta	-11.3325
▁llamaba	-11.3331
▁compartir	-11.334
▁cleaned	-11.334
▁Che	-11.3349
▁wins	-11.3351
▁visité	-11.3356
▁perdonar	-11.3356
▁walks	-11.3357
probó	-11.3363
▁resist	-11.3379
▁breathe	-11.3381
▁costa	-11.3391
▁Entra	-11.3397
▁cerrados	-11.3421
op	-11.3425
▁daba	-11.3434
▁inter	-11.3455
▁accidents	-11.3458
▁total	-11.3459
▁salad	-11.346
▁remembered	-11.3493
▁comas	-11.3494
▁alternativa	-11.3499
▁fila	-11.35
▁corte	-11.3506
▁ciudadano	-11.3509
▁antigua	-11.3509
▁científico	-11.351
▁compañero	-11.3513
▁hoja	-11.3513
▁regard	-11.3514
▁plants	-11.3516
▁nombres	-11.3525
▁olvide	-11.3528
▁poemas	-11.3533
ous	-11.3534
▁hall	-11.3537
▁sleeps	-11.3552
▁pat	-11.3563
▁experto	-11.3564
▁viaja	-11.3566
▁action	-11.357
M	-11.357
▁strangers	-11.3585
ext	-11.3589
▁pasto	-11.3603
▁computers	-11.3608
▁J	-11.3626
capaz	-11.364
▁muere	-11.3643
▁vol	-11.3657
▁incident	-11.3662
ized	-11.3665
▁sentar	-11.3666
▁señal	-11.3669
▁manage	-11.3673
▁pressure	-11.3673
▁divorce	-11.3675
▁bat	-11.3679
▁nivel	-11.3683
▁pesa	-11.3683
▁witness	-11.3683
▁actu	-11.3687
▁recogi	-11.369
▁Asegúr	-11.369
▁Suddenly	-11.369
▁achieve	-11.369
▁cajón	-11.369
▁dessert	-11.369
▁efecto	-11.369
▁embargo	-11.369
▁evidence	-11.369
▁flag	-11.369
▁helicopter	-11.369
▁helicóptero	-11.369
▁hierro	-11.369
▁inocencia	-11.369
▁screen	-11.369
▁strength	-11.369
▁thick	-11.369
▁vosotras	-11.369
▁cuarenta	-11.369
▁nevando	-11.369
▁Empezó	-11.369
▁bullet	-11.369
▁crisis	-11.369
▁perdón	-11.369
▁emocionante	-11.369
▁average	-11.369
▁instituto	-11.369
▁occurred	-11.369
▁percent	-11.369
▁switch	-11.369
▁ratón	-11.369
▁fijamente	-11.369
▁Check	-11.369
▁Learn	-11.369
▁patio	-11.369
▁perdiendo	-11.369
▁bandera	-11.369
▁complicado	-11.369
▁brillante	-11.3691
▁dust	-11.3691
▁nap	-11.3691
▁deshacer	-11.3691
▁conference	-11.3691
▁Ponga	-11.3691
▁elecciones	-11.3691
▁electrónico	-11.3691
▁command	-11.3692
▁major	-11.3692
▁hunting	-11.3692
▁pesada	-11.3692
▁viera	-11.3693
▁adelantado	-11.3693
▁adorable	-11.3693
▁olor	-11.3694
▁strict	-11.3694
▁reply	-11.3695
▁muchísimo	-11.3695
▁soporto	-11.3695
▁órdenes	-11.3696
▁removed	-11.3696
▁recuerdas	-11.3696
▁pluma	-11.3697
▁trate	-11.3697
▁Veamos	-11.3698
▁pants	-11.3699
▁llamando	-11.3706
▁concerned	-11.3706
▁azules	-11.371
llón	-11.3712
▁llamarme	-11.3714
▁miraba	-11.3716
▁raw	-11.3716
▁león	-11.373
▁postre	-11.3731
▁closer	-11.3732
▁Trabajo	-11.3732
▁alma	-11.3739
▁utilizar	-11.3741
▁vienen	-11.3742
▁tomará	-11.3743
▁lento	-11.3748
dicó	-11.375
▁fork	-11.3751
▁legal	-11.3753
▁bebido	-11.3756
▁norte	-11.3761
▁danced	-11.3762
▁Rec	-11.3765
▁experimento	-11.3768
▁touched	-11.3771
▁watches	-11.3777
▁quedaba	-11.3789
▁pasamos	-11.3796
▁adapt	-11.3799
▁ciudades	-11.38
▁And	-11.3805
ncia	-11.3816
▁twins	-11.3831
gue	-11.3835
▁lately	-11.3844
ica	-11.3848
▁Sea	-11.3849
▁insult	-11.3851
▁appearance	-11.3851
ados	-11.3855
▁controlar	-11.386
▁disfruta	-11.386
ller	-11.3862
▁earns	-11.3864
aremos	-11.3873
▁closet	-11.3882
▁Comí	-11.3887
▁creas	-11.389
ventó	-11.3893
▁understands	-11.3901
pt	-11.3908
▁Compare	-11.3911
▁primos	-11.3913
hi	-11.3913
▁Plane	-11.3916
▁ocupa	-11.3942
▁ruin	-11.3947
▁pet	-11.3952
cient	-11.3953
▁bienvenido	-11.3954
▁asesinado	-11.3955
▁planet	-11.3956
▁testigo	-11.3956
▁pierde	-11.3957
ame	-11.396
▁direction	-11.3961
▁juguete	-11.3964
▁cerrado	-11.3968
▁shoe	-11.397
▁contratar	-11.3971
▁shoot	-11.3973
▁cousins	-11.3986
ete	-11.3986
▁compare	-11.4002
arme	-11.4007
▁prest	-11.4009
ales	-11.4013
sh	-11.402
▁com	-11.4026
▁earn	-11.4028
▁iban	-11.4029
▁promises	-11.4029
▁directo	-11.4036
▁suma	-11.4038
▁hacerle	-11.4048
▁creen	-11.4051
▁pasan	-11.4059
▁producto	-11.4075
▁h	-11.4081
cer	-11.4083
▁draw	-11.4083
▁pilot	-11.4083
▁rojas	-11.4085
▁actual	-11.4097
vis	-11.4103
ñó	-11.4127
▁disappoint	-11.4132
▁terror	-11.4132
▁lleg	-11.4132
▁cover	-11.4133
▁busc	-11.4137
▁física	-11.4141
▁oficial	-11.4141
▁attract	-11.4142
▁planta	-11.4143
▁Shakespeare	-11.4144
▁acceso	-11.4144
▁actriz	-11.4144
▁ansioso	-11.4144
▁apellido	-11.4144
▁bribe	-11.4144
▁explosion	-11.4144
▁false	-11.4144
▁gloves	-11.4144
▁levanto	-11.4144
▁líder	-11.4144
▁nonsense	-11.4144
▁ocean	-11.4144
▁poker	-11.4144
▁politics	-11.4144
▁register	-11.4144
▁religion	-11.4144
▁reputation	-11.4144
▁thirteen	-11.4144
▁whistle	-11.4144
▁contrario	-11.4144
▁furioso	-11.4144
▁method	-11.4144
▁guantes	-11.4144
▁temper	-11.4144
▁averg	-11.4144
▁suave	-11.4145
▁termine	-11.4145
▁ladder	-11.4145
▁privado	-11.4145
▁refrigerador	-11.4145
▁adecuado	-11.4145
▁stake	-11.4145
▁desapareció	-11.4145
▁discussion	-11.4145
▁valla	-11.4145
▁martes	-11.4145
▁Brit	-11.4145
▁sunny	-11.4145
▁punta	-11.4145
▁impression	-11.4145
▁mandó	-11.4145
▁enamorada	-11.4145
▁preferida	-11.4145
▁cuidadosamente	-11.4146
▁puppy	-11.4146
▁obsequio	-11.4146
▁defend	-11.4146
▁obtuvo	-11.4146
▁Wash	-11.4146
▁spell	-11.4146
▁drawer	-11.4147
▁prohibited	-11.4147
▁Nara	-11.4147
▁apply	-11.4147
▁cage	-11.4148
▁escapó	-11.4148
▁belt	-11.4148
▁posición	-11.4148
▁double	-11.4148
▁reasonable	-11.4149
▁jam	-11.415
▁vine	-11.415
▁destroyed	-11.4151
▁granted	-11.4151
▁pica	-11.4152
▁creció	-11.4152
▁construyó	-11.4152
▁dificultades	-11.4152
▁disfrutar	-11.4153
▁Hang	-11.4153
▁mostraré	-11.4153
▁causó	-11.4154
▁delayed	-11.4154
▁podé	-11.4155
▁attractive	-11.4155
▁canceled	-11.4159
▁wounded	-11.4159
▁talented	-11.4159
▁moral	-11.4159
▁mandar	-11.416
▁sincera	-11.416
▁Abre	-11.4161
▁llevara	-11.4164
▁Hablé	-11.4164
▁dile	-11.4164
▁firm	-11.4165
▁Sali	-11.4165
▁uvas	-11.4166
▁materna	-11.4169
▁sujeto	-11.4169
▁self	-11.4172
▁lean	-11.4183
▁mías	-11.4185
▁dudas	-11.4186
▁volvería	-11.4187
▁options	-11.4191
▁charged	-11.4193
▁Sa	-11.4194
▁peanuts	-11.4199
▁importantes	-11.4202
▁modelo	-11.4206
▁orejas	-11.4208
▁ahorrar	-11.4213
▁seguía	-11.4215
▁degrees	-11.4216
▁Mar	-11.4218
▁Entre	-11.422
he	-11.4241
▁Ning	-11.4243
▁camina	-11.4245
▁snowed	-11.4246
▁oblig	-11.4282
▁deny	-11.429
▁coins	-11.4292
▁wi	-11.4294
rge	-11.4294
▁pasara	-11.4298
▁ayudado	-11.4302
▁humanos	-11.4313
▁Spr	-11.4318
▁documentos	-11.4319
▁newspapers	-11.432
▁llegues	-11.4321
▁reasons	-11.4328
▁meters	-11.433
▁asuntos	-11.4351
▁sur	-11.4363
ible	-11.4371
▁comp	-11.4374
rry	-11.4376
▁cigarettes	-11.4377
men	-11.4406
▁participar	-11.4418
▁ricos	-11.4421
▁seré	-11.4423
▁cosecha	-11.4433
▁file	-11.4434
▁plate	-11.4437
▁debt	-11.4441
▁amarilla	-11.4441
▁Espere	-11.4441
tener	-11.4444
▁employee	-11.4444
▁prisoner	-11.4445
▁loan	-11.4453
▁lesson	-11.4453
▁Consider	-11.447
▁vano	-11.4475
costó	-11.4478
▁vea	-11.4489
▁Estará	-11.449
▁documento	-11.4494
vi	-11.45
▁closes	-11.4506
▁entregar	-11.4513
▁estén	-11.4516
▁entra	-11.4523
▁demanda	-11.4542
either	-11.4549
▁cultura	-11.4554
ú	-11.4555
▁Ki	-11.4557
▁seats	-11.4558
Que	-11.4563
▁bromas	-11.4567
Sí	-11.4575
ería	-11.4584
der	-11.4584
▁placer	-11.4586
▁scream	-11.4596
▁pray	-11.4597
▁admire	-11.4604
▁mostrar	-11.4607
▁spread	-11.4608
▁speed	-11.4608
▁acostar	-11.461
side	-11.4613
▁flat	-11.4615
▁Promet	-11.4619
▁misterio	-11.4619
▁disfraz	-11.462
encilla	-11.462
ollow	-11.462
▁Mantén	-11.462
claró	-11.4621
▁Dinner	-11.4621
▁Tuesday	-11.4621
▁Welcome	-11.4621
▁access	-11.4621
▁ambulance	-11.4621
▁ambulancia	-11.4621
▁apretó	-11.4621
▁atentamente	-11.4621
▁baggage	-11.4621
▁concurso	-11.4621
▁condujo	-11.4621
▁divertida	-11.4621
▁enfadó	-11.4621
▁ensalada	-11.4621
▁escucho	-11.4621
▁falso	-11.4621
▁impatient	-11.4621
▁inevitable	-11.4621
▁método	-11.4621
▁opciones	-11.4621
▁petróleo	-11.4621
▁responsabilidad	-11.4621
▁rifle	-11.4621
▁sugerencia	-11.4621
▁uñas	-11.4621
▁vecindario	-11.4621
▁voluntad	-11.4621
▁asesino	-11.4621
▁jeans	-11.4621
▁nowhere	-11.4621
▁tesoro	-11.4621
▁applie	-11.4621
▁hidden	-11.4621
▁muriendo	-11.4621
▁package	-11.4621
▁obtener	-11.4621
▁President	-11.4621
▁begun	-11.4621
▁stage	-11.4621
▁calidad	-11.4621
▁diamond	-11.4621
▁siesta	-11.4621
▁burst	-11.4621
▁comiste	-11.4621
▁science	-11.4621
▁electricity	-11.4621
▁ease	-11.4621
▁lavadora	-11.4621
▁electricidad	-11.4621
▁involucrado	-11.4621
▁task	-11.4621
▁almohada	-11.4621
▁construir	-11.4622
▁properly	-11.4622
▁conocimos	-11.4622
▁bigge	-11.4622
▁Llovió	-11.4622
▁estalló	-11.4622
▁embarazada	-11.4622
▁Ayúdame	-11.4622
▁muerta	-11.4623
▁habitual	-11.4623
▁wheel	-11.4623
▁reservation	-11.4623
▁prefiero	-11.4624
▁fluently	-11.4625
▁china	-11.4626
▁smarter	-11.4627
▁sentarse	-11.4627
▁barking	-11.4628
▁murderer	-11.4628
▁sewing	-11.4628
▁Tard	-11.4628
▁matado	-11.4628
▁confuso	-11.4629
▁baked	-11.463
▁confessed	-11.463
▁Déjalo	-11.4631
▁enseñarme	-11.4632
▁served	-11.4632
▁altos	-11.4633
▁bordo	-11.4634
▁echado	-11.4634
▁botas	-11.4635
▁olvidaré	-11.4637
▁crossing	-11.4638
▁preparing	-11.4638
▁quietly	-11.4644
▁Trabaj	-11.4645
▁adopted	-11.4645
▁Vos	-11.4648
▁planted	-11.4649
▁incidente	-11.4651
▁classmates	-11.4652
▁Start	-11.4656
▁rog	-11.4658
▁scare	-11.4661
▁aliento	-11.4661
▁bebo	-11.4662
▁colores	-11.4662
▁haremos	-11.4662
▁odiaba	-11.4662
▁llegara	-11.4664
▁gane	-11.4673
▁aparte	-11.4676
▁Po	-11.468
▁siga	-11.4682
▁Corrí	-11.469
E	-11.4708
▁However	-11.4712
▁grados	-11.4714
▁meta	-11.4718
▁estuvieron	-11.4721
▁historias	-11.4723
▁sales	-11.4728
▁wishes	-11.4731
▁aula	-11.4736
▁facts	-11.4744
▁presentó	-11.4757
▁echo	-11.4763
rte	-11.4764
▁regalar	-11.4766
▁comentarios	-11.4776
▁monedas	-11.4776
▁weapons	-11.4785
old	-11.4788
He	-11.48
▁maneja	-11.4801
ug	-11.4802
▁reporte	-11.4815
▁presents	-11.4816
▁quieto	-11.4825
▁sings	-11.4834
▁sed	-11.4844
ance	-11.4844
▁criad	-11.4855
one	-11.4866
ul	-11.4876
ión	-11.4876
▁adult	-11.4892
Habla	-11.4895
▁sorprende	-11.4897
▁dejo	-11.4913
ight	-11.4921
▁burn	-11.4925
▁causes	-11.4926
▁dueño	-11.493
▁regrese	-11.4933
▁disponible	-11.4934
▁parecido	-11.4935
▁medicamento	-11.4936
▁gallina	-11.4936
▁sordo	-11.4936
▁mejilla	-11.4937
▁deuda	-11.4937
▁cabra	-11.4937
▁político	-11.4941
▁acuerda	-11.4943
▁doubts	-11.4945
▁americano	-11.4945
▁alguno	-11.4946
▁callado	-11.4951
▁cares	-11.4954
▁aquello	-11.4955
▁metros	-11.4956
▁presente	-11.4958
▁aprendí	-11.4971
▁volví	-11.4976
age	-11.4977
▁resolvi	-11.5027
▁ocurre	-11.5034
▁Aquell	-11.5035
▁páginas	-11.5038
▁comete	-11.5039
▁humano	-11.5056
▁lent	-11.5067
oso	-11.507
▁miente	-11.5074
▁jugaba	-11.5075
▁Creí	-11.5076
▁Gra	-11.5077
Yes	-11.5083
ín	-11.5084
▁existe	-11.5086
▁poet	-11.5093
Hace	-11.5095
▁permit	-11.5104
frica	-11.5104
▁frame	-11.5107
▁flood	-11.5107
▁pour	-11.5109
ísimo	-11.5113
▁salí	-11.5117
▁fox	-11.5118
▁lujo	-11.512
year	-11.512
▁knowing	-11.512
hoose	-11.512
▁capacidad	-11.5121
▁magic	-11.5121
▁court	-11.5121
▁April	-11.5121
▁California	-11.5121
▁Francisco	-11.5121
▁Greek	-11.5121
▁Hawái	-11.5121
▁absence	-11.5121
▁amabilidad	-11.5121
▁arriving	-11.5121
▁ceiling	-11.5121
▁committee	-11.5121
▁césped	-11.5121
▁deposit	-11.5121
▁ejército	-11.5121
▁engaged	-11.5121
▁espectáculo	-11.5121
▁evidencia	-11.5121
▁explosión	-11.5121
▁falsa	-11.5121
▁families	-11.5121
▁heavily	-11.5121
▁impresionado	-11.5121
▁infancia	-11.5121
▁insurance	-11.5121
▁jogging	-11.5121
▁malentendido	-11.5121
▁mordió	-11.5121
▁ocasión	-11.5121
▁outstanding	-11.5121
▁pimienta	-11.5121
▁political	-11.5121
▁quality	-11.5121
▁reputación	-11.5121
▁rostro	-11.5121
▁secundaria	-11.5121
▁sensitive	-11.5121
▁sociedad	-11.5121
▁treasure	-11.5121
▁unusual	-11.5121
▁barata	-11.5121
▁fridge	-11.5121
▁typhoon	-11.5121
▁amenaza	-11.5121
▁jaula	-11.5121
▁mentido	-11.5121
▁motorcycle	-11.5121
▁pregnant	-11.5121
▁priest	-11.5121
▁gentil	-11.5121
▁lucía	-11.5121
▁cities	-11.5121
▁sabia	-11.5121
▁investigación	-11.5121
▁boots	-11.5121
▁muero	-11.5121
▁pago	-11.5121
Creé	-11.5121
▁imaginación	-11.5121
▁estanque	-11.5121
▁carpet	-11.5121
▁bienvenida	-11.5122
▁melodía	-11.5122
▁importance	-11.5122
▁autoridad	-11.5122
▁exhausto	-11.5122
▁bailando	-11.5122
▁distinguish	-11.5122
▁babbling	-11.5122
▁entregó	-11.5122
▁objeto	-11.5122
▁picante	-11.5122
▁tinta	-11.5122
▁stove	-11.5123
▁depend	-11.5123
▁sabor	-11.5123
▁preocuparse	-11.5123
▁source	-11.5123
▁tejado	-11.5123
▁interesada	-11.5123
▁Poca	-11.5124
▁elegido	-11.5124
▁issue	-11.5124
▁Poco	-11.5124
▁restless	-11.5124
▁cuente	-11.5125
▁valuable	-11.5125
▁taxes	-11.5125
▁obligado	-11.5125
▁bitter	-11.5125
▁consume	-11.5126
▁pasear	-11.5127
▁shake	-11.5128
▁ignoró	-11.5129
▁collecting	-11.5129
▁esquí	-11.5131
▁shouted	-11.5131
▁presión	-11.5132
▁shorter	-11.5134
▁separated	-11.5134
▁torre	-11.5134
▁insisted	-11.5135
▁sour	-11.514
▁hired	-11.5142
▁oldest	-11.5142
▁cero	-11.5144
▁casarme	-11.5144
▁podré	-11.5144
▁contarte	-11.5147
▁height	-11.5148
▁fiar	-11.5151
▁Korean	-11.5152
▁rented	-11.5156
▁encontraron	-11.5158
▁fan	-11.5158
▁nerviosa	-11.5159
▁volumen	-11.5164
▁tales	-11.5167
▁imagined	-11.5169
bre	-11.5169
▁closely	-11.5169
▁talla	-11.5169
▁lamento	-11.5174
ating	-11.5183
▁dejarlo	-11.5183
▁solucionar	-11.5184
▁encargar	-11.5204
▁llevaré	-11.5212
cated	-11.522
▁Busqu	-11.5226
▁alimentos	-11.5228
▁content	-11.5231
▁seca	-11.5233
▁mo	-11.5241
▁ink	-11.5241
▁dreaming	-11.5242
▁Love	-11.5242
▁vacas	-11.5258
▁reunir	-11.5262
▁vendi	-11.5263
▁sentados	-11.527
▁alcanz	-11.5279
▁normas	-11.5292
▁Bell	-11.5296
led	-11.5297
▁cho	-11.5304
▁propios	-11.5316
▁veas	-11.533
▁pobres	-11.5334
▁deer	-11.5339
▁Ba	-11.5343
▁aprobar	-11.5347
▁south	-11.5347
▁seria	-11.535
▁efforts	-11.5359
▁oppose	-11.5366
▁resulta	-11.5376
▁ga	-11.5377
gi	-11.5381
▁Canadians	-11.5381
▁periódicos	-11.5382
▁cuid	-11.5392
▁rosas	-11.5395
ru	-11.5402
▁Ech	-11.5403
▁derechos	-11.541
▁knee	-11.5413
▁base	-11.5415
▁Pe	-11.5417
▁prefiere	-11.5418
▁asusta	-11.5419
▁upon	-11.5422
darnos	-11.5432
▁product	-11.5437
▁roses	-11.5445
▁photograph	-11.5457
▁dama	-11.5463
▁tourist	-11.5467
▁ésta	-11.5468
▁weapon	-11.5468
▁norma	-11.5472
▁necesite	-11.5486
▁tune	-11.5487
ric	-11.549
▁acepta	-11.5492
▁rate	-11.5495
ie	-11.55
▁ignorar	-11.5505
▁debate	-11.5506
▁tantos	-11.5509
▁claims	-11.5512
▁arregl	-11.553
▁scar	-11.5539
▁fashion	-11.5546
▁limpi	-11.5547
▁firme	-11.5554
▁sábados	-11.556
▁Ca	-11.5583
▁copa	-11.5584
arte	-11.559
▁perdier	-11.5594
▁Hablar	-11.5594
F	-11.5597
What	-11.5598
▁volume	-11.5601
▁civil	-11.5611
▁cough	-11.5622
▁mires	-11.5623
▁arruin	-11.5629
▁approve	-11.5632
▁resign	-11.5634
▁servir	-11.5636
fore	-11.5637
▁lastimar	-11.5638
get	-11.5638
▁cómodo	-11.5639
▁fuese	-11.5639
▁profesional	-11.564
éjame	-11.5642
▁obvio	-11.5646
▁burglar	-11.5647
▁addict	-11.5647
▁occasion	-11.5647
▁Fortunately	-11.5647
▁Muéstrame	-11.5647
▁adicto	-11.5647
▁apoyó	-11.5647
▁cuaderno	-11.5647
▁deliciosa	-11.5647
▁egoísta	-11.5647
▁encender	-11.5647
▁escuché	-11.5647
▁festival	-11.5647
▁fresca	-11.5647
▁hoax	-11.5647
▁instructions	-11.5647
▁izquierdo	-11.5647
▁juicio	-11.5647
▁ketchup	-11.5647
▁knowledge	-11.5647
▁maestra	-11.5647
▁martillo	-11.5647
▁nature	-11.5647
▁ocurra	-11.5647
▁pizarra	-11.5647
▁pleasure	-11.5647
▁quarrel	-11.5647
▁retrasó	-11.5647
▁society	-11.5647
▁sombra	-11.5647
▁squeeze	-11.5647
▁target	-11.5647
▁temporada	-11.5647
▁tifón	-11.5647
▁unfair	-11.5647
▁universitario	-11.5647
▁upstairs	-11.5647
▁época	-11.5647
▁adonde	-11.5647
▁angel	-11.5647
▁ausencia	-11.5647
▁conceited	-11.5647
▁drew	-11.5647
▁hablé	-11.5647
▁harsh	-11.5647
▁row	-11.5647
▁vestida	-11.5647
▁coincidence	-11.5647
▁embajada	-11.5647
▁Juan	-11.5647
▁Play	-11.5647
▁paliza	-11.5647
▁policy	-11.5647
▁práctica	-11.5647
▁rough	-11.5647
▁sunglasses	-11.5647
▁sheep	-11.5647
▁almorzando	-11.5647
▁coraje	-11.5647
▁descubierto	-11.5647
▁culture	-11.5647
▁dieciocho	-11.5647
▁entrance	-11.5647
▁income	-11.5647
▁mystery	-11.5647
▁nation	-11.5647
▁swear	-11.5647
▁selfish	-11.5647
▁oeste	-11.5647
▁permitido	-11.5647
▁Cuent	-11.5647
▁scenery	-11.5647
▁habitaciones	-11.5647
▁nací	-11.5647
▁cigarro	-11.5647
▁imagination	-11.5647
▁educado	-11.5647
▁ventaja	-11.5647
▁estudió	-11.5647
▁silver	-11.5647
▁scratch	-11.5648
▁advirtió	-11.5648
▁muro	-11.5648
▁odd	-11.5648
▁Quien	-11.5648
▁Apreci	-11.5648
▁level	-11.5648
▁Fuma	-11.5648
▁ambas	-11.5648
▁presence	-11.5649
▁recientemente	-11.5649
▁honestidad	-11.5649
▁suitable	-11.5649
▁professional	-11.5649
▁hundió	-11.5649
▁ése	-11.5649
▁object	-11.565
▁arrojó	-11.565
▁cheaper	-11.5651
▁instrucciones	-11.5651
▁respirar	-11.5651
▁Enséñame	-11.5651
▁metido	-11.5652
▁barba	-11.5652
▁partió	-11.5653
▁mostrarte	-11.5653
▁caminaba	-11.5654
▁Any	-11.5654
▁soul	-11.5655
▁arrepiento	-11.5656
▁agradeci	-11.5656
▁decent	-11.5656
▁bowed	-11.5656
▁Tendrá	-11.5657
▁miraron	-11.5657
▁rescued	-11.5657
▁marchó	-11.5658
▁peligrosa	-11.5658
▁cazar	-11.5658
▁humo	-11.5659
▁progreso	-11.5661
▁fairly	-11.5662
▁framed	-11.5663
▁abril	-11.5664
▁disparar	-11.5664
▁discuti	-11.5665
▁shocked	-11.5666
▁tiende	-11.5668
▁personally	-11.567
▁quarter	-11.5673
▁Querría	-11.5673
▁intended	-11.5674
▁crecí	-11.568
▁adjust	-11.5686
▁quemó	-11.5686
▁posee	-11.5694
▁tip	-11.5694
▁ayudando	-11.5697
▁quejó	-11.5699
▁herramientas	-11.5701
▁pasaba	-11.5702
▁players	-11.5702
▁shed	-11.5707
▁presta	-11.5709
▁leerlo	-11.5709
▁chosen	-11.5715
▁comía	-11.5717
▁sellos	-11.5719
▁rely	-11.572
▁preciosa	-11.5726
nzó	-11.5726
▁Conocí	-11.5727
▁grades	-11.573
▁solar	-11.5736
day	-11.5738
▁saludó	-11.5745
▁turistas	-11.575
▁sonando	-11.5759
▁gemelos	-11.576
▁pruebas	-11.5765
▁admira	-11.5767
▁fate	-11.5769
▁oso	-11.5771
▁terms	-11.578
▁serpientes	-11.579
▁despertador	-11.5791
▁na	-11.5804
ard	-11.5806
▁grown	-11.5812
▁lucha	-11.5813
▁papers	-11.5815
guió	-11.5822
▁harás	-11.583
▁americanos	-11.5839
▁pop	-11.5872
▁aside	-11.5874
Nos	-11.5884
▁roll	-11.5887
▁po	-11.5887
▁calles	-11.5888
▁hablamos	-11.5889
▁extraños	-11.5903
▁disfrut	-11.5904
▁ob	-11.5909
▁Veni	-11.5911
▁rep	-11.5928
▁helps	-11.5929
Era	-11.5945
▁cargar	-11.5947
▁superar	-11.5952
▁aguantar	-11.5966
▁piense	-11.5975
▁places	-11.5978
▁trabajan	-11.5984
▁Tras	-11.5984
▁behave	-11.5996
▁ca	-11.5999
▁amas	-11.6
nswer	-11.6003
▁cura	-11.6006
▁coin	-11.6011
▁cobarde	-11.6012
▁guardia	-11.6015
biste	-11.6017
▁custom	-11.6017
▁curtain	-11.602
▁rodilla	-11.6021
▁demand	-11.6021
▁oscura	-11.6022
▁cigarrillo	-11.6022
▁moneda	-11.6024
▁comentario	-11.6024
▁stamp	-11.6025
▁coches	-11.6031
▁sucio	-11.6034
▁twin	-11.6036
▁abra	-11.6037
▁guarda	-11.6038
ze	-11.6046
cantaría	-11.6058
▁aterriz	-11.608
ria	-11.6083
▁protest	-11.6083
▁budge	-11.611
▁vend	-11.6123
▁comparti	-11.6123
▁entradas	-11.6132
▁Amo	-11.6136
▁repar	-11.6152
wa	-11.6157
mail	-11.6158
▁pa	-11.6162
▁jobs	-11.6165
▁brand	-11.6171
zco	-11.6174
▁che	-11.6176
▁Pid	-11.6183
▁vuestros	-11.6183
▁shame	-11.6185
▁design	-11.6186
▁increase	-11.6186
▁poison	-11.6189
▁sweat	-11.6189
▁sa	-11.619
Ello	-11.6191
▁bowl	-11.6191
▁triunfar	-11.6196
▁Trae	-11.6196
▁unexpected	-11.6197
▁brief	-11.6202
▁Enciend	-11.6202
▁Falta	-11.6202
▁Rusia	-11.6202
▁South	-11.6202
▁comité	-11.6202
▁conociera	-11.6202
▁cálido	-11.6202
▁despedida	-11.6202
▁diecisiete	-11.6202
▁engañó	-11.6202
▁garbage	-11.6202
▁gasolina	-11.6202
▁hockey	-11.6202
▁inconsciente	-11.6202
▁milagro	-11.6202
▁mouse	-11.6202
▁mutuamente	-11.6202
▁oxígeno	-11.6202
▁promotion	-11.6202
▁química	-11.6202
▁resort	-11.6202
▁revés	-11.6202
▁sonríe	-11.6202
▁spade	-11.6202
▁stubborn	-11.6202
▁tabaco	-11.6202
▁universe	-11.6202
▁universo	-11.6202
▁unreliable	-11.6202
▁Everest	-11.6203
▁seventeen	-11.6203
▁drowning	-11.6203
▁suceda	-11.6203
▁apology	-11.6203
▁terrific	-11.6203
▁dormida	-11.6203
▁deprimido	-11.6203
▁pillow	-11.6203
▁trunk	-11.6203
▁sabés	-11.6203
▁periodista	-11.6203
▁batería	-11.6203
▁hugged	-11.6203
▁reducir	-11.6203
▁discutiendo	-11.6203
▁replace	-11.6203
▁blackboard	-11.6203
▁Kobe	-11.6203
▁estantería	-11.6203
▁Afortunadamente	-11.6203
▁robando	-11.6203
▁wide	-11.6203
▁observando	-11.6203
▁ángel	-11.6203
▁contraseña	-11.6204
▁password	-11.6204
▁hammer	-11.6204
imít	-11.6204
▁tinto	-11.6205
▁reina	-11.6205
▁bleeding	-11.6205
▁parcial	-11.6205
▁traduj	-11.6206
▁partida	-11.6206
▁threatened	-11.6206
▁abandonado	-11.6206
▁soft	-11.6206
▁released	-11.6206
▁optimista	-11.6207
▁salieron	-11.6207
▁sonriendo	-11.6207
▁caminó	-11.6207
▁caído	-11.6208
▁disguised	-11.6208
▁costará	-11.6209
▁creep	-11.6209
urió	-11.6209
▁incómodo	-11.621
▁Santa	-11.6211
▁mission	-11.6211
▁arrogante	-11.6212
▁Pása	-11.6212
▁dating	-11.6212
▁mancha	-11.6213
▁heater	-11.6214
▁Primero	-11.6214
▁estacionar	-11.6216
▁lección	-11.6216
▁Esperaré	-11.6216
▁Escriba	-11.6216
Ves	-11.6217
gó	-11.6218
▁jugadores	-11.6218
▁approved	-11.6219
▁Haría	-11.622
▁tipos	-11.622
▁naturales	-11.6221
▁computadores	-11.6224
▁suffering	-11.6224
▁riendo	-11.6225
▁logro	-11.6228
▁yard	-11.6229
▁Pregunta	-11.6229
▁Vosotr	-11.6233
dical	-11.6233
▁moderna	-11.6233
▁poeta	-11.6234
▁decente	-11.6235
▁cómoda	-11.6244
▁sangra	-11.6246
▁kilos	-11.6249
▁manners	-11.6249
▁celebra	-11.6251
▁invent	-11.6252
▁informed	-11.6253
tendremos	-11.6254
▁aparcar	-11.6255
leaned	-11.6257
construido	-11.6257
▁painful	-11.6257
▁senté	-11.6262
▁Mu	-11.6269
▁labios	-11.6272
▁evento	-11.6272
▁pasarme	-11.6273
▁pasaría	-11.6278
▁llevará	-11.628
▁decirlo	-11.6281
▁treaty	-11.6282
▁divorci	-11.6282
▁incorrecta	-11.6285
▁celebrate	-11.6286
▁Jo	-11.6296
▁feo	-11.6304
▁gustado	-11.6307
▁u	-11.6311
ick	-11.6318
▁hagamos	-11.6324
rán	-11.6324
▁comprarse	-11.6331
▁botellas	-11.6338
▁considerar	-11.6344
▁dim	-11.6349
▁snakes	-11.6354
▁conejos	-11.6354
▁permanecer	-11.636
▁abuse	-11.6369
▁bottles	-11.637
▁clientes	-11.6376
▁mud	-11.638
▁éstas	-11.6396
▁products	-11.6397
▁necesites	-11.6397
▁Co	-11.6397
▁desayuna	-11.6398
▁Lee	-11.6406
▁colors	-11.6417
▁extrañar	-11.6425
▁lados	-11.6432
nce	-11.6445
▁dependen	-11.6461
▁extranjeras	-11.647
▁chistes	-11.6471
▁Man	-11.6501
out	-11.6504
▁owner	-11.651
▁Compart	-11.6525
▁Par	-11.6529
▁resultar	-11.653
Los	-11.6532
▁hoped	-11.6545
▁tela	-11.6547
▁cop	-11.6547
▁trains	-11.6561
▁bi	-11.6584
▁damage	-11.6585
pidieron	-11.659
▁clara	-11.6597
▁italiano	-11.66
▁malos	-11.6604
▁zorro	-11.6604
iva	-11.6606
▁cliente	-11.6614
▁pr	-11.6617
▁atrapar	-11.6619
▁Ku	-11.6619
cé	-11.6621
▁dollar	-11.6624
▁fuente	-11.6634
▁stepp	-11.6636
▁baña	-11.6638
lf	-11.6642
bout	-11.6646
▁mono	-11.6649
▁decepcionar	-11.6655
▁contactar	-11.6658
▁juegos	-11.6666
▁encuentras	-11.6684
▁suicidar	-11.6685
▁mata	-11.6692
ship	-11.6703
aría	-11.6703
▁utiliza	-11.6713
eza	-11.6713
▁Viaj	-11.6714
▁puñ	-11.672
arlo	-11.6725
chi	-11.6726
▁mentiras	-11.673
How	-11.6741
▁Russia	-11.6746
five	-11.6751
dos	-11.6761
▁disgust	-11.6763
▁wealth	-11.6764
▁shout	-11.6766
Pensá	-11.6772
▁separate	-11.6773
▁mat	-11.6775
▁blow	-11.6779
▁Dese	-11.6779
▁hug	-11.678
▁consult	-11.6781
▁nuclear	-11.6783
▁thorough	-11.6784
▁habilidad	-11.6784
▁gang	-11.6784
▁prince	-11.6787
▁delay	-11.6788
▁rápida	-11.6788
▁joy	-11.6789
▁disagree	-11.679
ídele	-11.679
emember	-11.6791
▁skate	-11.6791
eligió	-11.6791
▁Biblia	-11.6791
▁Mundial	-11.6791
▁aburrida	-11.6791
▁actitud	-11.6791
▁anteojos	-11.6791
▁attitude	-11.6791
▁auténtico	-11.6791
▁challenge	-11.6791
▁cottage	-11.6791
▁desastre	-11.6791
▁desierta	-11.6791
▁downstairs	-11.6791
▁financial	-11.6791
▁flashlight	-11.6791
▁funcionó	-11.6791
▁innocence	-11.6791
▁journalist	-11.6791
▁junk	-11.6791
▁lastimó	-11.6791
▁lápices	-11.6791
▁narrow	-11.6791
▁preferiría	-11.6791
▁promedio	-11.6791
▁príncipe	-11.6791
▁pálido	-11.6791
▁reduce	-11.6791
▁regreso	-11.6791
▁repugnante	-11.6791
▁scissors	-11.6791
▁simpático	-11.6791
▁soñando	-11.6791
▁whale	-11.6791
▁harina	-11.6791
▁opposite	-11.6791
▁sensación	-11.6791
▁trigger	-11.6791
▁zona	-11.6791
▁hunch	-11.6791
▁confesó	-11.6791
▁anterior	-11.6791
▁slam	-11.6791
▁demostrar	-11.6791
▁desaparecido	-11.6791
▁horario	-11.6791
▁stomachache	-11.6791
▁Perdone	-11.6791
▁miracle	-11.6791
▁conjunto	-11.6791
▁sirvió	-11.6791
▁atento	-11.6791
▁nightmare	-11.6791
▁pozo	-11.6791
▁traslad	-11.6791
▁purse	-11.6791
▁crack	-11.6791
▁affect	-11.6791
▁decidiste	-11.6791
▁antig	-11.6791
▁lavó	-11.6791
▁merecía	-11.6791
▁sabio	-11.6791
▁pipe	-11.6791
▁authority	-11.6791
▁nearby	-11.6791
▁frecuentemente	-11.6791
▁remarkable	-11.6791
▁soltera	-11.6791
▁Merece	-11.6792
▁Siéntate	-11.6792
▁Generally	-11.6792
▁invention	-11.6792
▁sopl	-11.6792
▁estilo	-11.6792
▁operation	-11.6792
▁eyesight	-11.6792
▁lamp	-11.6792
▁stock	-11.6792
▁acondicionado	-11.6792
▁ayudé	-11.6792
▁confidence	-11.6792
▁appetite	-11.6793
▁rejected	-11.6793
▁Bible	-11.6793
▁construcción	-11.6793
▁informado	-11.6793
▁Price	-11.6794
▁desgracia	-11.6794
▁gastos	-11.6794
▁planned	-11.6795
▁happier	-11.6795
▁Seguí	-11.6795
▁Cuéntame	-11.6796
▁mostrarme	-11.6796
▁invitaron	-11.6797
▁Frankly	-11.6797
▁boiling	-11.6798
▁pavo	-11.6798
▁automobile	-11.6798
▁condición	-11.6798
▁swam	-11.6798
▁secó	-11.6798
▁defense	-11.6799
▁proof	-11.6799
▁explicarlo	-11.6799
▁sincero	-11.6802
▁sweating	-11.6803
▁sandwiches	-11.6803
▁kite	-11.6803
▁lloverá	-11.6804
▁burning	-11.6805
▁cogido	-11.6805
▁pondrá	-11.6805
▁screamed	-11.6807
▁conocerte	-11.6808
▁preguntarte	-11.6808
▁crudo	-11.6811
▁Pay	-11.6812
▁pasaste	-11.6812
▁balde	-11.6813
son	-11.6813
▁minor	-11.6813
tando	-11.6816
▁participate	-11.682
▁tonta	-11.682
▁enseñaré	-11.6821
▁cochera	-11.6822
▁tiro	-11.6823
▁ponerme	-11.6825
▁barber	-11.6832
▁checked	-11.6833
▁avoided	-11.6834
▁apetece	-11.6834
▁uniforme	-11.6837
▁nodded	-11.6839
▁dominar	-11.6841
▁crowded	-11.6841
▁influencia	-11.6846
▁assure	-11.6849
▁pronounce	-11.6854
éramos	-11.6854
▁Hand	-11.6858
njoy	-11.6863
▁lit	-11.6866
▁fuertes	-11.6875
▁yendo	-11.6876
▁breaking	-11.6877
voted	-11.6878
▁officer	-11.6878
▁Mont	-11.6879
▁encontrarte	-11.6879
▁daría	-11.6885
tand	-11.6889
▁estudias	-11.69
dí	-11.6903
▁Dog	-11.6922
▁aman	-11.6937
▁juegan	-11.6937
ana	-11.6941
▁strike	-11.6941
▁parking	-11.6951
▁cave	-11.6953
▁acción	-11.6958
▁conté	-11.6958
▁adultos	-11.6964
▁gifts	-11.6969
▁Aprend	-11.6969
irió	-11.698
▁knees	-11.6997
▁sienten	-11.7
tiendo	-11.7003
▁osos	-11.7005
vy	-11.7012
▁prepara	-11.7014
▁particip	-11.7016
▁amarillas	-11.7019
▁alcanza	-11.702
ang	-11.7024
▁científicos	-11.7041
▁Busc	-11.7044
edades	-11.7048
ge	-11.7051
▁alegre	-11.7056
▁saca	-11.7056
▁asientos	-11.7064
▁lovely	-11.7067
▁tires	-11.7067
▁pon	-11.7077
ank	-11.7079
▁Tant	-11.7088
▁acostumbr	-11.7092
▁confirm	-11.7104
▁toque	-11.7115
▁ocupar	-11.7115
▁salgas	-11.7119
áramos	-11.7131
▁aprende	-11.716
▁encantador	-11.7164
▁Aprender	-11.7166
▁understanding	-11.7181
ismo	-11.7182
▁Cree	-11.7183
▁fueras	-11.7186
▁pages	-11.7188
▁Cog	-11.7194
▁tire	-11.7196
▁accord	-11.7198
▁luchar	-11.7218
▁meals	-11.7224
▁pesadilla	-11.7228
▁fea	-11.7228
▁brain	-11.7231
▁sabrá	-11.7233
▁cortina	-11.7235
▁cheque	-11.7236
▁invit	-11.7237
▁ghost	-11.7238
▁detalle	-11.7239
▁listens	-11.7255
▁molestar	-11.7255
▁bolsillos	-11.7257
▁dare	-11.726
▁Ver	-11.7264
▁respond	-11.7268
manded	-11.7277
▁pockets	-11.728
▁detenido	-11.7284
▁violent	-11.7285
▁supe	-11.7288
▁revistas	-11.7292
▁adulto	-11.7294
ez	-11.7295
▁magazines	-11.7303
▁maletas	-11.7303
▁muchachos	-11.7315
endremos	-11.7334
▁fi	-11.7336
cierto	-11.7341
▁hijas	-11.7342
▁viaj	-11.7348
▁vives	-11.7361
Pero	-11.7365
R	-11.7366
rain	-11.7376
▁entendí	-11.7377
▁Vivi	-11.739
▁pack	-11.7391
▁origin	-11.7396
▁hesitate	-11.74
irds	-11.7402
▁faint	-11.7403
▁sobrevivir	-11.7403
▁confess	-11.7403
▁borde	-11.7403
▁convenient	-11.7403
▁Vuelv	-11.7404
▁Hici	-11.7406
▁superior	-11.7408
▁tenedor	-11.7408
▁comercial	-11.7409
▁engañar	-11.7409
▁spli	-11.7413
▁sink	-11.7414
▁profunda	-11.7414
▁veneno	-11.7415
▁North	-11.7415
▁conscious	-11.7415
tacó	-11.7416
▁Claus	-11.7416
▁Halloween	-11.7416
▁January	-11.7416
▁Narita	-11.7416
▁album	-11.7416
▁apetito	-11.7416
▁cafetería	-11.7416
▁ciega	-11.7416
▁clásica	-11.7416
▁complex	-11.7416
▁conocieron	-11.7416
▁conseguido	-11.7416
▁decírselo	-11.7416
▁desmayó	-11.7416
▁determine	-11.7416
▁disculpó	-11.7416
▁ebrio	-11.7416
▁eléctrica	-11.7416
▁excepcional	-11.7416
▁falleció	-11.7416
▁gatillo	-11.7416
▁grifo	-11.7416
▁húmedo	-11.7416
▁independiente	-11.7416
▁intérprete	-11.7416
▁lectura	-11.7416
▁ligero	-11.7416
▁linterna	-11.7416
▁luggage	-11.7416
▁mobile	-11.7416
▁navidad	-11.7416
▁necesaria	-11.7416
▁pajamas	-11.7416
▁patinar	-11.7416
▁pijama	-11.7416
▁pánico	-11.7416
▁religión	-11.7416
▁responsibility	-11.7416
▁romantic	-11.7416
▁rompecabezas	-11.7416
▁siguiendo	-11.7416
▁translation	-11.7416
▁veloz	-11.7416
▁vencido	-11.7416
▁vídeo	-11.7416
▁Four	-11.7416
▁aceite	-11.7416
▁assistant	-11.7416
▁leña	-11.7416
▁rising	-11.7416
▁screw	-11.7416
▁Drink	-11.7416
▁UFO	-11.7416
▁corriente	-11.7416
▁eighteen	-11.7416
▁infantil	-11.7416
▁interior	-11.7416
▁traicionó	-11.7416
▁coincidencia	-11.7416
▁esperé	-11.7416
▁vegetales	-11.7416
▁Juego	-11.7416
▁amusing	-11.7416
▁typical	-11.7416
▁Walk	-11.7416
▁acciones	-11.7416
▁desperate	-11.7416
▁disaster	-11.7416
▁pintor	-11.7416
▁dozen	-11.7416
▁punctual	-11.7416
oger	-11.7416
▁resuelto	-11.7416
▁cocinero	-11.7416
▁competition	-11.7416
▁amazed	-11.7416
▁further	-11.7416
▁datos	-11.7416
▁crema	-11.7416
▁Juguemos	-11.7416
▁fog	-11.7416
▁Luna	-11.7416
▁drowned	-11.7416
▁mínimo	-11.7417
▁Summer	-11.7417
▁pasaje	-11.7417
▁guía	-11.7417
▁treatment	-11.7417
▁communicate	-11.7417
▁tratamiento	-11.7417
▁lenguaje	-11.7417
▁tranquila	-11.7417
▁directamente	-11.7417
▁desocupado	-11.7417
▁"¡	-11.7417
▁salón	-11.7417
▁path	-11.7418
▁comenzado	-11.7418
▁topic	-11.7418
▁thrilled	-11.7418
▁safety	-11.7418
▁atravesó	-11.7418
▁visible	-11.7418
▁librería	-11.7419
▁dibujo	-11.7419
▁quejarse	-11.742
▁gripe	-11.742
▁soap	-11.742
▁poquito	-11.742
▁encouraged	-11.742
▁sorprendería	-11.742
▁Cuidado	-11.7421
▁flow	-11.7421
▁cheered	-11.7422
▁alegría	-11.7422
▁lotería	-11.7422
▁enseñando	-11.7423
▁subiendo	-11.7423
▁exitoso	-11.7423
▁deceived	-11.7423
▁delgado	-11.7423
▁warmer	-11.7424
▁Prob	-11.7425
▁crush	-11.7425
▁continuó	-11.7425
▁Tóma	-11.7426
▁entré	-11.7426
▁temer	-11.7426
▁sentamos	-11.7427
▁ganando	-11.7427
▁personalmente	-11.7427
▁unknown	-11.7428
▁comúnmente	-11.7428
▁fainted	-11.7428
▁painter	-11.7429
▁astuto	-11.743
▁loudly	-11.7431
▁mudó	-11.7432
▁cloudy	-11.7433
▁recursos	-11.7434
▁gastado	-11.7434
▁float	-11.7434
▁damaged	-11.7434
▁completa	-11.7435
▁crashed	-11.7437
▁lu	-11.7437
▁consiga	-11.7437
▁traiga	-11.7437
▁sudando	-11.7439
▁respetar	-11.7439
▁retired	-11.7439
▁incorrecto	-11.7443
▁career	-11.7446
▁misión	-11.7446
▁preguntando	-11.7451
▁resistir	-11.7454
▁pis	-11.7454
▁papeles	-11.7457
▁insectos	-11.7457
▁Compr	-11.7466
▁divorcio	-11.7466
▁faith	-11.7468
▁latest	-11.747
▁conseguí	-11.747
▁tower	-11.7474
▁Veng	-11.7476
▁agradezco	-11.7477
▁chances	-11.748
▁retire	-11.748
▁creí	-11.7484
▁Mire	-11.7486
▁Usa	-11.7488
▁realizar	-11.7491
▁enojar	-11.7498
▁trabajador	-11.7501
▁ideal	-11.7502
▁colecciona	-11.7503
▁consecuencias	-11.7504
▁beard	-11.7506
ither	-11.7508
▁Abra	-11.751
▁Ocurri	-11.752
▁dejas	-11.7523
▁sabías	-11.7533
▁Vol	-11.7542
ier	-11.7549
▁familias	-11.7551
▁bananas	-11.7552
▁cor	-11.7558
▁Encontra	-11.7558
▁Wh	-11.756
▁blamed	-11.7561
▁seated	-11.7566
▁juntar	-11.7573
▁lobos	-11.7576
▁foreigners	-11.7577
▁west	-11.7582
▁owes	-11.7585
ali	-11.7587
▁ayudes	-11.7588
▁cups	-11.7598
▁ladra	-11.7602
▁Esperé	-11.7609
▁cigarrillos	-11.7623
▁pienses	-11.7624
▁tourists	-11.7635
▁políticos	-11.7647
▁sois	-11.7661
▁lawn	-11.7667
▁juguetes	-11.7671
▁serás	-11.768
▁asustar	-11.7682
tura	-11.7686
▁comprende	-11.7688
▁documents	-11.7696
▁tapa	-11.77
misunderstanding	-11.7715
▁golpear	-11.7718
▁Guarda	-11.7725
pped	-11.7725
▁charlar	-11.7735
▁letras	-11.7755
▁encantado	-11.7775
▁decid	-11.7795
aje	-11.7799
▁super	-11.7803
▁weigh	-11.7812
scribió	-11.7843
▁V	-11.7854
▁ours	-11.7857
▁abrí	-11.7866
▁Th	-11.788
▁conocimiento	-11.7892
▁ciervo	-11.7894
▁rabbit	-11.7894
▁corté	-11.7895
▁mosquito	-11.7897
▁conozca	-11.79
▁pedazo	-11.79
▁encuentre	-11.7901
▁politician	-11.7901
▁prisionero	-11.7901
▁despertado	-11.7901
▁sienta	-11.7902
▁conejo	-11.7903
▁Conoce	-11.7903
▁serpiente	-11.7903
▁snake	-11.7903
▁Well	-11.7909
▁voluntario	-11.7912
▁llora	-11.7914
▁escala	-11.7924
elo	-11.7924
L	-11.7948
adora	-11.7958
ors	-11.7969
▁prima	-11.7988
▁vasos	-11.7989
▁daughters	-11.7994
cel	-11.7997
▁rainy	-11.7998
▁loose	-11.8005
cho	-11.8005
melo	-11.8008
▁pencils	-11.8013
▁vaca	-11.8014
▁asegur	-11.8027
▁Corri	-11.8032
shirt	-11.8033
thirty	-11.8033
Ahora	-11.8033
Where	-11.8033
▁CDs	-11.8037
handed	-11.8038
▁event	-11.8039
Sal	-11.8039
▁horror	-11.8039
illas	-11.8052
▁collect	-11.8057
▁quedará	-11.806
▁revis	-11.8063
▁llamadas	-11.8064
iv	-11.8069
▁chill	-11.8071
▁Ex	-11.8075
▁escolar	-11.8075
▁divertir	-11.8075
ece	-11.8079
▁negar	-11.808
ijiste	-11.808
▁estuvi	-11.808
Vive	-11.8081
signed	-11.8082
▁trigo	-11.8082
▁Segund	-11.8082
▁application	-11.8082
▁aprobado	-11.8082
▁atractiva	-11.8082
▁culpo	-11.8082
▁cálida	-11.8082
▁económico	-11.8082
▁eléctrico	-11.8082
▁escrita	-11.8082
▁exámenes	-11.8082
▁fierce	-11.8082
▁forehead	-11.8082
▁frigorífico	-11.8082
▁haircut	-11.8082
▁handwriting	-11.8082
▁harvest	-11.8082
▁impedir	-11.8082
▁independent	-11.8082
▁ladrones	-11.8082
▁médica	-11.8082
▁niebla	-11.8082
▁ochenta	-11.8082
▁ordinary	-11.8082
▁popcorn	-11.8082
▁purchase	-11.8082
▁recibí	-11.8082
▁reconoció	-11.8082
▁research	-11.8082
▁riqueza	-11.8082
▁rotten	-11.8082
▁stool	-11.8082
▁thumb	-11.8082
▁toothpaste	-11.8082
▁turkey	-11.8082
▁underestimate	-11.8082
▁universal	-11.8082
▁volleyball	-11.8082
▁álbum	-11.8082
▁Depende	-11.8082
▁aburre	-11.8082
▁audiencia	-11.8082
▁gatito	-11.8082
▁magia	-11.8082
▁sesenta	-11.8082
▁circumstances	-11.8082
▁conociste	-11.8082
▁glance	-11.8082
▁heladera	-11.8082
▁infeliz	-11.8082
▁pésimo	-11.8082
▁resume	-11.8082
▁stew	-11.8082
▁timbre	-11.8082
▁withdraw	-11.8082
▁tijeras	-11.8082
▁Esperanto	-11.8082
▁bookstore	-11.8082
▁virus	-11.8082
▁tentación	-11.8082
▁Rais	-11.8083
▁aguanto	-11.8083
▁flour	-11.8083
▁punishment	-11.8083
▁department	-11.8083
▁Sign	-11.8083
▁princesa	-11.8083
▁pink	-11.8083
▁bici	-11.8083
ámonos	-11.8083
▁Suena	-11.8083
▁avisar	-11.8083
▁alquiler	-11.8083
▁spot	-11.8083
▁active	-11.8083
▁practicing	-11.8083
▁Generalmente	-11.8083
▁otherwise	-11.8083
▁wings	-11.8083
▁frog	-11.8083
▁lightning	-11.8083
▁casco	-11.8083
▁Camina	-11.8083
▁encendida	-11.8083
▁oxygen	-11.8083
▁rió	-11.8083
▁powerful	-11.8083
▁secretary	-11.8083
▁wheat	-11.8083
▁ahorros	-11.8084
▁decidieron	-11.8084
▁l	-11.8084
▁investigando	-11.8084
▁prometido	-11.8084
▁published	-11.8084
▁rio	-11.8084
▁recomendó	-11.8084
▁Bienvenido	-11.8084
▁asintió	-11.8084
▁bump	-11.8085
▁sucedido	-11.8085
▁preocuparme	-11.8085
▁oven	-11.8086
hrow	-11.8086
▁dish	-11.8086
main	-11.8086
▁silly	-11.8086
▁complaints	-11.8087
▁mencionó	-11.8087
▁enamoró	-11.8087
▁difficulties	-11.8088
▁track	-11.8088
▁beans	-11.8088
▁square	-11.8089
▁distinta	-11.8089
▁trescient	-11.8089
nza	-11.8089
▁llegada	-11.8089
▁preparada	-11.8089
▁distract	-11.809
▁bajando	-11.809
▁agudo	-11.809
▁pretendía	-11.8091
▁cedió	-11.8091
▁cumplido	-11.8092
▁punch	-11.8092
▁micro	-11.8094
▁conducta	-11.8094
▁Elige	-11.8094
▁grito	-11.8094
▁Quit	-11.8094
▁muestra	-11.8095
▁caza	-11.8095
▁lottery	-11.8095
▁Habrá	-11.8098
▁escriba	-11.8101
▁disco	-11.8101
▁insects	-11.8102
▁bola	-11.8102
▁higher	-11.8103
▁border	-11.8104
▁insulted	-11.8105
▁admired	-11.8106
▁barrio	-11.8107
▁perd	-11.8107
▁improved	-11.8109
▁contestó	-11.811
▁astronauta	-11.8111
▁climbing	-11.8113
▁resources	-11.8114
▁alérgica	-11.8115
▁leyes	-11.8115
▁ayudarla	-11.8116
▁señora	-11.8117
▁pasas	-11.8119
▁instante	-11.8119
▁palo	-11.812
▁scary	-11.8122
▁apaga	-11.8122
▁relaxed	-11.8123
▁insistió	-11.8125
▁segundos	-11.8125
▁salvajes	-11.8127
▁dancer	-11.8127
▁Baja	-11.8132
▁nerves	-11.8139
▁usualmente	-11.8141
▁visitors	-11.8141
Vamos	-11.8142
mb	-11.8145
▁Encontrar	-11.8152
▁deserved	-11.8156
▁thanks	-11.8159
▁Donde	-11.816
▁lips	-11.8164
▁intentes	-11.8165
▁Y	-11.817
▁r	-11.8174
▁locos	-11.8176
ished	-11.8178
▁Comi	-11.8179
▁worrying	-11.8181
▁forty	-11.8189
▁humana	-11.8189
▁veras	-11.8192
▁budget	-11.8195
▁stops	-11.8197
▁tuyos	-11.8201
▁dormía	-11.8202
▁balance	-11.8207
▁veros	-11.8207
med	-11.8218
▁estacion	-11.8227
▁busca	-11.823
tuviste	-11.8237
▁aim	-11.8242
▁velas	-11.8242
tions	-11.8243
▁preocupados	-11.8264
▁esperara	-11.8265
▁sientas	-11.8267
▁nails	-11.8269
ter	-11.8271
▁difíciles	-11.8276
▁cortinas	-11.8279
ense	-11.8281
▁cabe	-11.8284
▁Add	-11.8284
▁advis	-11.8286
▁Gue	-11.8289
sion	-11.829
▁cometa	-11.8291
▁sucede	-11.8296
▁tru	-11.8297
▁Salí	-11.8298
Vendré	-11.8301
▁infla	-11.8317
▁prefieres	-11.8319
rías	-11.8328
▁adults	-11.8331
▁remains	-11.8335
rían	-11.8353
▁beg	-11.8355
cy	-11.836
▁formal	-11.8361
ntes	-11.8367
tivo	-11.8368
▁regards	-11.8369
Seguro	-11.8373
▁gustaban	-11.8375
▁showing	-11.8378
▁hablarle	-11.8388
▁usan	-11.839
▁seek	-11.8398
sumí	-11.84
▁cu	-11.8404
▁escaso	-11.8419
way	-11.8423
▁ancianos	-11.8443
ló	-11.8451
▁guns	-11.8456
▁Dr	-11.8459
▁Ésto	-11.8466
▁llaman	-11.8469
telo	-11.8479
▁abandon	-11.849
▁rojos	-11.8495
▁aplica	-11.8495
▁estúpidas	-11.8499
ándome	-11.8533
▁seda	-11.8533
▁fuerzas	-11.8551
▁caus	-11.8554
▁Bar	-11.8561
▁vueltas	-11.8562
tter	-11.8562
▁Cor	-11.8565
▁limpias	-11.8576
▁suitcases	-11.8577
▁considera	-11.858
▁vayan	-11.858
nything	-11.8597
▁i	-11.8599
▁secretos	-11.8605
▁ocup	-11.8608
ware	-11.8608
▁character	-11.8609
▁crece	-11.8612
▁principiante	-11.8612
▁farmer	-11.8613
ctually	-11.8614
▁elefante	-11.8615
imed	-11.8615
▁comment	-11.8615
▁candle	-11.8616
▁nail	-11.8617
▁pide	-11.8617
▁fantasma	-11.8619
▁droga	-11.862
▁cookie	-11.8621
▁baila	-11.8621
▁foreigner	-11.8626
▁piedras	-11.863
▁serve	-11.8635
▁sometime	-11.8637
▁Ka	-11.8637
▁goat	-11.8638
▁trozos	-11.8643
▁moto	-11.8648
▁term	-11.8655
▁crea	-11.8665
▁streets	-11.8666
bor	-11.867
▁hermosas	-11.8691
▁Comprend	-11.8696
nyone	-11.8696
▁lobo	-11.8696
▁competent	-11.8697
selo	-11.8698
▁individual	-11.8699
▁grano	-11.8702
▁liber	-11.8707
▁exact	-11.872
▁consist	-11.8723
▁smokes	-11.8728
mento	-11.8736
▁tumba	-11.8739
Fuiste	-11.8743
via	-11.8747
Sigue	-11.8747
Sabía	-11.8747
Vete	-11.8749
▁rise	-11.8749
▁materia	-11.8749
▁juegue	-11.875
▁frutas	-11.875
▁Korea	-11.8751
▁deseos	-11.8754
▁reunió	-11.8761
▁robber	-11.8764
ura	-11.8766
udging	-11.8769
▁aspirin	-11.8771
▁influence	-11.878
▁insist	-11.8781
▁postpone	-11.8782
▁conduct	-11.8784
ármelo	-11.8785
▁Perdi	-11.8786
aña	-11.8789
▁exterior	-11.8789
▁furious	-11.879
▁fluent	-11.8791
▁revel	-11.8794
▁Dejá	-11.8795
▁bow	-11.8796
▁commit	-11.8796
▁orphan	-11.8797
▁forecast	-11.8797
▁honeymoon	-11.8797
▁Earth	-11.8797
▁FBI	-11.8797
▁Food	-11.8797
▁Hotel	-11.8797
▁Portugal	-11.8797
▁Roosevelt	-11.8797
▁Switzerland	-11.8797
▁Toyota	-11.8797
▁acudir	-11.8797
▁alphabet	-11.8797
▁arrival	-11.8797
▁arrow	-11.8797
▁campaign	-11.8797
▁circle	-11.8797
▁convertido	-11.8797
▁coreano	-11.8797
▁cultiva	-11.8797
▁círculo	-11.8797
▁description	-11.8797
▁discount	-11.8797
▁dizzy	-11.8797
▁environment	-11.8797
▁essential	-11.8797
▁flecha	-11.8797
▁garaje	-11.8797
▁increasing	-11.8797
▁inesperado	-11.8797
▁injusto	-11.8797
▁inquieto	-11.8797
▁jabón	-11.8797
▁luxury	-11.8797
▁mundial	-11.8797
▁pospone	-11.8797
▁predecir	-11.8797
▁pudieron	-11.8797
▁racket	-11.8797
▁silk	-11.8797
▁suicidio	-11.8797
▁telefónica	-11.8797
▁unconscious	-11.8797
▁unlucky	-11.8797
▁whisky	-11.8797
▁wolf	-11.8797
▁yourselves	-11.8797
▁árabe	-11.8797
▁July	-11.8797
▁Suiza	-11.8797
▁consigue	-11.8797
▁international	-11.8797
▁llores	-11.8797
▁millionaire	-11.8797
▁unlocked	-11.8797
▁plain	-11.8797
▁Hiroshima	-11.8797
▁briefcase	-11.8797
▁conceal	-11.8797
▁Corea	-11.8797
▁composition	-11.8797
▁surprising	-11.8797
▁Hilton	-11.8797
▁escoba	-11.8797
▁Cookie	-11.8797
▁nacimiento	-11.8797
▁necklace	-11.8797
▁physics	-11.8797
▁campaña	-11.8797
▁optimistic	-11.8797
▁presencia	-11.8797
▁Ambas	-11.8797
▁squeak	-11.8797
▁jury	-11.8797
▁gym	-11.8797
▁pusiera	-11.8797
▁recurrir	-11.8797
▁continuación	-11.8797
▁susurr	-11.8797
▁cuero	-11.8797
▁ésa	-11.8797
▁medal	-11.8797
▁broom	-11.8797
▁figura	-11.8797
▁honey	-11.8797
▁acento	-11.8797
▁Láv	-11.8797
▁desagradable	-11.8797
▁fuga	-11.8797
Oís	-11.8797
▁shine	-11.8797
▁digging	-11.8797
▁mojado	-11.8797
▁permitió	-11.8798
▁operación	-11.8798
▁pusiste	-11.8798
▁comieron	-11.8798
▁medalla	-11.8798
▁national	-11.8798
▁grasa	-11.8798
▁interpreter	-11.8798
▁empeorando	-11.8799
▁hatred	-11.8799
▁lemon	-11.8799
▁Quíta	-11.8799
▁talentoso	-11.8799
▁rechazado	-11.8799
▁enviado	-11.8799
▁automovilístico	-11.8799
▁absolute	-11.8799
▁preocuparte	-11.88
▁Though	-11.88
▁Fish	-11.88
▁princess	-11.88
▁fake	-11.8801
▁cumplió	-11.8801
▁spicy	-11.8801
▁empezaste	-11.8801
▁volviera	-11.8802
▁struck	-11.8802
▁style	-11.8802
▁sake	-11.8803
▁recuperó	-11.8803
▁march	-11.8803
▁condenado	-11.8803
▁cambiando	-11.8804
It	-11.8804
▁probarlo	-11.8804
▁bush	-11.8804
▁soborno	-11.8805
▁actúa	-11.8805
▁alquilar	-11.8805
▁logró	-11.8806
▁But	-11.8806
▁buscaba	-11.8806
▁convencerlo	-11.8806
▁suelto	-11.8806
▁convencerle	-11.8806
▁arreglarlo	-11.8807
▁desayunado	-11.8807
▁Acepto	-11.8807
▁cancelar	-11.8807
▁camping	-11.8807
▁cheating	-11.8808
▁sentaron	-11.8808
▁contiene	-11.881
▁practical	-11.881
omúnmente	-11.881
▁pure	-11.881
▁disgusting	-11.8811
▁oración	-11.8811
▁below	-11.8812
▁hi	-11.8814
▁Apaga	-11.8814
▁ensayo	-11.8815
▁online	-11.8815
▁fu	-11.8816
▁saludos	-11.8817
▁hilo	-11.8817
Vienes	-11.8817
▁earned	-11.8818
▁warning	-11.8818
▁firmó	-11.882
▁searching	-11.882
▁aspirina	-11.8823
Su	-11.8827
▁confident	-11.8828
▁entraron	-11.8828
▁cortado	-11.8828
▁caridad	-11.8829
▁vacant	-11.8829
▁Pagu	-11.8833
pparently	-11.8839
▁cambiará	-11.884
▁recomendar	-11.8844
▁visitarme	-11.8844
▁recordó	-11.8845
▁astronaut	-11.8846
▁decisiones	-11.8846
▁aseguro	-11.8846
mpecé	-11.8849
▁Centr	-11.8855
dando	-11.8855
▁appreciated	-11.8856
ara	-11.8858
▁encontrarlo	-11.886
▁secrets	-11.8861
▁populares	-11.8864
▁entering	-11.8866
▁existen	-11.8868
▁operate	-11.8869
▁pasaron	-11.8871
▁bomberos	-11.8872
▁cumple	-11.8877
ily	-11.888
▁atropell	-11.8883
▁esperamos	-11.8884
▁crops	-11.8885
▁verdes	-11.8885
▁encontrarme	-11.889
▁Cut	-11.8893
▁export	-11.8897
▁encontrarás	-11.8902
▁interesantes	-11.8904
▁dejarte	-11.8906
▁quema	-11.8909
▁comb	-11.891
▁ingresos	-11.8912
▁pierdas	-11.8912
▁supplies	-11.8913
▁canilla	-11.8924
▁adolescentes	-11.8926
▁tigers	-11.8926
▁suicida	-11.8928
▁vivos	-11.8931
▁Hav	-11.8935
▁porqué	-11.8939
▁terminará	-11.8939
Do	-11.8941
▁lead	-11.8942
▁mild	-11.895
▁vais	-11.8956
▁Qui	-11.8957
▁sucia	-11.8962
▁llegas	-11.8963
bla	-11.897
gar	-11.8971
▁pides	-11.8981
per	-11.8985
▁heridos	-11.8987
nme	-11.8995
▁Pero	-11.8997
▁números	-11.8997
▁casaron	-11.9005
▁cast	-11.9012
jaste	-11.9023
▁ayudaré	-11.9023
▁pares	-11.9026
▁odiar	-11.9041
▁monos	-11.9042
▁precioso	-11.9049
▁falls	-11.9052
▁memorize	-11.9059
▁nación	-11.9059
▁jugará	-11.9061
▁daños	-11.9062
ezca	-11.907
▁prisoners	-11.9079
▁reconocer	-11.9081
▁entiendes	-11.9095
▁ciudadanos	-11.9106
▁equivoca	-11.9115
▁interpret	-11.9115
▁digan	-11.912
▁sorprender	-11.9126
▁Van	-11.9132
cas	-11.9143
Come	-11.915
▁pega	-11.9154
▁savings	-11.9161
▁negros	-11.9173
▁metas	-11.919
tera	-11.9194
▁ab	-11.9205
▁stare	-11.9206
▁bo	-11.9209
puesto	-11.9216
ary	-11.9224
actuando	-11.9225
▁Volvi	-11.9232
▁pot	-11.9234
▁chairs	-11.9243
▁stands	-11.9263
▁Jugar	-11.9264
▁memoriz	-11.9264
▁gastar	-11.9266
▁lanza	-11.9276
▁felicit	-11.9297
▁pig	-11.93
▁sillas	-11.93
ucho	-11.9315
vertirse	-11.9315
▁economic	-11.9349
▁flirt	-11.9353
nybody	-11.9365
ual	-11.9369
▁adaptar	-11.9372
▁elephant	-11.9375
▁hierba	-11.9375
▁tontería	-11.9376
▁block	-11.9376
▁límite	-11.9378
▁diamante	-11.938
▁pida	-11.9381
▁cambie	-11.9382
▁rueda	-11.9384
▁rayo	-11.9384
minded	-11.9385
chó	-11.9387
▁alimenta	-11.9387
▁rana	-11.9388
▁cable	-11.9393
▁amanecer	-11.9396
▁Estuvi	-11.9397
▁twist	-11.9401
pó	-11.9402
▁durar	-11.9408
fic	-11.942
ham	-11.9426
▁ayudarlo	-11.943
dad	-11.9441
▁decisions	-11.9456
▁Llamé	-11.9459
▁constant	-11.9459
▁Iremos	-11.946
▁risks	-11.9462
▁cocin	-11.9468
▁mark	-11.9469
▁tirar	-11.947
ite	-11.948
▁parts	-11.9485
▁fr	-11.9495
▁compone	-11.9497
▁evit	-11.95
▁camp	-11.9504
▁gustar	-11.9508
▁fren	-11.951
▁vela	-11.9511
▁mezcla	-11.9515
house	-11.9517
▁Viene	-11.9522
uesta	-11.9524
▁Compra	-11.9525
Tomás	-11.9526
▁pasta	-11.9527
sistió	-11.9528
volvió	-11.9528
vale	-11.9529
▁palm	-11.953
▁Bebe	-11.953
▁plancha	-11.9535
▁cheat	-11.9542
▁sab	-11.9542
▁Fa	-11.9543
▁trampas	-11.9547
▁cloth	-11.9549
▁rescue	-11.9551
zing	-11.9552
▁reward	-11.9552
▁pianist	-11.9554
▁possibl	-11.9554
▁graduate	-11.9555
▁bake	-11.9556
▁tax	-11.9557
inter	-11.9559
▁conclusion	-11.9559
▁dólar	-11.956
▁cuchara	-11.9561
Esperaba	-11.9561
▁spill	-11.9564
▁arrastr	-11.9565
housand	-11.9565
bviamente	-11.9566
▁acquaint	-11.9566
▁Egypt	-11.9566
▁enemiga	-11.9566
▁engañe	-11.9566
▁Great	-11.9566
▁Wednesday	-11.9566
▁aguja	-11.9566
▁ajustar	-11.9566
▁alibi	-11.9566
▁carbón	-11.9566
▁castigo	-11.9566
▁chimenea	-11.9566
▁chocó	-11.9566
▁combustible	-11.9566
▁conmovió	-11.9566
▁duermo	-11.9566
▁eager	-11.9566
▁económica	-11.9566
▁estufa	-11.9566
▁excepción	-11.9566
▁faucet	-11.9566
▁generous	-11.9566
▁homicidio	-11.9566
▁internacional	-11.9566
▁julio	-11.9566
▁justicia	-11.9566
▁lyrics	-11.9566
▁lámpara	-11.9566
▁motocicleta	-11.9566
▁neumático	-11.9566
▁overslept	-11.9566
▁paisaje	-11.9566
▁portátil	-11.9566
▁puerto	-11.9566
▁reliable	-11.9566
▁romántico	-11.9566
▁semáforo	-11.9566
▁shining	-11.9566
▁surrounded	-11.9566
▁taburete	-11.9566
▁terribly	-11.9566
▁traducción	-11.9566
▁unhealthy	-11.9566
▁veterinario	-11.9566
▁victim	-11.9566
▁charity	-11.9566
▁exigi	-11.9566
▁flame	-11.9566
▁hirviendo	-11.9566
▁region	-11.9566
▁confíe	-11.9566
▁empiece	-11.9566
▁tecnología	-11.9566
▁explique	-11.9566
▁nieto	-11.9566
▁semejante	-11.9566
▁delegados	-11.9566
▁divirtiendo	-11.9566
▁militar	-11.9566
▁nieva	-11.9566
▁competencia	-11.9566
▁literatura	-11.9566
▁cellphone	-11.9566
▁soleado	-11.9566
▁temptation	-11.9566
▁asombroso	-11.9566
▁property	-11.9566
▁inundación	-11.9566
▁slipped	-11.9566
▁score	-11.9566
▁asistente	-11.9566
▁collection	-11.9566
▁cubo	-11.9566
▁convenc	-11.9566
▁producción	-11.9566
▁bunch	-11.9566
▁estuviese	-11.9566
▁ignorancia	-11.9566
▁fascinating	-11.9566
▁breed	-11.9566
▁skinny	-11.9566
▁fascinante	-11.9566
▁Cinc	-11.9566
▁perdimos	-11.9566
▁shallow	-11.9566
▁huelga	-11.9566
▁coach	-11.9567
▁defectos	-11.9567
▁esperanto	-11.9567
▁Abrí	-11.9567
▁announced	-11.9567
▁siguieron	-11.9567
▁March	-11.9567
▁maid	-11.9567
▁ocasiones	-11.9567
▁cuanta	-11.9567
▁Decile	-11.9567
▁amargo	-11.9567
▁desorientado	-11.9567
▁practicando	-11.9567
▁Llor	-11.9567
▁sunset	-11.9567
▁tasa	-11.9567
▁settle	-11.9567
▁ahorrando	-11.9567
▁humanidad	-11.9567
▁Latin	-11.9567
▁miserable	-11.9568
▁leather	-11.9568
▁conseguiste	-11.9568
▁bore	-11.9568
▁gimnasio	-11.9568
▁jurado	-11.9568
▁nublado	-11.9568
▁aumentando	-11.9568
▁tidy	-11.9568
▁pública	-11.9568
▁Pretend	-11.9568
▁charming	-11.9568
▁embarrassing	-11.9568
▁banca	-11.9568
▁saque	-11.9569
▁mareado	-11.9569
▁coal	-11.9569
▁apurado	-11.9569
▁saldrá	-11.957
▁sufrió	-11.957
▁cuantos	-11.957
▁asustada	-11.957
▁shape	-11.957
▁agradecerle	-11.957
▁relieved	-11.957
▁roommate	-11.957
▁quejarte	-11.957
▁charlando	-11.9571
▁rodeado	-11.9571
▁Brus	-11.9571
▁rama	-11.9571
▁máximo	-11.9572
▁approached	-11.9572
▁goose	-11.9572
▁hazlo	-11.9572
▁renunció	-11.9572
▁millonario	-11.9572
▁pulga	-11.9572
▁chores	-11.9572
▁funcionará	-11.9572
▁votaron	-11.9572
▁molestando	-11.9573
▁empujó	-11.9573
▁security	-11.9573
▁scarf	-11.9574
▁videojuegos	-11.9574
▁recovered	-11.9575
▁cerebro	-11.9575
▁presupuesto	-11.9575
▁direct	-11.9576
▁traído	-11.9576
▁préstamo	-11.9576
▁sentarte	-11.9577
▁crió	-11.9577
▁escuchaste	-11.9577
aza	-11.9577
▁clothing	-11.9578
▁pianista	-11.9578
▁llovió	-11.9578
▁perderás	-11.9578
▁reírme	-11.9579
▁dyed	-11.9579
▁entrenador	-11.958
▁anytime	-11.9581
▁descripción	-11.9581
▁llegando	-11.9582
▁postponed	-11.9584
▁pala	-11.9585
▁drawing	-11.9586
▁repeated	-11.9587
▁enseñarte	-11.9588
▁Hiciste	-11.9588
▁pensamientos	-11.9588
▁mataron	-11.9589
▁enterrado	-11.9589
▁diseño	-11.9591
▁laughs	-11.9592
▁mentí	-11.9593
▁contarle	-11.9593
▁memorizar	-11.9594
▁helpful	-11.9595
▁unfortunate	-11.9596
▁mentioned	-11.9597
▁entenderlo	-11.9598
▁escuchas	-11.96
▁oírlo	-11.96
▁packed	-11.96
▁stain	-11.9601
▁longest	-11.9603
▁enfermedades	-11.9604
▁crown	-11.9606
▁Admit	-11.9607
▁absurdo	-11.9608
▁brilla	-11.9611
▁tasted	-11.9611
▁durará	-11.9612
▁tocaba	-11.9614
▁opiniones	-11.9614
▁fooled	-11.9616
▁welcomed	-11.9618
▁viejas	-11.9619
▁breathing	-11.9624
▁normally	-11.9625
▁autumn	-11.9625
▁accent	-11.9625
▁gustará	-11.9626
▁Mirá	-11.9627
▁data	-11.9631
mu	-11.9634
sistieron	-11.9642
▁slapp	-11.9645
▁mejorando	-11.9652
▁escuchaba	-11.9652
▁vete	-11.9661
▁mislead	-11.9666
▁Empiez	-11.9666
▁entendería	-11.9667
▁pagará	-11.967
▁Pres	-11.9671
▁labor	-11.9674
▁escuches	-11.9676
▁sorprendidos	-11.9678
▁Juga	-11.9681
▁mor	-11.9686
▁prob	-11.969
▁sobras	-11.9691
▁tools	-11.9691
▁sew	-11.9695
▁mantuv	-11.9696
▁llevado	-11.9701
▁Permíta	-11.9703
▁tomas	-11.9703
▁ocurren	-11.9703
▁previo	-11.971
▁firma	-11.9711
▁averigua	-11.9712
▁tigres	-11.9721
▁molestes	-11.9722
▁empeorar	-11.9731
▁trabaje	-11.9734
ize	-11.9737
▁cultural	-11.9747
▁ends	-11.9749
▁eighty	-11.975
▁alerta	-11.9753
sistencia	-11.9754
▁arregla	-11.9755
▁comprendi	-11.9762
▁citizens	-11.9764
▁candles	-11.9766
▁bonitas	-11.9766
▁honesty	-11.9775
▁encuentres	-11.9781
▁politicians	-11.9781
▁prisioneros	-11.9781
▁nota	-11.9782
ka	-11.9789
mate	-11.9794
▁Air	-11.9796
▁mide	-11.9801
▁pequeñas	-11.9804
▁famosos	-11.9811
▁faces	-11.9811
▁Estudia	-11.9823
gas	-11.9824
▁rodillas	-11.9826
▁reads	-11.9826
▁Pagar	-11.9828
▁enero	-11.9829
▁orgullosos	-11.9856
▁burns	-11.9856
▁entienden	-11.9858
Si	-11.9895
▁juntas	-11.9897
▁answering	-11.9897
▁cakes	-11.9909
▁alas	-11.9913
▁abus	-11.9915
▁mist	-11.9915
cado	-11.9918
sión	-11.9919
dded	-11.9923
▁Mil	-11.9926
▁toys	-11.9927
▁hambrientos	-11.9931
ered	-11.9934
▁Hacer	-11.9938
ner	-11.9945
▁arrojar	-11.9948
▁cen	-11.9948
▁Lea	-11.995
▁observar	-11.9986
ntentó	-12.0001
▁vinieras	-12.0023
cción	-12.0023
▁pu	-12.0029
▁Anda	-12.0055
▁negoci	-12.0058
lick	-12.0069
▁esperes	-12.0077
▁recuerdos	-12.0082
▁Corre	-12.0082
▁rompe	-12.0084
▁llamara	-12.0088
▁aumenta	-12.0114
▁cuentas	-12.0118
osa	-12.0123
▁Segur	-12.0127
eando	-12.0132
venge	-12.0147
▁momentos	-12.0151
▁conditions	-12.0161
podría	-12.017
▁acabas	-12.0172
▁comprara	-12.0174
▁sir	-12.0182
van	-12.0184
▁hablara	-12.0188
ned	-12.0191
▁volunteer	-12.0196
▁Cerr	-12.0196
▁junta	-12.0204
▁walls	-12.0205
▁supieras	-12.0208
▁archivo	-12.0213
▁blanket	-12.0213
recí	-12.0215
▁araña	-12.0217
▁cow	-12.0217
▁trick	-12.0219
▁banana	-12.0219
▁gemelo	-12.022
▁alumno	-12.0221
▁marchar	-12.0224
▁relative	-12.0225
▁sheet	-12.0227
Compra	-12.0231
▁Camin	-12.0238
▁alimento	-12.0264
▁Confi	-12.028
▁arrives	-12.0301
bré	-12.0301
▁comidas	-12.0301
▁operar	-12.0309
▁libres	-12.0316
▁oscur	-12.032
Hablas	-12.032
▁bu	-12.0322
Deja	-12.0333
▁organ	-12.0335
▁ch	-12.0337
▁exit	-12.0339
tara	-12.034
▁absurd	-12.0341
▁official	-12.0343
▁siguen	-12.0344
▁registr	-12.0345
▁recibi	-12.0346
employed	-12.0346
for	-12.0347
Sobre	-12.0347
▁blam	-12.0347
▁dedic	-12.0348
Will	-12.035
▁period	-12.0352
made	-12.0353
▁image	-12.0354
nna	-12.0354
▁montó	-12.0355
▁ranch	-12.0361
▁pusi	-12.0364
plica	-12.0376
▁pistol	-12.0376
▁bark	-12.0377
▁surrender	-12.0385
▁accomplish	-12.0386
▁defeat	-12.0386
▁cuán	-12.0387
▁novelist	-12.0387
▁incredibl	-12.0387
▁repetir	-12.0388
▁cuadra	-12.039
▁caí	-12.039
▁potato	-12.0393
▁happie	-12.0393
▁probado	-12.0393
▁aquél	-12.0395
▁estupenda	-12.0396
▁Cu	-12.0396
wimming	-12.0398
▁comfort	-12.0399
▁declara	-12.0399
▁Disneyland	-12.0399
▁spoon	-12.0399
▁depart	-12.0399
▁cha	-12.0399
▁stiff	-12.0399
▁Dormí	-12.0399
▁Egipto	-12.0399
▁February	-12.0399
▁Gobierno	-12.0399
▁Serbia	-12.0399
▁Smith	-12.0399
▁Twitter	-12.0399
▁aprecio	-12.0399
▁apuñaló	-12.0399
▁atmosphere	-12.0399
▁atmósfera	-12.0399
▁bastón	-12.0399
▁cadena	-12.0399
▁coartada	-12.0399
▁continúa	-12.0399
▁delegate	-12.0399
▁embassy	-12.0399
▁engañado	-12.0399
▁febrero	-12.0399
▁helmet	-12.0399
▁indispensable	-12.0399
▁invisible	-12.0399
▁jersey	-12.0399
▁maletero	-12.0399
▁olvidadizo	-12.0399
▁perfume	-12.0399
▁pésima	-12.0399
▁reconocí	-12.0399
▁región	-12.0399
▁remote	-12.0399
▁resemblance	-12.0399
▁sacerdote	-12.0399
▁scheme	-12.0399
▁solving	-12.0399
▁soñado	-12.0399
▁steak	-12.0399
▁suspicion	-12.0399
▁uncomfortable	-12.0399
▁victoria	-12.0399
▁vodka	-12.0399
▁voleibol	-12.0399
▁además	-12.0399
▁chemistry	-12.0399
▁colección	-12.0399
▁miércoles	-12.0399
▁outdoors	-12.0399
▁raqueta	-12.0399
▁statue	-12.0399
▁construction	-12.0399
▁dawn	-12.0399
▁juramento	-12.0399
▁pledge	-12.0399
▁recién	-12.0399
▁risa	-12.0399
▁prohíb	-12.0399
▁siglo	-12.0399
Empecemos	-12.0399
▁flea	-12.0399
▁pollera	-12.0399
▁textbook	-12.0399
▁apropiado	-12.0399
▁fifth	-12.0399
▁viniendo	-12.0399
▁cueva	-12.0399
▁hurried	-12.0399
▁petición	-12.0399
▁registradora	-12.0399
▁assistance	-12.0399
▁despegó	-12.0399
▁forzado	-12.0399
▁pudiste	-12.0399
▁tries	-12.0399
▁enojó	-12.0399
▁perdida	-12.0399
▁creciendo	-12.0399
▁Teresa	-12.04
▁condujera	-12.04
▁detallada	-12.04
▁perdiste	-12.04
▁fumo	-12.04
omic	-12.04
▁postura	-12.04
▁production	-12.04
▁presentimiento	-12.04
▁saqué	-12.04
rubbed	-12.04
▁queráis	-12.04
▁ignorance	-12.04
▁essay	-12.04
▁aggressive	-12.04
▁comenzando	-12.04
▁modales	-12.04
▁Kong	-12.04
▁jarra	-12.04
▁hola	-12.04
▁Pro	-12.04
▁downtown	-12.04
▁empecé	-12.04
▁concentrarme	-12.04
▁pobreza	-12.0401
▁sucediendo	-12.0401
▁latín	-12.0401
▁tolerate	-12.0401
▁ninety	-12.0401
▁scarce	-12.0401
▁kidnapped	-12.0401
▁pride	-12.0401
▁oath	-12.0401
▁hunter	-12.0401
▁blonde	-12.0401
▁severo	-12.0401
▁contrató	-12.0402
▁frontera	-12.0402
▁secretaria	-12.0402
▁aventura	-12.0402
▁effective	-12.0402
▁ceremonia	-12.0402
▁guide	-12.0402
▁típico	-12.0402
▁corona	-12.0403
▁reality	-12.0403
▁agradecerte	-12.0403
▁talkative	-12.0403
▁parties	-12.0403
▁pace	-12.0403
▁quint	-12.0403
▁element	-12.0403
▁chew	-12.0403
▁retrasado	-12.0403
▁comprendo	-12.0404
▁solid	-12.0404
▁previsto	-12.0404
▁arruinado	-12.0404
▁jar	-12.0405
▁conciencia	-12.0405
▁dudo	-12.0405
▁estatua	-12.0405
▁intenté	-12.0405
▁castigado	-12.0405
▁relajado	-12.0406
Donald	-12.0406
▁cheerful	-12.0407
▁chef	-12.0407
ative	-12.0407
▁sword	-12.0408
cking	-12.0408
▁besando	-12.0408
▁plead	-12.0408
▁awesome	-12.041
▁yelling	-12.041
▁hunger	-12.041
▁harp	-12.0411
▁función	-12.0411
stico	-12.0411
▁state	-12.0411
▁sana	-12.0412
▁congratulated	-12.0412
▁retiró	-12.0412
▁sándwiches	-12.0413
▁lastimado	-12.0413
▁incredible	-12.0414
▁servirá	-12.0414
▁apuntes	-12.0414
▁Saca	-12.0414
▁defeated	-12.0415
▁collected	-12.0415
▁correctamente	-12.0416
▁especialmente	-12.0417
▁levantarte	-12.0417
▁sobrevivió	-12.0418
▁pido	-12.0418
▁nave	-12.0418
▁respira	-12.0418
vas	-12.0419
▁evidente	-12.0419
▁sufre	-12.042
▁resigned	-12.0421
▁frozen	-12.0421
▁shooting	-12.0422
▁install	-12.0422
▁prayed	-12.0422
▁mientas	-12.0424
▁interrupted	-12.0426
▁importaba	-12.0426
▁repairing	-12.0427
▁temas	-12.0429
▁aprovechar	-12.0429
▁Apple	-12.0432
▁advanced	-12.0433
gging	-12.0433
▁practicar	-12.0433
▁contenta	-12.0433
▁retirar	-12.0433
▁dial	-12.0436
▁matarme	-12.0436
▁Move	-12.0436
▁robot	-12.0437
▁horno	-12.0438
▁pensarlo	-12.0439
▁knocking	-12.044
▁llamaron	-12.0441
▁huérfano	-12.0441
▁cure	-12.0442
▁expenses	-12.0442
▁planeado	-12.0442
▁acompañar	-12.0444
▁pronuncia	-12.0444
▁vendedor	-12.0444
▁estaciones	-12.0447
▁entendió	-12.0447
▁rancho	-12.0447
▁helpless	-12.0449
▁ayudaros	-12.0449
▁landed	-12.0449
▁Huele	-12.045
▁empezamos	-12.0452
▁litera	-12.0453
▁consideran	-12.0453
▁hamburguesas	-12.0455
▁Charle	-12.0457
▁compraría	-12.046
▁recuperar	-12.0464
▁Pass	-12.0466
▁rollo	-12.0469
▁Aprende	-12.0469
▁sung	-12.0474
▁funcione	-12.0475
▁dresses	-12.0475
▁Vari	-12.0476
▁counting	-12.0481
▁idiotas	-12.0483
▁camel	-12.0483
▁rumores	-12.0483
▁Pasó	-12.0487
▁blancos	-12.0487
▁abogados	-12.0487
▁consiste	-12.0489
▁Llen	-12.049
▁theft	-12.049
▁Yes	-12.0495
▁boxes	-12.0497
▁fatal	-12.05
ula	-12.05
▁decepciona	-12.05
▁compraron	-12.0501
▁estampillas	-12.0504
▁británicos	-12.0504
▁arrancar	-12.0514
▁armed	-12.0516
▁impos	-12.0518
▁alike	-12.0519
▁probó	-12.0522
▁windy	-12.053
▁plátanos	-12.0536
▁customers	-12.0536
edí	-12.0546
▁acto	-12.0548
▁ballenas	-12.0552
▁agrees	-12.0553
▁cambios	-12.0556
▁aboard	-12.0556
▁exams	-12.0556
▁sorprendente	-12.0557
▁despegar	-12.0562
ring	-12.0563
ged	-12.0563
ace	-12.0567
▁skills	-12.0569
▁rested	-12.057
▁preguntado	-12.0576
cle	-12.0584
▁estaremos	-12.0584
V	-12.0586
▁Viví	-12.0598
▁Pa	-12.0599
Desea	-12.06
▁ruedas	-12.0601
▁Sírva	-12.0603
▁creci	-12.0608
▁forgiven	-12.0609
con	-12.061
▁Mc	-12.0612
▁mudar	-12.0614
▁elefantes	-12.0617
▁comments	-12.0617
▁crecer	-12.0625
Han	-12.0626
▁pedazos	-12.0634
▁mental	-12.0635
▁pare	-12.0642
▁Aquello	-12.0644
▁cheques	-12.065
ué	-12.0656
▁relate	-12.0658
▁desat	-12.0662
▁Edi	-12.0667
ally	-12.0679
▁Estaría	-12.0679
▁sucios	-12.0683
▁curtains	-12.0683
▁explica	-12.0686
▁pinch	-12.0687
▁puestos	-12.0695
▁explic	-12.0722
▁andaba	-12.0727
cá	-12.0728
▁confund	-12.0729
▁phoned	-12.0761
▁antiguas	-12.0765
▁enfrentar	-12.0766
itas	-12.0768
H	-12.0776
bamos	-12.0783
▁tocado	-12.0785
▁pills	-12.0791
▁wasted	-12.0791
▁hundreds	-12.08
▁lid	-12.081
▁Ponl	-12.0819
▁antiguos	-12.0831
▁heridas	-12.0831
ció	-12.0832
ntó	-12.084
gir	-12.0846
▁Piensa	-12.085
▁miré	-12.0853
▁informar	-12.0865
▁notes	-12.0879
▁mix	-12.088
ping	-12.0881
▁needle	-12.0889
▁dig	-12.0892
line	-12.0894
▁sincere	-12.0896
▁riesgos	-12.0915
▁aliment	-12.0918
▁becomes	-12.0956
0,000	-12.0961
▁ignor	-12.0962
▁leía	-12.0966
▁Busca	-12.0973
▁viajes	-12.0982
▁estudios	-12.0982
▁llenos	-12.0986
▁honesta	-12.0992
taron	-12.0994
▁atrapados	-12.1
yeron	-12.1001
▁compensa	-12.1002
▁provoc	-12.1022
▁exception	-12.1024
▁Levanta	-12.1032
▁stones	-12.105
▁bitte	-12.1051
▁fina	-12.1074
▁Echa	-12.1077
ack	-12.1084
eth	-12.1087
▁handy	-12.1098
▁tristes	-12.1101
▁fac	-12.1116
put	-12.1116
dores	-12.1122
▁entienda	-12.1122
▁granjero	-12.1124
▁truco	-12.1124
▁Hu	-12.1125
▁tigre	-12.1127
▁turista	-12.1129
▁bonitos	-12.1136
▁desconocido	-12.1142
▁skill	-12.1143
▁clave	-12.1152
▁pesos	-12.1152
▁moleste	-12.1156
▁grado	-12.1161
▁Déje	-12.1166
▁seguí	-12.1169
▁extend	-12.1176
ndá	-12.1177
ster	-12.1193
▁Disfruta	-12.1199
▁ref	-12.12
▁cases	-12.1207
▁ju	-12.1217
ltimamente	-12.1219
▁nativos	-12.1222
▁Llam	-12.1247
▁asks	-12.1247
Termina	-12.1255
Recibi	-12.1256
Toca	-12.1256
Mañana	-12.1259
Mira	-12.126
▁juegas	-12.126
Vos	-12.126
Queda	-12.1261
raw	-12.1262
▁deliver	-12.1263
talo	-12.1263
▁respeta	-12.1263
▁ancho	-12.1266
▁suits	-12.1271
▁Confí	-12.1275
0,	-12.1275
ándole	-12.1277
zed	-12.1281
▁Entré	-12.1284
▁buscas	-12.1288
▁vet	-12.1289
▁yell	-12.129
ngeles	-12.129
▁chinos	-12.1293
▁bebí	-12.1294
▁develop	-12.1295
▁punish	-12.1296
▁destroy	-12.1296
▁crawl	-12.1296
cientists	-12.1296
▁aprecia	-12.1298
▁condena	-12.1301
▁recent	-12.1303
▁lamenta	-12.1306
▁inmediata	-12.1306
▁reciente	-12.1306
▁abuelos	-12.1306
▁aparenta	-12.1307
▁asombr	-12.1307
▁engaño	-12.1307
▁orgullo	-12.1307
tudents	-12.1307
▁ubica	-12.1308
▁Break	-12.1308
▁Black	-12.1308
▁aclarar	-12.1308
▁estricta	-12.1308
▁financiera	-12.1308
▁lógica	-12.1308
Entendiste	-12.1308
caño	-12.1308
▁Admir	-12.1308
▁Berlin	-12.1308
▁Columbus	-12.1308
▁Colón	-12.1308
▁Escocia	-12.1308
▁Greece	-12.1308
▁Nevó	-12.1308
▁Ocean	-12.1308
▁Scotland	-12.1308
▁Valentin	-12.1308
▁acknowledge	-12.1308
▁aliviado	-12.1308
▁almuerza	-12.1308
▁appropriate	-12.1308
▁awoke	-12.1308
▁bathtub	-12.1308
▁blouse	-12.1308
▁blusa	-12.1308
▁bufanda	-12.1308
▁chalk	-12.1308
▁cordones	-12.1308
▁diablo	-12.1308
▁dieciséis	-12.1308
▁divertimos	-12.1308
▁estricto	-12.1308
▁estropeado	-12.1308
▁estupidez	-12.1308
▁fluidamente	-12.1308
▁graduó	-12.1308
▁imágenes	-12.1308
▁insecure	-12.1308
▁intenciones	-12.1308
▁locura	-12.1308
▁maravilla	-12.1308
▁maíz	-12.1308
▁minifalda	-12.1308
▁oigo	-12.1308
▁pausa	-12.1308
▁positive	-12.1308
▁ritmo	-12.1308
▁récord	-12.1308
▁sanguíneo	-12.1308
▁shoelaces	-12.1308
▁skating	-12.1308
▁smooth	-12.1308
▁soñar	-12.1308
▁spaghetti	-12.1308
▁starving	-12.1308
▁surgery	-12.1308
▁tattoo	-12.1308
▁telefónico	-12.1308
▁terminé	-12.1308
▁traitor	-12.1308
▁trousers	-12.1308
▁tunnel	-12.1308
▁término	-12.1308
▁undressing	-12.1308
▁unpleasant	-12.1308
▁victory	-12.1308
▁worries	-12.1308
▁ópera	-12.1308
▁Grecia	-12.1308
▁curiosity	-12.1308
▁deportivo	-12.1308
▁marrón	-12.1308
▁nowadays	-12.1308
▁perezoso	-12.1308
▁sueltes	-12.1308
▁Buy	-12.1308
▁Cross	-12.1308
▁fellow	-12.1308
▁kitten	-12.1308
▁noventa	-12.1308
▁temple	-12.1308
▁traidor	-12.1308
▁backyard	-12.1308
▁fluidez	-12.1308
▁jerk	-12.1308
▁link	-12.1308
▁stirr	-12.1308
▁Finally	-12.1308
▁battery	-12.1308
▁multa	-12.1308
▁Arabic	-12.1308
▁Doctor	-12.1308
▁atractivo	-12.1308
▁esperábamos	-12.1308
▁propiedad	-12.1308
▁wolves	-12.1308
stiny	-12.1308
▁Finish	-12.1308
▁Podía	-12.1308
▁apague	-12.1308
▁performance	-12.1308
▁bañera	-12.1308
▁lío	-12.1308
▁technology	-12.1308
▁shampoo	-12.1308
▁pendiente	-12.1308
▁sorprendida	-12.1308
exican	-12.1309
▁dirige	-12.1309
▁expresión	-12.1309
▁pecho	-12.1309
▁apuesta	-12.1309
▁cabaña	-12.1309
▁túnel	-12.1309
▁cocinera	-12.1309
▁palacio	-12.1309
▁encontraba	-12.1309
▁comiera	-12.1309
▁swimmer	-12.1309
▁investigating	-12.1309
▁creature	-12.1309
▁freedom	-12.1309
▁supiste	-12.1309
▁nacier	-12.1309
▁generation	-12.1309
▁rug	-12.1309
▁fluido	-12.1309
▁suministros	-12.1309
▁agenda	-12.1309
▁canasta	-12.1309
▁housework	-12.1309
▁capítulo	-12.1309
▁cavando	-12.1309
▁Manténga	-12.1309
▁dining	-12.1309
▁acabe	-12.1309
▁complicada	-12.1309
▁freezing	-12.1309
▁inherit	-12.1309
▁relajarme	-12.1309
▁respiración	-12.1309
▁Comencemos	-12.131
▁florero	-12.131
▁investment	-12.131
▁repentinamente	-12.131
▁Hagámoslo	-12.131
▁marzo	-12.131
▁atajo	-12.131
▁Disfrut	-12.131
▁rebel	-12.131
▁Anota	-12.131
▁Year	-12.131
▁pura	-12.131
▁genuine	-12.131
▁lloraba	-12.131
▁baking	-12.131
▁aviso	-12.131
▁soltó	-12.131
▁movió	-12.131
▁Conseguí	-12.1311
▁exploded	-12.1311
▁Gira	-12.1311
▁disculparme	-12.1311
▁tardará	-12.1311
▁aplaudió	-12.1311
▁sentarnos	-12.1311
▁confiado	-12.1311
▁impresionante	-12.1311
▁pantalla	-12.1311
▁vidrio	-12.1311
▁invest	-12.1311
▁descuento	-12.1311
▁divirtió	-12.1311
▁joyas	-12.1311
▁ladrando	-12.1311
▁whispered	-12.1311
▁Quéde	-12.1311
▁defender	-12.1312
▁salimos	-12.1312
▁proposed	-12.1312
▁arranged	-12.1312
▁despidieron	-12.1312
▁atropellado	-12.1312
▁ruinas	-12.1312
▁aceptable	-12.1313
▁fried	-12.1313
▁salgo	-12.1313
▁ligera	-12.1313
▁panic	-12.1313
▁confiaba	-12.1313
▁Desayun	-12.1313
▁parezca	-12.1314
▁Luce	-12.1314
▁conditioner	-12.1314
▁arriesgado	-12.1314
▁trash	-12.1314
▁severe	-12.1315
▁Claro	-12.1315
▁Music	-12.1315
▁oíste	-12.1315
▁pronunciar	-12.1315
▁Aparentemente	-12.1315
▁directly	-12.1316
▁declaración	-12.1316
▁fumando	-12.1316
▁personaje	-12.1316
▁praised	-12.1317
▁acostarme	-12.1318
▁chased	-12.1318
▁responde	-12.1319
▁tira	-12.1321
▁regularly	-12.1322
▁doscient	-12.1323
▁volunteered	-12.1323
▁dejando	-12.1323
▁cancelado	-12.1323
▁novelista	-12.1323
▁White	-12.1323
▁waved	-12.1323
cendió	-12.1324
▁gum	-12.1325
▁entrado	-12.1325
▁tomaste	-12.1326
▁distracted	-12.1326
▁Fall	-12.1326
▁contenido	-12.1327
▁settled	-12.1327
▁folded	-12.1328
▁boiled	-12.1328
▁recuperará	-12.1329
▁coughing	-12.1329
▁yelled	-12.133
▁matches	-12.133
▁sinking	-12.1333
▁jumping	-12.1335
▁Texas	-12.1335
▁circunstancias	-12.1335
▁jewels	-12.1335
▁kilograms	-12.1335
▁zanahorias	-12.1335
▁section	-12.1336
▁pagan	-12.1336
▁King	-12.1337
▁lavarse	-12.1341
▁espaldas	-12.1343
▁llovi	-12.1344
▁besara	-12.1344
▁logra	-12.1345
▁mango	-12.1346
▁salía	-12.1346
Entiende	-12.1347
▁caras	-12.135
▁resfriar	-12.135
▁escucharlo	-12.1351
▁pounds	-12.1353
▁fritas	-12.1353
▁waiter	-12.1354
▁matarte	-12.1356
▁divorciar	-12.1357
▁canal	-12.1357
▁estante	-12.1358
▁planeaba	-12.1358
▁sides	-12.1359
▁fij	-12.136
▁ponerlo	-12.136
▁Vení	-12.1363
▁Cay	-12.1364
▁nado	-12.1365
▁entendía	-12.1366
▁eleva	-12.1367
▁ruidosa	-12.1369
▁cuidará	-12.1369
▁consequences	-12.137
▁leftovers	-12.137
▁ratas	-12.1372
▁cantaba	-12.1374
▁verás	-12.1378
▁Gran	-12.1379
▁safely	-12.1379
▁pluck	-12.1383
▁decorate	-12.1386
▁inusual	-12.1388
▁pastillas	-12.1389
▁secreta	-12.1389
cera	-12.1393
▁finales	-12.1395
▁paintings	-12.1396
▁Presta	-12.14
▁include	-12.1402
▁lleguemos	-12.1404
▁lightly	-12.1405
▁vegetarianos	-12.1407
▁llevarlo	-12.1409
▁sudor	-12.141
▁shortly	-12.141
▁falló	-12.1413
ómete	-12.1414
▁wire	-12.1416
▁brakes	-12.1423
▁trabajas	-12.1424
▁asco	-12.1424
▁Corta	-12.1432
▁constante	-12.1438
▁bills	-12.1446
▁limit	-12.1447
▁pron	-12.1451
▁Rein	-12.1453
▁dejase	-12.1453
▁transfer	-12.1479
▁Pi	-12.1488
▁protesta	-12.1488
Escribí	-12.1495
▁mass	-12.1495
tled	-12.15
▁seco	-12.1503
▁pila	-12.1508
▁tricks	-12.1512
▁cows	-12.1512
▁bags	-12.1515
▁tiendas	-12.1516
▁cepillar	-12.1517
▁lines	-12.152
▁Red	-12.1527
▁clo	-12.1532
▁leads	-12.154
▁Old	-12.1559
▁arañas	-12.1564
▁conozcas	-12.1566
▁quedarás	-12.1572
▁aid	-12.1574
▁quita	-12.1575
▁escase	-12.1575
▁visitas	-12.1579
▁postal	-12.158
▁retir	-12.1585
▁numbers	-12.1586
▁east	-12.1592
▁volvía	-12.1596
▁indicar	-12.1598
▁doctores	-12.1601
▁cops	-12.1605
▁desperdicia	-12.1612
▁abras	-12.1621
▁causar	-12.1623
rate	-12.1637
▁mas	-12.1653
▁relaja	-12.1656
Esa	-12.1657
▁fund	-12.1658
car	-12.1659
▁tra	-12.1664
▁lessons	-12.1675
▁horne	-12.1675
▁grita	-12.1683
▁soltar	-12.1684
▁funcionan	-12.1687
▁acompañ	-12.1702
▁Ayuda	-12.1706
▁wan	-12.1715
ions	-12.1717
▁borrachos	-12.1717
▁foods	-12.1723
▁cajas	-12.1726
▁dejará	-12.1727
▁Times	-12.173
berg	-12.1736
▁Ste	-12.1745
▁interfere	-12.1756
▁buildings	-12.1764
▁fracasar	-12.1767
ial	-12.1772
▁hábitos	-12.1785
▁solicit	-12.1789
▁lamentar	-12.1791
▁modera	-12.1791
▁Leer	-12.18
▁Recibi	-12.1812
alo	-12.1814
▁gal	-12.1814
▁persuadir	-12.1817
▁Acepta	-12.1817
▁podr	-12.1823
▁eche	-12.1825
▁sabíamos	-12.1829
▁interfer	-12.1835
▁desprecia	-12.1847
▁pela	-12.1853
▁hablarte	-12.186
▁relacion	-12.1872
▁hombros	-12.1877
▁permaneci	-12.1877
▁enfada	-12.1891
▁messages	-12.19
▁pacientes	-12.19
▁lograr	-12.1905
▁derram	-12.191
▁Cuida	-12.191
▁continu	-12.193
▁quejar	-12.1935
iéramos	-12.1937
▁sl	-12.1937
Quier	-12.194
▁Descubr	-12.1947
aga	-12.1949
▁terremotos	-12.197
▁atra	-12.1972
▁1,000	-12.198
▁complains	-12.1984
▁qui	-12.1998
rado	-12.2001
▁ocult	-12.2018
▁cumpl	-12.2019
▁Cruz	-12.202
Encontra	-12.2021
▁Ap	-12.2026
▁ladrar	-12.2028
read	-12.2031
▁produ	-12.2048
▁atrev	-12.2052
▁loses	-12.2055
▁ascenso	-12.2059
▁alert	-12.2073
▁vegetarian	-12.2074
▁Entr	-12.2078
▁Gan	-12.2081
▁cri	-12.2088
▁Eve	-12.209
▁boil	-12.2096
▁wrap	-12.2097
▁habits	-12.2102
▁navideña	-12.2114
▁vitamin	-12.2118
▁effect	-12.2118
▁monkey	-12.2118
▁oveja	-12.2118
ísima	-12.2119
▁teenager	-12.212
▁slice	-12.2121
▁engineer	-12.2122
▁víctima	-12.2122
▁suyos	-12.2123
▁spider	-12.2124
▁camello	-12.2125
▁beginner	-12.2125
▁ballena	-12.2126
▁antique	-12.2127
▁adolescente	-12.2127
▁tiger	-12.2127
rk	-12.2129
light	-12.213
▁horn	-12.2131
▁separado	-12.2133
▁vitamina	-12.2136
▁políticas	-12.214
▁descans	-12.2148
▁cortas	-12.2156
▁Nadar	-12.216
▁toman	-12.2175
▁zapato	-12.2175
char	-12.2187
▁envejec	-12.2191
▁groups	-12.2197
▁Terminé	-12.22
▁industria	-12.2207
▁Canta	-12.2215
▁congela	-12.2215
tazo	-12.2223
▁Empezar	-12.2224
▁cas	-12.2226
▁satisfechos	-12.2236
encia	-12.2244
cómo	-12.2255
▁verdaderos	-12.2255
Llama	-12.2257
Querría	-12.2258
cerró	-12.2259
Gracias	-12.2259
Ayer	-12.2259
Oh	-12.2259
Aquí	-12.226
You	-12.2261
▁bloque	-12.2264
▁discover	-12.2266
▁acuest	-12.2269
▁aprovech	-12.2272
▁apoya	-12.2273
▁bolígrafos	-12.2274
▁agradec	-12.2275
▁rechazar	-12.2276
▁superfici	-12.2284
▁celebrar	-12.2285
▁jugado	-12.2285
▁guarantee	-12.2291
▁shave	-12.2293
▁congratulate	-12.2293
rime	-12.2294
▁reserve	-12.2295
▁dye	-12.2295
▁reveal	-12.2295
▁pico	-12.2296
▁worker	-12.2296
▁burlar	-12.23
▁Usual	-12.2301
rale	-12.2302
▁assemble	-12.2302
ártelo	-12.2304
▁compose	-12.2305
▁hábil	-12.2305
▁tímida	-12.2305
▁measure	-12.2307
▁descon	-12.2307
▁indulge	-12.2308
▁natal	-12.2308
▁circula	-12.2308
▁occur	-12.2308
▁Disney	-12.2308
nstead	-12.2308
ustria	-12.2308
▁architect	-12.2308
ealand	-12.2308
elanda	-12.2308
▁Actualmente	-12.2308
▁Adonde	-12.2308
▁Argentina	-12.2308
▁August	-12.2308
▁Business	-12.2308
▁Catholic	-12.2308
▁Chopin	-12.2308
▁Darwin	-12.2308
▁Dáselo	-12.2308
▁Flash	-12.2308
▁Monroe	-12.2308
▁Napole	-12.2308
▁November	-12.2308
▁Okinawa	-12.2308
▁Pacific	-12.2308
▁Pacífico	-12.2308
▁Sapporo	-12.2308
▁Sentémonos	-12.2308
▁Shinjuku	-12.2308
▁Turkey	-12.2308
▁Verdaderamente	-12.2308
▁aficionado	-12.2308
▁agresivo	-12.2308
▁alivio	-12.2308
▁almacén	-12.2308
▁alternative	-12.2308
▁arquitecto	-12.2308
▁asqueroso	-12.2308
▁asustó	-12.2308
▁attorney	-12.2308
▁barefoot	-12.2308
▁bloom	-12.2308
▁buzón	-12.2308
▁castaño	-12.2308
▁century	-12.2308
▁ceremony	-12.2308
▁champion	-12.2308
▁chemical	-12.2308
▁cicatriz	-12.2308
▁claridad	-12.2308
▁commercial	-12.2308
▁conocida	-12.2308
▁curioso	-12.2308
▁declared	-12.2308
▁desafortunado	-12.2308
▁desafío	-12.2308
▁dismissed	-12.2308
▁engagement	-12.2308
▁estacionamiento	-12.2308
▁etiqueta	-12.2308
▁filosofía	-12.2308
▁fotógrafo	-12.2308
▁generoso	-12.2308
▁globo	-12.2308
▁grandparents	-12.2308
▁identical	-12.2308
▁improving	-12.2308
▁interview	-12.2308
▁kanji	-12.2308
▁koala	-12.2308
▁laguna	-12.2308
▁laundry	-12.2308
▁llámame	-12.2308
▁magnífica	-12.2308
▁mahjong	-12.2308
▁mischievous	-12.2308
▁nevada	-12.2308
▁niñito	-12.2308
▁overcoat	-12.2308
▁oysters	-12.2308
▁physical	-12.2308
▁plástico	-12.2308
▁promoted	-12.2308
▁rabia	-12.2308
▁rastro	-12.2308
▁resaca	-12.2308
▁response	-12.2308
▁semestre	-12.2308
▁shade	-12.2308
▁simply	-12.2308
▁sostenía	-12.2308
▁stifle	-12.2308
▁templo	-12.2308
▁tractor	-12.2308
▁translator	-12.2308
▁travieso	-12.2308
▁unmarried	-12.2308
▁venture	-12.2308
▁whining	-12.2308
▁zumo	-12.2308
▁Éra	-12.2308
▁Georg	-12.2308
▁amateur	-12.2308
▁blog	-12.2308
▁female	-12.2308
▁hangover	-12.2308
▁literature	-12.2308
▁malgaste	-12.2308
▁niega	-12.2308
▁omelet	-12.2308
▁paranoico	-12.2308
▁splash	-12.2308
▁surgeon	-12.2308
▁zero	-12.2308
▁agrado	-12.2308
▁contagious	-12.2308
▁defendant	-12.2308
▁paranoid	-12.2308
▁pedimos	-12.2308
▁sixteen	-12.2308
▁entrevista	-12.2308
▁plazo	-12.2308
▁Junt	-12.2308
▁Wow	-12.2308
▁identidad	-12.2308
▁recipe	-12.2308
▁trial	-12.2308
▁University	-12.2308
▁excursión	-12.2308
▁prevenir	-12.2308
▁reproductor	-12.2308
▁receta	-12.2308
▁patético	-12.2308
▁plaza	-12.2308
▁sonrieron	-12.2308
▁Biwa	-12.2308
▁abriera	-12.2308
▁symbol	-12.2308
▁equipment	-12.2308
▁Atrap	-12.2308
▁Translat	-12.2308
▁balloon	-12.2308
▁fantastic	-12.2308
▁mailbox	-12.2308
▁Brazilian	-12.2308
▁poverty	-12.2308
▁software	-12.2308
▁tolerar	-12.2308
▁gorra	-12.2309
▁fax	-12.2309
▁mentirosa	-12.2309
▁morder	-12.2309
▁refund	-12.2309
▁sweep	-12.2309
▁closing	-12.2309
▁giró	-12.2309
▁neat	-12.2309
▁combine	-12.2309
▁espada	-12.2309
▁espía	-12.2309
▁fascinated	-12.2309
▁tumor	-12.2309
▁flush	-12.2309
▁sufriendo	-12.2309
▁Turquía	-12.2309
▁engordado	-12.2309
▁Class	-12.2309
▁Volvamos	-12.2309
▁explor	-12.2309
▁aliado	-12.2309
▁privada	-12.2309
▁sintieron	-12.2309
▁rompí	-12.2309
▁Perdona	-12.2309
▁huir	-12.2309
▁Obviamente	-12.2309
▁sentencia	-12.2309
▁pub	-12.2309
▁compro	-12.2309
▁factura	-12.2309
▁assist	-12.2309
▁diploma	-12.2309
▁demora	-12.2309
▁shovel	-12.2309
▁crew	-12.2309
▁campus	-12.2309
▁Gold	-12.2309
▁obligación	-12.2309
▁venganza	-12.2309
Eh	-12.2309
▁humiliated	-12.2309
▁palace	-12.2309
▁existencia	-12.231
▁chatting	-12.231
▁poderoso	-12.231
▁expression	-12.231
▁reluctantly	-12.231
▁accidentally	-12.231
▁leyera	-12.231
▁necessity	-12.231
▁sympathy	-12.231
▁mask	-12.231
▁grites	-12.231
▁applauded	-12.231
▁invitaste	-12.231
▁tropical	-12.2311
▁frequently	-12.2311
▁adquir	-12.2311
▁entusiasmado	-12.2311
▁personalidad	-12.2311
▁ilusión	-12.2311
▁terrified	-12.2311
▁trace	-12.2311
▁olla	-12.2311
▁relief	-12.2311
▁photographer	-12.2311
▁perdonado	-12.2311
▁reconozco	-12.2311
▁hook	-12.2311
▁observó	-12.2312
▁sediento	-12.2312
▁chest	-12.2312
Podrá	-12.2312
▁tomatoes	-12.2313
▁preguntes	-12.2313
▁tirado	-12.2313
▁billion	-12.2313
▁north	-12.2313
▁wandered	-12.2313
▁rendirse	-12.2313
▁vendré	-12.2314
▁ordenada	-12.2314
▁cuidadosa	-12.2314
▁sixty	-12.2314
▁gallo	-12.2314
▁connected	-12.2315
▁suavemente	-12.2315
▁approaching	-12.2315
▁severely	-12.2315
▁mudarse	-12.2315
▁golden	-12.2316
▁tortured	-12.2317
▁volviste	-12.2317
▁pintando	-12.2317
▁animó	-12.2317
▁occupied	-12.2318
▁entendieron	-12.2318
▁casé	-12.2318
▁Salgamos	-12.2318
▁molestarte	-12.2318
▁pensás	-12.2319
▁curry	-12.2319
▁lastimarte	-12.2319
▁contributed	-12.2319
▁apropiada	-12.232
▁tiza	-12.232
▁pegado	-12.2321
▁habilidades	-12.2321
▁adventure	-12.2321
▁recado	-12.2321
▁struggled	-12.2321
▁despedirme	-12.2321
▁revealed	-12.2321
Are	-12.2321
▁offended	-12.2322
▁created	-12.2322
▁negotiate	-12.2322
▁mueve	-12.2322
▁chewing	-12.2323
▁señales	-12.2324
▁familiarizado	-12.2324
▁shaved	-12.2324
▁acordarme	-12.2324
▁prime	-12.2325
▁esperá	-12.2325
▁comparado	-12.2325
▁vivimos	-12.2325
▁carrots	-12.2325
▁hopeless	-12.2326
▁Angeles	-12.2327
▁cenó	-12.2327
▁Run	-12.2327
▁Comamos	-12.2328
▁pidiera	-12.2329
▁rellenar	-12.2329
más	-12.2329
▁Teach	-12.233
▁guardado	-12.2331
▁slightly	-12.2332
▁culparte	-12.2332
▁envi	-12.2332
▁Six	-12.2333
▁hesitated	-12.2334
▁preguntarme	-12.2335
▁tightly	-12.2335
▁portón	-12.2336
▁interrupting	-12.2338
▁útiles	-12.2338
▁Jesus	-12.2338
▁Tenga	-12.2339
▁discovery	-12.2339
ugiero	-12.234
▁considerada	-12.2341
▁acceptable	-12.2341
cos	-12.2343
▁insultó	-12.2343
▁Marte	-12.2343
▁utter	-12.2345
▁Burn	-12.2345
▁tank	-12.2345
▁fold	-12.2347
cula	-12.2348
▁ordenadores	-12.235
▁impacto	-12.235
▁escalado	-12.2353
▁adoptar	-12.2354
▁abrazar	-12.2356
▁acerques	-12.2358
▁Part	-12.2359
▁agente	-12.2359
▁colgar	-12.2361
▁Adivina	-12.2363
▁correctly	-12.2363
▁arrestó	-12.2364
▁completed	-12.2364
nzaron	-12.2366
▁fro	-12.2366
▁veamos	-12.2368
▁sip	-12.2369
▁capa	-12.2369
▁gradual	-12.2371
▁oscurecie	-12.2374
▁registro	-12.2375
▁revisar	-12.2377
▁spy	-12.2377
▁fuertemente	-12.238
▁hablaste	-12.238
▁desmayar	-12.2383
▁prender	-12.2385
▁respected	-12.239
▁esperanzas	-12.239
▁grupos	-12.239
▁mejorado	-12.2392
▁Result	-12.2392
▁ages	-12.2392
▁preguntaré	-12.2393
▁vendrás	-12.2394
▁liberar	-12.2394
▁driven	-12.2395
▁frutos	-12.2397
▁muevas	-12.2397
▁alza	-12.2397
▁separa	-12.2398
▁cantado	-12.24
▁corredor	-12.24
▁corr	-12.2401
▁urge	-12.2409
▁papa	-12.2413
▁medi	-12.2413
▁discuta	-12.2413
▁huesos	-12.2416
▁frenos	-12.2418
▁mueren	-12.242
▁Hola	-12.242
▁apunta	-12.2425
▁pinturas	-12.2429
▁médicos	-12.2432
▁bears	-12.2433
▁manga	-12.2434
▁remarks	-12.2436
▁huellas	-12.2436
▁uniforms	-12.2438
▁Ford	-12.2442
▁palma	-12.2443
▁aproxima	-12.2453
▁owed	-12.2454
▁apuros	-12.2456
▁adivinar	-12.2461
Viniste	-12.2462
▁oculta	-12.2464
▁encantaba	-12.2464
▁veremos	-12.2464
▁risky	-12.2467
▁nicer	-12.2468
▁insulto	-12.2473
▁catching	-12.2474
aj	-12.2484
▁col	-12.2488
▁delito	-12.249
▁beginners	-12.2495
▁separados	-12.2496
▁vegetarians	-12.2496
▁empezará	-12.2497
▁buscado	-12.2498
▁pin	-12.2505
▁cruza	-12.2508
▁telephoned	-12.2514
▁torn	-12.2518
▁hab	-12.2519
ities	-12.2526
▁pedía	-12.2528
▁breaks	-12.2529
▁entrega	-12.2531
▁states	-12.2531
▁duermen	-12.2535
▁aterroriza	-12.2535
▁realiza	-12.2539
▁sneeze	-12.254
▁relatives	-12.2541
▁Drive	-12.2545
ssed	-12.2547
▁Count	-12.2555
▁cambies	-12.2555
▁rayos	-12.2555
▁equivocas	-12.2556
▁captur	-12.2575
▁incorrect	-12.2589
▁exp	-12.2594
▁reforma	-12.2619
▁Llegas	-12.2619
▁jugu	-12.263
▁Ganar	-12.2642
▁verlos	-12.2645
▁kn	-12.2651
▁customs	-12.2656
▁enamorados	-12.2667
▁shows	-12.2673
▁confi	-12.2678
▁sow	-12.2693
ika	-12.2695
▁mejillas	-12.2696
▁deudas	-12.2696
▁encogió	-12.2719
▁Mars	-12.2733
▁directions	-12.2737
▁app	-12.2774
term	-12.2777
▁cheeks	-12.2777
ether	-12.2781
▁ponen	-12.2784
▁chi	-12.2787
▁pizzas	-12.2788
▁quemé	-12.2791
▁cal	-12.2796
▁cerdos	-12.2798
▁aguanta	-12.2798
▁gotea	-12.2801
cio	-12.2803
▁absorb	-12.2809
anes	-12.281
▁unió	-12.2824
ash	-12.283
▁Iba	-12.2844
▁temor	-12.2849
▁estudiara	-12.2864
▁verse	-12.287
hanging	-12.2875
▁critic	-12.2878
arios	-12.2884
▁Traduc	-12.2887
▁diseases	-12.29
▁Cha	-12.2901
▁sentences	-12.291
table	-12.2912
▁contentos	-12.2913
▁billetes	-12.2921
▁incluye	-12.2925
Empezamos	-12.2925
▁casamos	-12.2934
shed	-12.2936
▁Corr	-12.2937
ments	-12.2937
lor	-12.2954
▁servicios	-12.2963
▁ventas	-12.2963
▁Bi	-12.2972
▁Lu	-12.2975
▁Termine	-12.2987
▁hu	-12.2989
▁castigar	-12.2996
▁Coc	-12.2998
zca	-12.3003
▁trueno	-12.3005
omo	-12.3016
▁serie	-12.3019
▁objetivos	-12.3025
▁casara	-12.303
▁meetings	-12.3036
atch	-12.3037
ío	-12.3038
▁Super	-12.3043
▁largos	-12.3046
▁vacías	-12.3046
10,000	-12.3046
▁trabaj	-12.305
dicated	-12.3079
▁cl	-12.3088
▁acusa	-12.3094
▁seconds	-12.3096
udo	-12.31
▁Gu	-12.3105
▁sub	-12.3107
▁sweets	-12.3109
▁earthquakes	-12.3109
▁gi	-12.3109
▁criar	-12.3111
▁orbit	-12.3115
▁acts	-12.3117
▁Encuentr	-12.3126
ap	-12.3129
jos	-12.3139
rust	-12.3147
done	-12.3155
board	-12.3158
irse	-12.3164
▁rumors	-12.3168
Las	-12.3169
▁caros	-12.3182
▁mayo	-12.3182
jamos	-12.32
▁lata	-12.3201
clined	-12.3206
▁derrota	-12.3208
▁Ser	-12.3209
▁dividi	-12.3209
▁cloud	-12.3211
▁inglesa	-12.3226
▁candidato	-12.3226
▁mosca	-12.3226
▁ingeniero	-12.3229
▁vehículo	-12.3229
▁Ayudé	-12.323
▁cer	-12.3231
▁abeja	-12.3232
▁affair	-12.3233
ison	-12.3234
▁desire	-12.3234
▁plátano	-12.3237
▁supplie	-12.3239
▁ingreso	-12.3239
▁pierda	-12.3239
▁customer	-12.3241
▁degree	-12.3241
▁grade	-12.3243
▁vegetable	-12.3244
▁item	-12.3245
▁sobra	-12.3248
▁elbow	-12.3252
▁esperas	-12.3257
▁Unido	-12.3261
tendré	-12.3263
▁diente	-12.3269
bel	-12.3274
▁Mari	-12.3275
land	-12.3277
▁vuelves	-12.3279
▁líneas	-12.3279
▁nervios	-12.3279
▁bodas	-12.328
▁atrae	-12.3283
primió	-12.3285
ablemente	-12.329
▁lea	-12.3296
▁cubr	-12.3296
▁presion	-12.3306
▁curar	-12.3307
Estuviste	-12.3308
▁nu	-12.3309
▁fuel	-12.331
▁recomiend	-12.3316
▁incendios	-12.3322
▁ricas	-12.3322
low	-12.3323
▁Much	-12.3324
resisti	-12.3329
▁adopta	-12.3333
▁Ke	-12.3336
▁industrial	-12.3338
▁comporta	-12.3352
▁crow	-12.3354
ísimas	-12.336
Juega	-12.3366
pressed	-12.3368
ili	-12.337
puedo	-12.337
what	-12.337
Hoy	-12.337
▁estúpidos	-12.337
▁impact	-12.337
▁zapat	-12.3372
▁demandar	-12.3375
▁recover	-12.3375
▁adivina	-12.3378
Quería	-12.3383
▁Dur	-12.3385
▁relativ	-12.3388
▁afecta	-12.3391
▁hablará	-12.3395
▁sujet	-12.3402
ddle	-12.3403
▁remove	-12.3404
▁rendir	-12.3405
▁chain	-12.3406
▁recompensa	-12.3407
uck	-12.3408
▁confuse	-12.3408
▁checks	-12.3408
▁bug	-12.3408
▁despe	-12.3409
▁valid	-12.3409
▁fabrica	-12.3409
▁elect	-12.3409
alth	-12.3411
▁implica	-12.3411
▁branch	-12.3412
▁levantas	-12.3412
▁cazador	-12.3413
▁nacional	-12.3413
▁horizon	-12.3413
▁immediate	-12.3414
nic	-12.3414
árselo	-12.3416
▁ho	-12.3417
▁threat	-12.3418
▁Happ	-12.3418
▁mow	-12.3418
▁pulse	-12.3419
▁cigar	-12.3419
▁process	-12.3419
uatro	-12.3419
▁Vietnam	-12.3419
▁blank	-12.3419
▁arruinar	-12.3419
▁Study	-12.3419
▁advertis	-12.3419
▁compliment	-12.3419
Estudias	-12.3419
▁Añad	-12.3419
▁Berlín	-12.3419
▁Coffee	-12.3419
▁Contact	-12.3419
▁Extraño	-12.3419
▁Kyushu	-12.3419
▁Nowadays	-12.3419
▁Portuguese	-12.3419
▁Sinceramente	-12.3419
▁Street	-12.3419
▁aliviar	-12.3419
▁amistoso	-12.3419
▁appeal	-12.3419
▁aprobación	-12.3419
▁arbusto	-12.3419
▁asignatura	-12.3419
▁atómica	-12.3419
▁autobuses	-12.3419
▁awkward	-12.3419
▁baboon	-12.3419
▁biología	-12.3419
▁bride	-12.3419
▁cajero	-12.3419
▁cambié	-12.3419
▁campamento	-12.3419
▁carácter	-12.3419
▁cerezo	-12.3419
▁chimney	-12.3419
▁cliff	-12.3419
▁clumsy	-12.3419
▁concierne	-12.3419
▁crítica	-12.3419
▁demonio	-12.3419
▁destination	-12.3419
▁devastated	-12.3419
▁dumped	-12.3419
▁enciende	-12.3419
▁envidia	-12.3419
▁equilibrio	-12.3419
▁escándalo	-12.3419
▁espagueti	-12.3419
▁estadística	-12.3419
▁eternidad	-12.3419
▁exaggerate	-12.3419
▁feroz	-12.3419
▁flauta	-12.3419
▁gossip	-12.3419
▁grammatical	-12.3419
▁idéntico	-12.3419
▁incumbe	-12.3419
▁injusta	-12.3419
▁insensitive	-12.3419
▁inteligencia	-12.3419
▁journey	-12.3419
▁maletín	-12.3419
▁maquillaje	-12.3419
▁misunderstood	-12.3419
▁muriera	-12.3419
▁mysterious	-12.3419
▁nephew	-12.3419
▁niñez	-12.3419
▁ostras	-12.3419
▁overweight	-12.3419
▁patatas	-12.3419
▁peluquería	-12.3419
▁pollution	-12.3419
▁postcard	-12.3419
▁propina	-12.3419
▁práctico	-12.3419
▁pulso	-12.3419
▁póquer	-12.3419
▁realizó	-12.3419
▁satisfactory	-12.3419
▁shadow	-12.3419
▁shelter	-12.3419
▁shortcut	-12.3419
▁siblings	-12.3419
▁sobrino	-12.3419
▁solitario	-12.3419
▁suegra	-12.3419
▁swept	-12.3419
▁símbolo	-12.3419
▁tatuaje	-12.3419
▁thunder	-12.3419
▁tropas	-12.3419
▁universitaria	-12.3419
▁volcano	-12.3419
▁votó	-12.3419
▁válido	-12.3419
▁Orange	-12.3419
▁Thai	-12.3419
▁aviones	-12.3419
▁bancarrota	-12.3419
▁cerradura	-12.3419
▁cueste	-12.3419
▁decís	-12.3419
▁extent	-12.3419
▁malvado	-12.3419
▁seatbelt	-12.3419
▁tercio	-12.3419
▁thread	-12.3419
▁tobillo	-12.3419
▁associate	-12.3419
▁cinta	-12.3419
▁esquiando	-12.3419
▁manteca	-12.3419
▁parecida	-12.3419
▁pediste	-12.3419
▁profundidad	-12.3419
▁semester	-12.3419
firiendo	-12.3419
▁cease	-12.3419
▁conservative	-12.3419
▁eligier	-12.3419
▁typewriter	-12.3419
▁ésos	-12.3419
▁ankle	-12.3419
▁biology	-12.3419
▁diversión	-12.3419
▁sneak	-12.3419
▁toothache	-12.3419
▁exige	-12.342
▁atasco	-12.342
▁camarero	-12.342
▁cristal	-12.342
▁qualified	-12.342
▁confesar	-12.342
▁mentiste	-12.342
▁pateó	-12.342
▁yawn	-12.342
▁clapped	-12.342
▁elderly	-12.342
▁melted	-12.342
▁roca	-12.342
▁intervino	-12.342
▁aferr	-12.342
▁Respet	-12.342
▁comunicación	-12.342
▁profit	-12.342
▁malgasta	-12.342
▁snack	-12.342
▁spinach	-12.342
▁temblaba	-12.342
▁perrito	-12.342
▁crezca	-12.342
▁hiking	-12.342
▁plastic	-12.342
▁revolución	-12.342
▁banjo	-12.342
▁corresponde	-12.342
▁volcán	-12.342
▁apesta	-12.342
▁despach	-12.342
▁abrazó	-12.342
▁mortal	-12.342
▁Madre	-12.342
▁generación	-12.342
▁guitarist	-12.342
▁gentle	-12.342
▁seafood	-12.342
▁atleta	-12.342
▁direcciones	-12.342
▁respondido	-12.342
▁quédate	-12.342
▁shaking	-12.342
▁snore	-12.342
▁desesperado	-12.342
▁activo	-12.342
▁Déjanos	-12.342
▁Detén	-12.342
▁Cow	-12.342
▁asiáticos	-12.342
▁complacer	-12.342
▁unsure	-12.342
▁majority	-12.342
▁statement	-12.342
▁expose	-12.342
▁Roll	-12.342
▁redacción	-12.342
▁tornillo	-12.342
▁esencial	-12.342
▁cattle	-12.342
▁Almorzamos	-12.342
▁numerosa	-12.342
▁colgando	-12.342
▁permitted	-12.342
▁interese	-12.342
▁dolía	-12.342
▁prometiste	-12.342
▁comimos	-12.3421
▁meditando	-12.3421
▁descubrimiento	-12.3421
▁pearl	-12.3421
▁heavier	-12.3421
▁mojada	-12.3421
▁puro	-12.3421
▁temía	-12.3421
▁fiable	-12.3421
▁download	-12.3421
▁obligation	-12.3421
▁mandé	-12.3421
▁dibujó	-12.3421
▁recto	-12.3421
▁azar	-12.3421
▁depriv	-12.3421
occer	-12.3421
▁conclusión	-12.3421
▁consideration	-12.3421
▁reparado	-12.3421
▁opponent	-12.3422
▁trasero	-12.3422
▁loyal	-12.3422
▁amarga	-12.3422
▁conducido	-12.3422
▁doloroso	-12.3422
▁hometown	-12.3422
▁atravesar	-12.3422
▁sacaste	-12.3422
▁vision	-12.3422
▁Remo	-12.3422
▁objection	-12.3422
▁Apresúrate	-12.3422
▁gritando	-12.3422
▁revelar	-12.3423
▁costoso	-12.3423
▁identif	-12.3423
▁melod	-12.3423
▁Enseñ	-12.3423
▁doubtful	-12.3423
▁disgustado	-12.3423
▁Continúa	-12.3423
▁Jesús	-12.3423
▁cachorro	-12.3423
▁cirujano	-12.3423
▁Fíj	-12.3423
▁muerde	-12.3423
▁intervened	-12.3423
▁realista	-12.3423
▁ahogarse	-12.3423
▁disculparse	-12.3423
▁rapidly	-12.3423
▁toast	-12.3424
▁defensa	-12.3424
▁daña	-12.3424
▁suene	-12.3424
▁darkness	-12.3424
▁choque	-12.3424
▁terminaste	-12.3425
▁nevará	-12.3425
▁sentimos	-12.3425
▁Llegaré	-12.3425
▁calentador	-12.3425
▁established	-12.3425
▁capturado	-12.3425
▁slower	-12.3425
▁subestimes	-12.3425
▁horizonte	-12.3425
▁sintiendo	-12.3426
▁copies	-12.3426
▁afilado	-12.3427
▁ahogó	-12.3427
▁matando	-12.3427
▁patada	-12.3427
omas	-12.3427
▁actualmente	-12.3427
▁comprando	-12.3427
nock	-12.3427
▁regañó	-12.3427
▁regularmente	-12.3427
▁misled	-12.3428
▁deprisa	-12.3428
▁regresará	-12.3428
▁lawyers	-12.3428
▁former	-12.3429
▁ci	-12.3429
▁careless	-12.3429
▁descalzo	-12.3429
▁derrotado	-12.343
▁amused	-12.343
▁divertirse	-12.343
▁ciertamente	-12.3431
▁stunning	-12.3431
▁spoiled	-12.3431
spare	-12.3432
▁bebas	-12.3432
▁culparía	-12.3432
▁tumbado	-12.3432
▁apagado	-12.3433
▁filete	-12.3433
▁apagaron	-12.3435
▁ji	-12.3435
▁arreglado	-12.3435
▁limited	-12.3435
▁díga	-12.3436
▁delivered	-12.3436
▁rompa	-12.3436
▁escaparon	-12.3437
▁perform	-12.3437
▁examined	-12.3437
▁besaron	-12.3437
▁celosa	-12.3438
▁soportarlo	-12.3439
▁adelanta	-12.3439
▁stingy	-12.344
▁criminales	-12.344
▁Long	-12.344
▁politely	-12.344
▁dibujar	-12.344
▁youngest	-12.3441
▁colgado	-12.3441
▁ruidoso	-12.3441
▁sorbo	-12.3441
▁alegrará	-12.3442
▁Existe	-12.3442
▁lavado	-12.3442
▁blowing	-12.3442
▁mago	-12.3443
▁alejado	-12.3443
▁criticize	-12.3443
▁athlete	-12.3443
▁confirmed	-12.3444
▁taxista	-12.3444
▁disgusted	-12.3445
▁Import	-12.3446
▁traditional	-12.3447
cakes	-12.3447
▁saldr	-12.3448
▁posibilidades	-12.3448
▁Sing	-12.3448
▁aceptaría	-12.3448
▁coge	-12.3449
▁referr	-12.345
▁satisfactoria	-12.3451
▁principales	-12.3451
▁behaved	-12.3453
▁tortugas	-12.3453
▁refieres	-12.3453
▁exacta	-12.3454
▁culpando	-12.3457
▁Use	-12.3458
▁prestarme	-12.3459
▁señaló	-12.3459
▁carbono	-12.3461
▁lesion	-12.3461
▁hipo	-12.3463
▁organized	-12.3463
▁Apart	-12.3463
Is	-12.3464
▁enseñado	-12.3464
▁Cometí	-12.3464
▁tame	-12.3464
▁Duerm	-12.3467
▁menores	-12.3469
▁hablemos	-12.3469
ador	-12.3471
▁marco	-12.3471
▁tool	-12.3472
▁errónea	-12.3473
▁marineros	-12.3475
▁sailors	-12.3475
▁tubo	-12.3475
▁escondidas	-12.3475
▁calmado	-12.3477
ire	-12.3479
▁creerle	-12.348
jera	-12.3481
▁landing	-12.3482
▁cared	-12.3485
▁bombarde	-12.3486
▁tomate	-12.3487
hone	-12.3488
ak	-12.3491
▁maní	-12.3491
▁Fire	-12.3493
▁supongo	-12.3493
▁jueguen	-12.3494
▁aceptad	-12.3496
▁palomas	-12.3497
▁interrumpas	-12.3497
enzo	-12.3499
▁shirts	-12.3499
▁patiently	-12.35
jó	-12.3501
▁Car	-12.3501
▁comunicar	-12.3502
▁amaré	-12.3503
▁Consegui	-12.3504
▁quebró	-12.3508
▁visitarte	-12.351
▁differently	-12.3511
▁escribirle	-12.3512
▁tenista	-12.352
▁congelado	-12.3523
▁reca	-12.3524
▁respects	-12.3525
▁mienten	-12.3528
▁jog	-12.3533
▁exceptional	-12.3538
▁distraer	-12.354
▁manda	-12.3543
▁meditar	-12.3544
▁rat	-12.3546
▁Norte	-12.355
▁hitch	-12.3557
▁mall	-12.3558
▁falt	-12.3559
▁exprimi	-12.356
▁mates	-12.356
▁tooth	-12.3567
▁load	-12.3572
▁alter	-12.3572
lena	-12.3577
▁oyes	-12.3582
iversidad	-12.3584
▁ganara	-12.359
▁fing	-12.3591
▁costear	-12.3593
▁Clean	-12.3593
▁coman	-12.3596
▁dejarme	-12.3604
▁Aliment	-12.3607
▁Indian	-12.3608
▁tomates	-12.361
▁Agarra	-12.3619
lia	-12.362
▁spiders	-12.363
▁vitamins	-12.363
▁antiques	-12.3631
▁vitaminas	-12.3632
ford	-12.3632
▁Fre	-12.3634
▁trabajamos	-12.3634
▁ira	-12.3635
fundió	-12.3635
▁resolv	-12.3639
▁granjeros	-12.3652
▁trucos	-12.3652
▁sentirá	-12.3656
▁abrirá	-12.3663
▁escrib	-12.3663
ogen	-12.3668
▁basta	-12.367
▁notable	-12.3672
▁robots	-12.3675
▁sheets	-12.3675
▁enti	-12.3676
▁taxis	-12.3677
▁Toca	-12.3682
▁ban	-12.3684
▁reuni	-12.3697
▁hog	-12.3709
▁consultar	-12.371
▁gradua	-12.371
aper	-12.3712
▁principiantes	-12.372
▁oídos	-12.3722
regó	-12.3724
▁cepilla	-12.3727
▁arresto	-12.3733
▁weighs	-12.3742
▁voluntarios	-12.3743
▁provocar	-12.3744
▁considerable	-12.375
▁doctora	-12.3752
▁freed	-12.3759
▁empeora	-12.3769
▁policías	-12.377
cimiento	-12.3776
▁Noel	-12.3778
▁drain	-12.3783
▁extendi	-12.3788
▁tanque	-12.379
nged	-12.3791
▁demands	-12.3797
▁hablaron	-12.3814
▁imitate	-12.3818
▁parara	-12.3819
▁vari	-12.3821
▁Oye	-12.3826
000	-12.3827
▁equivocados	-12.3829
▁cómodos	-12.3839
▁cru	-12.3844
tua	-12.3848
▁harán	-12.3855
▁medicamentos	-12.3856
▁cabras	-12.3856
▁sordos	-12.3856
▁gallinas	-12.3856
ko	-12.3866
▁triunf	-12.3869
▁plates	-12.3877
▁files	-12.388
ige	-12.3887
▁Limpi	-12.389
portable	-12.3894
▁regrets	-12.3897
▁ruins	-12.3899
ramos	-12.3902
ario	-12.3908
▁owned	-12.3922
▁pil	-12.3923
▁Ti	-12.3931
▁vengan	-12.3936
gle	-12.3937
osen	-12.395
idos	-12.3957
▁puertas	-12.3962
▁Regresa	-12.3966
▁avanz	-12.3969
▁canto	-12.3973
▁Llame	-12.3974
▁apresurar	-12.3976
ian	-12.3986
▁logr	-12.3987
▁leas	-12.3994
▁absorbe	-12.3996
▁Leo	-12.3997
ders	-12.4001
▁Sur	-12.4002
▁criminals	-12.4018
▁gr	-12.4024
ándolo	-12.4024
cked	-12.4025
▁admite	-12.4026
▁voices	-12.4035
▁Cuidar	-12.4036
émoslo	-12.4038
▁smiles	-12.4038
▁remembering	-12.405
▁copi	-12.4051
▁laws	-12.4064
▁Hága	-12.4066
▁vibra	-12.4073
▁Dejar	-12.4073
ase	-12.4081
▁deberá	-12.4085
▁boletos	-12.4088
▁vendrías	-12.4088
▁ne	-12.4091
▁pararon	-12.4093
▁rec	-12.4099
elt	-12.4128
uch	-12.4133
▁ayudá	-12.4134
▁afortunados	-12.4135
▁sec	-12.4139
▁manej	-12.4139
▁cercanos	-12.4155
▁intentions	-12.4158
▁Limpia	-12.4166
▁inventar	-12.4167
▁Pone	-12.4171
ino	-12.4173
▁regresa	-12.4179
W	-12.4204
▁partidos	-12.4222
▁conduces	-12.4229
aster	-12.4232
▁copias	-12.4237
▁skirts	-12.4253
▁cobra	-12.4257
▁pele	-12.4264
▁cuidadosos	-12.4277
lif	-12.4277
tained	-12.4279
▁elevado	-12.4279
▁bot	-12.4286
▁reform	-12.429
riendo	-12.429
▁tr	-12.4291
▁bites	-12.4293
▁theirs	-12.4296
ches	-12.4298
▁elegi	-12.4301
▁bro	-12.4301
▁fo	-12.4309
ificó	-12.4313
▁opinions	-12.4317
▁Abandon	-12.4321
▁muñecas	-12.4324
ache	-12.4329
nado	-12.4361
▁Quita	-12.4367
▁consulta	-12.437
oner	-12.4374
▁consumi	-12.4383
▁moments	-12.4385
▁Prueb	-12.44
▁Paga	-12.4401
▁weekends	-12.441
▁Responde	-12.4426
▁Ri	-12.4429
Vendrá	-12.4431
▁rob	-12.4431
▁fare	-12.4431
▁aves	-12.4435
▁Quedé	-12.4436
▁vendid	-12.4437
ittle	-12.4439
scal	-12.4452
▁Accident	-12.4452
▁wa	-12.4464
bul	-12.4468
nimals	-12.4468
▁idiots	-12.4471
▁oje	-12.4475
▁valioso	-12.4476
▁movimiento	-12.4476
▁cristiano	-12.4479
▁string	-12.4479
▁distinto	-12.448
▁docena	-12.4481
▁Christian	-12.4481
▁mascota	-12.4482
▁peligrosos	-12.4483
▁cuento	-12.4483
▁disparo	-12.4483
▁apuro	-12.4486
▁escuche	-12.4488
▁oreja	-12.4491
▁consecuencia	-12.4491
▁verdura	-12.4493
▁pista	-12.4493
▁nube	-12.4493
▁preocupe	-12.4494
tick	-12.45
tiende	-12.4501
▁impress	-12.4505
blando	-12.4509
▁codo	-12.4519
lin	-12.452
▁comemos	-12.452
▁ahorr	-12.4527
▁sock	-12.4529
▁reparti	-12.4531
ction	-12.4553
bimos	-12.456
▁estima	-12.4568
▁postul	-12.457
▁mon	-12.4581
tenga	-12.4585
▁Manda	-12.4586
rected	-12.4593
ij	-12.4597
▁male	-12.4597
Pasas	-12.4598
▁masa	-12.4598
▁oye	-12.4599
▁queríamos	-12.4607
uela	-12.4615
▁frases	-12.4616
confident	-12.4618
Entonces	-12.4619
▁pague	-12.4619
Oye	-12.462
Alguno	-12.462
May	-12.462
puede	-12.462
quién	-12.462
Voy	-12.462
▁combina	-12.4621
phone	-12.4621
▁Civil	-12.4622
▁carbon	-12.4623
pagué	-12.4624
10.	-12.4627
▁Bur	-12.4627
estás	-12.4628
Déjame	-12.4629
▁costo	-12.4629
▁apt	-12.463
▁agent	-12.4634
mbled	-12.4638
▁agradecer	-12.4639
ended	-12.464
Estará	-12.4642
dijo	-12.4643
▁Cocin	-12.4645
▁racist	-12.4645
▁annoy	-12.4645
▁mile	-12.4647
▁aparece	-12.4647
▁pl	-12.4649
▁compete	-12.4652
▁ceder	-12.4652
▁describir	-12.4654
▁deceive	-12.4654
▁modest	-12.4654
▁Stat	-12.4655
▁stretch	-12.4656
▁focus	-12.4656
▁spoil	-12.4656
▁offend	-12.4657
▁betray	-12.4657
▁freak	-12.4657
▁cabin	-12.4658
▁magnet	-12.4659
▁regar	-12.4661
▁frances	-12.4661
▁Segui	-12.4661
▁concentr	-12.4661
▁ingredient	-12.4663
▁accu	-12.4663
▁subestim	-12.4663
▁chaval	-12.4663
▁sharpen	-12.4665
▁compani	-12.4665
▁cheer	-12.4666
▁numb	-12.4667
▁plena	-12.4667
▁sucedie	-12.4668
▁murmur	-12.4668
cience	-12.4668
▁create	-12.4668
ventually	-12.4669
hower	-12.4669
▁inclina	-12.4669
raffic	-12.4669
▁Honest	-12.4669
▁anticipa	-12.4669
▁inferior	-12.4669
▁tendenc	-12.4669
▁knit	-12.4669
▁react	-12.4669
▁slave	-12.4669
▁cacahu	-12.4669
spiérta	-12.4669
athematics	-12.4669
abbits	-12.4669
▁exhilarat	-12.4669
▁obsolet	-12.4669
▁Consult	-12.4669
▁Sospech	-12.4669
▁acomod	-12.4669
▁cariño	-12.4669
▁contradict	-12.4669
▁differ	-12.4669
▁envidio	-12.4669
▁prosper	-12.4669
▁tempt	-12.4669
Conocé	-12.4669
lmorcé	-12.4669
▁Además	-12.4669
▁Beethoven	-12.4669
▁December	-12.4669
▁Dutch	-12.4669
▁Einstein	-12.4669
▁Embassy	-12.4669
▁Feder	-12.4669
▁Language	-12.4669
▁Madrid	-12.4669
▁Nagano	-12.4669
▁Nagoya	-12.4669
▁Nintendo	-12.4669
▁Nixon	-12.4669
▁OVNI	-12.4669
▁Posiblemente	-12.4669
▁Recientemente	-12.4669
▁Shibuya	-12.4669
▁Shinano	-12.4669
▁Strange	-12.4669
▁Tailandia	-12.4669
▁Thursday	-12.4669
▁Titanic	-12.4669
▁aburrimiento	-12.4669
▁advertencia	-12.4669
▁alemanes	-12.4669
▁amistosa	-12.4669
▁aprenda	-12.4669
▁apretar	-12.4669
▁arrancó	-12.4669
▁automático	-12.4669
▁bikini	-12.4669
▁blink	-12.4669
▁blunt	-12.4669
▁bunk	-12.4669
▁cadáver	-12.4669
▁cafeteria	-12.4669
▁calcetín	-12.4669
▁camiseta	-12.4669
▁cardíaco	-12.4669
▁cementerio	-12.4669
▁champú	-12.4669
▁chapter	-12.4669
▁chatarra	-12.4669
▁cintura	-12.4669
▁comience	-12.4669
▁conocés	-12.4669
▁crítico	-12.4669
▁cycling	-12.4669
▁cántaros	-12.4669
▁delfines	-12.4669
▁descartar	-12.4669
▁desconcertado	-12.4669
▁desnuda	-12.4669
▁despistado	-12.4669
▁destruida	-12.4669
▁diplomática	-12.4669
▁doorknob	-12.4669
▁enormous	-12.4669
▁esclavitud	-12.4669
▁espacial	-12.4669
▁explotó	-12.4669
▁firewood	-12.4669
▁forbidden	-12.4669
▁fractur	-12.4669
▁fundamental	-12.4669
▁fósforo	-12.4669
▁gambling	-12.4669
▁gloomy	-12.4669
▁guitarrista	-12.4669
▁haunted	-12.4669
▁hobbies	-12.4669
▁ileso	-12.4669
▁impresionar	-12.4669
▁incurable	-12.4669
▁inseparable	-12.4669
▁internet	-12.4669
▁irresponsable	-12.4669
▁jarrón	-12.4669
▁jueves	-12.4669
▁juventud	-12.4669
▁mariposa	-12.4669
▁ministro	-12.4669
▁monedero	-12.4669
▁monstruo	-12.4669
▁muelle	-12.4669
▁muñeco	-12.4669
▁narices	-12.4669
▁naughty	-12.4669
▁negative	-12.4669
▁negativo	-12.4669
▁neglect	-12.4669
▁niñita	-12.4669
▁nocturno	-12.4669
▁ovni	-12.4669
▁pathetic	-12.4669
▁peluquero	-12.4669
▁penicil	-12.4669
▁pertenencias	-12.4669
▁pilchas	-12.4669
▁pochoclo	-12.4669
▁policies	-12.4669
▁preocupo	-12.4669
▁privacy	-12.4669
▁proceso	-12.4669
▁pulsar	-12.4669
▁recibo	-12.4669
▁reconsider	-12.4669
▁respetuoso	-12.4669
▁revolution	-12.4669
▁ribbon	-12.4669
▁ridícula	-12.4669
▁rumbo	-12.4669
▁sauce	-12.4669
▁sidewalk	-12.4669
▁sleeve	-12.4669
▁snuggle	-12.4669
▁sobresaliente	-12.4669
▁sobrina	-12.4669
▁stroke	-12.4669
▁supply	-12.4669
▁temporal	-12.4669
▁testamento	-12.4669
▁thieves	-12.4669
▁toneladas	-12.4669
▁translating	-12.4669
▁tuviese	-12.4669
▁título	-12.4669
▁unnecessary	-12.4669
▁valiosa	-12.4669
▁vanidoso	-12.4669
▁vaqueros	-12.4669
▁virtud	-12.4669
▁virtue	-12.4669
▁voces	-12.4669
▁withdrew	-12.4669
▁Holanda	-12.4669
▁atascado	-12.4669
▁envíe	-12.4669
▁erigi	-12.4669
▁escondas	-12.4669
▁gramatical	-12.4669
▁intelligence	-12.4669
▁natación	-12.4669
▁oiga	-12.4669
▁probabilidad	-12.4669
▁repisa	-12.4669
▁sharing	-12.4669
▁tequila	-12.4669
▁uneasy	-12.4669
▁unwilling	-12.4669
▁Green	-12.4669
▁Obama	-12.4669
▁confront	-12.4669
▁encaja	-12.4669
▁grandpa	-12.4669
▁nasty	-12.4669
▁origen	-12.4669
▁waist	-12.4669
▁agricultura	-12.4669
▁automatically	-12.4669
▁calculadora	-12.4669
▁palillos	-12.4669
▁tradición	-12.4669
▁centim	-12.4669
▁destinad	-12.4669
▁jewelry	-12.4669
▁juzgue	-12.4669
értelo	-12.467
▁Thailand	-12.467
▁accurate	-12.467
▁amenazó	-12.467
▁departure	-12.467
▁máscara	-12.467
▁ninja	-12.467
▁tromb	-12.467
▁delicate	-12.467
▁monster	-12.467
▁muralla	-12.467
▁surface	-12.467
▁espantoso	-12.467
▁Croa	-12.467
▁algodón	-12.467
▁lipstick	-12.467
▁refugiados	-12.467
▁rutina	-12.467
▁tejiendo	-12.467
▁dinosaurio	-12.467
▁escondí	-12.467
▁iPod	-12.467
▁memories	-12.467
▁rational	-12.467
▁turtles	-12.467
▁ficción	-12.467
▁huracán	-12.467
▁consciencia	-12.467
▁dental	-12.467
▁fuéramos	-12.467
▁griega	-12.467
▁manteng	-12.467
▁sector	-12.467
▁workaholic	-12.467
▁entorno	-12.467
▁flojo	-12.467
▁loving	-12.467
▁descuidado	-12.467
▁invención	-12.467
▁merezco	-12.467
▁niego	-12.467
▁Vigil	-12.467
▁clue	-12.467
▁creative	-12.467
▁Drop	-12.467
▁Islam	-12.467
▁tremble	-12.467
▁percat	-12.467
▁griego	-12.467
▁sostiene	-12.467
▁traté	-12.467
▁strawberries	-12.467
▁ocurriendo	-12.467
▁abrazo	-12.467
▁Milk	-12.467
▁nacionalidad	-12.467
▁estallar	-12.467
▁Hope	-12.467
▁eliminar	-12.467
▁obtuve	-12.467
▁calculator	-12.467
▁Pruébate	-12.467
▁consciousness	-12.467
▁hacés	-12.467
▁exhibition	-12.467
▁activa	-12.467
▁agradecimiento	-12.467
▁automáticamente	-12.467
▁connection	-12.467
▁almorzado	-12.467
▁knitting	-12.467
▁guiso	-12.467
▁creés	-12.467
▁salesman	-12.467
▁Luck	-12.467
▁numero	-12.467
▁curb	-12.467
▁Recoge	-12.467
▁context	-12.467
▁agosto	-12.467
eliz	-12.467
▁construyeron	-12.467
▁estudié	-12.467
▁sunlight	-12.467
▁cupboard	-12.467
▁conversando	-12.467
▁bombones	-12.467
▁govern	-12.467
▁Step	-12.467
▁rebelde	-12.4671
▁aplicación	-12.4671
▁estableci	-12.4671
▁deadline	-12.4671
▁instalar	-12.4671
▁ballet	-12.4671
▁hervir	-12.4671
▁murmurando	-12.4671
▁reap	-12.4671
▁motion	-12.4671
▁attic	-12.4671
▁preocupaciones	-12.4671
▁existence	-12.4671
▁distingue	-12.4671
▁pronunciation	-12.4671
▁caramelo	-12.4671
▁partner	-12.4671
▁Ciertamente	-12.4671
▁perlas	-12.4671
▁title	-12.4671
uego	-12.4671
▁trasera	-12.4671
▁relajarse	-12.4672
▁cruce	-12.4672
▁Gast	-12.4672
▁community	-12.4672
▁chairman	-12.4672
semeja	-12.4672
▁sobrevivieron	-12.4672
▁critical	-12.4672
▁transmit	-12.4672
▁moderno	-12.4672
▁dependable	-12.4672
▁trade	-12.4672
▁interrumpió	-12.4672
Ven	-12.4673
▁mantendrá	-12.4673
inició	-12.4673
▁flock	-12.4673
▁motivado	-12.4673
▁beef	-12.4673
▁niece	-12.4673
▁liado	-12.4673
▁Adelante	-12.4673
▁alfabeto	-12.4673
▁seventy	-12.4674
▁furiosa	-12.4674
▁feriado	-12.4674
▁daily	-12.4674
▁policemen	-12.4674
▁disparado	-12.4674
UU	-12.4674
▁luchando	-12.4675
▁Uso	-12.4675
▁preso	-12.4675
▁helada	-12.4675
▁artificiales	-12.4675
▁bañando	-12.4675
▁fracasado	-12.4675
▁fuss	-12.4675
▁hip	-12.4675
▁Nik	-12.4676
▁temporary	-12.4676
▁prediction	-12.4676
▁voyage	-12.4676
▁carné	-12.4676
▁lazie	-12.4676
▁cepillo	-12.4676
▁salvado	-12.4676
▁firmemente	-12.4677
▁versión	-12.4677
▁ocurrirá	-12.4677
▁indignado	-12.4677
▁manual	-12.4677
▁mantel	-12.4677
▁Dinos	-12.4678
dney	-12.4678
▁Llevar	-12.4678
▁rodeos	-12.4678
▁pescando	-12.4678
▁version	-12.4678
▁mandado	-12.4678
▁costosa	-12.4678
▁Cold	-12.4679
elieve	-12.4679
▁Intent	-12.4679
▁robé	-12.4679
▁gata	-12.468
▁costaría	-12.468
▁click	-12.4681
▁signal	-12.4681
▁fabricado	-12.4681
▁ruego	-12.4681
▁Llegará	-12.4682
▁EE	-12.4682
▁estudie	-12.4682
▁observe	-12.4682
▁focused	-12.4683
▁corporal	-12.4683
▁Hacé	-12.4683
▁makeup	-12.4683
▁acostarte	-12.4685
▁fantástico	-12.4685
▁afterwards	-12.4686
▁Comenc	-12.4686
▁counter	-12.4686
▁caída	-12.4686
▁querrá	-12.4686
▁sugiero	-12.4686
▁delgada	-12.4687
▁fastest	-12.4687
▁ruta	-12.4687
▁Supu	-12.4688
▁presentarme	-12.4688
▁flute	-12.4688
▁absurda	-12.4689
▁navegar	-12.4689
▁invité	-12.469
▁accomplished	-12.469
▁visitarnos	-12.469
▁sillón	-12.469
▁corría	-12.4691
▁enfadarse	-12.4692
▁criticized	-12.4692
▁Cook	-12.4693
▁ajo	-12.4693
▁reserved	-12.4693
▁Perdimos	-12.4693
▁besarte	-12.4693
bérmelo	-12.4694
▁racista	-12.4694
▁evitarlo	-12.4697
▁varía	-12.4698
▁protegerte	-12.4699
▁moverse	-12.4699
▁perdonaré	-12.47
▁superficial	-12.47
▁Llévate	-12.4701
▁onions	-12.4703
▁Póngase	-12.4703
▁darker	-12.4704
▁pacientemente	-12.4704
▁desprecio	-12.4704
▁vuelan	-12.4704
▁funcionando	-12.4705
▁brillaba	-12.4707
▁quedaste	-12.4708
▁Bajo	-12.4709
▁tape	-12.4709
▁enlace	-12.4709
▁recog	-12.471
▁molestado	-12.471
gradecería	-12.471
▁ironing	-12.4712
▁visado	-12.4712
▁lifted	-12.4714
▁costado	-12.4714
▁cuidarte	-12.4715
▁pasteles	-12.4717
▁conflicto	-12.4719
▁salgamos	-12.4722
rying	-12.4722
▁terminamos	-12.4723
vious	-12.4724
▁hail	-12.4725
▁maintain	-12.4726
▁encontraremos	-12.4728
▁llamarlo	-12.473
▁terriblemente	-12.473
▁discute	-12.473
▁pagaron	-12.4731
▁runner	-12.4732
▁llegaremos	-12.4733
▁cacahuetes	-12.4733
▁Bear	-12.4734
▁obeyed	-12.4735
ple	-12.4737
▁poli	-12.4737
▁wealthy	-12.4739
▁terminaron	-12.474
▁explicaré	-12.4741
▁usarlo	-12.4741
Espera	-12.4742
▁periodo	-12.4742
▁relaxing	-12.4742
▁nadador	-12.4743
▁recupere	-12.4746
▁exacto	-12.4755
isen	-12.4757
▁galletitas	-12.4758
▁sábanas	-12.4758
▁colegas	-12.4758
▁llamarte	-12.4758
▁tango	-12.476
▁diferenciar	-12.476
going	-12.476
▁ganaría	-12.4761
▁observado	-12.4765
proxima	-12.4767
▁violento	-12.4769
▁armada	-12.4771
▁Describ	-12.4771
▁divid	-12.4773
illo	-12.4774
▁pino	-12.4775
▁discussing	-12.4781
▁preocupar	-12.4783
▁detiene	-12.4783
abe	-12.4784
vida	-12.4784
▁libras	-12.4785
▁goma	-12.4785
▁monta	-12.4786
▁llevé	-12.4789
▁pararme	-12.4789
▁jugaban	-12.4793
▁ganará	-12.4794
▁invento	-12.4795
ición	-12.4798
▁dormidos	-12.48
▁Canal	-12.4804
▁lees	-12.4809
▁seguiré	-12.4811
▁bones	-12.4816
▁provoca	-12.4823
▁heating	-12.4823
▁familiares	-12.4825
▁dejarle	-12.4827
▁mudo	-12.4828
▁mol	-12.4829
hea	-12.4829
stó	-12.4829
▁vean	-12.483
▁encontraría	-12.4832
▁levantan	-12.4832
▁confundid	-12.4834
▁parientes	-12.4834
▁Comienz	-12.4835
▁pegar	-12.4843
▁gray	-12.4845
▁ayudaron	-12.485
▁reported	-12.485
▁coast	-12.4852
▁competente	-12.4853
tenido	-12.4857
▁Levant	-12.4859
▁cuentos	-12.4859
▁disparos	-12.4859
▁pagaré	-12.4861
▁triple	-12.4866
▁camisas	-12.4874
oru	-12.4882
aid	-12.4884
▁affairs	-12.4885
▁pap	-12.489
▁fáciles	-12.4892
▁fra	-12.4904
▁halla	-12.491
▁víctimas	-12.491
▁pos	-12.4915
iente	-12.4916
fashioned	-12.492
Devuélveme	-12.4921
▁supera	-12.4923
▁Lava	-12.4923
▁limits	-12.4929
▁chatte	-12.4933
▁Estar	-12.4933
▁Terminar	-12.4935
▁entiendas	-12.4936
tivos	-12.4936
▁Comprendí	-12.494
▁reía	-12.4957
▁esperaré	-12.4959
▁archivos	-12.4961
▁blankets	-12.4961
▁ending	-12.4963
▁arriesga	-12.4965
fully	-12.4968
▁hoteles	-12.4977
▁marks	-12.4984
by	-12.4986
▁diamantes	-12.4987
yendo	-12.4988
▁cables	-12.4988
ientos	-12.4992
▁Encontr	-12.4994
▁tube	-12.4995
▁acord	-12.5009
▁goats	-12.5013
▁acos	-12.5019
▁sn	-12.5022
▁enterar	-12.5037
▁mosquitos	-12.504
▁arregle	-12.5044
▁receiv	-12.5045
▁cur	-12.5046
tors	-12.5047
Who	-12.5052
▁salty	-12.5055
▁ayudase	-12.5057
▁ache	-12.5064
vá	-12.5064
▁brains	-12.5065
▁sabrás	-12.5065
▁coste	-12.5073
jones	-12.5075
Escuchas	-12.5077
▁baj	-12.5086
▁proporcionar	-12.5089
▁picky	-12.5096
▁atrac	-12.5105
▁serlo	-12.5114
▁sacrifice	-12.5115
▁troubles	-12.5119
▁desorden	-12.512
▁k	-12.5123
entro	-12.5123
▁ayuden	-12.5126
▁morirá	-12.5128
▁destaca	-12.5132
▁conserva	-12.5134
▁negociar	-12.5139
▁Ho	-12.5139
▁Control	-12.514
▁detesta	-12.5142
▁copas	-12.5143
▁Comparti	-12.5148
▁strip	-12.5152
▁afeita	-12.516
▁castiga	-12.5162
▁asegura	-12.5166
▁conseguirá	-12.5167
▁disponibles	-12.517
▁parecidos	-12.517
▁desear	-12.5182
legó	-12.5182
▁hum	-12.5185
▁vencer	-12.5186
▁abusa	-12.5188
▁debts	-12.5196
parked	-12.5197
▁limpiara	-12.5207
sible	-12.5209
lip	-12.5212
▁bridges	-12.5226
▁humillad	-12.5241
▁Salg	-12.5242
▁limpie	-12.5243
▁esperan	-12.5258
ona	-12.528
▁travels	-12.5283
▁expresa	-12.529
▁training	-12.5293
▁produces	-12.5296
▁represent	-12.5296
▁fiestas	-12.5297
▁imports	-12.5306
ates	-12.5312
▁aspectos	-12.5329
▁confirmar	-12.5329
▁intent	-12.534
torio	-12.5347
rolled	-12.5349
▁interests	-12.5357
▁besado	-12.5358
▁ordenar	-12.5359
▁representa	-12.5367
▁investiga	-12.5368
▁Ah	-12.538
▁sigues	-12.5381
▁goals	-12.5383
▁im	-12.5384
▁apresur	-12.5389
▁empe	-12.5389
▁ignora	-12.5394
wed	-12.5397
▁maltrat	-12.5401
egro	-12.5409
▁aun	-12.541
▁garantiza	-12.5411
▁cuestionar	-12.5416
iré	-12.542
▁aspir	-12.5426
▁faults	-12.5437
▁doors	-12.5444
▁materials	-12.5455
▁fa	-12.5456
irte	-12.546
▁aconseja	-12.5464
chu	-12.5467
▁intentas	-12.5469
tely	-12.547
▁costar	-12.5473
vando	-12.5489
▁abiertos	-12.549
xed	-12.5495
▁escapa	-12.5498
▁Nation	-12.552
▁forth	-12.5521
▁manten	-12.5526
J	-12.5526
▁indicate	-12.5532
▁trans	-12.5544
▁chocolates	-12.5545
itos	-12.5545
▁limita	-12.5564
ático	-12.557
▁afueras	-12.5571
▁mensajes	-12.5572
▁faltan	-12.5586
▁Australian	-12.559
val	-12.5594
ark	-12.561
▁Vivir	-12.5613
▁barri	-12.5624
puso	-12.5631
▁tomara	-12.5647
▁Bra	-12.565
▁blancas	-12.5655
▁caballeros	-12.5655
▁holes	-12.5655
▁Logr	-12.5659
▁fondos	-12.5666
▁Nosotr	-12.5668
▁inso	-12.5675
ondas	-12.5682
tendió	-12.5689
gué	-12.5696
preció	-12.5699
▁bombs	-12.5701
night	-12.5702
▁forms	-12.5706
▁celebr	-12.571
▁raises	-12.5712
▁mina	-12.5714
sant	-12.5717
▁Work	-12.5724
▁gu	-12.5729
Deb	-12.5734
▁altas	-12.5737
▁coro	-12.5739
▁Arm	-12.5739
icen	-12.5739
▁salva	-12.5745
stén	-12.5745
▁console	-12.5746
▁Suda	-12.5752
▁reí	-12.5756
▁rescatar	-12.5764
▁Lé	-12.5766
Bebes	-12.5772
▁dolls	-12.5792
▁flights	-12.5794
▁mereces	-12.5794
▁uniform	-12.5798
▁distin	-12.5805
▁basa	-12.5807
▁burla	-12.5808
▁añadi	-12.581
▁misa	-12.5817
▁puntos	-12.5826
▁enfrenta	-12.5832
▁Cen	-12.5833
meter	-12.5834
▁Abo	-12.5837
ai	-12.5841
▁Permít	-12.5841
fortunate	-12.5841
like	-12.5841
▁exists	-12.5846
▁ships	-12.5847
▁Cam	-12.5853
▁mejore	-12.5867
▁Enc	-12.5868
▁tierras	-12.5878
▁encarg	-12.5886
▁hack	-12.5896
▁pal	-12.5896
eño	-12.5904
▁anuncio	-12.5904
▁avance	-12.5904
▁candidate	-12.5906
▁observa	-12.5906
▁liberado	-12.5906
▁graciosa	-12.5907
▁levante	-12.5908
▁lavarropa	-12.591
bló	-12.5911
▁pariente	-12.5914
▁huella	-12.5915
▁remark	-12.5915
▁brake	-12.5916
▁estampilla	-12.5916
▁includ	-12.5917
▁crop	-12.5918
▁peanut	-12.592
▁británico	-12.592
▁mueble	-12.5922
▁clavo	-12.5925
lways	-12.5929
▁panda	-12.593
tiene	-12.5932
▁formar	-12.5934
▁pregunt	-12.5937
▁encontrará	-12.5939
▁Odia	-12.5943
▁milla	-12.5946
▁Oig	-12.5953
▁atender	-12.5954
▁estornud	-12.5956
ebra	-12.5958
▁crí	-12.596
▁vota	-12.5964
▁tin	-12.5973
▁lip	-12.5978
▁cantantes	-12.5992
▁sentís	-12.5994
▁singers	-12.5997
▁exhibi	-12.5998
▁transporte	-12.5998
podrías	-12.6
▁contesta	-12.6003
▁Cambi	-12.6008
▁instant	-12.6008
▁sigh	-12.6008
▁Star	-12.6012
iguieron	-12.6026
▁calculat	-12.6027
▁resfri	-12.6029
▁aprueb	-12.6034
▁irrelevant	-12.6035
hand	-12.6036
▁viví	-12.604
U	-12.604
▁escabull	-12.6043
Buen	-12.6044
flexible	-12.6045
Hola	-12.6046
▁respir	-12.6047
▁traig	-12.6047
successful	-12.6048
Fue	-12.6048
skirt	-12.6048
▁Vuestr	-12.6048
Thank	-12.6049
minute	-12.6049
Había	-12.6049
write	-12.6049
▁cerradas	-12.6049
▁compulsiv	-12.6049
ulated	-12.6049
▁acaban	-12.6049
Oj	-12.6049
Mi	-12.605
saw	-12.605
▁hoyo	-12.6051
cile	-12.6053
vino	-12.6053
▁du	-12.6056
▁gene	-12.6057
▁tí	-12.6059
▁tradition	-12.6063
▁instal	-12.6064
fit	-12.6065
▁necessar	-12.6068
▁valle	-12.6069
Vosotr	-12.6072
▁Imagin	-12.6073
▁entendi	-12.6074
▁plea	-12.6077
▁navega	-12.6077
▁encontraré	-12.608
▁socio	-12.608
▁disguise	-12.6083
▁involve	-12.6083
▁afila	-12.6085
▁fascina	-12.6085
▁struggle	-12.6085
▁contribute	-12.6088
▁indigna	-12.6089
▁wink	-12.6089
utter	-12.609
▁Contra	-12.6091
▁traductor	-12.6091
▁artificial	-12.6092
▁mastica	-12.6092
▁swor	-12.6093
▁flota	-12.6093
▁interrumpir	-12.6094
▁adecuada	-12.6095
struyó	-12.6096
▁chase	-12.6096
ptim	-12.6096
▁US	-12.6096
▁central	-12.6097
▁empac	-12.6097
▁logic	-12.6097
cript	-12.6097
▁Big	-12.6097
▁opone	-12.6098
▁calendar	-12.6098
▁separar	-12.6098
fríe	-12.6098
▁futbol	-12.6098
▁reflect	-12.6098
nvité	-12.6098
lueve	-12.6098
▁chantaje	-12.6098
▁descifr	-12.6098
óxido	-12.6098
▁Airport	-12.6098
▁Alexand	-12.6098
▁Apunta	-12.6098
▁Cuídate	-12.6098
▁DNA	-12.6098
▁Examine	-12.6098
▁Express	-12.6098
▁Netherlands	-12.6098
▁Nochebuena	-12.6098
▁Obviously	-12.6098
▁Promise	-12.6098
▁Relájate	-12.6098
▁Repentinamente	-12.6098
▁Valentín	-12.6098
▁acertijo	-12.6098
▁ahorita	-12.6098
▁ambiente	-12.6098
▁angusti	-12.6098
▁apoyes	-12.6098
▁archaeologist	-12.6098
▁asesinó	-12.6098
▁astronomía	-12.6098
▁attribute	-12.6098
▁australiano	-12.6098
▁babysitter	-12.6098
▁banquero	-12.6098
▁bargain	-12.6098
▁batteries	-12.6098
▁benefit	-12.6098
▁bulb	-12.6098
▁calefacción	-12.6098
▁calurosa	-12.6098
▁carcajada	-12.6098
▁carpenter	-12.6098
▁catálogo	-12.6098
▁cenizas	-12.6098
▁chofer	-12.6098
▁chopsticks	-12.6098
▁cirugía	-12.6098
▁comestibles	-12.6098
▁compleja	-12.6098
▁conducción	-12.6098
▁confidencial	-12.6098
▁cotton	-12.6098
▁cradle	-12.6098
▁decepción	-12.6098
▁democracia	-12.6098
▁deshonesto	-12.6098
▁despierte	-12.6098
▁destruido	-12.6098
▁devorado	-12.6098
▁devuelto	-12.6098
▁dictionaries	-12.6098
▁dishonest	-12.6098
▁divertiste	-12.6098
▁duties	-12.6098
▁efficient	-12.6098
▁elevó	-12.6098
▁embajador	-12.6098
▁emoción	-12.6098
▁encantó	-12.6098
▁encerrado	-12.6098
▁entendemos	-12.6098
▁entusiasmo	-12.6098
▁equivoqué	-12.6098
▁errand	-12.6098
▁esperándote	-12.6098
▁estrelló	-12.6098
▁estupideces	-12.6098
▁exactitud	-12.6098
▁expliqué	-12.6098
▁fabuloso	-12.6098
▁farmacia	-12.6098
▁fatiga	-12.6098
▁flies	-12.6098
▁folk	-12.6098
▁fountain	-12.6098
▁fregadero	-12.6098
▁garlic	-12.6098
▁hiciéramos	-12.6098
▁hidrógeno	-12.6098
▁hierve	-12.6098
▁hurricane	-12.6098
▁hígado	-12.6098
▁industry	-12.6098
▁infarto	-12.6098
▁inhabitants	-12.6098
▁inspired	-12.6098
▁instinto	-12.6098
▁inversión	-12.6098
▁irresponsible	-12.6098
▁italiana	-12.6098
▁jungle	-12.6098
▁lastimé	-12.6098
▁lechuga	-12.6098
▁lettuce	-12.6098
▁limón	-12.6098
▁mammal	-12.6098
▁mamífero	-12.6098
▁mankind	-12.6098
▁nacido	-12.6098
▁nocturna	-12.6098
▁padrastro	-12.6098
▁palomitas	-12.6098
▁panadería	-12.6098
▁peculiar	-12.6098
▁perfección	-12.6098
▁pickpocket	-12.6098
▁portugués	-12.6098
▁positivo	-12.6098
▁promising	-12.6098
▁psiquiatra	-12.6098
▁pulmón	-12.6098
▁questionnaire	-12.6098
▁receipt	-12.6098
▁recibe	-12.6098
▁romántica	-12.6098
▁sartén	-12.6098
▁satellite	-12.6098
▁satisfacer	-12.6098
▁satélite	-12.6098
▁scandal	-12.6098
▁signature	-12.6098
▁slim	-12.6098
▁slump	-12.6098
▁snoring	-12.6098
▁sorrow	-12.6098
▁souvenir	-12.6098
▁stadium	-12.6098
▁stranded	-12.6098
▁stream	-12.6098
▁sunbathing	-12.6098
▁survivor	-12.6098
▁sólida	-12.6098
▁sótano	-12.6098
▁telescope	-12.6098
▁telescopio	-12.6098
▁temperamento	-12.6098
▁tournament	-12.6098
▁tripulación	-12.6098
▁troops	-12.6098
▁tropez	-12.6098
▁vacuum	-12.6098
▁veinticinco	-12.6098
▁vergonzoso	-12.6098
▁vuelvo	-12.6098
▁wisdom	-12.6098
▁yield	-12.6098
▁Acorda	-12.6098
▁Feel	-12.6098
▁Muéstre	-12.6098
▁Tráiga	-12.6098
▁Venecia	-12.6098
▁YouTube	-12.6098
▁alcance	-12.6098
▁diligent	-12.6098
▁inseguro	-12.6098
▁intersection	-12.6098
▁intimida	-12.6098
▁picó	-12.6098
▁quebrado	-12.6098
▁rebaja	-12.6098
▁simpatía	-12.6098
▁spouse	-12.6098
▁unattended	-12.6098
▁Detente	-12.6098
▁Report	-12.6098
▁Roja	-12.6098
▁agitó	-12.6098
▁belief	-12.6098
▁cafe	-12.6098
▁criticism	-12.6098
▁flipp	-12.6098
▁gesto	-12.6098
▁grueso	-12.6098
▁hydr	-12.6098
▁intenso	-12.6098
▁ofender	-12.6098
▁sequía	-12.6098
▁tasty	-12.6098
▁Levánta	-12.6098
▁Natur	-12.6098
▁diplomatic	-12.6098
▁exceso	-12.6098
▁sociable	-12.6098
Cola	-12.6098
▁Palace	-12.6098
▁communication	-12.6098
▁compasión	-12.6098
▁dispers	-12.6098
▁proposición	-12.6098
▁secure	-12.6098
▁tobacco	-12.6098
▁técnica	-12.6098
▁contagiosa	-12.6098
▁damp	-12.6098
▁culpó	-12.6098
▁disputa	-12.6098
▁silenciosamente	-12.6098
▁wreck	-12.6098
▁cooperation	-12.6098
▁inténtalo	-12.6098
▁outcome	-12.6098
▁representative	-12.6098
▁setenta	-12.6098
▁Luckily	-12.6098
▁accountant	-12.6098
▁distraído	-12.6098
▁espinacas	-12.6098
▁torneo	-12.6098
▁widow	-12.6098
▁allegation	-12.6098
▁Pardon	-12.6098
▁estadio	-12.6098
▁meditating	-12.6098
▁quote	-12.6098
▁termino	-12.6098
▁doorbell	-12.6098
▁educated	-12.6098
▁racional	-12.6098
▁afición	-12.6098
▁despejar	-12.6098
▁platform	-12.6098
▁Britain	-12.6098
▁ardilla	-12.6098
▁bruja	-12.6098
▁foul	-12.6098
▁magician	-12.6098
▁Cuelg	-12.6098
▁edge	-12.6098
▁psychiatrist	-12.6098
▁cayeron	-12.6098
▁Conducir	-12.6098
▁Nació	-12.6098
▁calificaciones	-12.6098
▁shark	-12.6098
▁dominio	-12.6098
▁cesta	-12.6098
▁entendiera	-12.6098
rupción	-12.6098
▁watermelon	-12.6098
▁espina	-12.6098
▁rudo	-12.6098
▁sacudirse	-12.6098
▁parallel	-12.6098
▁calendario	-12.6098
▁pecado	-12.6098
▁vestir	-12.6098
▁haciéndolo	-12.6098
▁proverbio	-12.6098
▁Human	-12.6098
▁carelessness	-12.6098
▁reflexionar	-12.6098
▁tabla	-12.6098
▁barrer	-12.6098
▁pesimista	-12.6098
▁sorda	-12.6098
▁Quiet	-12.6098
▁crane	-12.6098
▁estrés	-12.6098
▁humid	-12.6098
▁temblando	-12.6098
rang	-12.6098
▁aéreo	-12.6098
▁factories	-12.6098
▁bakery	-12.6098
▁Alps	-12.6098
▁handbag	-12.6098
▁River	-12.6098
▁ingresar	-12.6098
▁Filipino	-12.6098
▁anticipated	-12.6098
▁objective	-12.6099
▁nationality	-12.6099
▁torpe	-12.6099
▁enseñanza	-12.6099
▁cartero	-12.6099
▁intensa	-12.6099
▁fíe	-12.6099
▁disappointment	-12.6099
▁misteriosa	-12.6099
▁regañado	-12.6099
▁gravedad	-12.6099
▁hormigas	-12.6099
▁categoría	-12.6099
▁realistic	-12.6099
▁aparcado	-12.6099
▁regalado	-12.6099
▁podrido	-12.6099
▁barcos	-12.6099
▁interferir	-12.6099
▁proverb	-12.6099
▁fiddle	-12.6099
▁unbearable	-12.6099
▁actuación	-12.6099
▁apresurado	-12.6099
▁fulfill	-12.6099
▁villagers	-12.6099
▁Háblame	-12.6099
▁pudiéramos	-12.6099
▁almorzamos	-12.6099
▁pronunciación	-12.6099
▁florece	-12.6099
▁vigilando	-12.6099
▁Saqué	-12.6099
▁fatter	-12.6099
▁ojeada	-12.6099
▁pulsera	-12.6099
▁fled	-12.6099
▁especie	-12.6099
▁desempleado	-12.6099
▁function	-12.6099
▁entregué	-12.61
▁reclam	-12.61
▁Jur	-12.61
▁vanished	-12.61
▁separó	-12.61
▁arduamente	-12.61
▁regardless	-12.61
▁bailarín	-12.61
▁airmail	-12.61
▁comic	-12.61
▁passage	-12.61
▁humanity	-12.61
▁trajiste	-12.61
▁patients	-12.61
vinc	-12.61
▁Divid	-12.61
▁elija	-12.61
▁Hide	-12.6101
▁minerales	-12.6101
▁ahogando	-12.6101
prendieron	-12.6101
▁philosophy	-12.6101
▁shortage	-12.6101
▁significant	-12.6101
▁destrozado	-12.6101
▁Sentate	-12.6101
▁aventón	-12.6101
▁contaste	-12.6101
▁alcoholic	-12.6101
▁salsa	-12.6101
▁hotter	-12.6101
▁Asians	-12.6101
▁disfrazado	-12.6101
▁gris	-12.6101
▁doblar	-12.6102
▁arco	-12.6102
▁graduarse	-12.6102
▁cocido	-12.6102
▁Ski	-12.6102
▁defectuoso	-12.6102
▁dentífrico	-12.6102
▁especialidad	-12.6102
▁existir	-12.6102
▁dimitir	-12.6102
▁tomato	-12.6102
▁suertudo	-12.6102
▁fist	-12.6102
▁contratado	-12.6102
▁entraste	-12.6103
▁evitando	-12.6103
employment	-12.6103
▁Súbe	-12.6103
▁Venice	-12.6103
▁mataste	-12.6103
▁ligeramente	-12.6103
▁specific	-12.6103
▁speechless	-12.6103
▁maleducado	-12.6103
▁estupendamente	-12.6103
▁vengo	-12.6103
▁fracasó	-12.6103
▁leíste	-12.6104
▁secuestrado	-12.6104
▁vestirse	-12.6104
▁snowman	-12.6104
▁noviembre	-12.6104
▁escondiste	-12.6104
▁innecesario	-12.6104
▁frustrado	-12.6104
▁ticking	-12.6104
▁obligaron	-12.6104
▁Mostrame	-12.6104
▁instantly	-12.6104
▁perdonará	-12.6105
▁comparto	-12.6105
▁recordado	-12.6105
▁gané	-12.6105
▁patas	-12.6105
▁worthless	-12.6105
▁repetirlo	-12.6105
▁sucederá	-12.6106
▁manejando	-12.6106
▁nacionales	-12.6107
▁sickness	-12.6107
▁childish	-12.6107
▁untied	-12.6107
▁dispararon	-12.6107
▁preparados	-12.6107
▁conquer	-12.6107
▁Boys	-12.6107
▁Seven	-12.6107
▁conocerla	-12.6108
▁opuesto	-12.6108
▁sailing	-12.6108
▁retirarse	-12.6108
▁Tira	-12.6109
▁barra	-12.6109
▁fama	-12.6109
▁examinar	-12.6109
▁jardinero	-12.6109
▁mona	-12.611
▁implicado	-12.611
▁descuido	-12.611
▁extraordinario	-12.611
▁commander	-12.6111
▁tender	-12.6111
▁crecido	-12.6111
▁admiro	-12.6112
▁print	-12.6112
▁indefenso	-12.6112
▁reímos	-12.6112
▁basis	-12.6112
▁duck	-12.6112
Estaría	-12.6113
Hablaste	-12.6113
▁abro	-12.6113
▁prestada	-12.6113
▁alley	-12.6113
▁update	-12.6113
▁dull	-12.6113
010.	-12.6114
▁quemando	-12.6114
▁Queen	-12.6114
▁estribos	-12.6114
▁villancicos	-12.6114
▁tag	-12.6114
▁cansando	-12.6115
▁loaded	-12.6115
▁Huel	-12.6116
▁spying	-12.6116
▁insiste	-12.6116
▁orilla	-12.6116
▁arrestada	-12.6116
▁paseando	-12.6117
▁competed	-12.6117
▁desarrollo	-12.6117
▁atraviesa	-12.6117
▁captured	-12.6117
▁surf	-12.6117
▁capacidades	-12.6118
▁lejano	-12.6118
▁ripe	-12.6118
▁entretenido	-12.6118
▁phrase	-12.6119
▁viajero	-12.6119
▁Calm	-12.6119
sterna	-12.612
▁despedirse	-12.6121
▁barked	-12.6122
▁consideraría	-12.6122
▁triunfará	-12.6122
▁subieron	-12.6123
▁Cuba	-12.6123
[...]
